<pad>	0
<s>	0
</s>	0
<unk>	0
s	-3.55387
.	-3.61983
,	-3.72113
▁the	-3.82595
▁and	-4.31237
:	-4.33072
▁of	-4.38342
▁in	-4.53489
▁to	-4.56201
▁a	-4.68363
▁-	-4.82176
-	-4.84411
▁for	-4.89904
▁	-5.07028
)	-5.2228
▁(	-5.28378
▁with	-5.29318
▁is	-5.38212
▁on	-5.57084
d	-5.64257
ing	-5.67092
▁from	-5.72237
a	-5.74624
▁hotel	-5.75431
▁by	-5.80452
/	-5.83668
▁you	-5.83899
ed	-5.86378
▁_	-5.88633
▁1	-5.91548
▁your	-5.96803
e	-6.01842
'	-6.07728
▁at	-6.12232
t	-6.12796
m	-6.13323
▁are	-6.13336
▁2	-6.15074
?	-6.20056
o	-6.22061
▁/	-6.22358
▁3	-6.22553
▁&	-6.23651
▁all	-6.2432
▁or	-6.24402
r	-6.281
n	-6.302
er	-6.30479
c	-6.32454
▁be	-6.33359
▁i	-6.3378
▁>	-6.35472
▁it	-6.3674
i	-6.37095
▁can	-6.38513
▁our	-6.41507
▁home	-6.43676
!	-6.48102
y	-6.48784
l	-6.50506
▁4	-6.50585
▁we	-6.53195
x	-6.5429
g	-6.54914
▁5	-6.5589
▁an	-6.55941
2	-6.57052
b	-6.5725
▁new	-6.57993
▁this	-6.59882
▁products	-6.60201
p	-6.65093
▁as	-6.6896
;	-6.69633
ly	-6.69995
k	-6.72109
f	-6.73224
in	-6.74023
v	-6.74203
w	-6.74366
th	-6.77169
▁10	-6.78033
▁no	-6.79002
▁s	-6.79462
▁more	-6.79514
▁that	-6.81595
com	-6.8243
▁was	-6.83004
▁:	-6.84064
al	-6.85011
"	-6.86146
▁"	-6.86543
3	-6.88595
▁will	-6.90815
▁us	-6.90913
h	-6.91392
it	-6.9149
▁b	-6.91657
▁free	-6.92277
1	-6.93935
▁not	-6.93967
▁m	-6.94344
▁6	-6.94547
▁how	-6.96084
▁e	-6.96586
mm	-6.97225
▁about	-6.9741
▁2019	-6.98241
...	-6.98639
▁do	-7.00543
▁have	-7.01802
▁price	-7.02035
4	-7.02738
es	-7.06749
▁time	-7.08076
▁p	-7.0847
▁high	-7.09213
▁he	-7.09554
▁2018	-7.12097
▁what	-7.13351
▁8	-7.14107
▁use	-7.15088
▁contact	-7.15261
▁c	-7.1567
▁x	-7.16094
▁12	-7.17098
re	-7.17247
▁one	-7.17614
▁7	-7.17787
▁re	-7.19129
▁19	-7.19138
▁up	-7.19549
▁product	-7.20744
5	-7.20755
(	-7.21324
▁years	-7.2223
▁car	-7.22406
▁data	-7.23246
▁ago	-7.23485
▁information	-7.2452
▁20	-7.25108
▁per	-7.25507
▁machine	-7.26217
▁t	-7.26364
▁room	-7.28342
▁15	-7.28645
▁18	-7.29632
▁d	-7.32238
to	-7.32774
▁design	-7.32847
▁bed	-7.33086
▁hotels	-7.33287
▁g	-7.33315
▁service	-7.35048
▁has	-7.35613
_	-7.36189
▁live	-7.36789
▁2017	-7.36893
▁italy	-7.36957
▁online	-7.37604
▁de	-7.37912
en	-7.37923
▁now	-7.38137
or	-7.38254
le	-7.38258
z	-7.38627
▁system	-7.40281
▁other	-7.40479
▁best	-7.40912
▁china	-7.40991
▁my	-7.41549
▁quality	-7.41904
▁9	-7.41977
▁model	-7.4242
▁,	-7.43611
▁site	-7.45397
▁black	-7.45403
6	-7.45729
8	-7.461
co	-7.46318
u	-7.46391
▁0	-7.46778
▁first	-7.47352
▁size	-7.48127
▁may	-7.4857
▁day	-7.48888
▁available	-7.49034
▁+	-7.49036
ra	-7.50828
▁water	-7.5148
▁website	-7.51822
▁30	-7.52742
▁power	-7.53193
▁steel	-7.53793
▁if	-7.53849
▁white	-7.55131
▁l	-7.55766
▁h	-7.55835
na	-7.55895
▁airport	-7.56557
on	-7.5752
▁16	-7.57846
▁there	-7.57883
▁number	-7.57944
▁here	-7.58009
▁out	-7.58401
▁n	-7.58425
▁v	-7.58709
▁apartments	-7.59034
▁24	-7.59321
▁la	-7.59729
▁also	-7.60309
▁video	-7.60418
▁policy	-7.60841
▁privacy	-7.61195
▁f	-7.61217
▁city	-7.61354
ia	-7.62065
▁color	-7.62377
▁view	-7.62443
7	-7.62499
▁co	-7.63061
st	-7.63591
▁light	-7.63747
▁air	-7.63966
▁name	-7.64026
▁get	-7.64418
▁download	-7.64682
▁his	-7.66008
▁code	-7.66613
]	-7.66866
▁year	-7.66872
▁type	-7.67561
▁world	-7.68561
▁special	-7.68927
▁km	-7.6913
▁any	-7.69237
de	-7.69859
▁services	-7.70578
us	-7.70833
▁11	-7.71308
*	-7.71369
▁area	-7.71572
▁house	-7.71614
▁like	-7.71894
▁[	-7.71961
▁so	-7.72026
no	-7.72231
▁italian	-7.72407
▁di	-7.72508
▁two	-7.72519
▁breakfast	-7.72849
▁news	-7.72938
▁25	-7.73374
30	-7.73661
▁14	-7.73705
te	-7.73792
▁13	-7.74073
ch	-7.7436
10	-7.74519
#	-7.74604
▁only	-7.74641
ro	-7.74661
▁led	-7.74734
▁find	-7.74933
ma	-7.75031
▁rights	-7.7514
▁beach	-7.75697
▁book	-7.75732
an	-7.75929
&	-7.76362
▁art	-7.76462
▁manufacturer	-7.76497
j	-7.76859
▁rooms	-7.76966
▁2016	-7.77066
>	-7.7743
9	-7.77759
▁which	-7.78124
ta	-7.78431
▁double	-7.78626
▁page	-7.79746
▁me	-7.79848
▁reserved	-7.79932
la	-7.80385
▁company	-7.80452
▁after	-7.81221
▁its	-7.81636
▁work	-7.81908
▁open	-7.8224
▁good	-7.825
▁bar	-7.82672
▁last	-7.82708
▁over	-7.82725
▁set	-7.82788
▁control	-7.82972
▁days	-7.83111
▁*	-7.83298
ca	-7.83442
▁see	-7.83925
▁r	-7.83964
li	-7.84248
▁17	-7.8527
▁apartment	-7.8584
▁minutes	-7.86013
▁made	-7.86514
▁50	-7.86574
▁sale	-7.86585
me	-7.8668
▁international	-7.87085
▁support	-7.87305
▁center	-7.8794
▁copyright	-7.88053
il	-7.88233
▁material	-7.89778
ic	-7.90262
ers	-7.9035
▁(1	-7.90394
▁mm	-7.90483
▁group	-7.90631
able	-7.90706
▁am	-7.90827
@	-7.91048
▁pro	-7.91077
▁top	-7.91183
▁go	-7.91227
▁when	-7.91482
▁holiday	-7.91523
▁please	-7.91822
▁most	-7.92135
▁sex	-7.92338
is	-7.93325
▁business	-7.93478
▁w	-7.93787
▁but	-7.94484
ne	-7.94562
▁full	-7.94832
▁offers	-7.95193
ion	-7.95323
▁k	-7.95342
▁used	-7.95456
▁order	-7.95939
0	-7.96229
▁phone	-7.96473
▁make	-7.96729
+	-7.97317
ti	-7.98874
▁list	-7.98971
▁box	-7.99019
▁...	-7.99436
▁who	-7.99727
▁+39	-7.99727
ri	-7.99799
▁web	-8.00026
▁man	-8.00027
▁info	-8.00065
▁sea	-8.00188
▁her	-8.00369
▁check	-8.00371
▁2.	-8.00632
40	-8.0099
▁st	-8.01148
▁map	-8.01644
▁100	-8.01649
20	-8.01683
ar	-8.01793
▁old	-8.01847
▁#	-8.02207
▁food	-8.02241
▁back	-8.02396
▁spa	-8.02411
▁1.	-8.02761
▁park	-8.02774
▁date	-8.0284
the	-8.02966
%	-8.0353
ni	-8.04227
▁long	-8.04564
▁oil	-8.04838
▁tel	-8.05054
▁large	-8.05102
at	-8.0514
▁red	-8.05399
▁un	-8.0583
ation	-8.06114
▁read	-8.06127
▁villa	-8.06271
▁children	-8.06621
▁line	-8.06702
▁people	-8.06787
▁2015	-8.07032
▁22	-8.07279
▁part	-8.07455
▁within	-8.07528
▁cm	-8.07625
▁their	-8.07646
12	-8.07715
go	-8.07793
▁where	-8.07826
▁guests	-8.08028
▁life	-8.08154
▁events	-8.08441
▁single	-8.08718
star	-8.08783
▁san	-8.08932
▁production	-8.09275
▁family	-8.09358
25	-8.0937
▁hot	-8.094
▁play	-8.09499
▁official	-8.09987
▁search	-8.10036
▁place	-8.10735
▁than	-8.10869
ry	-8.11052
▁2020	-8.11171
mo	-8.11276
60	-8.11371
▁al	-8.11496
▁request	-8.11578
▁blue	-8.11695
▁21	-8.11729
▁september	-8.12121
01	-8.12263
da	-8.12379
▁factory	-8.12507
▁personal	-8.1297
15	-8.12995
▁english	-8.13191
▁equipment	-8.13319
18	-8.13377
▁stay	-8.13494
19	-8.1372
di	-8.14121
pa	-8.14156
▁offer	-8.14159
▁description	-8.14166
▁project	-8.14274
▁small	-8.14368
▁following	-8.14413
▁hours	-8.14414
ity	-8.14435
man	-8.14468
▁cookies	-8.14601
▁$	-8.14934
▁metal	-8.15284
▁april	-8.15724
11	-8.15758
90	-8.15969
▁show	-8.16007
▁add	-8.16119
▁october	-8.1643
▁take	-8.16799
▁drive	-8.16964
▁into	-8.17302
▁some	-8.17504
▁easy	-8.17509
▁3.	-8.17752
50	-8.18228
▁they	-8.18609
▁june	-8.18725
▁very	-8.19027
14	-8.19244
▁access	-8.19472
ga	-8.19692
lo	-8.19767
▁u	-8.20238
▁months	-8.20259
▁click	-8.20316
▁file	-8.2056
ba	-8.20641
▁plastic	-8.20742
el	-8.20831
▁total	-8.20969
▁visit	-8.21006
00	-8.21013
▁want	-8.21089
80	-8.21282
▁le	-8.21295
▁need	-8.21341
per	-8.21409
▁o	-8.21779
▁discover	-8.22124
▁choose	-8.22149
▁game	-8.22319
mi	-8.22439
▁23	-8.22891
▁under	-8.22943
▁private	-8.23102
▁parts	-8.23185
▁management	-8.23243
▁march	-8.23387
up	-8.23513
▁green	-8.23533
▁photo	-8.23668
▁resort	-8.23673
▁rome	-8.23879
▁card	-8.23992
▁en	-8.24133
▁amateur	-8.24165
▁wine	-8.24292
▁email	-8.24565
17	-8.25059
▁been	-8.2507
▁mar	-8.25245
▁team	-8.25421
age	-8.25538
▁40	-8.25547
▁4.	-8.25582
▁buy	-8.25868
▁via	-8.2601
▁right	-8.26068
se	-8.26154
35	-8.26186
▁were	-8.26395
▁supplier	-8.26479
▁january	-8.26598
ce	-8.26605
▁weight	-8.26919
▁next	-8.27163
▁between	-8.27255
▁japanese	-8.27352
do	-8.27384
ve	-8.27435
▁july	-8.27701
▁main	-8.27748
▁office	-8.27917
am	-8.27952
cm	-8.28141
vi	-8.28145
▁(2	-8.28156
▁she	-8.2828
▁collection	-8.2846
ter	-8.2848
▁help	-8.2856
▁experience	-8.28713
▁stock	-8.28947
▁games	-8.29023
os	-8.29115
▁style	-8.29272
▁restaurant	-8.29308
▁night	-8.29315
▁location	-8.29335
▁music	-8.29552
um	-8.29565
▁paper	-8.29652
ine	-8.29655
be	-8.29668
▁bag	-8.29682
▁low	-8.29707
16	-8.29757
ton	-8.29828
▁travel	-8.30089
▁anti	-8.30472
▁standard	-8.31054
▁series	-8.3106
24	-8.31144
▁2014	-8.31157
▁property	-8.31307
▁love	-8.31356
▁december	-8.31702
pe	-8.31727
▁great	-8.3173
fi	-8.31795
▁real	-8.32009
▁tour	-8.32209
▁60	-8.32278
▁pre	-8.32322
▁version	-8.32408
▁venice	-8.3244
▁call	-8.3244
▁glass	-8.32449
sa	-8.32631
▁accessories	-8.3276
70	-8.32788
▁without	-8.32811
line	-8.32821
▁side	-8.32859
▁different	-8.32992
ie	-8.33029
▁november	-8.33102
ive	-8.33316
▁well	-8.33601
▁away	-8.33601
▁select	-8.3367
▁table	-8.33686
▁three	-8.34176
▁garden	-8.34357
▁image	-8.34365
▁sales	-8.3439
id	-8.34514
45	-8.34519
▁february	-8.34889
▁hair	-8.34951
32	-8.35017
▁start	-8.35177
▁natural	-8.35285
▁2013	-8.35394
▁display	-8.35402
▁www	-8.35404
▁professional	-8.35785
▁reviews	-8.35794
▁details	-8.3593
▁sa	-8.35956
▁film	-8.3597
▁gold	-8.36041
▁milan	-8.36077
▁customer	-8.36085
▁end	-8.36148
▁speed	-8.36157
net	-8.3626
▁tube	-8.36402
▁j	-8.36452
▁case	-8.36702
one	-8.36887
q	-8.37028
▁board	-8.37034
▁just	-8.37247
21	-8.37373
▁28	-8.37673
▁club	-8.37705
io	-8.37898
▁software	-8.37955
▁each	-8.38087
▁form	-8.38232
▁station	-8.38356
:00	-8.38418
▁reference	-8.38529
▁26	-8.3856
▁every	-8.3864
tic	-8.38959
▁anal	-8.38976
▁press	-8.39216
ge	-8.39413
ka	-8.39722
ci	-8.39794
▁welcome	-8.39992
▁videos	-8.40019
▁lesbian	-8.40029
▁shop	-8.40268
▁terms	-8.40439
▁delivery	-8.40583
ment	-8.40601
22	-8.40649
▁off	-8.40691
▁screen	-8.40877
▁through	-8.41175
un	-8.41409
▁these	-8.41423
▁digital	-8.41537
▁post	-8.41894
▁young	-8.42009
▁electric	-8.42548
13	-8.42603
).	-8.42677
ac	-8.4269
▁short	-8.42763
ul	-8.42775
▁29	-8.43198
▁range	-8.43274
bo	-8.43623
▁technical	-8.43735
▁august	-8.4375
75	-8.43805
▁brand	-8.4384
▁women	-8.43921
▁protection	-8.44165
▁items	-8.44181
▁outdoor	-8.44355
34	-8.44726
▁mobile	-8.44732
▁head	-8.44742
▁body	-8.44843
26	-8.4488
▁before	-8.44906
▁pool	-8.44925
▁men	-8.44972
et	-8.45
ate	-8.45208
▁kitchen	-8.45382
27	-8.45764
▁custom	-8.45899
▁test	-8.45986
▁working	-8.46121
▁27	-8.46217
▁wall	-8.46349
▁q	-8.46375
▁account	-8.46422
▁pm	-8.46567
▁tv	-8.46578
▁does	-8.46648
▁address	-8.46672
▁person	-8.46682
▁technology	-8.46839
▁why	-8.47248
▁01	-8.47261
28	-8.47339
▁watch	-8.47412
▁category	-8.47464
▁public	-8.47488
▁way	-8.47494
▁temperature	-8.47555
▁using	-8.47622
38	-8.47809
▁stainless	-8.48033
ur	-8.48123
▁cart	-8.48132
▁treatment	-8.48137
49	-8.48213
▁many	-8.48389
▁li	-8.48588
▁during	-8.48614
29	-8.48692
▁max	-8.4874
▁(3	-8.4877
▁pe	-8.48895
con	-8.48976
▁non	-8.48983
ll	-8.49329
99	-8.49335
▁hand	-8.4943
▁wood	-8.49434
▁close	-8.496
▁euro	-8.49705
▁review	-8.49838
▁guide	-8.49952
▁cable	-8.50092
▁photos	-8.50259
ty	-8.50374
ke	-8.50394
as	-8.51024
▁automatic	-8.5129
23	-8.51621
▁florence	-8.52187
▁05	-8.52211
▁length	-8.52261
▁cookie	-8.52298
▁ro	-8.52398
▁school	-8.52742
▁know	-8.52841
▁classic	-8.52995
▁z	-8.53369
▁31	-8.53439
▁application	-8.53556
ting	-8.53616
36	-8.53676
▁centre	-8.53927
▁industrial	-8.5401
▁united	-8.54049
▁teen	-8.54127
land	-8.54221
▁local	-8.54271
▁general	-8.54693
ist	-8.54835
▁battery	-8.54863
65	-8.54925
55	-8.54998
▁features	-8.55091
▁included	-8.55197
ant	-8.55217
▁multi	-8.55284
▁04	-8.55364
▁super	-8.55394
▁transfer	-8.55522
▁market	-8.55999
▁conditions	-8.56198
▁step	-8.56707
48	-8.56731
▁create	-8.5674
▁island	-8.56969
▁port	-8.57016
▁app	-8.57055
31	-8.57056
02	-8.57067
▁big	-8.57138
05	-8.57557
▁energy	-8.57621
▁history	-8.57667
less	-8.57767
▁systems	-8.57799
▁mini	-8.57901
▁user	-8.58098
▁2012	-8.58356
▁store	-8.58364
://	-8.58412
▁categories	-8.58421
▁event	-8.58429
▁star	-8.58477
▁motor	-8.5853
44	-8.5877
▁grand	-8.59175
▁week	-8.59256
pi	-8.59258
ling	-8.59352
▁booking	-8.59402
▁luxury	-8.59406
ina	-8.59701
▁da	-8.59909
▁summer	-8.60053
39	-8.60206
▁network	-8.60271
▁results	-8.60278
▁send	-8.60322
▁cap	-8.60635
▁safety	-8.60653
ness	-8.60716
▁gallery	-8.60882
min	-8.61176
▁road	-8.61492
▁located	-8.61562
▁views	-8.61564
04	-8.61571
▁country	-8.61633
ko	-8.61648
ian	-8.6167
▁enjoy	-8.61728
42	-8.61789
33	-8.61965
▁powder	-8.62016
▁french	-8.62057
09	-8.62061
chi	-8.62122
▁leather	-8.62138
▁security	-8.62213
ino	-8.62217
▁mature	-8.62236
▁processing	-8.62412
95	-8.62467
▁sun	-8.62515
▁(4	-8.626
ex	-8.62663
ent	-8.62835
▁payment	-8.63179
bi	-8.63388
▁south	-8.6362
ha	-8.63652
▁vi	-8.6371
▁residence	-8.64034
▁5.	-8.64169
nd	-8.64196
▁rental	-8.64279
▁change	-8.64422
é	-8.64435
▁ce	-8.64646
▁guest	-8.64864
▁bus	-8.6495
▁performance	-8.64973
37	-8.65063
▁ma	-8.65114
▁fabric	-8.65184
▁age	-8.65237
▁na	-8.65516
▁since	-8.65909
47	-8.65975
▁shoes	-8.66256
▁shipping	-8.66593
▁extra	-8.66687
▁language	-8.66894
▁wire	-8.67024
mar	-8.67063
▁mo	-8.67185
▁solutions	-8.67189
▁06	-8.67196
▁02	-8.67315
▁central	-8.6732
▁supply	-8.67327
▁town	-8.67349
▁found	-8.67416
▁con	-8.67451
▁ca	-8.6749
03	-8.67586
▁storage	-8.6762
▁look	-8.67636
▁would	-8.67764
▁training	-8.67901
▁prices	-8.68029
▁packaging	-8.6816
▁comments	-8.68299
68	-8.68346
▁walk	-8.68373
08	-8.68523
▁bi	-8.68574
▁own	-8.68628
▁building	-8.68659
▁200	-8.68664
▁space	-8.68712
88	-8.68813
▁museum	-8.68925
▁silver	-8.68982
66	-8.69099
000	-8.69154
▁100%	-8.69357
▁receive	-8.6972
▁bo	-8.69843
▁level	-8.69925
64	-8.70058
▁process	-8.70249
▁today	-8.70318
▁care	-8.70319
▁floor	-8.70343
▁train	-8.7035
ary	-8.70359
▁auto	-8.70493
▁based	-8.70542
▁content	-8.70611
▁'	-8.70779
▁meters	-8.70928
▁beautiful	-8.70971
ini	-8.71074
po	-8.71123
▁asian	-8.71126
▁national	-8.71159
out	-8.71318
▁near	-8.71709
son	-8.71985
▁capacity	-8.72007
▁parking	-8.72094
▁35	-8.72292
▁village	-8.72316
86	-8.72417
85	-8.72464
▁social	-8.72499
▁party	-8.72518
▁filter	-8.7253
▁accommodation	-8.72633
▁manual	-8.72842
▁key	-8.72844
▁suppliers	-8.72857
▁package	-8.72945
ler	-8.72996
▁bike	-8.73122
▁pi	-8.73193
▁fa	-8.73477
▁had	-8.73727
▁season	-8.73754
:30	-8.73894
07	-8.73943
46	-8.7407
▁profile	-8.74222
▁materials	-8.74227
43	-8.74426
▁latest	-8.74507
gi	-8.74614
▁sign	-8.74703
▁mi	-8.7471
▁heart	-8.74768
▁street	-8.74819
06	-8.74956
100	-8.74984
▁sport	-8.75039
▁front	-8.75191
▁eur	-8.75232
▁03	-8.75271
▁inter	-8.75301
▁media	-8.75312
▁perfect	-8.75363
▁festival	-8.75386
▁bathroom	-8.75401
▁around	-8.75427
▁500	-8.75505
and	-8.75577
▁palace	-8.75691
▁development	-8.75756
▁ex	-8.75878
▁skin	-8.75939
▁course	-8.76107
▁tax	-8.76168
▁height	-8.76179
▁save	-8.76192
▁industry	-8.76239
▁wi	-8.76278
ad	-8.76294
▁should	-8.76299
▁80	-8.76512
kg	-8.7654
▁current	-8.76825
▁rate	-8.76833
▁min	-8.76942
pro	-8.77009
▁surface	-8.77068
▁panel	-8.77079
69	-8.77099
si	-8.77116
67	-8.77188
▁tags	-8.77249
ut	-8.77299
▁pressure	-8.77316
mb	-8.77318
▁must	-8.77359
ny	-8.7742
▁aluminum	-8.77506
▁activities	-8.77548
▁customers	-8.77603
▁girls	-8.77736
▁wedding	-8.77859
▁windows	-8.77891
▁complete	-8.77998
▁european	-8.78059
▁program	-8.78118
▁ka	-8.7816
▁legal	-8.78205
▁(5	-8.78351
▁month	-8.78394
▁y	-8.78497
ja	-8.78623
▁stars	-8.78692
▁newsletter	-8.78824
▁tools	-8.79055
▁modern	-8.79156
61	-8.79228
▁posted	-8.79352
▁soft	-8.79551
▁point	-8.79898
▁times	-8.79968
▁etc	-8.80125
▁second	-8.80192
41	-8.80385
▁health	-8.80481
63	-8.80487
▁europe	-8.80495
▁down	-8.80528
58	-8.80555
▁mac	-8.80738
▁kit	-8.80794
▁coffee	-8.80832
▁val	-8.80933
76	-8.80985
rs	-8.81008
▁massage	-8.81047
79	-8.81118
▁enter	-8.81258
▁ip	-8.81291
▁ar	-8.81293
der	-8.81402
▁lake	-8.81471
▁item	-8.8173
▁round	-8.81775
▁land	-8.81784
▁2011	-8.81954
0.00	-8.82099
77	-8.82175
op	-8.82259
▁discount	-8.8244
▁unique	-8.82534
▁share	-8.82643
▁ba	-8.82806
em	-8.8284
▁fashion	-8.82846
74	-8.82864
▁friday	-8.82904
89	-8.83102
▁07	-8.83321
▁45	-8.83338
54	-8.83374
▁el	-8.83381
▁safe	-8.83445
▁beauty	-8.83559
▁printing	-8.83568
▁lu	-8.83848
▁cost	-8.83951
▁del	-8.83968
▁article	-8.83993
sh	-8.84016
59	-8.84124
ir	-8.84163
ous	-8.84236
56	-8.84334
▁rent	-8.84401
for	-8.84415
▁farm	-8.84515
▁possible	-8.84516
▁link	-8.84529
▁girl	-8.84538
62	-8.84554
▁blog	-8.84625
▁heat	-8.84687
▁same	-8.8489
hi	-8.84927
98	-8.84945
▁learn	-8.84952
▁face	-8.85019
▁hd	-8.85045
he	-8.85062
▁pa	-8.85084
▁cover	-8.85155
▁unit	-8.85284
▁original	-8.85415
▁monday	-8.85441
▁cutting	-8.85645
▁sports	-8.8583
▁always	-8.85884
im	-8.85891
▁fast	-8.85941
▁6.	-8.85949
lu	-8.85994
▁customized	-8.86079
▁update	-8.86099
▁laser	-8.86447
▁ball	-8.86559
▁smart	-8.86586
▁square	-8.86602
nt	-8.86719
71	-8.86808
ze	-8.86846
▁sunday	-8.86849
▁menu	-8.86923
▁hard	-8.86947
▁below	-8.86973
▁08	-8.86986
▁device	-8.86986
▁door	-8.87036
▁according	-8.87042
▁edition	-8.8707
▁sp	-8.87088
▁engine	-8.87113
▁touch	-8.87196
ted	-8.87203
72	-8.87329
▁print	-8.87418
est	-8.87479
▁them	-8.87512
▁gas	-8.87781
▁ad	-8.87811
▁london	-8.87835
▁spring	-8.87935
▁pipe	-8.88018
▁war	-8.8809
▁saturday	-8.8814
▁base	-8.88163
▁vat	-8.88316
ies	-8.88384
ml	-8.88555
57	-8.8865
78	-8.88654
▁ne	-8.88804
▁tool	-8.88865
ance	-8.88913
tra	-8.88917
▁class	-8.89061
▁nature	-8.89209
▁until	-8.89235
by	-8.8926
▁pump	-8.8926
▁(1)	-8.89266
au	-8.89587
que	-8.89683
▁then	-8.89746
iva	-8.89784
che	-8.89792
87	-8.89804
96	-8.89808
ated	-8.8986
▁works	-8.89875
▁bio	-8.89876
lin	-8.89887
▁90	-8.90035
end	-8.90049
ft	-8.90063
▁fun	-8.90115
▁such	-8.90223
▁blonde	-8.90355
▁simple	-8.90449
▁internet	-8.90657
va	-8.90784
▁installation	-8.91079
▁construction	-8.91167
▁shower	-8.91341
▁ni	-8.91367
▁camera	-8.91562
▁kg	-8.91571
▁come	-8.91676
▁09	-8.91888
ana	-8.92022
▁distance	-8.92044
▁ko	-8.92086
▁german	-8.92097
52	-8.92098
▁research	-8.92207
minute	-8.9229
ol	-8.92414
▁winter	-8.92435
▁both	-8.92459
84	-8.92659
▁foot	-8.92855
▁keep	-8.92905
▁images	-8.92963
▁32	-8.92992
▁solution	-8.93143
mail	-8.9319
97	-8.93339
▁gift	-8.93613
▁cat	-8.93631
▁reach	-8.93689
▁cream	-8.93734
▁pc	-8.93831
▁flat	-8.93838
▁opening	-8.93839
▁previous	-8.93848
▁daily	-8.94002
".	-8.94045
▁powered	-8.94336
▁dis	-8.9441
▁studio	-8.94526
51	-8.94533
▁section	-8.9457
83	-8.94571
▁shopping	-8.94735
▁yellow	-8.9491
▁ra	-8.95057
▁four	-8.95096
▁ho	-8.9547
▁updated	-8.95662
ber	-8.95697
▁self	-8.95854
▁much	-8.95857
▁maximum	-8.95898
▁rates	-8.95937
ano	-8.9595
▁meeting	-8.96044
▁sheet	-8.96135
▁lo	-8.96241
▁files	-8.96432
▁ha	-8.96507
▁furniture	-8.96515
▁su	-8.96539
53	-8.96549
▁ski	-8.96612
500	-8.96653
▁designed	-8.96672
▁users	-8.96694
0,00	-8.96719
▁follow	-8.96723
▁law	-8.96739
▁medical	-8.96887
▁mode	-8.96929
200	-8.96942
▁2010	-8.96962
▁living	-8.97115
▁trade	-8.9716
▁excellent	-8.97208
▁fi	-8.97212
73	-8.97231
▁provide	-8.97333
▁70	-8.97618
way	-8.9775
▁mom	-8.97825
▁ac	-8.98002
▁pay	-8.98045
time	-8.9829
▁boutique	-8.98303
▁third	-8.98305
▁300	-8.98464
92	-8.98509
▁rentals	-8.98568
82	-8.98614
▁diameter	-8.98633
▁yes	-8.98665
▁load	-8.9872
▁compilation	-8.98961
▁sub	-8.98991
▁srl	-8.99032
▁ci	-8.99079
▁required	-8.99128
vo	-8.99271
▁bra	-8.99296
▁dress	-8.99347
91	-8.9936
tor	-8.99363
▁150	-8.99721
let	-8.99733
▁final	-8.99893
▁charge	-8.99909
▁eco	-8.99915
mp	-8.99937
▁bottle	-9.00145
▁frame	-9.00181
▁pack	-9.00232
-1	-9.00341
▁function	-9.00546
▁3-	-9.00616
▁options	-9.00644
▁even	-9.00665
▁saint	-9.0068
▁master	-9.00733
▁registration	-9.00752
▁don	-9.00899
▁quick	-9.01589
ner	-9.01594
▁published	-9.01609
▁plant	-9.0162
▁commercial	-9.01669
ium	-9.01694
gu	-9.01715
▁computer	-9.0173
ized	-9.01735
▁manufacturers	-9.01875
▁pvc	-9.02082
▁fair	-9.02094
▁bank	-9.02151
ver	-9.02167
▁value	-9.02331
▁structure	-9.02351
▁exhibition	-9.02498
▁micro	-9.02585
▁paris	-9.02588
▁added	-9.02603
▁facilities	-9.02729
93	-9.02738
ure	-9.02759
ish	-9.02769
▁register	-9.02781
▁id	-9.02818
▁lamp	-9.02907
▁band	-9.02913
▁fire	-9.0295
▁carbon	-9.03021
▁http	-9.03076
ip	-9.03159
▁holidays	-9.03161
pm	-9.03232
▁church	-9.03286
▁electronic	-9.0346
▁give	-9.03481
▁clear	-9.03619
▁cup	-9.03658
▁cross	-9.03736
▁royal	-9.03825
▁00	-9.03826
▁ru	-9.03834
▁fiber	-9.03905
81	-9.03908
▁rose	-9.0395
om	-9.03957
ster	-9.03991
▁cotton	-9.04003
ap	-9.04064
▁weather	-9.04123
▁android	-9.04126
art	-9.04278
▁tri	-9.04348
▁baby	-9.04493
▁active	-9.0453
▁important	-9.04681
▁position	-9.04738
▁width	-9.0489
▁si	-9.0493
▁pen	-9.04931
▁pdf	-9.05023
we	-9.05073
▁university	-9.05326
fe	-9.05447
▁popular	-9.0548
of	-9.05544
▁hi	-9.05546
94	-9.05631
ah	-9.05775
▁cleaning	-9.05819
ya	-9.05844
▁region	-9.06102
▁valve	-9.06115
ria	-9.06201
▁including	-9.06222
ang	-9.06259
▁google	-9.06334
▁text	-9.06394
ella	-9.06444
▁du	-9.06464
▁ri	-9.06581
▁showing	-9.06613
car	-9.06614
du	-9.0662
▁chi	-9.0662
▁transport	-9.06766
▁=	-9.06824
▁fetish	-9.06991
board	-9.07232
▁environment	-9.07235
za	-9.07364
so	-9.07534
▁various	-9.07558
ho	-9.07592
fa	-9.07592
org	-9.07665
▁christmas	-9.0767
rd	-9.07729
▁marketing	-9.07744
▁period	-9.07899
ru	-9.08053
ring	-9.08066
ten	-9.08075
▁hostel	-9.08084
▁ring	-9.08143
ise	-9.08314
▁return	-9.08508
▁logo	-9.08514
▁chat	-9.08516
▁se	-9.08558
tro	-9.08651
hotel	-9.08935
▁north	-9.09161
can	-9.0919
▁human	-9.09397
ig	-9.09452
▁deposit	-9.09462
ot	-9.09585
$	-9.09609
▁usb	-9.0963
▁stand	-9.09664
▁money	-9.09772
www	-9.09777
▁stop	-9.09796
▁nice	-9.09808
▁solar	-9.0984
▁projects	-9.10235
▁action	-9.10283
mon	-9.10301
▁colour	-9.10821
▁american	-9.11076
▁bags	-9.11202
▁fresh	-9.11215
▁wide	-9.11226
ki	-9.11269
▁let	-9.1149
▁france	-9.11567
▁plate	-9.11568
▁field	-9.11838
▁spain	-9.1186
▁plan	-9.12064
▁mon	-9.12093
ism	-9.12277
▁cam	-9.12279
▁reservation	-9.12371
▁output	-9.12497
▁state	-9.12602
=	-9.12629
▁companies	-9.12631
room	-9.12651
res	-9.12703
▁switch	-9.12722
▁accept	-9.12798
▁lighting	-9.12885
▁36	-9.12944
▁packing	-9.12973
▁sound	-9.12977
dy	-9.1313
▁questions	-9.13136
▁platform	-9.13302
▁little	-9.13322
bar	-9.13331
▁few	-9.13503
▁rubber	-9.13537
▁swimming	-9.13604
▁notice	-9.13614
▁report	-9.13672
▁terrace	-9.1371
▁pin	-9.1389
▁dry	-9.13964
▁story	-9.14041
tion	-9.14073
▁boat	-9.14077
▁250	-9.14147
▁king	-9.1425
▁vintage	-9.14299
▁kids	-9.14479
▁usd	-9.14482
▁cas	-9.14497
▁types	-9.14526
ization	-9.14545
▁machines	-9.14704
light	-9.14709
▁built	-9.14746
▁arm	-9.14754
▁lock	-9.14797
ola	-9.14864
ding	-9.14965
ck	-9.14988
▁spanish	-9.15073
):	-9.15109
lic	-9.15217
▁***	-9.153
▁stone	-9.15365
tri	-9.15422
▁7.	-9.15425
▁sweet	-9.15471
▁run	-9.15472
▁making	-9.15744
free	-9.1575
▁button	-9.15774
▁@	-9.15839
▁him	-9.15854
ron	-9.15972
▁purchase	-9.15987
▁suite	-9.16046
▁cut	-9.16064
▁kingdom	-9.16075
▁po	-9.161
▁global	-9.16131
▁33	-9.16153
▁better	-9.1625
▁tag	-9.16458
▁audio	-9.16484
▁(6	-9.16495
▁selection	-9.16515
▁conference	-9.16636
▁contacts	-9.1669
ica	-9.16709
▁try	-9.16728
▁tea	-9.16794
▁culture	-9.16803
▁strong	-9.16916
▁casino	-9.16976
▁olive	-9.17029
▁child	-9.17081
ating	-9.17126
ator	-9.17184
▁ltd	-9.17296
▁thanks	-9.17353
our	-9.1774
▁suitable	-9.17743
▁shape	-9.17776
▁regular	-9.17854
▁applications	-9.18073
▁wife	-9.18089
fo	-9.18131
▁partner	-9.18134
▁inn	-9.1814
▁choice	-9.18178
▁orgasm	-9.18226
▁voltage	-9.1833
▁pan	-9.18336
ley	-9.18356
▁less	-9.18379
▁grey	-9.18497
port	-9.18521
▁include	-9.18572
▁1000	-9.18604
ence	-9.18635
▁fish	-9.18659
▁convert	-9.18826
▁roll	-9.18943
▁)	-9.18949
▁germany	-9.18956
▁bedroom	-9.19019
▁dr	-9.1904
▁iso	-9.19082
▁left	-9.19091
▁2009	-9.19318
▁born	-9.19382
▁states	-9.19401
▁password	-9.19408
▁rock	-9.19461
▁flexible	-9.19612
▁bay	-9.19654
▁iron	-9.19914
▁thursday	-9.19936
▁ideal	-9.19956
▁future	-9.19969
eg	-9.19969
ai	-9.2003
▁individual	-9.20093
▁eu	-9.20108
▁pet	-9.20132
tu	-9.20145
▁common	-9.20173
▁bath	-9.20259
▁join	-9.20262
ful	-9.20295
ps	-9.2047
▁against	-9.20523
pcs	-9.20545
▁points	-9.20584
▁thickness	-9.20585
bu	-9.20721
▁source	-9.20875
eu	-9.2103
ts	-9.21104
▁models	-9.2114
▁tourist	-9.21156
▁method	-9.21212
▁%	-9.21378
▁hydraulic	-9.21395
▁manager	-9.21408
▁comfort	-9.21418
▁russian	-9.21467
▁gr	-9.21488
▁hall	-9.21571
▁additional	-9.21642
▁members	-9.21672
▁radio	-9.21802
▁chinese	-9.2182
▁author	-9.21839
▁turn	-9.21841
▁clean	-9.22045
▁hu	-9.22103
▁wheel	-9.22138
▁organic	-9.2228
▁friends	-9.22416
▁net	-9.22464
rt	-9.22685
▁wednesday	-9.22745
▁domain	-9.22778
▁cheap	-9.22781
▁another	-9.22811
▁communication	-9.22823
▁tuesday	-9.22832
cc	-9.22987
day	-9.23061
ology	-9.23066
-10	-9.23122
▁properties	-9.23201
▁woman	-9.23268
▁direct	-9.233
▁rating	-9.23328
▁rimini	-9.23394
▁note	-9.23403
tel	-9.23482
▁exclusive	-9.23531
▁8.	-9.23543
▁availability	-9.23543
▁did	-9.23571
▁provided	-9.23578
▁mountain	-9.23613
show	-9.23622
▁courses	-9.23622
▁could	-9.23781
▁album	-9.2386
▁meet	-9.23902
▁indian	-9.23926
▁iphone	-9.23975
▁tours	-9.24017
▁plus	-9.24039
ice	-9.24053
▁wind	-9.24196
▁48	-9.24262
val	-9.24353
side	-9.24498
▁credit	-9.24626
▁director	-9.24728
▁dark	-9.2477
▁golf	-9.24779
▁adults	-9.24796
▁par	-9.24872
▁while	-9.24874
▁present	-9.24899
▁fat	-9.24944
▁maintenance	-9.24978
ide	-9.25056
▁naples	-9.25087
▁release	-9.25212
ard	-9.25216
▁cal	-9.25217
▁ti	-9.25274
hotels	-9.25307
▁pink	-9.25312
▁ja	-9.25475
les	-9.25492
▁wellness	-9.25507
▁those	-9.25679
▁server	-9.25697
▁half	-9.2573
▁articles	-9.25735
▁specific	-9.25764
▁cell	-9.25906
▁34	-9.25925
▁taste	-9.26004
gen	-9.26047
▁ph	-9.26124
jo	-9.26127
▁120	-9.26131
▁sand	-9.26214
▁arrival	-9.26298
▁em	-9.26328
▁son	-9.26493
▁picture	-9.26506
▁resistance	-9.26573
▁needs	-9.26585
uk	-9.26671
▁analysis	-9.2676
▁connection	-9.26798
▁ask	-9.26806
▁ii	-9.26859
▁become	-9.26925
▁further	-9.26979
▁track	-9.27006
▁created	-9.27017
▁login	-9.27037
300	-9.27075
▁tu	-9.27093
ware	-9.27127
ea	-9.27241
elli	-9.27448
▁ta	-9.2765
▁york	-9.27721
▁above	-9.27721
▁****	-9.27743
▁traditional	-9.27849
cia	-9.2789
▁subject	-9.27942
bra	-9.28023
▁member	-9.2832
▁inside	-9.28348
▁crystal	-9.28361
▁im	-9.2854
▁milano	-9.28582
▁operation	-9.28584
▁win	-9.28607
▁west	-9.28761
▁later	-9.28857
ries	-9.28862
="	-9.289
▁stage	-9.29097
▁minimum	-9.29125
▁advanced	-9.29127
▁far	-9.29182
▁gu	-9.29187
ak	-9.292
▁(2)	-9.29263
oni	-9.29299
▁estate	-9.2935
if	-9.29428
▁telephone	-9.29441
mer	-9.29471
box	-9.29488
▁ml	-9.2949
men	-9.29562
-2	-9.29644
▁ice	-9.2965
▁block	-9.29724
▁colors	-9.29773
red	-9.29811
ng	-9.29815
▁dc	-9.29903
▁being	-9.29911
▁staff	-9.30156
▁brown	-9.30157
▁fine	-9.30209
▁format	-9.3021
▁option	-9.30445
▁2008	-9.30508
ee	-9.30674
▁title	-9.30707
ger	-9.30757
gr	-9.30832
▁module	-9.30951
▁heating	-9.31006
▁mail	-9.31093
▁verona	-9.31224
▁areas	-9.31267
ello	-9.31441
ab	-9.31446
▁couple	-9.31483
od	-9.31499
▁updates	-9.31547
▁tank	-9.31763
▁install	-9.3179
▁basic	-9.31919
▁ceramic	-9.32036
▁looking	-9.32125
▁together	-9.32192
▁houses	-9.32193
▁55	-9.32239
▁starting	-9.32242
▁devices	-9.32323
▁38	-9.32431
▁bologna	-9.3248
▁nights	-9.32678
▁log	-9.32696
▁deep	-9.32835
▁components	-9.32838
▁ver	-9.32866
▁sha	-9.33002
ping	-9.33039
cu	-9.33324
▁grade	-9.33364
▁75	-9.3337
▁ve	-9.3352
all	-9.33613
▁contract	-9.33659
▁repair	-9.33711
my	-9.33791
total	-9.33798
▁innovation	-9.33875
▁indoor	-9.33979
-3	-9.34073
▁cor	-9.34097
▁handle	-9.34196
ara	-9.34318
▁seat	-9.34372
▁requirements	-9.34427
▁mat	-9.34453
▁acid	-9.34499
▁directly	-9.34629
▁ready	-9.3463
▁flower	-9.34651
▁duration	-9.34696
qui	-9.34767
▁fit	-9.3485
ari	-9.34927
ph	-9.34928
▁message	-9.35046
ite	-9.35139
▁catalogue	-9.35207
▁usa	-9.35348
▁pp	-9.35409
▁effect	-9.35535
▁400	-9.35697
▁express	-9.3571
▁pu	-9.3573
▁chain	-9.35738
▁trading	-9.35747
▁hardcore	-9.35796
pp	-9.35918
▁jo	-9.35921
▁pictures	-9.35958
led	-9.36055
-12	-9.36083
▁loss	-9.36083
hu	-9.36089
▁venue	-9.36096
▁castle	-9.36103
▁39	-9.36116
ita	-9.36119
▁lead	-9.36218
▁il	-9.36237
▁interior	-9.36244
her	-9.36337
▁places	-9.3639
▁visitors	-9.36481
▁wooden	-9.36516
▁remote	-9.36574
▁?	-9.36588
▁casa	-9.36589
cl	-9.36627
▁happy	-9.36785
▁monte	-9.36835
▁bedrooms	-9.36931
▁mr	-9.36932
▁exchange	-9.36935
▁dimensions	-9.37027
▁cold	-9.37097
▁again	-9.37191
▁barcelona	-9.3724
▁ticket	-9.37391
▁wholesale	-9.37426
▁guarantee	-9.3743
▁solid	-9.37436
▁japan	-9.37602
▁related	-9.37607
▁mp	-9.37614
▁2000	-9.37733
▁milk	-9.37763
▁waterproof	-9.37781
ura	-9.37816
▁chemical	-9.37883
▁alloy	-9.37913
▁race	-9.38034
▁brunette	-9.3807
pt	-9.38076
-20	-9.38216
▁suites	-9.38321
den	-9.38329
▁mod	-9.38341
era	-9.38353
▁still	-9.3841
▁portable	-9.38542
▁bit	-9.38544
▁mother	-9.38624
▁ga	-9.38677
▁ground	-9.38838
▁reached	-9.3899
▁babe	-9.39017
lan	-9.391
▁sensor	-9.39106
▁fan	-9.39138
▁soon	-9.39182
▁fruit	-9.39218
▁closed	-9.39297
▁subscribe	-9.39421
▁ke	-9.39422
▁strip	-9.39472
▁chair	-9.39494
bb	-9.39611
oc	-9.39647
▁cha	-9.39728
▁write	-9.39735
▁sl	-9.39782
▁tips	-9.39803
▁major	-9.39886
▁oem	-9.39898
▁xhamster	-9.39905
▁inch	-9.39917
tes	-9.40048
ff	-9.40112
▁golden	-9.40231
▁volume	-9.40283
▁sexy	-9.40312
▁certificate	-9.40316
▁sample	-9.40369
olo	-9.40408
▁dream	-9.40461
▁holder	-9.40463
▁extension	-9.40468
▁coast	-9.40509
▁comp	-9.40524
▁advertising	-9.40529
▁vo	-9.40529
▁uk	-9.40534
▁ob	-9.4063
▁santa	-9.40698
▁cloud	-9.40705
ier	-9.40711
▁never	-9.40763
▁fall	-9.40781
bit	-9.40908
▁tower	-9.4097
▁::	-9.40981
▁pass	-9.41184
book	-9.41317
over	-9.41343
▁interracial	-9.41387
▁put	-9.41436
cam	-9.4147
▁several	-9.41472
▁controller	-9.41491
▁swiss	-9.41555
▁community	-9.41566
▁hosting	-9.41656
▁internal	-9.41703
tech	-9.41766
▁4-	-9.41792
▁countries	-9.4189
▁college	-9.41924
▁cl	-9.42027
▁te	-9.42062
▁za	-9.42074
▁river	-9.42143
▁thermal	-9.42235
▁tuscany	-9.42313
▁pure	-9.4245
oli	-9.42501
▁drop	-9.42504
▁export	-9.4252
-5	-9.4256
▁warm	-9.42573
▁angel	-9.42644
▁apply	-9.42649
400	-9.42693
ability	-9.4273
5.00	-9.42818
▁dinner	-9.42823
▁gi	-9.4283
▁creampie	-9.42884
nu	-9.42932
▁archives	-9.43037
▁villas	-9.43043
▁driver	-9.43073
sta	-9.4323
▁cur	-9.43249
▁tra	-9.43472
zo	-9.43483
▁strength	-9.43511
▁magazine	-9.43581
▁player	-9.43608
▁efficiency	-9.4361
▁registered	-9.43614
▁channel	-9.43632
▁eye	-9.43779
▁>>	-9.4384
han	-9.439
ven	-9.43911
zi	-9.43993
▁operating	-9.44012
▁catalog	-9.44237
▁translation	-9.44259
kw	-9.44315
▁casting	-9.44391
top	-9.44398
▁improve	-9.44429
▁gar	-9.4445
▁because	-9.44549
▁ch	-9.44567
▁leave	-9.44607
sha	-9.44628
▁dishes	-9.44642
▁comment	-9.44745
▁sky	-9.44784
▁flow	-9.44797
▁liquid	-9.44822
▁tickets	-9.44828
▁cu	-9.45202
▁42	-9.45203
▁association	-9.45238
▁(19	-9.45265
▁job	-9.45268
pl	-9.45375
▁65	-9.45379
▁window	-9.45445
▁external	-9.45464
▁male	-9.45564
▁dedicated	-9.45597
king	-9.45608
▁outside	-9.45958
gh	-9.45998
back	-9.4601
▁female	-9.46101
▁increase	-9.4617
▁doctor	-9.46225
▁orange	-9.46236
bs	-9.46266
▁imp	-9.46297
▁carton	-9.46448
▁kind	-9.4652
▁known	-9.46564
▁vehicle	-9.46645
▁already	-9.46721
▁piece	-9.46774
▁flowers	-9.46775
▁extract	-9.46882
▁whole	-9.47048
ile	-9.47067
▁hour	-9.47138
▁label	-9.47176
van	-9.47202
600	-9.47214
cy	-9.47264
▁trip	-9.47337
cent	-9.47362
▁break	-9.47389
▁watches	-9.4741
▁partners	-9.47429
▁cast	-9.47533
▁37	-9.47573
▁roller	-9.47623
ek	-9.47628
▁fo	-9.4763
zz	-9.4778
▁testing	-9.47863
▁workshop	-9.47865
ach	-9.47884
▁(18+)	-9.47898
▁cheese	-9.47933
▁comfortable	-9.47941
▁links	-9.47946
km	-9.47975
▁44	-9.47979
pre	-9.48048
▁feature	-9.48095
gar	-9.48115
▁truck	-9.4816
ud	-9.48312
▁agency	-9.48471
▁john	-9.48516
▁che	-9.48552
sp	-9.48556
▁fuel	-9.48615
ow	-9.487
tt	-9.48752
▁2-	-9.4877
▁har	-9.48806
▁sector	-9.4885
▁thank	-9.48885
-4	-9.49016
▁movie	-9.49076
▁ab	-9.49077
su	-9.4929
▁facebook	-9.49333
▁(0)	-9.49374
▁weeks	-9.49394
▁result	-9.49439
▁republic	-9.49466
▁aluminium	-9.49487
ag	-9.49523
▁precision	-9.49595
▁origin	-9.49683
▁core	-9.4974
use	-9.49749
more	-9.49813
▁beds	-9.4983
▁mark	-9.49902
▁among	-9.50143
▁wireless	-9.5015
▁secure	-9.50181
▁lights	-9.50186
set	-9.50202
▁mag	-9.50229
▁medium	-9.50257
▁lift	-9.50282
▁bal	-9.50327
▁input	-9.50342
▁tell	-9.50376
▁penetration	-9.50416
site	-9.5042
▁study	-9.50535
▁chocolate	-9.50554
▁adjustable	-9.50596
▁raw	-9.50648
▁electrical	-9.50714
▁2007	-9.50734
▁fill	-9.50749
shop	-9.50759
gue	-9.50768
▁**	-9.50832
▁sold	-9.50957
▁2006	-9.51025
▁limited	-9.51055
▁say	-9.51164
▁mask	-9.51252
(1	-9.51291
▁once	-9.51302
▁protect	-9.51363
▁costs	-9.51398
br	-9.5145
▁district	-9.51462
▁god	-9.516
▁browser	-9.51655
▁continue	-9.51695
▁decoration	-9.51725
▁twin	-9.51763
▁host	-9.51822
ix	-9.51856
▁dance	-9.51866
▁remove	-9.51885
▁archive	-9.51893
▁italia	-9.51992
▁valid	-9.51997
ran	-9.52011
▁warranty	-9.52016
▁mechanical	-9.52052
▁due	-9.52091
▁sc	-9.52107
▁muscle	-9.52158
▁interface	-9.52268
▁paint	-9.52316
▁mesh	-9.52396
▁9.	-9.52441
▁diamond	-9.52496
▁tape	-9.52499
▁mt	-9.52537
▁mill	-9.52546
▁marina	-9.5256
▁wear	-9.52561
▁(20	-9.52601
born	-9.52604
▁connect	-9.52605
▁cr	-9.52631
▁ten	-9.52641
▁award	-9.52649
▁restaurants	-9.52682
ani	-9.52712
▁webcam	-9.5273
▁corporate	-9.52743
▁coating	-9.52745
▁historical	-9.52751
▁dog	-9.5284
tre	-9.52858
▁path	-9.52882
▁question	-9.52925
▁spray	-9.53052
work	-9.53095
▁600	-9.53144
▁heavy	-9.53181
▁belt	-9.53193
off	-9.53215
▁die	-9.53254
▁painting	-9.53262
▁printed	-9.53264
▁jacket	-9.53322
▁cnc	-9.53331
▁camp	-9.53441
house	-9.53709
▁nu	-9.5375
▁$1	-9.53806
▁western	-9.53896
ial	-9.53934
▁cards	-9.53937
-8	-9.53962
5%	-9.53984
▁capital	-9.54006
▁bridge	-9.54078
▁op	-9.54086
▁activity	-9.54181
▁education	-9.5425
▁court	-9.5436
▁wild	-9.54433
▁quantity	-9.54467
air	-9.54472
▁century	-9.54486
cha	-9.54764
▁client	-9.54863
▁polyester	-9.54878
sex	-9.54893
▁spare	-9.54961
ize	-9.54969
▁feel	-9.55007
▁released	-9.55021
▁tradition	-9.55048
press	-9.55103
▁everything	-9.55226
▁environmental	-9.5524
▁movies	-9.55273
0,000	-9.55281
cal	-9.55391
▁license	-9.55442
▁switzerland	-9.55488
▁lies	-9.555
▁benefits	-9.55588
▁east	-9.5567
▁fl	-9.55712
▁ge	-9.55735
▁five	-9.55777
▁sal	-9.55832
▁insert	-9.55845
▁gra	-9.55947
ec	-9.56024
▁cars	-9.5603
▁clients	-9.56031
▁fu	-9.56095
▁berlin	-9.5614
▁recovery	-9.56183
▁finish	-9.56229
▁navigation	-9.56317
▁trans	-9.56318
▁frequency	-9.56469
▁ship	-9.56475
▁currently	-9.56479
▁solo	-9.56524
▁lot	-9.56541
▁america	-9.56551
▁(7	-9.56634
▁cd	-9.56637
▁written	-9.5664
▁provides	-9.56693
▁printer	-9.56803
▁includes	-9.5682
▁sch	-9.56823
▁mer	-9.56842
ati	-9.56927
▁won	-9.56963
▁mass	-9.57069
▁risk	-9.57076
ave	-9.5719
▁wines	-9.57218
▁camping	-9.57277
▁credits	-9.5731
▁pages	-9.5743
ong	-9.5745
▁recommended	-9.5746
▁assembly	-9.57498
▁miss	-9.57506
▁cabinet	-9.5752
▁calendar	-9.5757
▁poly	-9.57577
▁fully	-9.57629
▁persons	-9.57659
▁bu	-9.57663
ep	-9.57672
▁certification	-9.5774
▁early	-9.57763
▁attractions	-9.57944
▁example	-9.57976
ane	-9.57989
▁mb	-9.5807
▁greece	-9.58131
▁copy	-9.58137
▁bracelet	-9.58167
ato	-9.5818
▁things	-9.58237
▁interest	-9.58248
▁balance	-9.58288
▁easily	-9.58352
▁mc	-9.58409
▁toys	-9.58434
▁islands	-9.58474
▁meat	-9.58491
▁multiple	-9.58599
▁pop	-9.58602
▁route	-9.58606
800	-9.58622
▁student	-9.58654
▁reply	-9.58695
▁strap	-9.58729
▁apple	-9.58744
▁fe	-9.58746
▁er	-9.58774
▁clothing	-9.58781
▁rod	-9.58836
▁friendly	-9.58859
ji	-9.58893
▁reduce	-9.59051
▁situated	-9.5914
▁term	-9.5921
▁groups	-9.5928
▁organization	-9.59296
▁cre	-9.59352
▁cool	-9.59366
▁monitor	-9.59413
▁fixed	-9.59416
▁competition	-9.59442
▁sofa	-9.59537
▁gay	-9.59558
▁pcs	-9.59677
▁equipped	-9.59708
▁premium	-9.59711
▁semi	-9.59772
▁rest	-9.59959
▁past	-9.60045
▁000	-9.60198
▁sent	-9.6024
▁said	-9.60262
ok	-9.60305
▁move	-9.60308
▁!	-9.60318
▁phase	-9.60351
▁success	-9.60401
▁salt	-9.60494
▁steps	-9.60536
▁six	-9.6055
shirt	-9.60685
▁think	-9.60718
▁million	-9.60777
▁mirror	-9.60812
▁ag	-9.60824
▁uni	-9.60857
▁president	-9.60889
fr	-9.60946
▁average	-9.61042
▁british	-9.6108
ero	-9.61109
▁however	-9.61211
▁department	-9.61239
▁pick	-9.6124
▁selected	-9.61396
ning	-9.61494
▁gear	-9.61506
▁wa	-9.61508
ou	-9.61547
hour	-9.61664
wood	-9.61718
/2019	-9.61726
▁match	-9.61771
fer	-9.61858
pc	-9.61869
-6	-9.61878
▁languages	-9.61921
▁manage	-9.61933
▁vol	-9.62014
▁bur	-9.62018
▁passion	-9.62074
▁br	-9.62079
▁mg	-9.62174
▁science	-9.62245
▁allowed	-9.62263
▁error	-9.6259
ris	-9.62638
▁valley	-9.62694
▁assistance	-9.6283
▁useful	-9.62924
▁replica	-9.62971
▁64	-9.62978
▁football	-9.63119
▁financial	-9.63137
▁vacation	-9.63149
▁plants	-9.63243
ric	-9.63341
▁lcd	-9.63529
▁reception	-9.63569
▁snow	-9.63573
▁vacuum	-9.63609
▁magic	-9.63663
ez	-9.63678
▁conditioning	-9.6375
wa	-9.6392
af	-9.64006
▁effects	-9.64139
mg	-9.64142
▁tourism	-9.64191
▁saving	-9.64212
▁friend	-9.64239
tte	-9.64267
▁800	-9.64268
5,00	-9.64268
▁province	-9.6432
tal	-9.6433
ical	-9.64386
▁pieces	-9.645
ue	-9.64543
▁virtual	-9.64603
▁target	-9.64681
▁43	-9.64688
gb	-9.64692
▁elegant	-9.64797
▁act	-9.6484
▁resources	-9.64905
▁disc	-9.64958
▁(3)	-9.65016
▁generator	-9.65037
▁bre	-9.65059
▁upon	-9.65098
▁settings	-9.65106
▁typical	-9.65111
▁balcony	-9.65117
▁fr	-9.65131
▁methods	-9.65331
-19	-9.65389
▁horse	-9.65404
▁pad	-9.65489
▁machinery	-9.65564
▁para	-9.65569
▁consumption	-9.65599
illa	-9.65779
je	-9.65812
dia	-9.65831
▁ju	-9.65867
▁concept	-9.65889
▁angle	-9.65914
▁integrated	-9.65942
▁welding	-9.65958
cor	-9.65988
▁injection	-9.66082
ities	-9.66146
ham	-9.6615
▁build	-9.66212
▁blu	-9.66268
▁bicycle	-9.66289
▁started	-9.66397
▁thread	-9.66411
▁hospital	-9.66414
▁became	-9.66446
▁mor	-9.66489
▁feet	-9.66608
);	-9.6667
▁designer	-9.66717
▁gen	-9.66725
▁mal	-9.66821
▁52	-9.66839
▁nylon	-9.66855
▁rack	-9.66893
▁roman	-9.66941
▁pl	-9.66943
▁sell	-9.66982
▁cash	-9.66984
▁van	-9.6701
▁tree	-9.67059
▁gre	-9.67104
nic	-9.67132
▁bring	-9.67134
▁czech	-9.67137
hz	-9.67151
▁relax	-9.67172
▁bonus	-9.67248
▁necessary	-9.673
▁breakfasts	-9.67326
des	-9.67358
▁col	-9.67424
▁signal	-9.675
▁detail	-9.67546
▁dvd	-9.67546
oo	-9.67577
▁degree	-9.67604
max	-9.67647
▁mid	-9.67695
▁ideas	-9.67696
lie	-9.67697
lab	-9.67768
▁inflatable	-9.67792
▁admin	-9.67834
▁connector	-9.67857
▁entry	-9.67968
▁wifi	-9.68024
▁units	-9.68258
▁interview	-9.68301
▁lost	-9.68326
150	-9.68369
▁departure	-9.6837
▁ensure	-9.68371
sen	-9.68374
▁ever	-9.68399
pu	-9.68444
▁practice	-9.68451
ore	-9.68498
▁outlet	-9.6855
ky	-9.68557
▁cooking	-9.68663
▁leg	-9.68668
▁tap	-9.68761
▁optional	-9.68782
italy	-9.68808
ju	-9.68846
▁adult	-9.6898
▁motorcycle	-9.68997
tec	-9.69027
▁ben	-9.69042
bus	-9.69051
▁ancient	-9.69074
form	-9.69078
tan	-9.69248
▁word	-9.6928
▁pr	-9.69287
▁martin	-9.69294
▁cylinder	-9.69323
▁sardinia	-9.69323
qua	-9.69399
▁vertical	-9.69452
ker	-9.6946
▁flash	-9.69493
▁gate	-9.69541
▁os	-9.69623
▁copper	-9.6963
▁bor	-9.69665
berg	-9.69669
app	-9.69715
▁th	-9.69805
▁boxes	-9.69841
▁amount	-9.69849
▁session	-9.69868
▁bright	-9.69963
▁foundation	-9.70037
▁yacht	-9.70055
▁engineering	-9.70139
yo	-9.70193
▁bri	-9.70259
▁2005	-9.70298
▁manufacturing	-9.70329
▁worldwide	-9.70383
▁prize	-9.70389
▁monthly	-9.70511
▁coil	-9.70557
9.00	-9.70564
▁adventure	-9.70669
ens	-9.70711
▁cooling	-9.70755
▁shirt	-9.70779
▁rules	-9.70787
▁silicone	-9.7079
▁union	-9.70845
▁46	-9.70925
▁dimension	-9.70949
▁mono	-9.70983
▁straight	-9.71037
▁received	-9.71043
ata	-9.71084
▁sleep	-9.71124
▁bearing	-9.71143
ms	-9.71153
▁lab	-9.71213
▁means	-9.71217
▁uv	-9.71405
▁along	-9.71416
▁certified	-9.7156
▁allow	-9.71563
ell	-9.71599
▁lunch	-9.71614
▁walking	-9.71637
▁independent	-9.71644
▁cuisine	-9.71687
point	-9.71728
▁blood	-9.7173
▁distribution	-9.71858
tv	-9.71905
▁canada	-9.71918
▁candle	-9.72004
▁boots	-9.72025
▁voice	-9.72045
▁father	-9.72097
▁maria	-9.72119
vin	-9.72162
ative	-9.72188
▁circuit	-9.722
▁monitoring	-9.72203
▁gal	-9.72236
gan	-9.72282
▁zone	-9.72288
open	-9.72362
▁removal	-9.72415
▁least	-9.7245
ku	-9.72461
▁cycle	-9.72491
▁pcb	-9.72493
ug	-9.725
▁roma	-9.72506
▁fitness	-9.72572
▁death	-9.72592
amp	-9.72597
▁served	-9.72615
▁lines	-9.72626
▁investment	-9.72659
▁marine	-9.72676
▁41	-9.72693
▁complex	-9.72718
▁reg	-9.72726
▁document	-9.72754
▁ste	-9.72758
▁record	-9.72775
▁110	-9.7279
▁movement	-9.72813
▁cancel	-9.72826
ble	-9.72842
ving	-9.7292
▁rich	-9.72938
▁middle	-9.72938
▁cute	-9.72957
▁usage	-9.7297
ada	-9.72993
▁arab	-9.73001
▁mu	-9.7302
▁notes	-9.73042
▁documents	-9.73073
▁normal	-9.73187
▁plug	-9.73254
▁dec	-9.73335
tter	-9.73372
▁seal	-9.73403
ors	-9.73411
sc	-9.73421
▁able	-9.73437
ally	-9.73454
▁forest	-9.73455
ung	-9.735
▁ed	-9.73513
▁pocket	-9.7354
izing	-9.73553
mat	-9.73555
▁chf	-9.73588
▁queen	-9.73628
▁hat	-9.73714
▁ft	-9.73719
fin	-9.73723
▁yourself	-9.73767
▁220	-9.73774
▁screw	-9.73776
▁posts	-9.73812
▁ec	-9.73903
yl	-9.73952
▁called	-9.7397
eo	-9.74076
▁produced	-9.7408
▁problem	-9.74141
▁pot	-9.74142
ros	-9.74175
▁brake	-9.74219
▁fee	-9.74223
▁presentation	-9.74285
▁54	-9.74315
-01	-9.74358
▁(8	-9.74382
▁(10	-9.74388
via	-9.74389
▁ultra	-9.74429
ef	-9.74513
▁effective	-9.74528
ena	-9.74584
are	-9.7468
▁resistant	-9.74718
▁edge	-9.74746
vis	-9.74747
▁foam	-9.74809
uff	-9.74826
▁memory	-9.74949
ves	-9.74954
home	-9.74992
ay	-9.74997
high	-9.75004
▁programme	-9.75047
▁washing	-9.75096
▁lower	-9.751
ray	-9.75195
matic	-9.75216
▁sites	-9.75274
ins	-9.7536
▁roof	-9.75373
▁corner	-9.75459
▁nearby	-9.75469
▁converter	-9.75555
don	-9.75573
▁cinema	-9.75617
▁cultural	-9.75641
▁allows	-9.75695
rate	-9.75718
sis	-9.75857
▁coming	-9.7593
▁poker	-9.75943
▁secret	-9.7595
▁count	-9.7604
ski	-9.76223
view	-9.76236
▁pra	-9.76242
par	-9.76245
▁nov	-9.7625
▁gran	-9.76275
ori	-9.76328
llo	-9.7638
ward	-9.76459
▁sauce	-9.76464
▁rated	-9.76485
▁mount	-9.76515
ev	-9.76524
▁virgin	-9.76527
ox	-9.76533
▁wish	-9.76619
▁insurance	-9.76678
▁spot	-9.76689
▁85	-9.7669
kin	-9.76699
▁opera	-9.76706
▁tre	-9.76757
wi	-9.76764
▁dur	-9.76828
▁fla	-9.7688
ct	-9.76885
▁true	-9.76942
▁held	-9.76967
new	-9.77008
int	-9.77021
▁challenge	-9.77038
▁ep	-9.77047
▁interested	-9.77062
▁turin	-9.77082
/3	-9.77083
sk	-9.77125
▁jewelry	-9.77131
▁forum	-9.77202
▁smooth	-9.77219
ene	-9.77233
az	-9.77265
ual	-9.77312
▁takes	-9.77461
ik	-9.77561
▁visual	-9.77583
▁sole	-9.77591
▁goods	-9.77601
▁rain	-9.77679
cut	-9.77699
▁adapter	-9.77715
uc	-9.77731
▁cra	-9.77736
▁49	-9.77776
ey	-9.77782
log	-9.77883
sion	-9.77888
▁jan	-9.77957
act	-9.77957
ette	-9.77962
▁aqua	-9.78182
250	-9.78191
▁knowledge	-9.78216
well	-9.78238
ub	-9.78261
ira	-9.78319
▁prevent	-9.78485
gra	-9.78505
[	-9.78544
etti	-9.78601
▁hidden	-9.78627
▁lady	-9.78635
001	-9.78672
▁waste	-9.78697
ale	-9.787
▁urban	-9.78715
ese	-9.78777
▁russia	-9.78791
porn	-9.78794
-7	-9.78819
▁growth	-9.7882
elle	-9.78827
ible	-9.78839
hr	-9.7884
▁reduction	-9.7887
▁evening	-9.78921
▁others	-9.78967
av	-9.79
▁dollar	-9.79116
▁entrance	-9.79132
▁explore	-9.79301
▁quote	-9.79326
▁students	-9.79327
hot	-9.79337
▁running	-9.79424
▁compatible	-9.79458
▁dining	-9.79462
▁doors	-9.79519
▁https	-9.79523
▁pair	-9.7963
lio	-9.79637
nia	-9.79665
▁vision	-9.79673
▁theme	-9.79713
▁christ	-9.79769
▁reality	-9.79792
lon	-9.79793
▁focus	-9.79826
▁force	-9.79838
▁sim	-9.79868
▁changes	-9.79884
▁ku	-9.79918
▁promotion	-9.79944
▁scale	-9.7995
▁technologies	-9.79996
▁cons	-9.80044
▁sure	-9.80085
▁similar	-9.80103
▁180	-9.80123
▁demo	-9.80175
etta	-9.80281
▁innovative	-9.80335
bel	-9.80338
▁ki	-9.80355
▁specifications	-9.80362
▁3*	-9.80399
▁fees	-9.80399
▁orders	-9.80423
▁mix	-9.80452
▁shows	-9.80464
old	-9.80465
▁container	-9.80512
▁makes	-9.80519
▁score	-9.80541
▁creation	-9.80592
eur	-9.80614
▁resolution	-9.80676
otto	-9.80743
▁sugar	-9.80774
▁threesome	-9.80828
▁ref	-9.80858
▁brands	-9.80877
▁earth	-9.80917
▁battle	-9.80947
▁xxx	-9.80949
▁advantages	-9.80985
ren	-9.81014
▁forward	-9.81028
▁favorite	-9.81039
▁ability	-9.81064
▁mont	-9.81067
sur	-9.81229
▁palermo	-9.81318
▁compact	-9.81329
tz	-9.8141
▁hydro	-9.8143
dis	-9.81439
▁instructions	-9.81456
▁marco	-9.81539
▁characteristics	-9.81713
fu	-9.81743
▁impact	-9.81763
▁scene	-9.81795
▁brother	-9.81795
▁medicine	-9.81799
▁4*	-9.81813
▁romantic	-9.81837
ico	-9.81874
▁gps	-9.81952
▁david	-9.81997
2018	-9.82028
▁developed	-9.8205
▁croatia	-9.8217
▁agree	-9.82177
▁difference	-9.82216
▁africa	-9.82218
▁reserve	-9.82338
▁1.5	-9.82341
▁annual	-9.82407
▁toilet	-9.82432
gia	-9.82472
cer	-9.82529
▁10%	-9.8254
ense	-9.82625
▁brochure	-9.82644
▁chrome	-9.82646
▁teacher	-9.8267
▁universal	-9.82691
▁answer	-9.82734
2017	-9.82746
▁wheels	-9.82753
120	-9.82768
▁variety	-9.82787
▁bottom	-9.82835
ib	-9.82849
▁famous	-9.8293
▁mold	-9.82973
▁diesel	-9.83028
read	-9.83055
▁durable	-9.83161
▁va	-9.83173
▁produce	-9.83209
▁alarm	-9.83335
ele	-9.8338
-11	-9.83495
▁electro	-9.83496
etto	-9.83546
/10	-9.83554
▁ocean	-9.83554
▁campaign	-9.83601
▁military	-9.83601
del	-9.83646
black	-9.83656
▁replacement	-9.83667
▁panels	-9.83751
▁talk	-9.83756
▁architecture	-9.83801
▁ceiling	-9.83843
▁police	-9.83859
ect	-9.83907
▁slide	-9.83943
▁coated	-9.83944
▁inc	-9.83973
▁role	-9.83974
ltd	-9.83984
▁purposes	-9.83994
ture	-9.84046
▁sicily	-9.84084
lt	-9.84094
▁chip	-9.84131
ula	-9.84136
▁feed	-9.84222
▁essential	-9.84229
low	-9.84231
▁hp	-9.84243
▁pizza	-9.84245
▁kar	-9.84255
link	-9.84299
▁4*,	-9.84374
▁reading	-9.84426
▁chart	-9.84551
▁flight	-9.84571
▁terminal	-9.84617
▁rail	-9.84661
▁47	-9.84686
▁(4)	-9.8474
▁problems	-9.8477
▁offering	-9.84797
▁cro	-9.84803
▁boy	-9.84829
cast	-9.84908
iv	-9.8494
▁5-	-9.8495
▁creative	-9.84965
▁australia	-9.84983
▁books	-9.85002
pdf	-9.85078
▁polish	-9.85082
▁silk	-9.851
▁career	-9.85116
▁ir	-9.85122
▁et	-9.8514
▁jul	-9.85182
▁fer	-9.85204
▁pets	-9.85276
▁bill	-9.85303
▁treat	-9.85338
▁racing	-9.8535
▁status	-9.85351
▁drink	-9.8536
▁collect	-9.85425
▁marble	-9.85478
▁entertainment	-9.85495
▁tutorial	-9.85501
▁kw	-9.85507
▁palm	-9.85563
▁agreement	-9.85596
cher	-9.8568
with	-9.8574
pin	-9.85787
▁tagged	-9.85791
▁58	-9.85864
▁measurement	-9.85884
ade	-9.85888
▁piano	-9.85949
▁meter	-9.85972
▁superior	-9.8599
▁economic	-9.86018
▁tasting	-9.86038
▁cake	-9.8609
from	-9.8615
▁tin	-9.86181
▁ul	-9.86224
cul	-9.86279
▁morning	-9.86341
▁sleeve	-9.8635
▁library	-9.86382
ign	-9.86456
▁tattoo	-9.86487
▁really	-9.86552
uri	-9.86579
tation	-9.86588
▁geo	-9.86617
▁offered	-9.86673
▁tele	-9.86779
▁mil	-9.86793
ery	-9.86937
▁railway	-9.8694
▁journey	-9.87077
▁eva	-9.87132
▁bon	-9.87201
▁apr	-9.87201
color	-9.87211
▁icon	-9.87236
▁minute	-9.87306
▁porto	-9.87329
▁paul	-9.87342
▁having	-9.87442
mal	-9.87472
ima	-9.8749
▁glasses	-9.87517
▁awards	-9.87569
▁artist	-9.87666
▁nail	-9.87671
▁cycling	-9.87676
▁attack	-9.87678
▁moscow	-9.87777
▁split	-9.87811
head	-9.87831
▁desk	-9.87877
▁ly	-9.87882
▁mission	-9.87939
▁worth	-9.87957
ua	-9.88002
▁issue	-9.88015
tur	-9.88041
design	-9.88113
▁bel	-9.88208
web	-9.88216
▁0.0	-9.88243
▁bad	-9.88245
▁loading	-9.88262
med	-9.88266
▁dual	-9.88303
▁mel	-9.88322
▁dildo	-9.8834
▁rear	-9.88376
▁jun	-9.88557
▁cy	-9.8859
▁apps	-9.88639
▁song	-9.88709
▁escort	-9.88735
inter	-9.88784
▁3*,	-9.88833
ised	-9.88979
▁landscape	-9.88991
▁fields	-9.89234
/12	-9.89255
1000	-9.89266
▁ingredients	-9.89371
▁fax	-9.89411
ball	-9.89489
▁deluxe	-9.89548
▁players	-9.8955
▁purpose	-9.89594
▁coat	-9.89604
uni	-9.89666
">	-9.89686
▁lace	-9.89706
▁given	-9.8971
▁shuttle	-9.89804
▁expo	-9.89858
▁(9	-9.89876
iz	-9.89877
stone	-9.89925
▁fund	-9.89931
water	-9.90026
gna	-9.90029
▁advice	-9.90115
▁99	-9.90169
sky	-9.90293
▁demand	-9.90372
life	-9.90442
▁suit	-9.90484
▁pain	-9.90502
zza	-9.90546
▁separate	-9.90679
str	-9.90697
▁idea	-9.90709
style	-9.90717
▁bell	-9.9074
▁eat	-9.90742
▁lounge	-9.90785
▁condition	-9.90829
▁juice	-9.9085
pan	-9.91012
▁comes	-9.91077
▁launch	-9.9108
▁56	-9.91111
xi	-9.91128
ration	-9.91157
▁pisa	-9.91244
▁grow	-9.91283
700	-9.91295
▁planning	-9.9142
info	-9.91476
▁oct	-9.9149
▁damage	-9.91595
▁63	-9.91653
und	-9.91661
ass	-9.91679
▁yoga	-9.91701
▁christian	-9.91803
play	-9.91841
▁sat	-9.91901
▁brush	-9.91908
▁gel	-9.91927
▁acrylic	-9.91929
,50	-9.92024
spi	-9.92027
▁formula	-9.92092
▁es	-9.92113
cap	-9.92186
teen	-9.92189
▁brass	-9.92202
▁mind	-9.92215
▁getting	-9.92225
▁database	-9.92232
▁parties	-9.9229
▁foreign	-9.92293
spect	-9.92414
▁360	-9.92447
non	-9.92501
tti	-9.92543
▁contains	-9.92543
load	-9.92544
▁tennis	-9.92556
▁owner	-9.92589
▁thai	-9.9259
▁sep	-9.92601
▁often	-9.92741
▁temp	-9.92769
din	-9.92833
▁2.0	-9.9285
▁59	-9.92871
mark	-9.92888
▁kr	-9.92905
vol	-9.92925
▁2003	-9.92956
▁smoking	-9.92967
bre	-9.92998
▁yu	-9.93135
▁paid	-9.93178
ular	-9.93231
▁2004	-9.93245
-15	-9.93289
▁magnetic	-9.93296
▁57	-9.93307
▁consent	-9.93316
shi	-9.9342
lar	-9.93455
▁elements	-9.93468
▁overview	-9.935
▁transparent	-9.93506
▁advance	-9.93525
▁trail	-9.93544
▁bl	-9.93549
▁oven	-9.93584
ified	-9.93611
burg	-9.93636
▁moon	-9.93708
▁saw	-9.93813
cr	-9.93824
▁ya	-9.9386
▁pat	-9.93868
▁hire	-9.93891
▁fly	-9.93892
▁longer	-9.93923
ali	-9.93936
pr	-9.9397
pack	-9.93982
▁tip	-9.93992
▁greek	-9.93995
ude	-9.94048
ient	-9.94064
▁contemporary	-9.94092
mas	-9.94142
▁ok	-9.94195
▁fix	-9.94208
ions	-9.94252
▁trust	-9.94252
▁seven	-9.94255
ov	-9.94256
▁clip	-9.943
year	-9.94365
▁steam	-9.94419
▁dont	-9.94421
nc	-9.94458
city	-9.94462
rn	-9.94467
▁pornstar	-9.94481
▁requests	-9.94488
tr	-9.94508
sch	-9.94527
▁wave	-9.94537
▁continuous	-9.94574
▁tro	-9.94641
▁69	-9.94654
▁direction	-9.94667
▁pasta	-9.94739
ship	-9.94743
▁yet	-9.94787
▁alternative	-9.94789
pal	-9.94813
hd	-9.94826
▁cod	-9.94865
▁gun	-9.94889
▁backup	-9.94918
▁featured	-9.94919
▁sta	-9.94931
▁protected	-9.94955
▁statement	-9.95064
ville	-9.95078
lli	-9.95117
▁generation	-9.9512
▁72	-9.95125
▁words	-9.95135
▁350	-9.95148
▁housing	-9.95275
part	-9.9528
▁dan	-9.95322
▁india	-9.95331
▁sm	-9.95343
▁expert	-9.95367
▁played	-9.95397
/2018	-9.95446
▁joint	-9.95593
lam	-9.95614
▁string	-9.95633
rich	-9.95646
▁vehicles	-9.95725
nce	-9.95735
anti	-9.95742
▁profit	-9.95749
▁animal	-9.95835
▁forming	-9.95849
▁cer	-9.95853
▁stick	-9.95879
▁taxi	-9.95881
girl	-9.95907
▁51	-9.95915
▁ban	-9.96019
▁53	-9.96044
/8	-9.96046
fit	-9.96105
-9	-9.96118
▁galvanized	-9.96204
▁recent	-9.96221
fl	-9.96275
pers	-9.96303
▁learning	-9.96366
tube	-9.96403
rio	-9.96506
ral	-9.96526
▁got	-9.96571
table	-9.96577
▁hands	-9.96667
▁layer	-9.96742
▁tight	-9.96769
gg	-9.96788
▁pole	-9.96819
▁youtube	-9.96819
▁avoid	-9.9686
ida	-9.9689
110	-9.9694
▁amazing	-9.96965
down	-9.97002
/19	-9.97021
▁hose	-9.97064
▁garda	-9.9714
▁fishing	-9.9722
▁leader	-9.97221
/20	-9.97233
▁done	-9.97256
▁wet	-9.9726
eria	-9.97268
▁advantage	-9.973
tive	-9.97318
▁reservations	-9.97335
▁filling	-9.97358
▁championship	-9.9741
▁optical	-9.97423
▁pattern	-9.97426
white	-9.97441
▁retail	-9.97535
▁ze	-9.97566
ona	-9.97591
▁emergency	-9.97627
▁tan	-9.97656
▁wordpress	-9.97692
not	-9.97705
▁tent	-9.97791
mt	-9.978
bed	-9.97814
tta	-9.9783
▁strategy	-9.97848
▁charger	-9.97913
sy	-9.97947
▁eyes	-9.97952
▁asia	-9.97964
▁ram	-9.98004
(2	-9.98011
▁traffic	-9.98071
▁bronze	-9.98083
field	-9.9811
▁cord	-9.98143
▁erotic	-9.98162
▁perform	-9.98175
▁fur	-9.98189
▁supported	-9.98262
▁automation	-9.98349
▁edit	-9.98419
▁hardware	-9.98489
▁turkish	-9.98516
list	-9.98536
▁something	-9.98575
▁ray	-9.98585
▁spread	-9.98589
▁chamber	-9.98637
pen	-9.98646
▁rice	-9.98664
tar	-9.98699
▁gym	-9.98726
▁recommend	-9.98734
long	-9.98739
▁unlimited	-9.9874
▁han	-9.98784
▁efficient	-9.98816
ties	-9.98829
bag	-9.98877
▁dynamic	-9.98888
win	-9.989
▁couples	-9.98922
▁sorrento	-9.98964
▁str	-9.98964
▁photography	-9.98982
▁guaranteed	-9.99
gon	-9.99003
stra	-9.99013
▁exercise	-9.9902
▁cru	-9.99022
▁ear	-9.99028
▁distributor	-9.99076
ute	-9.99103
card	-9.99195
lm	-9.99204
▁inspection	-9.99246
▁placed	-9.99306
▁shell	-9.99319
▁instant	-9.99364
▁theater	-9.99376
▁zip	-9.99388
▁incl	-9.99472
ick	-9.99498
▁preparation	-9.99527
▁prague	-9.99536
py	-9.9958
▁army	-9.99584
▁recipes	-9.99674
▁euros	-9.99718
▁retro	-9.9972
bol	-9.99734
2019	-9.99806
▁gloves	-9.99891
▁budget	-9.99924
▁tech	-9.99951
▁concert	-9.99979
▁hol	-9.99985
▁triple	-10.0002
▁reliable	-10.0009
▁appearance	-10.001
▁temple	-10.0011
▁seconds	-10.0012
qu	-10.0015
▁contest	-10.0016
▁connected	-10.0021
▁faq	-10.0023
▁setting	-10.0028
▁serve	-10.003
▁oral	-10.0033
▁going	-10.0037
ama	-10.0042
▁dam	-10.0042
▁stories	-10.0044
post	-10.0045
▁moment	-10.0045
▁hold	-10.005
▁pur	-10.0051
▁promote	-10.0053
▁convenient	-10.006
▁bro	-10.0066
▁clock	-10.0067
▁studies	-10.0067
cho	-10.0068
▁(5)	-10.007
▁24-	-10.0075
▁hostels	-10.008
pass	-10.0081
cur	-10.0083
mic	-10.0083
▁cad	-10.0084
len	-10.0087
▁historic	-10.0101
▁adhesive	-10.0102
."	-10.0105
▁11.	-10.0107
aria	-10.0107
▁hairy	-10.0108
▁index	-10.0108
▁transmission	-10.0112
▁serving	-10.0113
▁luggage	-10.0118
db	-10.0122
ob	-10.0123
▁reasons	-10.0123
ose	-10.0123
▁nike	-10.0124
8.00	-10.0127
▁cases	-10.0129
▁element	-10.013
ili	-10.0131
▁sizes	-10.0135
▁cc	-10.0139
▁took	-10.0139
▁disabled	-10.0143
▁died	-10.0144
gno	-10.0149
▁import	-10.0151
gio	-10.0152
▁currency	-10.0152
▁elevator	-10.0152
▁levels	-10.0152
▁stores	-10.0153
▁scar	-10.0156
▁guided	-10.016
▁sen	-10.0161
▁command	-10.0166
hen	-10.0167
▁neck	-10.0169
▁tab	-10.0183
▁birth	-10.0183
nes	-10.0191
▁sitemap	-10.0192
900	-10.0193
▁dust	-10.0197
▁ride	-10.0203
you	-10.0205
▁tur	-10.0206
gy	-10.0207
▁inner	-10.0208
▁too	-10.0208
▁response	-10.021
▁bisexual	-10.0216
▁ways	-10.0216
ique	-10.0216
▁trial	-10.0218
▁fri	-10.0219
0.0	-10.0225
▁commission	-10.0227
▁sauna	-10.0229
▁integration	-10.0234
▁apk	-10.0237
▁character	-10.024
ition	-10.0256
▁introduction	-10.0256
▁cities	-10.0257
▁wash	-10.0264
▁charging	-10.0265
/1	-10.0265
lia	-10.0268
▁channels	-10.0271
▁istanbul	-10.0274
▁votes	-10.0274
▁decorative	-10.0274
ora	-10.0275
▁hole	-10.0277
nch	-10.0286
▁came	-10.0288
ken	-10.0291
▁deal	-10.0291
▁insulation	-10.0293
▁michael	-10.0297
▁letter	-10.0301
▁refer	-10.0305
ging	-10.0309
right	-10.0316
▁healthy	-10.032
▁ol	-10.032
▁lt	-10.032
▁packages	-10.032
▁sar	-10.0325
▁porn	-10.0325
▁hits	-10.033
pon	-10.0334
▁stretch	-10.0338
▁theatre	-10.0341
▁140	-10.0345
-18	-10.0346
▁government	-10.035
▁powerful	-10.0351
▁throughout	-10.0352
▁portal	-10.0356
▁schedule	-10.0367
avi	-10.0371
▁noise	-10.0371
▁congress	-10.0373
tin	-10.0374
▁125	-10.0378
bro	-10.0379
▁amenities	-10.0379
ction	-10.038
▁pallet	-10.038
▁slip	-10.0389
▁families	-10.0391
▁mediterranean	-10.0391
▁shops	-10.0395
▁counter	-10.0402
▁sk	-10.0402
▁leisure	-10.0403
▁$2	-10.0409
▁austria	-10.0416
/5	-10.0416
▁enterprise	-10.042
▁meals	-10.0425
▁daughter	-10.0427
proof	-10.0431
▁pull	-10.0438
▁sh	-10.0439
▁civil	-10.0444
ante	-10.0446
100%	-10.0447
▁guy	-10.0453
pet	-10.0459
▁dia	-10.0462
-2019	-10.0462
▁textile	-10.0473
ova	-10.0474
▁composition	-10.0474
▁daniel	-10.0475
▁reduced	-10.0476
▁entire	-10.0479
▁behind	-10.048
▁wo	-10.048
see	-10.0481
▁sam	-10.0485
▁attention	-10.0486
nal	-10.0487
▁automatically	-10.0489
▁buffet	-10.0498
▁tray	-10.0501
▁pearl	-10.0506
istic	-10.0507
▁plaza	-10.0511
▁95	-10.0513
▁writing	-10.0517
▁hook	-10.053
ius	-10.0535
▁rec	-10.0538
▁62	-10.054
cat	-10.0545
tain	-10.0547
▁fence	-10.055
▁spirit	-10.0551
-03	-10.0552
lim	-10.0559
▁corn	-10.0563
▁nurse	-10.0564
:15	-10.0565
▁filters	-10.0578
▁drawing	-10.0581
▁economy	-10.0581
ax	-10.0582
▁66	-10.0582
▁tire	-10.0586
▁standards	-10.0587
▁duty	-10.0587
▁vienna	-10.0589
▁slot	-10.0594
dra	-10.0595
▁configuration	-10.0599
▁des	-10.0607
▁upper	-10.0609
ille	-10.0611
made	-10.0622
video	-10.0622
▁concrete	-10.0624
▁cla	-10.0628
roll	-10.0628
▁2)	-10.063
▁pri	-10.063
▁finished	-10.0633
▁pornhub	-10.0636
▁object	-10.0636
/2	-10.0637
▁gain	-10.0639
▁prime	-10.064
sol	-10.064
▁160	-10.0646
xxx	-10.0647
lum	-10.065
▁resin	-10.065
▁mexico	-10.0654
▁din	-10.0668
▁feb	-10.0669
▁specification	-10.0671
ned	-10.0671
▁functions	-10.068
▁satellite	-10.069
▁league	-10.069
▁combination	-10.069
0.000	-10.0691
ika	-10.0695
▁alcohol	-10.0702
pri	-10.0704
▁flag	-10.0707
▁tar	-10.0709
-30	-10.0713
▁ios	-10.0716
▁ur	-10.0718
▁instruments	-10.0719
▁bottles	-10.0722
▁browse	-10.0722
▁0.5	-10.0725
▁firm	-10.0727
▁push	-10.0735
ei	-10.0738
▁eng	-10.074
/06	-10.0745
▁homemade	-10.0749
▁tokyo	-10.0751
▁taken	-10.0755
▁robot	-10.0761
▁50%	-10.0765
▁drill	-10.077
▁vs	-10.0778
▁heritage	-10.0788
▁dates	-10.0792
uck	-10.0793
▁beer	-10.0794
gas	-10.0798
▁sq	-10.0798
based	-10.0801
▁ebony	-10.0803
zu	-10.0809
▁carlo	-10.081
▁sister	-10.0813
▁1)	-10.0814
▁pal	-10.0816
ulate	-10.0816
power	-10.0818
▁squirt	-10.0819
▁spy	-10.0822
▁ser	-10.0825
▁everyone	-10.0825
▁gla	-10.0826
var	-10.0826
▁0.1	-10.0829
▁gt	-10.0833
gre	-10.0837
▁(6)	-10.0839
▁wool	-10.0839
▁depth	-10.084
▁basket	-10.0843
▁tournament	-10.0843
▁directions	-10.0844
▁says	-10.0847
▁riding	-10.0847
order	-10.0848
ches	-10.085
▁institute	-10.0854
▁relationship	-10.0856
▁(18	-10.086
▁76	-10.0865
night	-10.0865
▁late	-10.0877
▁promotions	-10.0877
ency	-10.0881
▁taking	-10.0882
▁overall	-10.0882
contact	-10.0885
▁sy	-10.0888
▁destination	-10.0891
-02	-10.0891
ney	-10.0892
rus	-10.0893
▁facial	-10.0903
▁aid	-10.0903
▁granny	-10.0907
live	-10.0909
zzo	-10.091
▁exp	-10.0916
▁academy	-10.0917
lock	-10.0921
rol	-10.0921
english	-10.0923
▁cruise	-10.0923
▁thought	-10.0931
-04	-10.0934
▁excursions	-10.0938
tone	-10.0958
▁gets	-10.0961
▁reader	-10.0962
▁uses	-10.0963
▁leading	-10.0963
▁shared	-10.0964
▁costa	-10.0964
▁panoramic	-10.0967
nm	-10.0972
iano	-10.0973
bri	-10.0976
▁2.5	-10.0983
▁develop	-10.0983
▁maintain	-10.0989
▁higher	-10.0989
rk	-10.0992
▁transportation	-10.0995
▁rub	-10.1
mini	-10.1002
sport	-10.1005
oid	-10.1006
▁clar	-10.1015
▁artists	-10.1015
▁hill	-10.1031
▁applied	-10.1042
▁canvas	-10.1044
▁upgrade	-10.1045
/2017	-10.105
2015	-10.1056
▁cloth	-10.1058
▁68	-10.1059
ici	-10.1061
nova	-10.1066
ich	-10.1067
ever	-10.1068
▁ky	-10.1069
▁96	-10.1072
lc	-10.108
▁limit	-10.108
▁kb	-10.1091
▁installed	-10.1092
▁column	-10.1093
▁physical	-10.1099
▁coupon	-10.1106
/03	-10.1108
▁rough	-10.111
▁uniform	-10.1113
▁mai	-10.1113
▁processes	-10.1114
▁shot	-10.1114
▁hy	-10.1122
▁deals	-10.1122
▁graphic	-10.1124
▁conversion	-10.1125
▁bdsm	-10.1126
▁shipment	-10.1128
▁approach	-10.1131
▁markets	-10.1135
▁cleaner	-10.1141
bin	-10.1142
▁junior	-10.115
▁playing	-10.1152
▁od	-10.1158
mann	-10.1162
▁weekend	-10.1164
▁dolomites	-10.1165
▁regulation	-10.1166
▁beam	-10.1168
▁130	-10.1172
service	-10.1176
▁mixed	-10.1176
▁quickly	-10.118
▁au	-10.1182
▁secretary	-10.1184
▁gri	-10.1185
▁abs	-10.1187
▁700	-10.1188
▁smartphone	-10.1189
pot	-10.1192
▁bowl	-10.1197
▁blade	-10.12
▁drum	-10.1201
enza	-10.1201
▁sets	-10.1202
▁miles	-10.1204
aro	-10.1205
/4	-10.1207
▁dubai	-10.1207
▁6,	-10.1212
last	-10.1215
▁rh	-10.1216
▁compressor	-10.1216
▁sleeping	-10.1221
▁programs	-10.1224
▁guesthouse	-10.123
▁pumps	-10.1233
▁iii	-10.1233
▁conf	-10.1234
ux	-10.1236
▁budapest	-10.1239
▁rs	-10.1243
about	-10.1246
▁arc	-10.1247
▁ken	-10.125
code	-10.1251
9,00	-10.1252
san	-10.1256
vent	-10.1264
▁tablet	-10.1264
▁7,	-10.1266
▁jack	-10.1269
▁participate	-10.1278
▁elastic	-10.1278
▁sol	-10.1278
dr	-10.128
▁crown	-10.1281
▁shall	-10.1284
▁consulting	-10.1289
▁hub	-10.129
▁los	-10.1291
▁athens	-10.1293
▁seen	-10.1295
ification	-10.1303
late	-10.1305
▁driving	-10.131
▁necklace	-10.131
ising	-10.1311
eri	-10.1311
▁vip	-10.1314
▁wonderful	-10.1325
▁values	-10.1329
▁com	-10.1333
ash	-10.1334
▁covered	-10.1334
▁pic	-10.1338
ological	-10.1345
▁bread	-10.1346
eng	-10.135
▁recover	-10.1353
▁10:00	-10.1357
▁seats	-10.1358
▁fra	-10.136
▁waiting	-10.1361
serv	-10.1366
▁laboratory	-10.1369
▁honey	-10.137
▁collections	-10.1374
▁gb	-10.1379
▁agent	-10.1388
▁amsterdam	-10.1388
▁scooter	-10.1388
▁forecast	-10.1388
▁aparthotel	-10.1396
▁woven	-10.1415
▁highest	-10.1418
soft	-10.1419
▁sw	-10.1419
▁linen	-10.1424
▁editor	-10.1434
how	-10.1434
lla	-10.1436
▁siena	-10.1436
▁television	-10.1441
▁upload	-10.1441
▁peace	-10.1447
▁machining	-10.1447
rin	-10.1452
▁addition	-10.1455
▁division	-10.1456
tina	-10.1459
▁collaboration	-10.146
▁tracking	-10.1463
▁turkey	-10.1467
▁mol	-10.147
gli	-10.1473
▁riviera	-10.1473
▁charm	-10.1473
hy	-10.1474
▁instrument	-10.1475
oz	-10.1475
▁bang	-10.1475
▁linear	-10.1476
bl	-10.1479
-07	-10.1482
▁drug	-10.1485
▁stable	-10.1488
▁yo	-10.1488
mont	-10.1493
▁cancellation	-10.1493
size	-10.1494
▁matter	-10.1495
ret	-10.1496
▁submit	-10.1505
▁champion	-10.1508
▁began	-10.1508
get	-10.1509
▁dresses	-10.1509
▁antenna	-10.1513
other	-10.1514
▁sort	-10.1514
▁society	-10.1515
▁rev	-10.1516
▁vin	-10.1517
▁princess	-10.1519
▁tubes	-10.1521
▁warehouse	-10.1526
▁rope	-10.1531
rie	-10.1534
key	-10.1539
▁shi	-10.154
2016	-10.155
!!	-10.1563
▁slow	-10.1567
▁sku	-10.157
▁clothes	-10.1572
▁lens	-10.1572
▁peter	-10.158
▁mas	-10.1584
▁anna	-10.1584
love	-10.1591
▁holy	-10.1591
nese	-10.1601
ford	-10.1604
▁specialist	-10.1611
friendly	-10.1612
▁shoulder	-10.162
▁dating	-10.162
▁sin	-10.1626
▁latin	-10.1629
▁mary	-10.163
▁cook	-10.1632
1.5	-10.1634
vers	-10.1635
▁highly	-10.1635
▁fight	-10.1638
rp	-10.1639
▁sorted	-10.1642
▁desktop	-10.1646
▁sheets	-10.1649
▁soul	-10.1651
▁density	-10.1652
▁beginning	-10.1652
▁proof	-10.1654
ucci	-10.1658
▁therapy	-10.1658
▁gray	-10.1665
▁named	-10.1667
▁victoria	-10.1669
▁needed	-10.1669
▁backpack	-10.167
next	-10.1671
▁guitar	-10.1672
▁pla	-10.1675
▁regional	-10.1675
mu	-10.1676
▁ibiza	-10.1679
240	-10.1679
▁30%	-10.1683
▁bear	-10.1685
chan	-10.1685
▁territory	-10.1686
▁former	-10.1688
▁bluetooth	-10.1692
/05	-10.1692
east	-10.1693
▁permanent	-10.1699
▁rosa	-10.1702
zer	-10.1703
onia	-10.1704
▁ham	-10.1704
2000	-10.1706
▁extreme	-10.1706
▁garage	-10.1711
-2018	-10.1712
▁thermo	-10.1721
▁je	-10.1722
220	-10.1726
▁remember	-10.1726
▁(12	-10.1728
▁mens	-10.1731
▁lan	-10.1735
▁founded	-10.1737
gal	-10.1741
▁skills	-10.1745
▁ads	-10.1746
▁61	-10.175
▁visa	-10.1757
group	-10.1759
2.5	-10.176
▁completely	-10.1762
▁der	-10.1766
meter	-10.1766
oil	-10.1771
phy	-10.1775
mes	-10.1778
izer	-10.1779
▁suspension	-10.178
▁blow	-10.1782
▁beat	-10.1782
▁hong	-10.1786
dom	-10.179
pos	-10.1792
▁dar	-10.1796
▁competitive	-10.1798
▁musical	-10.18
▁respect	-10.1801
▁root	-10.1807
▁madrid	-10.1807
▁cannot	-10.1808
▁drilling	-10.1811
▁petersburg	-10.1814
▁visits	-10.1822
▁domination	-10.1827
▁married	-10.1827
▁grill	-10.183
vat	-10.1831
▁lord	-10.1832
▁mad	-10.1833
▁uncensored	-10.1834
▁youth	-10.1839
▁brief	-10.1842
▁met	-10.1848
▁tables	-10.1856
▁3000	-10.186
bike	-10.1861
tis	-10.1862
▁deliver	-10.1872
yn	-10.1876
dic	-10.1878
vel	-10.1886
▁blend	-10.1887
▁maker	-10.1892
nor	-10.1894
store	-10.1905
▁ger	-10.1907
bell	-10.1908
▁laundry	-10.1909
▁background	-10.1911
▁enable	-10.1912
▁emails	-10.1921
▁chapter	-10.1923
▁67	-10.1931
▁capri	-10.1933
▁kong	-10.194
▁slim	-10.1944
▁aim	-10.1946
▁chairs	-10.1947
▁def	-10.1948
▁developer	-10.195
ala	-10.1951
▁dealer	-10.1954
rr	-10.1958
▁promotional	-10.196
bet	-10.196
mor	-10.1961
fc	-10.1961
▁animals	-10.1962
▁guard	-10.1963
▁detector	-10.1964
ii	-10.1965
▁den	-10.1966
▁1/2	-10.1971
▁subscription	-10.1971
:10	-10.1976
▁definition	-10.1978
▁humidity	-10.1978
▁paradise	-10.1978
▁andrea	-10.1979
▁salon	-10.198
ations	-10.1982
▁;	-10.1986
band	-10.1988
▁lemon	-10.1989
▁occasion	-10.1999
▁hope	-10.2004
▁correct	-10.201
1.00	-10.2018
▁locations	-10.2018
▁pepper	-10.202
160	-10.2021
▁vegetable	-10.2024
▁council	-10.2027
▁certain	-10.2027
▁mould	-10.2027
▁jump	-10.2028
▁instead	-10.2034
▁motion	-10.2038
oro	-10.2038
▁coach	-10.2041
▁egg	-10.2041
-06	-10.2043
▁valves	-10.2048
▁samsung	-10.2055
screen	-10.2055
▁mare	-10.2062
mate	-10.2062
▁om	-10.2062
har	-10.2063
▁rank	-10.2074
▁hr	-10.2079
▁cartoon	-10.2084
▁arts	-10.2088
▁responsible	-10.2089
▁titanium	-10.209
▁dental	-10.2091
uro	-10.2095
▁2002	-10.2097
0000	-10.2101
▁wait	-10.2101
▁comm	-10.2104
aff	-10.2107
▁recording	-10.211
▁beaches	-10.2111
▁eli	-10.2117
▁88	-10.2119
▁pom	-10.2119
▁records	-10.2124
rina	-10.2126
▁polo	-10.2128
tru	-10.2129
▁drinks	-10.2133
ped	-10.2134
▁numbers	-10.2134
▁measure	-10.214
/07	-10.2143
▁rapid	-10.2151
anna	-10.2153
poli	-10.2163
▁accepted	-10.2166
▁sur	-10.2166
▁residential	-10.2167
▁almost	-10.2168
▁ali	-10.2174
test	-10.2175
▁magnet	-10.2179
hand	-10.218
▁automotive	-10.2181
▁symbol	-10.2181
▁sunny	-10.2181
▁possibility	-10.2188
▁doll	-10.2189
▁executive	-10.2195
▁sustainable	-10.2195
world	-10.2196
ants	-10.2197
▁particular	-10.2197
nn	-10.2203
▁pleasure	-10.2209
wear	-10.221
▁constant	-10.2211
▁scan	-10.2214
wall	-10.2217
▁horizontal	-10.222
sign	-10.2225
▁79	-10.2227
▁excellence	-10.223
▁kat	-10.2232
▁sant	-10.2235
▁spec	-10.2237
▁adjust	-10.2238
▁directory	-10.2243
▁population	-10.2252
oma	-10.2253
▁tr	-10.2255
mag	-10.2256
▁oh	-10.2257
▁exit	-10.2261
isation	-10.2262
media	-10.2265
▁salad	-10.2265
▁kill	-10.2267
▁apart	-10.2269
-05	-10.2269
▁samples	-10.227
ming	-10.2271
▁approved	-10.2271
▁detailed	-10.2272
▁draw	-10.2277
▁asked	-10.2284
blue	-10.2286
front	-10.2286
▁terra	-10.2287
▁swedish	-10.2287
▁barrier	-10.2294
▁mari	-10.2295
term	-10.2295
▁quiet	-10.2296
▁pitch	-10.2307
▁factor	-10.2307
news	-10.231
▁functional	-10.2314
▁appointment	-10.2315
▁bass	-10.2316
▁believe	-10.2316
▁matt	-10.2318
/01	-10.2321
▁iv	-10.2322
▁fin	-10.2327
▁450	-10.2327
▁dutch	-10.233
▁pendant	-10.233
▁wh	-10.2332
▁castel	-10.2333
iti	-10.2336
tex	-10.2336
▁joy	-10.2337
▁colours	-10.234
▁shaft	-10.234
▁piazza	-10.2344
▁trend	-10.2347
▁shoe	-10.2351
tea	-10.2353
aries	-10.2354
ening	-10.2357
▁immediately	-10.2358
▁coin	-10.236
page	-10.2366
▁twitter	-10.2367
▁sil	-10.237
-09	-10.237
▁#1	-10.2371
▁sculpture	-10.2373
▁brazil	-10.2378
▁pregnant	-10.2387
▁buildings	-10.2393
chen	-10.2397
▁moncler	-10.2402
▁helmet	-10.2409
▁bulb	-10.2416
▁spin	-10.242
zio	-10.2423
ear	-10.2424
lit	-10.2425
▁microwave	-10.2431
▁disease	-10.2436
▁figure	-10.2437
▁jersey	-10.2438
▁flavor	-10.2438
▁rea	-10.2444
inch	-10.2444
▁exhibitions	-10.2445
izz	-10.2448
▁900	-10.2451
ics	-10.2454
usa	-10.2454
▁cutter	-10.2457
▁autumn	-10.2459
ban	-10.2461
▁86	-10.2463
▁cho	-10.2465
big	-10.2466
▁instruction	-10.2467
▁deck	-10.2471
▁towards	-10.2486
vic	-10.2487
▁13,	-10.2492
quality	-10.2498
▁planet	-10.2498
▁tam	-10.25
rent	-10.2506
▁collected	-10.2508
tine	-10.2514
▁*****	-10.2515
▁cabin	-10.2519
▁changed	-10.252
▁handling	-10.2529
▁98	-10.2531
▁celebrate	-10.2532
▁norwegian	-10.2532
▁lessons	-10.2532
▁sav	-10.2533
park	-10.254
▁discounts	-10.2551
▁metro	-10.2556
▁ter	-10.2557
▁20%	-10.2558
▁nude	-10.256
ado	-10.256
▁gives	-10.256
▁antonio	-10.2579
▁selling	-10.2581
▁flex	-10.2585
▁zero	-10.2585
▁->	-10.2586
▁busty	-10.2594
▁protective	-10.2596
▁mixer	-10.2597
▁batteries	-10.2598
▁depend	-10.2599
▁james	-10.2601
▁sharing	-10.2609
▁pneumatic	-10.2611
▁consult	-10.2614
nel	-10.2615
▁78	-10.262
▁provider	-10.2623
mc	-10.2627
▁palazzo	-10.2628
aki	-10.263
▁contain	-10.2631
▁benefit	-10.2635
▁ipad	-10.2635
▁harvest	-10.2642
care	-10.2643
host	-10.2645
▁hiking	-10.2645
▁refund	-10.2648
▁jet	-10.2651
▁modular	-10.2653
cra	-10.2656
▁accuracy	-10.2657
▁protein	-10.2657
▁dublin	-10.2664
▁oak	-10.2665
▁bars	-10.2668
▁sec	-10.267
▁stream	-10.2673
▁novel	-10.2675
▁les	-10.268
▁newsletters	-10.268
▁issues	-10.2681
-16	-10.2681
▁earn	-10.2682
▁seeds	-10.2684
▁lingerie	-10.2687
▁hills	-10.2692
▁ladies	-10.2694
erie	-10.2698
hl	-10.2698
▁0.2	-10.2699
▁lamps	-10.2701
▁optic	-10.2703
▁indicator	-10.2709
▁(7)	-10.2714
▁stamp	-10.272
▁returns	-10.2723
▁george	-10.2724
▁(11	-10.2727
tto	-10.2729
▁thin	-10.2732
▁cent	-10.2732
▁finger	-10.2734
▁ms	-10.2736
ons	-10.2737
▁bulk	-10.2739
nie	-10.2745
▁processed	-10.2755
▁feedback	-10.277
gp	-10.2773
▁fittings	-10.2774
▁por	-10.2777
ago	-10.2781
▁climate	-10.2784
▁(15	-10.2784
▁lip	-10.2785
▁boats	-10.2786
▁boot	-10.2789
▁practical	-10.2791
▁followers	-10.2792
▁birthday	-10.2793
▁clamp	-10.2802
▁folding	-10.2804
▁confirm	-10.2805
▁zinc	-10.2808
▁ic	-10.281
▁av	-10.2813
▁steroids	-10.2814
▁korean	-10.2819
▁funny	-10.282
pol	-10.282
rl	-10.2825
▁mira	-10.2828
▁mineral	-10.2833
mond	-10.2836
▁interactive	-10.2837
:45	-10.2845
▁louis	-10.285
▁vitamin	-10.2854
▁bug	-10.2857
▁lin	-10.2858
bio	-10.2861
▁till	-10.2865
▁survey	-10.2866
▁sd	-10.2874
▁schools	-10.2876
nda	-10.2878
▁studios	-10.2879
die	-10.2881
▁vis	-10.2888
-0	-10.2891
▁stations	-10.2893
▁seduction	-10.2897
▁1.2	-10.29
▁offices	-10.2901
dc	-10.2901
▁cathedral	-10.2904
▁insertion	-10.2906
phone	-10.2907
!!!	-10.2913
▁plans	-10.2919
▁moving	-10.292
▁increased	-10.2924
▁microsoft	-10.293
▁1200	-10.2934
▁yarn	-10.2935
▁treatments	-10.2936
ments	-10.2942
▁obtain	-10.2945
▁inquiry	-10.295
▁reports	-10.2951
▁fre	-10.2951
▁task	-10.2954
▁engineer	-10.2954
▁trailer	-10.2956
bc	-10.296
▁farmhouse	-10.296
▁pod	-10.2963
▁manufacture	-10.2966
▁messages	-10.2969
▁row	-10.297
▁fran	-10.297
-08	-10.2971
39)	-10.2972
▁cosmetic	-10.2973
▁orgy	-10.2978
ock	-10.298
▁cardboard	-10.2982
▁grass	-10.2984
▁understand	-10.2986
▁dj	-10.2987
▁parameters	-10.2989
▁spend	-10.2997
▁mean	-10.3001
▁jeans	-10.3007
▁requirement	-10.3007
▁partnership	-10.3012
:59	-10.3015
▁conduct	-10.3018
▁atmosphere	-10.3018
kt	-10.3019
cell	-10.3019
▁danish	-10.302
▁creating	-10.3021
dildo	-10.3025
▁supplement	-10.303
▁84	-10.3031
▁hit	-10.3036
▁pala	-10.3039
dan	-10.304
▁affiliate	-10.3041
▁opportunities	-10.3041
▁2001	-10.3044
▁films	-10.3047
▁sn	-10.3049
▁walls	-10.3052
▁objects	-10.3053
▁measuring	-10.3057
▁vr	-10.3064
▁basis	-10.3064
▁hyper	-10.3069
▁ros	-10.3074
▁aug	-10.3075
▁administration	-10.308
▁disk	-10.308
▁skip	-10.3082
cca	-10.3084
aging	-10.3087
▁transaction	-10.3088
▁carry	-10.3088
cept	-10.3092
▁tie	-10.3093
▁sponsor	-10.3095
▁simply	-10.3095
▁compare	-10.31
▁antalya	-10.3103
▁paypal	-10.3105
▁spaces	-10.311
▁minor	-10.3116
▁pills	-10.3131
▁arabic	-10.3133
▁rare	-10.3137
▁mis	-10.3139
▁operations	-10.3139
▁producer	-10.314
▁gifts	-10.3141
▁analytics	-10.3142
zy	-10.3144
▁fil	-10.315
▁89	-10.315
ify	-10.315
▁shock	-10.3151
▁forex	-10.3152
",	-10.3155
▁surf	-10.3162
hp	-10.3162
▁knife	-10.3165
▁14,	-10.317
▁lisbon	-10.3173
ole	-10.3173
▁sup	-10.3173
tric	-10.3173
master	-10.3173
▁museums	-10.3176
0.1	-10.3177
market	-10.3185
▁rf	-10.3189
34)	-10.3191
▁across	-10.3192
▁lodge	-10.3196
▁ran	-10.3198
▁costume	-10.3198
▁established	-10.3199
▁personalized	-10.3199
▁speak	-10.32
▁cop	-10.3201
map	-10.3204
▁monaco	-10.3204
▁combined	-10.3205
▁invest	-10.3206
▁77	-10.3214
best	-10.3216
lot	-10.3216
▁drivers	-10.3219
iff	-10.3225
▁situation	-10.3228
▁nor	-10.3228
cio	-10.3228
rest	-10.3238
▁largest	-10.3247
▁regarding	-10.3248
▁hospitality	-10.3249
▁portfolio	-10.3251
▁completed	-10.3251
cus	-10.3254
commerce	-10.3257
▁pharmaceutical	-10.3259
4.00	-10.3261
▁fridge	-10.3262
▁voyeur	-10.3266
▁disposable	-10.3267
▁thick	-10.3273
▁speaker	-10.3273
name	-10.3274
▁jordan	-10.3275
▁ireland	-10.3275
▁munich	-10.3275
▁diet	-10.3276
▁97	-10.3278
▁fitting	-10.3282
▁mega	-10.3283
▁repeat	-10.3284
▁moto	-10.3285
▁bondage	-10.3285
▁architect	-10.3289
▁contents	-10.329
▁3.5	-10.33
bot	-10.3302
▁firenze	-10.3306
▁bet	-10.3307
▁finishing	-10.3309
mun	-10.3309
pur	-10.3312
▁ren	-10.3315
▁usually	-10.3319
▁mouth	-10.3327
osa	-10.3331
▁ye	-10.3334
ple	-10.3335
▁relaxation	-10.3336
▁craft	-10.334
-2017	-10.3341
▁tablets	-10.3347
ets	-10.3349
iana	-10.3359
▁imperial	-10.3362
▁//	-10.3368
▁shanghai	-10.3369
▁mounted	-10.3372
▁empty	-10.3375
:20	-10.3376
villa	-10.3378
▁supports	-10.3384
▁stadium	-10.3385
▁dead	-10.3386
vid	-10.3386
▁tiles	-10.3388
▁intelligent	-10.3393
class	-10.3397
▁amp	-10.3397
lle	-10.3398
▁74	-10.3401
▁tile	-10.3407
▁weekly	-10.3408
▁3)	-10.3409
▁satin	-10.341
▁flour	-10.3414
▁sunglasses	-10.3417
▁covers	-10.3421
bor	-10.3424
▁hum	-10.3431
▁aroma	-10.3434
▁scientific	-10.3441
▁wallpaper	-10.3442
▁older	-10.3445
▁earrings	-10.3449
▁wal	-10.345
▁folder	-10.3451
/2016	-10.3452
▁dial	-10.3453
▁convention	-10.3455
mac	-10.3464
▁positive	-10.3465
▁rotary	-10.3466
rum	-10.3468
▁hello	-10.347
▁tyrol	-10.3474
▁electronics	-10.3484
▁11,	-10.3485
▁seminar	-10.349
▁(8)	-10.3491
▁bow	-10.3492
ais	-10.3492
▁vegetables	-10.3493
kov	-10.3494
▁gem	-10.3504
▁punta	-10.3505
▁bru	-10.3506
▁rfid	-10.3508
140	-10.351
flex	-10.3522
▁affect	-10.3522
ase	-10.3523
▁goes	-10.3524
▁dragon	-10.3529
▁flavour	-10.353
▁sqm	-10.3532
▁william	-10.3538
▁patch	-10.354
▁bond	-10.3543
type	-10.3543
▁mounting	-10.3543
▁sail	-10.3549
▁colorful	-10.3551
▁joined	-10.3554
▁pun	-10.3555
bon	-10.3556
▁finally	-10.3562
▁10-	-10.3566
like	-10.3567
▁mosaic	-10.357
▁zo	-10.3579
▁mall	-10.3581
▁(14	-10.3582
▁successful	-10.3588
mil	-10.3594
▁med	-10.3595
▁operate	-10.3596
but	-10.3596
/02	-10.3598
amo	-10.3601
▁snack	-10.3603
0.5	-10.3605
▁legs	-10.3607
▁(+39)	-10.3611
▁cab	-10.3617
▁3.0	-10.3618
▁javascript	-10.3619
▁font	-10.3622
▁1.0	-10.3623
▁gio	-10.3623
▁african	-10.3626
lux	-10.3631
col	-10.3631
▁compliance	-10.3635
▁classes	-10.3635
▁750	-10.3636
▁charter	-10.3637
▁characters	-10.3639
jpg	-10.3642
▁arrive	-10.3643
▁lib	-10.3646
*1	-10.3649
▁var	-10.3652
650	-10.3676
▁laptop	-10.3676
▁grain	-10.3676
phi	-10.368
print	-10.3684
kk	-10.3684
▁claim	-10.3684
▁est	-10.3686
▁homepage	-10.3686
3%	-10.3688
gging	-10.3691
activ	-10.3692
enti	-10.3695
hard	-10.37
▁medal	-10.3701
▁clo	-10.3703
▁---	-10.3704
anda	-10.3705
▁jam	-10.3708
▁italiano	-10.371
▁sul	-10.3711
▁ji	-10.3712
:16	-10.372
▁ratio	-10.372
onic	-10.3721
▁0.00	-10.3721
▁cafe	-10.3721
▁lux	-10.3725
xx	-10.3726
▁payments	-10.3728
▁returned	-10.3728
180	-10.3731
▁procedure	-10.3733
▁kn	-10.3733
▁malta	-10.3735
-25	-10.374
▁modified	-10.3743
uv	-10.3743
▁corfu	-10.3744
green	-10.3746
row	-10.3746
-14	-10.3748
▁painted	-10.3751
▁babes	-10.3753
▁invite	-10.3754
▁socks	-10.3758
▁thousand	-10.3758
▁signed	-10.3761
▁border	-10.3766
36)	-10.3774
▁decision	-10.3775
▁73	-10.3778
▁graphics	-10.3778
trans	-10.3783
350	-10.3787
oxy	-10.3789
▁adapt	-10.3794
▁pov	-10.3795
▁kan	-10.3795
▁towels	-10.3796
▁interesting	-10.3801
▁93	-10.3801
▁mos	-10.3805
hal	-10.3806
▁flame	-10.3809
▁lit	-10.381
▁1500	-10.3814
▁episode	-10.3816
luc	-10.3821
add	-10.3823
▁patient	-10.3826
▁consumer	-10.3827
days	-10.383
zar	-10.3832
graph	-10.3834
▁torino	-10.3835
▁progress	-10.3839
▁hilton	-10.3841
▁paste	-10.3844
▁winner	-10.3849
ography	-10.3849
41)	-10.385
▁curtain	-10.385
▁hood	-10.385
▁cartridge	-10.385
▁pos	-10.3854
▁easter	-10.3856
▁closure	-10.3858
▁authentic	-10.3862
▁bitcoin	-10.3866
2.00	-10.3867
▁db	-10.387
▁artistic	-10.3875
▁handmade	-10.3877
gor	-10.3877
lb	-10.3878
▁bas	-10.3878
▁arch	-10.3887
43)	-10.389
▁crane	-10.3892
▁recipe	-10.3894
▁controlled	-10.3895
▁mur	-10.3898
▁opportunity	-10.3899
eller	-10.3902
▁artificial	-10.3908
▁bolt	-10.3909
assi	-10.3912
▁clips	-10.3912
▁meta	-10.3913
▁heater	-10.3921
▁chicken	-10.3923
▁agricultural	-10.3925
iso	-10.3931
▁belgium	-10.3933
▁cannes	-10.3939
▁zen	-10.3948
italia	-10.3949
cro	-10.3949
▁bin	-10.3954
▁strapon	-10.3963
ists	-10.397
▁ultrasonic	-10.3975
▁cri	-10.3982
2012	-10.3984
bul	-10.3987
-13	-10.3988
▁techniques	-10.399
▁vpn	-10.3991
▁lifting	-10.3991
▁jar	-10.3994
▁portuguese	-10.4
ew	-10.4001
▁soil	-10.4011
▁meetings	-10.4012
▁pav	-10.4013
▁huge	-10.4014
▁valencia	-10.4017
▁beverage	-10.4017
▁monument	-10.4026
lay	-10.4031
▁florist	-10.4032
▁organ	-10.4034
▁zh	-10.4035
▁initial	-10.4036
month	-10.4038
▁logistics	-10.4039
▁approx	-10.404
37)	-10.4042
-24	-10.4043
▁pillow	-10.4043
▁needle	-10.4043
▁goal	-10.4045
bil	-10.4046
(3	-10.4047
▁robert	-10.4049
▁char	-10.405
▁newest	-10.4051
2%	-10.4053
rica	-10.4056
▁trees	-10.4058
▁prince	-10.406
▁doc	-10.4065
▁scal	-10.4068
▁socket	-10.4068
arm	-10.4072
▁closing	-10.4078
berry	-10.4082
ava	-10.4087
metal	-10.4089
▁employees	-10.4093
102	-10.4095
54)	-10.4102
▁17,	-10.4103
▁maps	-10.4103
ace	-10.4104
▁breath	-10.4109
▁bench	-10.4112
6.00	-10.4113
▁county	-10.4116
▁primary	-10.4121
▁orchestra	-10.4128
▁82	-10.4132
▁potential	-10.4137
▁netherlands	-10.4145
▁ultimate	-10.4145
▁opinion	-10.4145
▁promo	-10.4146
▁87	-10.4154
suit	-10.4162
verse	-10.4167
▁hack	-10.4168
▁guides	-10.417
ere	-10.4175
▁230	-10.4176
▁anniversary	-10.4179
otti	-10.4186
mah	-10.4186
ators	-10.419
▁variable	-10.4191
▁tomato	-10.4198
101	-10.4201
▁operator	-10.4205
47)	-10.4207
▁ven	-10.421
38)	-10.4211
what	-10.4212
▁mountains	-10.4218
mod	-10.4226
▁capture	-10.4227
▁94	-10.4229
▁modules	-10.4229
▁(10)	-10.4233
▁surroundings	-10.4234
▁qu	-10.4235
▁fluid	-10.4236
bian	-10.4251
▁grant	-10.4253
fp	-10.4254
▁assist	-10.4261
▁wed	-10.4261
▁dev	-10.4262
▁liter	-10.4263
▁singapore	-10.4266
▁nothing	-10.4269
▁dy	-10.427
▁bot	-10.4272
mus	-10.4273
▁quartz	-10.4275
▁rings	-10.4279
ela	-10.4286
oh	-10.4287
▁cave	-10.429
▁linux	-10.4293
▁cables	-10.4295
▁1999	-10.4298
▁opened	-10.4298
▁default	-10.43
▁animation	-10.4301
▁xl	-10.4307
▁favourite	-10.431
▁diving	-10.431
:12	-10.4312
▁91	-10.4313
▁bangkok	-10.4318
▁identity	-10.4318
▁ischia	-10.432
▁umbrella	-10.4327
▁thomas	-10.4327
▁whether	-10.4327
▁carpet	-10.433
▁chef	-10.4333
met	-10.4333
▁boys	-10.4333
▁regulations	-10.4341
xl	-10.4341
vac	-10.4342
ack	-10.4343
▁outer	-10.4344
▁cir	-10.4344
▁ash	-10.4344
▁amazon	-10.4345
bla	-10.4348
blowjob	-10.435
▁lithium	-10.4353
304	-10.4364
dol	-10.4368
▁81	-10.4373
▁template	-10.4374
▁ut	-10.4394
▁jazz	-10.4395
▁went	-10.4396
▁might	-10.4397
ister	-10.4399
▁1998	-10.4403
mix	-10.4404
bert	-10.4404
▁existing	-10.4408
▁pants	-10.4414
▁experiences	-10.4416
44)	-10.4416
▁shade	-10.4418
▁luca	-10.4418
45)	-10.4422
ttle	-10.4423
▁husband	-10.4424
750	-10.4427
▁networks	-10.4428
▁240	-10.4428
▁monster	-10.4428
▁mercedes	-10.4432
▁plated	-10.444
▁wax	-10.4443
▁approximately	-10.4444
party	-10.4444
7.00	-10.4448
▁ukraine	-10.445
▁directed	-10.4465
blo	-10.447
▁exam	-10.447
▁profiles	-10.4471
eta	-10.4473
vert	-10.448
polis	-10.4485
▁presence	-10.4486
vy	-10.4486
▁technique	-10.4487
▁depending	-10.4491
▁(16	-10.4492
/09/20	-10.4502
▁dell	-10.4505
run	-10.4506
bal	-10.4509
002	-10.4511
▁routes	-10.4511
▁92	-10.4516
▁broker	-10.4522
▁bol	-10.4523
▁foil	-10.4529
uf	-10.4531
▁21,	-10.4534
▁freedom	-10.4534
/04/20	-10.4535
▁emi	-10.4537
▁ct	-10.4537
gram	-10.4539
lus	-10.4545
▁dryer	-10.4547
▁gourmet	-10.4548
▁vest	-10.4548
▁educational	-10.4548
▁arena	-10.4549
case	-10.4552
▁kor	-10.4554
46)	-10.4555
▁$3	-10.4558
▁(9)	-10.4559
▁england	-10.456
3.00	-10.4562
▁..	-10.4564
▁instagram	-10.4566
▁venezia	-10.4566
mel	-10.4574
▁audit	-10.4574
▁delete	-10.4576
▁pilot	-10.4586
▁antique	-10.4586
▁poland	-10.4592
▁grid	-10.4593
dress	-10.4594
▁miami	-10.4596
photo	-10.4599
arch	-10.4604
▁lets	-10.4619
▁motel	-10.4619
china	-10.4621
40)	-10.4622
fici	-10.4622
▁(13	-10.463
125	-10.463
▁aircraft	-10.4631
▁warning	-10.4632
▁require	-10.4634
▁statistics	-10.4637
▁abroad	-10.4638
rant	-10.464
56)	-10.4643
▁rc	-10.4646
▁perfume	-10.4647
▁bathrooms	-10.4647
rated	-10.4649
:02	-10.4654
▁fabrics	-10.4658
130	-10.4664
▁listed	-10.4665
▁era	-10.4667
▁enough	-10.4667
▁kinds	-10.4667
ffe	-10.4671
▁gmbh	-10.4674
nov	-10.4675
▁gardens	-10.4676
▁rio	-10.4676
▁genoa	-10.4677
italian	-10.4685
gate	-10.4685
▁prior	-10.4687
ulation	-10.4687
▁bomb	-10.4691
eno	-10.4692
▁exhibit	-10.4696
▁forms	-10.4698
▁professionals	-10.4699
▁documentation	-10.4699
▁exhaust	-10.4701
▁(17	-10.4703
lor	-10.4704
▁lee	-10.4704
▁pie	-10.4705
▁connectors	-10.4713
▁actions	-10.4716
▁cuckold	-10.4719
▁dubrovnik	-10.4719
▁sab	-10.4726
▁fisting	-10.4727
▁consider	-10.4727
date	-10.473
▁viewing	-10.473
▁wallet	-10.4733
▁[1	-10.4735
▁likes	-10.4737
▁flooring	-10.4737
▁drunk	-10.4737
▁bbw	-10.4738
▁url	-10.4742
▁conc	-10.4747
▁displaying	-10.4747
▁sailing	-10.4748
▁bulgarian	-10.4749
▁corrosion	-10.475
▁websites	-10.4756
-17	-10.4757
▁aero	-10.4757
▁bella	-10.476
bia	-10.476
▁axis	-10.4764
▁dear	-10.4764
▁380	-10.4764
▁girlfriend	-10.4766
52)	-10.4768
▁improvement	-10.4772
▁cocktail	-10.4774
▁ill	-10.4778
▁committee	-10.4783
▁therefore	-10.4783
▁0.3	-10.4787
▁changing	-10.4788
stock	-10.479
wel	-10.4791
zing	-10.4793
▁sap	-10.4796
▁listing	-10.4796
▁gross	-10.4798
▁keyboard	-10.4799
▁california	-10.4801
mpa	-10.4801
▁delivered	-10.4802
▁quarter	-10.4803
▁mus	-10.4807
▁dal	-10.481
▁alpine	-10.481
2013	-10.4813
:19	-10.4816
food	-10.4818
▁detection	-10.4823
▁confirmation	-10.4824
sole	-10.4824
▁drawer	-10.4828
ison	-10.4836
▁accommodations	-10.4838
▁giovanni	-10.4838
anal	-10.4841
▁specialized	-10.4849
▁starts	-10.4849
▁songs	-10.4852
▁excl	-10.4853
▁plain	-10.4855
▁absorb	-10.4866
itis	-10.4867
▁relaxing	-10.4869
▁preview	-10.487
▁fc	-10.4877
▁accident	-10.4884
/6	-10.4889
▁shown	-10.4892
▁holes	-10.4894
:50	-10.4898
▁wrap	-10.4901
ami	-10.4904
▁surgery	-10.4904
▁reset	-10.4905
▁beyond	-10.4912
▁municipality	-10.4913
▁applicable	-10.4921
▁especially	-10.4921
▁listen	-10.4927
▁ty	-10.4931
▁grip	-10.4931
▁caught	-10.4932
▁scanner	-10.4941
▁continental	-10.4943
eva	-10.495
▁bull	-10.495
▁+33	-10.4958
▁synthetic	-10.4966
▁patients	-10.4966
cle	-10.4966
▁signs	-10.4967
▁soccer	-10.4967
rome	-10.4969
▁sliding	-10.4977
▁quad	-10.498
▁shenzhen	-10.4984
▁surprise	-10.4986
nl	-10.4991
▁83	-10.4993
cin	-10.4995
42)	-10.4997
price	-10.5001
▁brussels	-10.5005
▁leaves	-10.5006
▁evolution	-10.5014
cker	-10.5016
▁trends	-10.5018
▁vent	-10.5018
▁snap	-10.5024
▁flu	-10.5026
▁avi	-10.5027
online	-10.5027
ire	-10.503
▁chance	-10.503
▁sunset	-10.5031
yan	-10.5031
▁celebrity	-10.5033
▁71	-10.5037
▁vari	-10.5038
▁boiler	-10.5042
vr	-10.5046
-22	-10.5048
▁philosophy	-10.5052
awa	-10.5052
▁stra	-10.5057
tour	-10.506
▁finnish	-10.5061
▁measures	-10.5061
uz	-10.5061
▁wolf	-10.5061
ilia	-10.5064
▁israel	-10.5064
▁qua	-10.5064
▁electricity	-10.5065
▁chosen	-10.5069
/18	-10.5071
war	-10.5076
working	-10.5078
piece	-10.5078
▁loop	-10.5079
▁classical	-10.508
▁embroidery	-10.508
49)	-10.5082
▁motors	-10.5083
speed	-10.5089
▁glo	-10.5092
▁enhance	-10.5097
▁170	-10.5098
▁expand	-10.51
▁collar	-10.5101
▁participants	-10.5103
▁lc	-10.5104
▁dm	-10.5106
▁calculated	-10.5108
▁masturbating	-10.5108
club	-10.5113
▁adjustment	-10.5113
▁growing	-10.5114
▁redhead	-10.5114
▁stove	-10.5115
▁smoke	-10.5121
▁dose	-10.5121
▁gor	-10.5125
▁extended	-10.5125
gel	-10.5126
force	-10.5126
▁purple	-10.5128
▁sor	-10.513
▁slave	-10.5132
▁teaching	-10.5136
▁stockings	-10.5136
▁gh	-10.5137
ui	-10.5138
▁organized	-10.5141
▁html	-10.5142
▁toggle	-10.5146
▁cause	-10.5148
▁api	-10.515
▁spi	-10.5153
▁temporary	-10.5155
▁wing	-10.5156
▁considered	-10.5156
▁dogs	-10.5157
electric	-10.5159
62)	-10.5159
▁versions	-10.5163
▁nearest	-10.5164
▁hungarian	-10.5165
▁symptoms	-10.5165
rist	-10.5167
fort	-10.5168
▁disposal	-10.5174
kh	-10.5177
cate	-10.5183
▁puzzle	-10.5184
105	-10.5185
▁destinations	-10.5187
pad	-10.5189
51)	-10.519
▁pol	-10.5192
▁sofia	-10.5196
▁22,	-10.5202
▁omega	-10.5203
▁bmw	-10.5204
▁prepare	-10.5215
odi	-10.5215
▁pine	-10.5219
tag	-10.5221
▁aged	-10.5223
▁accurate	-10.5223
▁examples	-10.5223
▁umbria	-10.5232
▁portrait	-10.5232
▁experts	-10.5232
▁stack	-10.5236
▁parents	-10.5238
ory	-10.5239
▁wp	-10.5239
position	-10.524
▁bikini	-10.5241
▁francesco	-10.5242
▁finance	-10.5243
▁climbing	-10.5247
▁shield	-10.5249
▁genuine	-10.5251
▁jesus	-10.5251
▁alex	-10.5252
▁elite	-10.5253
▁represent	-10.5257
▁leaf	-10.5257
ement	-10.5263
▁helps	-10.5266
▁replace	-10.5267
▁vinyl	-10.5271
watch	-10.5271
eb	-10.5272
▁stress	-10.5272
▁component	-10.5275
▁burn	-10.5277
els	-10.5277
▁gro	-10.5278
▁composite	-10.528
▁aunt	-10.5281
▁pap	-10.5281
▁bla	-10.5282
ographic	-10.5282
▁lightweight	-10.5282
▁bun	-10.5283
▁26,	-10.5287
▁27,	-10.5288
connect	-10.5296
:11	-10.5296
▁suggest	-10.5299
zen	-10.53
▁labels	-10.53
▁trace	-10.53
▁automated	-10.5308
▁ecommerce	-10.5311
▁happen	-10.5314
▁nar	-10.5316
10)	-10.5318
▁voucher	-10.5318
▁skill	-10.532
title	-10.5323
18)	-10.5324
▁stroke	-10.5325
▁hal	-10.5326
▁zealand	-10.5328
▁pencil	-10.5328
▁northern	-10.5328
▁managed	-10.5329
▁makeup	-10.5333
▁23,	-10.5335
14)	-10.5339
▁customize	-10.534
ony	-10.5347
▁restoration	-10.5347
▁circle	-10.5347
▁nickel	-10.5349
▁texture	-10.5354
▁supplies	-10.5357
▁pharma	-10.5358
tek	-10.5359
12)	-10.5359
imp	-10.5362
▁cosmetics	-10.5365
▁galaxy	-10.5366
▁agriculture	-10.5367
▁intense	-10.5367
▁escape	-10.537
flu	-10.5373
▁deco	-10.5374
cre	-10.5377
pla	-10.5378
phe	-10.5379
▁sense	-10.538
123	-10.5381
▁watt	-10.5383
ido	-10.5385
▁beijing	-10.5386
▁bracket	-10.5386
▁statue	-10.5386
▁plates	-10.5391
▁decor	-10.5395
▁topic	-10.5399
▁poster	-10.5402
pel	-10.5403
:25	-10.5405
▁reason	-10.5405
▁either	-10.5405
58)	-10.5409
▁reliability	-10.5415
▁generated	-10.5418
▁prison	-10.5419
▁transfers	-10.542
ema	-10.542
lite	-10.542
ben	-10.5421
▁304	-10.5422
nea	-10.5423
▁chic	-10.5424
▁fleet	-10.5425
▁nation	-10.5431
450	-10.5434
▁vas	-10.5435
▁composed	-10.5444
▁honor	-10.5447
63)	-10.5447
▁parks	-10.5456
▁quin	-10.5456
▁rule	-10.5457
▁anne	-10.5458
html	-10.5461
mid	-10.5463
sale	-10.5466
face	-10.5467
▁cape	-10.5473
▁flood	-10.5475
▁plugin	-10.5476
ious	-10.548
▁moved	-10.5482
▁broadcast	-10.5484
2011	-10.5485
▁productivity	-10.5488
▁sight	-10.5496
▁fantasy	-10.5503
ska	-10.5504
▁releases	-10.5507
71)	-10.5509
▁scent	-10.5511
anta	-10.5512
▁publications	-10.5512
stein	-10.5522
▁mess	-10.5522
▁delicious	-10.5523
▁anything	-10.5523
▁thailand	-10.5526
▁tracks	-10.5527
▁soap	-10.5527
▁hide	-10.5528
64)	-10.5529
▁legend	-10.5535
▁edinburgh	-10.5542
itch	-10.5543
▁accounts	-10.5543
▁10.00	-10.5544
mine	-10.5547
▁eight	-10.5548
charge	-10.5549
▁elegance	-10.5552
enna	-10.5555
▁nat	-10.5558
▁rav	-10.5559
▁hip	-10.5566
▁involved	-10.557
▁publication	-10.5571
▁simon	-10.5576
▁twist	-10.5579
2014	-10.5579
cri	-10.5581
▁summary	-10.5582
ctor	-10.5582
▁layout	-10.5584
▁fact	-10.5586
▁nut	-10.5591
▁rechargeable	-10.5592
▁cala	-10.5593
▁ost	-10.5593
:05	-10.5594
▁4.0	-10.5595
▁sending	-10.5598
tsu	-10.5598
▁script	-10.5599
:18	-10.5607
▁skirt	-10.5607
▁reward	-10.5609
48)	-10.561
▁sustainability	-10.5612
▁trademark	-10.5614
▁estimate	-10.5616
▁gp	-10.5616
▁cups	-10.5617
▁ferrari	-10.5622
chu	-10.5622
▁blind	-10.5622
▁charming	-10.5625
▁fox	-10.5628
▁egypt	-10.563
▁influence	-10.5632
▁taormina	-10.5632
▁coins	-10.5632
▁zurich	-10.5632
pped	-10.5632
ré	-10.5635
▁accessible	-10.5638
sec	-10.5638
67)	-10.5639
event	-10.564
▁emb	-10.5647
▁105	-10.5648
fold	-10.5653
plus	-10.5653
▁attend	-10.5654
▁pt	-10.5659
▁mattress	-10.5662
▁cellar	-10.5662
▁species	-10.5664
▁inclusive	-10.5666
town	-10.5667
▁patent	-10.5668
▁grinding	-10.5672
▁rolex	-10.5672
▁welded	-10.5677
▁jobs	-10.5685
▁epi	-10.5688
7%	-10.569
▁della	-10.5691
▁exterior	-10.5692
▁28,	-10.5696
▁seed	-10.5698
▁else	-10.5699
▁womens	-10.57
▁visiting	-10.57
▁bird	-10.5702
▁hosted	-10.5702
ington	-10.5704
:14	-10.5704
57)	-10.5707
▁como	-10.5709
▁bob	-10.571
▁feeling	-10.5711
▁tests	-10.5711
▁performed	-10.5712
▁wonder	-10.5714
010	-10.5716
▁causes	-10.5718
duct	-10.572
▁bern	-10.5729
▁itself	-10.573
▁dot	-10.573
▁restore	-10.573
▁detect	-10.5739
▁rim	-10.5743
zia	-10.5746
73)	-10.5746
tino	-10.5748
53)	-10.5751
▁evaluation	-10.5752
▁iva	-10.5752
▁inches	-10.5754
▁equal	-10.5756
dio	-10.5758
▁static	-10.5761
una	-10.5761
ht	-10.5761
▁comparison	-10.5762
▁spacious	-10.5765
▁formats	-10.5768
privacy	-10.577
▁marc	-10.5772
▁charles	-10.5774
fish	-10.5777
▁engines	-10.5777
55)	-10.5781
▁platforms	-10.5782
▁pleasant	-10.5782
▁skiing	-10.5783
rian	-10.5784
11)	-10.5784
▁becomes	-10.5785
lp	-10.5785
8%	-10.5787
cover	-10.5787
▁lifestyle	-10.5788
▁reverse	-10.5793
vio	-10.5802
stand	-10.5802
▁ron	-10.5803
▁kits	-10.5805
road	-10.5809
▁teens	-10.5812
▁keyword	-10.5824
▁alba	-10.5824
▁extend	-10.5825
skin	-10.5826
▁brightness	-10.5827
▁12:00	-10.5832
▁stability	-10.5833
111	-10.5841
▁underground	-10.5845
60)	-10.5846
uch	-10.5847
17)	-10.5849
ram	-10.585
mber	-10.5851
ulator	-10.5853
▁obligation	-10.5853
▁dried	-10.5854
▁clinic	-10.5855
▁compression	-10.5855
▁talent	-10.5858
▁hunting	-10.5859
▁eve	-10.5861
away	-10.5866
▁lovely	-10.587
data	-10.5871
-00	-10.5874
▁francis	-10.5882
▁inform	-10.5884
▁thing	-10.5886
▁0,00	-10.5886
dri	-10.589
▁defense	-10.5895
zh	-10.5896
▁prefer	-10.5897
▁sharp	-10.5897
▁recorded	-10.5899
▁tuscan	-10.5899
▁peak	-10.59
pieces	-10.59
▁coral	-10.5902
boat	-10.5908
▁dreams	-10.591
15)	-10.591
body	-10.5911
active	-10.5925
▁greater	-10.5927
base	-10.5929
▁transformer	-10.5933
▁sources	-10.5933
west	-10.5936
▁newspaper	-10.5938
3.5	-10.594
▁worked	-10.5942
▁pit	-10.5943
▁participation	-10.5945
uda	-10.5947
▁topics	-10.5949
86)	-10.5951
guard	-10.5955
13)	-10.5956
72)	-10.596
try	-10.5963
▁190	-10.5964
▁serial	-10.5967
gsm	-10.5969
▁notification	-10.5971
▁skinny	-10.5975
▁amalfi	-10.5976
▁alexander	-10.5976
▁faster	-10.5977
68)	-10.5981
chat	-10.5983
▁tub	-10.5983
▁portugal	-10.5986
logy	-10.5987
▁smd	-10.5987
/16	-10.5988
▁cherry	-10.5989
hel	-10.5992
65)	-10.5995
▁marriott	-10.5997
▁carrier	-10.5997
-21	-10.6001
cious	-10.6004
count	-10.6005
79)	-10.6006
:04	-10.6008
▁mario	-10.6012
tail	-10.6023
61)	-10.6024
▁frames	-10.6025
▁sum	-10.6027
▁southern	-10.6028
▁nano	-10.6033
▁headquarters	-10.6035
▁keys	-10.6036
▁improved	-10.6036
▁lion	-10.6037
▁olympic	-10.6038
▁pound	-10.6039
▁audi	-10.6042
▁solve	-10.6042
▁xi	-10.6043
aire	-10.6044
oon	-10.6049
84)	-10.6049
▁catania	-10.6049
▁cana	-10.6049
103	-10.6051
:55	-10.6053
16)	-10.6054
▁marking	-10.6057
auto	-10.6061
core	-10.6063
▁hor	-10.6064
▁nav	-10.6066
▁commitment	-10.6069
▁relative	-10.6069
▁carried	-10.6069
59)	-10.6072
▁diamonds	-10.6074
▁swinger	-10.6075
2.0	-10.6076
jan	-10.6077
▁exist	-10.6078
▁booth	-10.6078
ject	-10.6083
main	-10.6084
heat	-10.609
▁regulator	-10.6091
▁kettle	-10.6091
tica	-10.6095
▁afternoon	-10.6101
▁butter	-10.6104
cn	-10.6104
▁fm	-10.6105
▁appear	-10.6106
▁(11)	-10.6109
▁neo	-10.6113
▁hero	-10.6114
-100	-10.6115
▁cle	-10.6115
direct	-10.6118
▁lid	-10.6119
anza	-10.6119
74)	-10.612
▁substance	-10.6121
rick	-10.6124
▁sud	-10.6125
▁5000	-10.6125
▁assistant	-10.6125
***	-10.6129
▁prevention	-10.6129
▁gluten	-10.6132
▁alta	-10.6134
▁sca	-10.6135
▁stud	-10.6136
▁bc	-10.6137
▁desire	-10.6137
▁linkedin	-10.6142
▁ele	-10.6144
char	-10.6149
tract	-10.6152
▁diseases	-10.6155
▁sr	-10.6155
▁conveyor	-10.6155
0.2	-10.6156
▁managing	-10.6157
▁bucket	-10.6163
▁representative	-10.6164
▁pas	-10.6165
▁actor	-10.6167
▁presented	-10.6168
▁sweden	-10.6174
▁dei	-10.6177
ride	-10.6179
oul	-10.6179
tori	-10.618
/2020	-10.6184
▁diagnostic	-10.6184
▁expansion	-10.6184
▁cottage	-10.6184
▁latex	-10.6185
pha	-10.6189
stan	-10.6192
sub	-10.6194
▁crete	-10.6195
:40	-10.6195
▁sink	-10.6196
sim	-10.6197
▁trips	-10.6198
▁colle	-10.62
▁proceed	-10.6205
▁scenes	-10.6207
▁hybrid	-10.6207
▁kid	-10.6208
▁nova	-10.621
▁frequently	-10.6211
▁photographer	-10.6215
▁medi	-10.6216
▁frankfurt	-10.6216
maker	-10.6217
-50	-10.6223
▁revolution	-10.6225
▁sco	-10.6226
▁cement	-10.6232
66)	-10.6237
▁shelf	-10.6237
▁fragrance	-10.6237
▁bubble	-10.6237
▁draft	-10.6238
▁sms	-10.624
iki	-10.624
ario	-10.6246
▁naked	-10.6248
▁follows	-10.625
▁trolley	-10.6258
▁seamless	-10.6258
▁ny	-10.6259
uploaded	-10.6259
▁fake	-10.6269
▁banner	-10.6271
▁communications	-10.6273
▁shampoo	-10.6279
▁initiative	-10.6279
▁gui	-10.6282
▁rise	-10.6284
▁journal	-10.6286
some	-10.6287
▁jean	-10.629
▁providing	-10.629
▁15%	-10.629
mhz	-10.629
▁officer	-10.6291
lina	-10.6292
▁brazilian	-10.6293
▁plc	-10.63
▁plane	-10.6301
19)	-10.6309
▁colored	-10.631
:57	-10.6311
▁panties	-10.6314
tile	-10.6316
104	-10.6317
▁buttons	-10.6319
▁responsibility	-10.6322
▁qui	-10.6323
▁tyre	-10.6323
▁goals	-10.6326
▁korea	-10.6326
▁glue	-10.6327
▁lesbians	-10.6328
▁organize	-10.6328
gest	-10.6329
optional	-10.633
double	-10.6334
▁seller	-10.634
dec	-10.6344
▁downtown	-10.6345
ough	-10.6345
▁meal	-10.6346
83)	-10.6347
▁jackets	-10.6348
▁chiang	-10.6349
▁poll	-10.6349
trade	-10.635
bur	-10.6352
▁panorama	-10.6354
▁sir	-10.6357
210	-10.6359
360	-10.6362
▁lido	-10.6363
▁circular	-10.6365
▁provision	-10.6368
▁implement	-10.6372
170	-10.6373
▁mouse	-10.6375
▁explain	-10.6375
▁torre	-10.6377
▁ble	-10.6379
▁(12)	-10.6384
▁precise	-10.6386
▁refresh	-10.6388
▁vegan	-10.6389
hua	-10.6391
70)	-10.6392
▁stands	-10.6393
▁garment	-10.6395
real	-10.6397
this	-10.6397
take	-10.6399
▁shaped	-10.6402
▁infrastructure	-10.6408
system	-10.641
▁txxx	-10.641
▁wins	-10.641
hol	-10.6413
▁inspired	-10.6418
▁sneakers	-10.6419
▁sara	-10.642
76)	-10.6423
2010	-10.6428
▁vatican	-10.644
ien	-10.6442
▁adam	-10.6443
▁towel	-10.6445
▁cv	-10.6449
▁testosterone	-10.645
▁oasis	-10.6451
lation	-10.6451
▁basilica	-10.6452
▁membership	-10.6453
▁seo	-10.6457
hai	-10.646
▁nutrition	-10.6462
▁tested	-10.6462
:03	-10.6463
click	-10.6466
▁specified	-10.6473
▁eastern	-10.6475
▁emilia	-10.6475
1.2	-10.6477
ught	-10.648
lov	-10.648
▁respond	-10.6483
▁industries	-10.6483
http	-10.6485
▁programming	-10.6486
▁displayed	-10.649
▁himself	-10.6495
▁frank	-10.6503
▁fantastic	-10.6505
ature	-10.6507
▁gall	-10.6508
ardi	-10.6508
ome	-10.6509
(4	-10.6512
-40	-10.6513
lig	-10.6515
▁awarded	-10.6516
▁metres	-10.6519
")	-10.6521
003	-10.6524
:13	-10.6525
▁chest	-10.6529
▁structures	-10.6529
▁(18)	-10.6531
ably	-10.6532
▁oz	-10.6533
▁extremely	-10.6536
▁oxygen	-10.6538
20)	-10.6539
▁cf	-10.6541
▁meaning	-10.6543
77)	-10.6545
▁refrigerator	-10.6549
▁riva	-10.655
▁bat	-10.655
▁casual	-10.6551
ologist	-10.6554
dent	-10.6554
▁dessert	-10.6559
:28	-10.656
▁bone	-10.6563
ccio	-10.6565
▁pier	-10.6569
ovo	-10.6574
▁capsules	-10.6574
▁grape	-10.658
▁domestic	-10.6581
81)	-10.6582
place	-10.6582
1.0	-10.6583
▁plot	-10.6583
▁emo	-10.6585
▁sealing	-10.6586
▁tanks	-10.6587
▁sexual	-10.6591
wind	-10.6591
▁bungalow	-10.6592
109	-10.6593
round	-10.6594
mare	-10.6598
▁cot	-10.66
▁truffle	-10.6603
▁pretty	-10.6603
▁swing	-10.6605
▁napoli	-10.6607
▁branch	-10.6607
▁tail	-10.6614
tia	-10.6617
▁xp	-10.6618
▁syn	-10.6621
▁slots	-10.6623
▁achieve	-10.6625
▁anonymous	-10.6625
▁cooperation	-10.6627
cum	-10.6631
:56	-10.664
:17	-10.664
108	-10.6644
▁inverter	-10.6648
eau	-10.6649
asso	-10.6649
pill	-10.665
▁zoom	-10.665
toria	-10.6653
une	-10.6656
▁associated	-10.6656
check	-10.6662
full	-10.6667
▁gene	-10.6668
ume	-10.6669
▁disclaimer	-10.6669
▁protector	-10.6669
▁organisation	-10.667
▁begin	-10.6671
ule	-10.6673
▁requested	-10.6674
range	-10.6675
▁zipper	-10.6678
▁protocol	-10.668
camp	-10.6684
gt	-10.6684
▁2.4	-10.6686
▁1.6	-10.669
may	-10.6693
▁divided	-10.6693
▁101	-10.6693
▁4.5	-10.6694
:07	-10.6699
▁floral	-10.6701
wing	-10.6701
boy	-10.6702
▁evo	-10.6704
▁containers	-10.6704
▁gauge	-10.6704
▁rip	-10.6706
▁tune	-10.6707
▁wan	-10.6708
▁partition	-10.6708
fla	-10.671
▁brain	-10.6712
▁colon	-10.6717
▁boost	-10.6718
▁handbag	-10.6718
02)	-10.6719
78)	-10.6722
▁leon	-10.6725
▁occur	-10.6726
22)	-10.6729
▁household	-10.673
▁rolling	-10.6731
anie	-10.6731
▁washington	-10.6732
▁adriatic	-10.6736
▁rgb	-10.6737
▁authority	-10.6737
▁1.1	-10.674
-60	-10.6743
▁vibration	-10.6747
▁fans	-10.6748
.....	-10.6751
▁tw	-10.6751
▁listings	-10.6754
▁flights	-10.6758
▁revenue	-10.6758
6%	-10.6759
03)	-10.676
▁vote	-10.6761
▁giant	-10.6766
▁paolo	-10.6766
▁workshops	-10.6769
▁bearings	-10.6769
▁assessment	-10.677
roma	-10.6773
▁1.8	-10.6775
▁dye	-10.6777
aka	-10.6778
tical	-10.6778
▁viewed	-10.6779
▁pricing	-10.6781
cycle	-10.6783
▁brick	-10.6785
fun	-10.6789
▁cancer	-10.6789
▁steroid	-10.6791
▁medieval	-10.6791
1.1	-10.6793
▁kra	-10.6794
▁maid	-10.6797
▁slice	-10.6798
9001	-10.6803
▁wrote	-10.6803
21)	-10.6803
layer	-10.6807
studio	-10.6807
kar	-10.6813
▁strategic	-10.6814
▁gasket	-10.6814
▁combine	-10.6815
imo	-10.6816
▁purity	-10.682
pul	-10.682
/10/20	-10.6824
pping	-10.6824
▁(20)	-10.6824
▁creativity	-10.6825
▁dishwasher	-10.6825
▁smile	-10.6829
▁slope	-10.6832
ened	-10.6834
▁316	-10.6839
edge	-10.6841
▁shooting	-10.6847
▁1996	-10.6847
▁mexican	-10.6848
75)	-10.6848
usd	-10.6848
▁rep	-10.685
82)	-10.6852
▁corporation	-10.6859
▁inspiration	-10.6859
▁dn	-10.6866
▁drinking	-10.687
reg	-10.6871
▁cali	-10.6872
gin	-10.6876
▁blanc	-10.6881
▁agri	-10.6881
ivo	-10.6884
▁felt	-10.6885
▁delay	-10.6886
▁lay	-10.6888
▁ker	-10.6889
▁rhodes	-10.6893
▁lucca	-10.6895
▁molding	-10.6896
:08	-10.6901
pic	-10.6904
▁chianti	-10.6906
▁cameras	-10.691
gold	-10.6913
88)	-10.6915
▁armchair	-10.6915
420	-10.6915
:24	-10.692
▁doing	-10.692
custom	-10.692
▁bib	-10.6924
▁dive	-10.6924
▁teeth	-10.6926
▁5%	-10.6927
▁vita	-10.6928
▁cow	-10.6933
copy	-10.6933
020	-10.6936
tool	-10.6937
▁experiment	-10.6938
▁treasure	-10.6938
▁widget	-10.6938
▁dirty	-10.6938
▁zu	-10.6938
▁1.4	-10.6938
▁silicon	-10.6939
▁anime	-10.694
23)	-10.6942
▁melt	-10.6948
▁supplied	-10.6949
▁metallic	-10.6952
▁milling	-10.6957
90)	-10.6958
▁senior	-10.6961
▁guidelines	-10.6961
69)	-10.6961
▁crazy	-10.6961
▁bergamo	-10.6962
▁translate	-10.6966
:58	-10.6968
▁fountain	-10.6972
▁tunnel	-10.6972
▁pulse	-10.6972
▁gil	-10.6973
▁campsite	-10.6975
▁ross	-10.6978
▁(22)	-10.6979
ination	-10.6983
▁identification	-10.6983
320	-10.6987
▁broad	-10.6987
▁(21)	-10.699
control	-10.6991
▁latina	-10.6994
▁bari	-10.6995
▁infrared	-10.6995
▁dish	-10.6995
:26	-10.7001
▁reveal	-10.7006
▁answers	-10.7007
kan	-10.7007
:31	-10.7009
osis	-10.7011
:37	-10.7017
▁furnished	-10.7018
▁identify	-10.7018
98)	-10.7018
▁seasons	-10.7024
▁stored	-10.7026
▁polar	-10.7027
tus	-10.7029
▁ana	-10.7029
▁imprint	-10.703
▁cp	-10.7031
▁drying	-10.7033
▁candy	-10.7034
:09	-10.7035
▁agents	-10.7037
▁fiat	-10.704
▁appointed	-10.7041
▁excavator	-10.7041
▁political	-10.7041
graphic	-10.7041
▁cb	-10.7044
▁pension	-10.7044
▁flo	-10.7044
89)	-10.7048
▁cushion	-10.7052
▁receiving	-10.7052
▁goji	-10.7052
▁flexibility	-10.7052
cola	-10.7054
▁warship	-10.7055
▁cage	-10.706
▁navy	-10.706
92)	-10.706
qual	-10.7062
▁astm	-10.7065
▁giulia	-10.7065
fur	-10.7066
hof	-10.7067
▁stones	-10.7069
▁floors	-10.707
24)	-10.7071
/11/20	-10.7072
▁anton	-10.7072
▁tall	-10.7073
87)	-10.7075
▁acoustic	-10.7075
kv	-10.7075
▁honda	-10.7077
▁playground	-10.7078
▁nero	-10.7079
▁matches	-10.7081
iga	-10.7084
▁sometimes	-10.7087
▁sym	-10.7087
▁sit	-10.7096
struct	-10.7096
▁religious	-10.7098
▁remain	-10.7098
▁115	-10.7106
▁luna	-10.7109
▁trekking	-10.711
space	-10.7113
230	-10.7113
▁functionality	-10.7115
▁fab	-10.7126
▁(21	-10.7126
ett	-10.7131
▁sensors	-10.7132
▁volt	-10.7133
▁mobility	-10.7134
▁giving	-10.7135
▁marked	-10.7136
▁diver	-10.7136
▁crew	-10.7136
:06	-10.7137
cb	-10.714
▁handles	-10.7142
▁catering	-10.7145
▁hamburg	-10.7145
▁650	-10.7146
▁nr	-10.7149
▁waist	-10.715
▁someone	-10.7151
▁zi	-10.7154
▁mul	-10.7155
ote	-10.7156
▁mah	-10.7157
:23	-10.7159
▁(24	-10.7167
▁ukrainian	-10.7167
▁reaction	-10.7168
:29	-10.7169
▁conductor	-10.717
▁entered	-10.717
▁alfa	-10.7173
▁pantyhose	-10.7179
▁itunes	-10.718
close	-10.718
▁showroom	-10.7181
▁rotation	-10.7184
▁females	-10.7184
32)	-10.719
▁sv	-10.719
▁choosing	-10.7191
och	-10.7193
▁hammer	-10.7194
05)	-10.7199
▁michel	-10.7201
80)	-10.7202
▁leonardo	-10.7202
metric	-10.7203
1%	-10.7203
▁bookingsuite	-10.7204
▁multimedia	-10.7205
▁visited	-10.7209
glo	-10.721
25)	-10.7212
cken	-10.7214
▁1997	-10.7215
▁turbo	-10.7215
drive	-10.7217
▁implementation	-10.7218
▁rigid	-10.7218
guide	-10.7224
31)	-10.7227
▁barrel	-10.723
9.99	-10.7233
▁ple	-10.7236
▁320	-10.7237
▁concern	-10.7238
eli	-10.7239
▁pellet	-10.7245
▁canal	-10.7249
▁crush	-10.7251
ender	-10.7252
shed	-10.7257
▁tester	-10.7258
▁approval	-10.7261
good	-10.7261
▁sto	-10.7263
09)	-10.7263
9%	-10.7266
▁marrakesh	-10.7272
▁shoot	-10.7273
▁presents	-10.7273
▁tension	-10.7275
▁professor	-10.7284
▁sensitive	-10.7284
▁sydney	-10.7284
▁vibrator	-10.7284
▁ef	-10.7286
▁certificates	-10.7289
▁drama	-10.729
▁(+	-10.7292
rine	-10.7294
▁kha	-10.7295
30)	-10.7296
▁nozzle	-10.7296
/2015	-10.7296
▁winning	-10.7299
▁lar	-10.7303
95)	-10.7306
▁tc	-10.7306
▁boss	-10.7307
▁highlights	-10.731
▁precious	-10.731
▁shadow	-10.7311
▁turning	-10.7311
/11	-10.7313
shire	-10.7313
▁ev	-10.7315
121	-10.7319
▁stem	-10.732
▁jen	-10.7321
96)	-10.7322
▁accessory	-10.7323
gger	-10.7326
▁standing	-10.7331
▁avenue	-10.7331
▁nest	-10.7333
:22	-10.7333
▁08:00	-10.7334
+1	-10.7335
▁pope	-10.7336
▁drugs	-10.7338
▁(19)	-10.7338
128	-10.7343
▁clinical	-10.7344
enni	-10.7344
▁packed	-10.7348
▁vice	-10.7348
▁arrange	-10.7349
▁bou	-10.7351
law	-10.7351
▁fruits	-10.7354
▁canadian	-10.7355
gene	-10.7356
▁rai	-10.7364
26)	-10.7364
▁truth	-10.7364
-23	-10.7366
▁virus	-10.7366
:27	-10.7368
▁checkout	-10.7369
▁fibre	-10.737
:21	-10.7372
milf	-10.7377
▁facility	-10.7379
▁actuator	-10.7379
▁shan	-10.7379
▁mine	-10.738
clo	-10.738
cute	-10.7382
▁geneva	-10.7383
▁knee	-10.7383
▁(13)	-10.7384
▁atlantic	-10.7391
93)	-10.7392
▁winery	-10.7394
▁buying	-10.7394
▁relations	-10.7395
ardo	-10.7397
tent	-10.7402
99)	-10.7406
▁pv	-10.7409
8,00	-10.741
only	-10.741
▁native	-10.7412
▁procedures	-10.7415
▁kal	-10.7417
▁filled	-10.7417
▁cells	-10.7422
▁(22	-10.7425
▁velvet	-10.7427
▁coverage	-10.7431
▁sleeves	-10.7438
▁admission	-10.7439
94)	-10.7442
kn	-10.7443
▁tons	-10.7443
▁bamboo	-10.745
▁benidorm	-10.745
▁1990	-10.7451
/7	-10.746
▁]	-10.7461
:36	-10.7466
9]	-10.747
380	-10.7474
▁belong	-10.7479
▁fourth	-10.7483
▁aquarium	-10.7486
▁gaming	-10.7488
▁submitted	-10.7489
rov	-10.7489
▁dun	-10.749
omi	-10.7493
4.5	-10.7493
▁soup	-10.7494
▁delicate	-10.7498
ural	-10.7502
▁sel	-10.7503
zioni	-10.7503
▁polished	-10.7507
glass	-10.7508
▁decree	-10.751
▁brun	-10.751
▁anchor	-10.751
▁ital	-10.7515
▁scope	-10.7515
▁stelle	-10.7515
alia	-10.7527
▁nine	-10.753
27)	-10.7534
▁supermarket	-10.7537
135	-10.7537
:43	-10.7539
stick	-10.754
▁hanging	-10.7543
static	-10.7543
▁buyer	-10.7544
asia	-10.7545
▁giu	-10.7546
▁stereo	-10.7546
▁creature	-10.7547
▁basketball	-10.7547
pec	-10.7547
mill	-10.7548
▁ratings	-10.7548
put	-10.7548
▁lovers	-10.7549
▁210	-10.7552
▁australian	-10.7554
▁135	-10.7554
91)	-10.7555
08)	-10.7556
▁porcelain	-10.7558
▁technological	-10.7558
▁optimize	-10.7559
:51	-10.7561
▁passenger	-10.7567
▁celebration	-10.757
▁artwork	-10.7572
▁fuse	-10.7576
▁comic	-10.7579
▁prepared	-10.758
▁citizen	-10.7582
▁starter	-10.7582
:46	-10.7583
:54	-10.7584
crea	-10.7586
232	-10.7587
fast	-10.759
▁lose	-10.7591
▁empire	-10.7594
▁exposure	-10.7594
▁mic	-10.7596
▁lining	-10.7597
▁span	-10.7598
▁lucia	-10.7598
▁feeding	-10.7599
pay	-10.7601
▁yan	-10.7603
▁random	-10.7607
▁processor	-10.7607
▁gdpr	-10.7609
97)	-10.7612
▁lamb	-10.7612
mount	-10.7615
▁correspond	-10.7619
temp	-10.7623
mmer	-10.7627
01)	-10.7627
▁(50	-10.7629
▁ribbon	-10.7631
eon	-10.7635
▁cagliari	-10.7643
▁catalan	-10.7643
▁tim	-10.7644
▁expertise	-10.7646
▁difficult	-10.7651
▁connections	-10.7652
hair	-10.7652
products	-10.7653
▁philip	-10.7654
▁setup	-10.7655
sea	-10.7665
pra	-10.7666
▁administrative	-10.7667
▁calculator	-10.7667
▁chubby	-10.7667
▁easier	-10.7667
85)	-10.7673
▁consists	-10.7673
28)	-10.7674
▁alert	-10.7674
:33	-10.7675
▁tweet	-10.7679
▁thu	-10.7681
▁significant	-10.7692
▁unforgettable	-10.7692
▁veneto	-10.7696
esi	-10.7697
trip	-10.7699
▁donna	-10.7699
▁cams	-10.7701
▁consultant	-10.7702
29)	-10.7706
▁transform	-10.7706
▁holding	-10.7707
telli	-10.7711
▁meets	-10.7711
▁lang	-10.7717
▁begins	-10.7722
▁appeared	-10.7725
▁(23)	-10.7726
▁accounting	-10.7726
▁hundred	-10.7728
▁adopt	-10.7731
week	-10.7732
▁lp	-10.7733
▁css	-10.7735
▁schoolgirl	-10.7745
▁sticker	-10.7746
gie	-10.7747
▁rap	-10.7752
▁jacuzzi	-10.7753
▁vietnamese	-10.7754
odor	-10.7755
sales	-10.7755
kit	-10.7756
▁pam	-10.7758
▁unlock	-10.7759
▁lor	-10.7762
rose	-10.7764
▁vessel	-10.7765
▁workers	-10.7774
▁chicago	-10.7778
hole	-10.7781
▁pixel	-10.7783
▁clutch	-10.779
▁trousers	-10.779
user	-10.7793
▁mug	-10.7793
mina	-10.7794
issa	-10.7796
:48	-10.7799
485	-10.78
cad	-10.7806
▁pads	-10.7807
▁segment	-10.7809
▁delight	-10.781
4%	-10.781
▁sterling	-10.7815
▁tit	-10.7822
▁marie	-10.7828
2.1	-10.7831
hon	-10.7835
cf	-10.7836
▁gin	-10.7838
▁suffer	-10.784
▁beginner	-10.7841
▁pul	-10.7843
▁5*	-10.7848
04)	-10.7849
▁adrian	-10.785
▁photograph	-10.7852
▁moisture	-10.7852
▁relevant	-10.7852
▁audience	-10.7853
▁rom	-10.7861
▁resource	-10.7861
▁forget	-10.7862
▁mechanism	-10.7864
▁mining	-10.7866
▁withdrawal	-10.787
/100	-10.7874
▁concerts	-10.7875
▁clay	-10.7875
now	-10.7876
mov	-10.7877
:53	-10.7881
▁bucharest	-10.7889
▁contribution	-10.7889
▁len	-10.7891
▁unrated	-10.7894
▁romanian	-10.79
under	-10.7901
▁contribute	-10.7902
▁execution	-10.7902
▁hormone	-10.7902
haus	-10.7902
hill	-10.7906
:52	-10.7907
▁fior	-10.7909
fusion	-10.7909
▁1994	-10.7909
▁furnishing	-10.7914
uta	-10.7916
mature	-10.7917
step	-10.7921
▁molecular	-10.7927
▁vig	-10.793
▁franc	-10.7935
▁tomatoes	-10.794
280	-10.7946
▁ferry	-10.7947
▁downloaded	-10.7948
▁debut	-10.795
▁laminated	-10.795
rub	-10.7951
admin	-10.7953
bank	-10.7954
▁mir	-10.7963
▁covering	-10.7964
▁tractor	-10.7965
job	-10.7966
▁investor	-10.7968
▁minister	-10.7968
coin	-10.7969
▁certifications	-10.797
▁spice	-10.7971
▁blond	-10.7971
zone	-10.7975
▁structural	-10.7977
▁compound	-10.7977
cel	-10.7989
▁communicate	-10.799
▁santorini	-10.799
▁pixels	-10.7992
▁nh	-10.7992
▁except	-10.7994
liber	-10.7996
▁steril	-10.7999
▁reel	-10.8
▁itineraries	-10.8002
▁themes	-10.8006
▁bb	-10.8007
▁announced	-10.8012
▁aesthetic	-10.8015
▁550	-10.8021
▁supplements	-10.8022
▁exc	-10.8027
▁mala	-10.8031
▁stefano	-10.8032
▁kiss	-10.8035
▁wanted	-10.8037
▁angeles	-10.8039
33)	-10.804
▁steering	-10.804
plastic	-10.8041
▁widely	-10.8044
▁dome	-10.8046
▁writer	-10.8046
note	-10.805
▁enclosure	-10.8053
▁diffuser	-10.8053
(5	-10.8061
▁fig	-10.8062
rill	-10.8062
▁trentino	-10.8066
▁sodium	-10.8066
eti	-10.8067
▁caff	-10.807
▁tp	-10.8071
▁enabled	-10.8073
▁(15)	-10.8075
▁lime	-10.8076
▁followed	-10.8077
ific	-10.8079
▁grapes	-10.8086
019	-10.8086
▁1995	-10.8089
cine	-10.8096
▁featuring	-10.8104
▁alone	-10.8104
▁taiwan	-10.8104
▁recently	-10.8107
▁paintings	-10.8115
▁romania	-10.8117
:44	-10.8122
used	-10.8127
▁gua	-10.8135
ession	-10.8135
▁0.8	-10.8138
train	-10.814
▁entries	-10.8142
therapy	-10.8144
itz	-10.8155
▁heaven	-10.8155
where	-10.8158
oba	-10.8158
▁vel	-10.8158
▁vineyards	-10.8161
▁beta	-10.8166
▁reflect	-10.8167
▁secondary	-10.8167
▁tissue	-10.8168
▁serious	-10.8168
location	-10.817
▁indicate	-10.8171
▁chief	-10.8171
▁sorry	-10.8172
▁rolls	-10.8178
07)	-10.8178
▁indonesian	-10.8179
▁stella	-10.8183
▁mit	-10.8191
▁cube	-10.8191
▁laura	-10.8192
▁ceremony	-10.8193
▁fertilizer	-10.8194
550	-10.8195
▁resist	-10.8196
ifying	-10.8203
▁halloween	-10.8206
▁effort	-10.8207
nica	-10.8209
▁pigment	-10.8211
▁purchased	-10.8211
▁eating	-10.8213
▁playlist	-10.8213
▁winners	-10.8215
▁lesson	-10.8216
▁singer	-10.8219
▁beige	-10.822
▁agencies	-10.822
▁fixture	-10.822
▁pouch	-10.8221
▁breed	-10.8224
2020	-10.8225
kva	-10.8229
▁1970	-10.823
▁giorgio	-10.8232
▁policies	-10.8232
260	-10.8233
▁francisco	-10.8239
tana	-10.8241
ident	-10.8241
▁pietro	-10.8247
▁discharge	-10.8247
▁4+	-10.8255
grad	-10.8255
▁consist	-10.8257
▁founder	-10.8258
lift	-10.8258
▁prof	-10.8259
▁thus	-10.826
gle	-10.8266
▁nik	-10.8271
▁servo	-10.8275
fix	-10.8277
▁gala	-10.8278
:41	-10.8279
▁parma	-10.8283
▁accomodation	-10.8284
▁gabriel	-10.8284
▁attract	-10.8288
▁announce	-10.8292
▁blocks	-10.8292
35)	-10.8293
▁fest	-10.8294
stop	-10.8296
▁chick	-10.8297
▁gap	-10.8298
▁poli	-10.8299
▁pub	-10.8304
▁cyber	-10.8304
:39	-10.8308
235	-10.8309
▁pale	-10.8309
▁safari	-10.831
▁gab	-10.831
▁pel	-10.8311
▁arg	-10.8316
▁badge	-10.8316
▁fen	-10.8319
▁coordinate	-10.8323
▁ranking	-10.8323
▁lots	-10.8329
ground	-10.8331
▁confirmed	-10.8333
cream	-10.8333
▁deutsch	-10.8335
▁qualified	-10.8336
▁diploma	-10.8336
▁letters	-10.8337
▁9:00	-10.8341
▁chalet	-10.8341
▁sicilian	-10.8342
▁gir	-10.8343
▁facts	-10.8345
uring	-10.835
:47	-10.8351
▁ht	-10.8352
▁hang	-10.8353
0.3	-10.8354
iglia	-10.8356
316	-10.8358
▁4000	-10.836
▁mainly	-10.8363
tron	-10.8364
▁larger	-10.8364
▁hear	-10.8366
▁seasonal	-10.8366
▁prev	-10.8369
▁regard	-10.837
▁activated	-10.837
yu	-10.8373
▁neoprene	-10.8375
▁stylish	-10.8375
▁sandwich	-10.8375
▁roast	-10.8377
▁chor	-10.8379
rail	-10.8379
▁sync	-10.8383
▁0.6	-10.8384
-28	-10.8388
▁removable	-10.8388
050	-10.8389
▁degrees	-10.839
06)	-10.8395
race	-10.8398
nik	-10.84
▁yamaha	-10.8401
▁butterfly	-10.8401
▁0.4	-10.8403
▁norway	-10.8404
▁attractive	-10.8404
▁raised	-10.8405
wan	-10.8406
▁successfully	-10.8408
115	-10.8408
▁cargo	-10.841
▁hydra	-10.8411
▁peel	-10.8412
▁thi	-10.8413
▁que	-10.8413
▁128	-10.8414
▁riga	-10.8415
▁duo	-10.8415
support	-10.8418
▁leak	-10.842
▁lenses	-10.8421
tax	-10.8422
▁pig	-10.8427
▁wrong	-10.8428
▁faith	-10.8428
▁gang	-10.8429
▁anywhere	-10.8432
▁mixing	-10.8433
▁contrast	-10.8434
2,00	-10.8435
▁headphones	-10.8436
▁capsule	-10.8437
▁donation	-10.844
▁shin	-10.844
▁highway	-10.8442
▁tee	-10.8447
oral	-10.845
▁pant	-10.8453
▁cuba	-10.8453
ugg	-10.8455
▁screws	-10.8456
▁alpha	-10.8458
▁fitted	-10.8461
▁conditioner	-10.8463
cial	-10.8464
▁maxim	-10.8464
▁intelligence	-10.8467
▁increasing	-10.8467
▁storm	-10.847
▁trim	-10.8472
▁violin	-10.8473
file	-10.8473
7.5	-10.8474
117	-10.8477
atory	-10.8478
▁marriage	-10.848
▁pizzeria	-10.848
▁recycling	-10.848
▁infection	-10.848
▁microphone	-10.8482
▁partial	-10.8484
▁1.3	-10.8487
▁minimal	-10.8489
elia	-10.8492
zhou	-10.8493
▁extrusion	-10.8494
blog	-10.8495
ounce	-10.8495
-2020	-10.8497
▁gbp	-10.8499
▁condo	-10.8502
▁excursion	-10.8503
▁anni	-10.8504
iko	-10.8507
▁denmark	-10.8508
▁passed	-10.8508
tini	-10.8511
▁chapel	-10.8521
▁requires	-10.8522
▁activate	-10.8525
▁moments	-10.8526
▁funds	-10.8529
▁espresso	-10.8533
▁fold	-10.8535
▁acc	-10.8536
▁climb	-10.854
▁collector	-10.8541
▁piston	-10.8542
▁plasma	-10.8547
▁signature	-10.8549
▁forced	-10.8551
▁hay	-10.8553
▁twink	-10.8553
▁flying	-10.8554
▁decide	-10.8555
dine	-10.8555
▁prayer	-10.8556
rel	-10.8558
▁valentine	-10.856
▁sparkling	-10.8562
▁trap	-10.8564
▁conv	-10.8566
▁poor	-10.8571
rey	-10.8576
fra	-10.8576
illo	-10.8579
116	-10.8586
▁invoice	-10.8587
esse	-10.8588
▁2.2	-10.8589
▁nan	-10.8593
▁(14)	-10.8593
khz	-10.8594
vita	-10.8595
▁stickers	-10.8595
fuck	-10.8596
ometer	-10.8596
glia	-10.8597
▁palma	-10.8597
▁owners	-10.8597
▁drain	-10.86
▁biography	-10.8604
▁bride	-10.8605
▁ot	-10.8605
automatic	-10.8605
▁flip	-10.8607
▁seg	-10.861
▁gram	-10.8613
▁figures	-10.8616
ault	-10.862
aver	-10.8622
▁lawyer	-10.8628
▁immediate	-10.8628
▁stamping	-10.8635
▁accu	-10.8638
▁dp	-10.8638
▁catch	-10.864
ritz	-10.864
▁membrane	-10.864
▁transsexual	-10.864
▁yesterday	-10.864
▁liguria	-10.864
▁melbourne	-10.8641
▁introduced	-10.8643
▁polymer	-10.8644
!"	-10.8645
uce	-10.8646
▁analog	-10.8646
num	-10.8648
▁surrounded	-10.865
pussy	-10.865
▁acquisition	-10.8654
▁forces	-10.8656
massage	-10.8659
106	-10.8661
▁neuro	-10.8665
▁resident	-10.8667
▁hentai	-10.8667
▁experienced	-10.8671
ridge	-10.8674
3.0	-10.8675
etc	-10.8677
▁drag	-10.8679
▁flor	-10.868
▁tecno	-10.8681
▁arte	-10.8685
▁critical	-10.8686
▁discuss	-10.8687
▁additive	-10.8694
▁cooler	-10.8695
vision	-10.8696
▁visitor	-10.8697
trad	-10.8698
▁70%	-10.8702
▁pedal	-10.8703
▁relay	-10.8707
▁optimization	-10.8708
▁relief	-10.8708
▁criteria	-10.8708
▁desert	-10.8709
▁probe	-10.8713
rating	-10.8714
5,000	-10.8716
gro	-10.872
▁everyday	-10.872
▁expect	-10.8721
▁quotation	-10.8722
latin	-10.8732
▁kick	-10.8733
▁indication	-10.8735
▁editing	-10.8738
function	-10.8739
special	-10.8741
▁killed	-10.8748
▁platinum	-10.8749
▁auction	-10.875
▁altitude	-10.8751
ove	-10.8753
▁0.7	-10.8754
▁herbal	-10.8758
▁boom	-10.8758
▁delta	-10.8761
▁numerous	-10.8762
▁preferences	-10.8762
ieri	-10.8766
▁operated	-10.8771
▁console	-10.878
▁rib	-10.8783
▁skype	-10.8787
▁rescue	-10.879
▁negative	-10.879
▁yearly	-10.8791
▁albania	-10.8791
▁remains	-10.8794
fri	-10.8798
▁crack	-10.8808
▁bending	-10.8808
▁europa	-10.8814
▁heels	-10.8816
▁ministry	-10.8817
▁cock	-10.8818
▁fiberglass	-10.8818
▁phil	-10.8822
▁$5	-10.8824
▁teachers	-10.8829
jun	-10.883
▁guangzhou	-10.8831
▁described	-10.8831
▁lyon	-10.8831
▁modification	-10.8832
▁kiev	-10.8833
▁forgot	-10.8833
▁obtained	-10.884
▁trick	-10.8842
▁corp	-10.8843
018	-10.8844
▁[3	-10.8845
▁digit	-10.8857
▁prototype	-10.8858
▁strategies	-10.8858
▁yield	-10.8858
▁[...]	-10.8858
▁pissing	-10.8858
▁wheat	-10.8863
▁dip	-10.8863
2009	-10.8864
▁rural	-10.8866
agna	-10.8866
▁streaming	-10.8867
▁myth	-10.8868
▁visible	-10.8873
▁clicking	-10.8874
▁predict	-10.8875
▁missing	-10.8877
▁none	-10.8877
▁thor	-10.8878
▁bound	-10.888
lau	-10.8881
▁renew	-10.8889
▁appropriate	-10.8893
▁layers	-10.8894
ghi	-10.8896
▁puglia	-10.89
▁exceptional	-10.89
▁cone	-10.8902
bat	-10.8902
▁matching	-10.8908
▁colli	-10.8909
▁define	-10.8911
▁roblox	-10.8913
▁beau	-10.8914
▁alps	-10.8916
▁rig	-10.892
▁indicated	-10.8924
▁albert	-10.8925
lect	-10.8925
▁although	-10.8927
▁failure	-10.8928
▁280	-10.8933
▁timetable	-10.8935
▁mk	-10.8939
▁catholic	-10.8941
▁calabria	-10.8941
▁grams	-10.8943
▁fx	-10.8943
holder	-10.8944
▁silent	-10.8945
1200	-10.8949
▁lg	-10.8953
iya	-10.8954
▁calculation	-10.8955
▁liverpool	-10.8955
▁toyota	-10.8955
▁scroll	-10.8957
▁globe	-10.8961
mir	-10.8963
nico	-10.8965
▁suggestions	-10.8969
▁shipped	-10.8971
▁emission	-10.8975
▁radi	-10.8978
illi	-10.8985
▁eggs	-10.8988
▁decided	-10.8992
jet	-10.8992
▁browsing	-10.8996
▁parallel	-10.8996
▁ptfe	-10.8998
▁panama	-10.9
▁3/4	-10.9003
▁lever	-10.9004
▁mandatory	-10.901
▁architectural	-10.9011
▁income	-10.9013
▁rt	-10.9013
▁lifetime	-10.9018
scope	-10.9018
▁addresses	-10.9019
▁hearing	-10.902
▁matte	-10.9023
▁deleted	-10.9024
▁exotic	-10.9024
▁weapon	-10.9025
ifier	-10.9026
▁richard	-10.9028
▁dressing	-10.9031
▁grace	-10.9032
zan	-10.9032
▁charged	-10.9036
▁continued	-10.9039
▁transmitter	-10.904
▁sucking	-10.904
▁+1	-10.9045
▁bau	-10.9045
▁piace	-10.9045
fire	-10.9049
▁gave	-10.9051
▁publishing	-10.9052
▁sandals	-10.9054
▁lorenzo	-10.9055
▁terme	-10.9057
plast	-10.9064
occo	-10.9064
▁formed	-10.9068
bic	-10.9069
▁tailor	-10.907
999	-10.9073
▁eden	-10.9073
cie	-10.9073
▁tai	-10.9074
therm	-10.9077
118	-10.9078
▁archaeological	-10.908
▁proximity	-10.908
190	-10.9081
385	-10.9083
▁santo	-10.9084
rini	-10.9087
amateur	-10.9088
▁lv	-10.909
▁kissing	-10.9091
▁drawings	-10.9092
▁corrugated	-10.9094
▁mykonos	-10.9094
issi	-10.9095
asian	-10.91
▁stitch	-10.9101
▁connecting	-10.9104
▁zoo	-10.9108
▁religion	-10.9109
▁formation	-10.9112
▁kim	-10.9114
atta	-10.9117
ander	-10.9117
5.5	-10.9118
▁kin	-10.9129
apartment	-10.913
▁odm	-10.9131
▁discovery	-10.9134
▁harmony	-10.9137
▁tropical	-10.9137
▁passengers	-10.914
roy	-10.914
▁dancing	-10.9141
▁caused	-10.9149
wick	-10.915
▁issued	-10.9152
9.5	-10.9152
▁trieste	-10.9152
▁dolce	-10.9152
▁roberto	-10.9158
107	-10.9163
▁intermediate	-10.9165
jack	-10.9166
standard	-10.9174
model	-10.9175
▁election	-10.9176
▁jizzbunker	-10.9179
▁polyurethane	-10.9179
▁galleries	-10.9179
▁18:00	-10.918
▁123	-10.918
wire	-10.9186
▁understanding	-10.9186
google	-10.9188
▁mood	-10.919
960	-10.9192
▁$4	-10.9192
▁complaint	-10.9193
!-[	-10.9194
126	-10.9196
change	-10.9203
▁replaced	-10.9203
6,00	-10.9204
▁bouquet	-10.9208
▁excluded	-10.9208
▁speakers	-10.9208
▁attempt	-10.9208
▁ease	-10.9213
▁alt	-10.9214
▁taxes	-10.9218
▁valle	-10.922
▁pir	-10.922
▁receiver	-10.9221
▁1980	-10.9221
▁trio	-10.9222
▁1,5	-10.9222
▁asset	-10.9226
▁nicola	-10.9226
atti	-10.9231
cross	-10.9235
▁pandora	-10.9236
▁11:00	-10.9237
▁accordance	-10.9237
uel	-10.9237
cina	-10.924
▁shift	-10.924
▁tac	-10.9242
making	-10.9245
▁vietnam	-10.925
corn	-10.925
▁illustration	-10.925
▁satisfaction	-10.925
▁diana	-10.9253
▁cher	-10.9257
/15	-10.9259
▁(18+)1	-10.926
▁jewel	-10.9263
zero	-10.9264
▁restriction	-10.9265
▁gia	-10.9265
▁vital	-10.9267
▁(16)	-10.927
▁tits	-10.927
▁cartier	-10.9276
▁nick	-10.9276
▁kon	-10.9276
▁washer	-10.9278
▁frozen	-10.9279
▁surname	-10.928
▁declare	-10.928
vdc	-10.9281
▁promise	-10.9281
▁diy	-10.9282
▁lou	-10.9282
exe	-10.9284
▁premier	-10.9286
▁001	-10.9288
cchio	-10.9289
365	-10.929
▁(0	-10.9291
▁compatibility	-10.9293
▁carnival	-10.9293
▁sponge	-10.9294
▁wc	-10.9295
▁oli	-10.9295
▁tru	-10.93
phon	-10.9302
▁patterns	-10.9303
▁adv	-10.9305
▁vista	-10.931
▁1992	-10.9311
gallery	-10.9312
▁rou	-10.9313
rone	-10.9321
▁jane	-10.9321
▁splendid	-10.9322
▁gan	-10.9328
12.20	-10.9328
264	-10.933
▁consultation	-10.9332
005	-10.9334
▁comprehensive	-10.9337
▁itinerary	-10.9337
▁themselves	-10.9337
▁torque	-10.9338
▁limits	-10.9341
▁112	-10.9349
uga	-10.935
▁torch	-10.9355
▁(24)	-10.9359
idi	-10.9366
suite	-10.9368
▁batt	-10.9369
▁bai	-10.9374
▁rectangular	-10.938
▁vid	-10.9383
▁captain	-10.9384
▁sony	-10.9385
▁hop	-10.9387
▁arrangement	-10.9389
/9	-10.939
▁manufactured	-10.939
▁hardness	-10.9395
▁whom	-10.9396
ential	-10.9397
122	-10.9398
▁soldier	-10.9399
▁actual	-10.9399
▁scam	-10.9401
▁dd	-10.9401
aldo	-10.9402
cookie	-10.9404
/24	-10.9405
-2016	-10.9407
▁whatsapp	-10.941
▁generic	-10.9411
▁sitting	-10.9412
▁arrow	-10.9412
113	-10.9415
▁drone	-10.9416
139	-10.9419
game	-10.9419
▁countryside	-10.9419
▁abuse	-10.942
▁damaged	-10.942
▁travelling	-10.9422
▁glossy	-10.9423
▁supporting	-10.9423
▁stunning	-10.9424
▁explorer	-10.9428
▁array	-10.9429
leg	-10.943
ignano	-10.943
▁overnight	-10.9433
▁lane	-10.9434
▁affordable	-10.9438
text	-10.9438
▁scheme	-10.9438
▁ace	-10.9442
▁ibis	-10.9444
safe	-10.9446
▁disable	-10.9447
circ	-10.9447
chy	-10.945
▁tender	-10.9453
▁reducing	-10.9453
▁crime	-10.9453
▁balloon	-10.9455
▁knight	-10.9461
poly	-10.9465
▁uncategorized	-10.9467
▁venetian	-10.9467
▁classification	-10.947
ancy	-10.9477
after	-10.9478
▁1/4	-10.9481
▁extraordinary	-10.9482
▁recognition	-10.9482
▁scratch	-10.9482
▁tolerance	-10.9482
▁simulator	-10.9483
▁dong	-10.9486
▁stan	-10.9488
▁3.5+	-10.9488
▁glad	-10.9493
lino	-10.9496
▁spiral	-10.9497
▁sci	-10.9499
illumina	-10.9499
word	-10.9502
▁harness	-10.9504
▁principles	-10.9507
205	-10.9508
▁acetate	-10.9511
▁beef	-10.9514
omy	-10.9514
▁framework	-10.9516
▁happens	-10.9518
▁saved	-10.9522
plan	-10.9522
super	-10.9525
▁vegetarian	-10.9526
▁translator	-10.9526
▁premises	-10.9526
▁operators	-10.9533
dale	-10.9535
▁vary	-10.954
two	-10.9542
babe	-10.9543
flow	-10.9546
zip	-10.955
gun	-10.9551
▁bullet	-10.9551
112	-10.9552
tun	-10.9555
craft	-10.9555
▁furnace	-10.9555
▁upcoming	-10.9557
▁youporn	-10.956
▁loan	-10.956
▁estonian	-10.9562
▁perfectly	-10.9563
▁sig	-10.9565
(6	-10.9565
▁templates	-10.9566
▁warsaw	-10.957
134	-10.9574
▁(17)	-10.9574
methyl	-10.9575
▁horn	-10.9577
ppa	-10.9578
psy	-10.9579
▁fried	-10.9585
▁bundle	-10.9585
foot	-10.9593
eye	-10.9593
▁berg	-10.9597
chlor	-10.9599
▁ethernet	-10.96
▁puerto	-10.96
▁unknown	-10.9601
quest	-10.9603
asi	-10.9605
▁mtb	-10.9607
▁hell	-10.9612
▁0.01	-10.9615
▁mushrooms	-10.9617
▁vine	-10.9617
▁psycho	-10.9619
games	-10.9622
▁infant	-10.9625
flat	-10.9629
▁spandex	-10.9629
ista	-10.963
olone	-10.9636
▁romeo	-10.9637
marine	-10.9638
▁subway	-10.9638
▁seating	-10.9639
any	-10.964
fan	-10.9643
▁excelsior	-10.9644
▁folk	-10.9644
▁visibility	-10.9644
▁blades	-10.9644
iness	-10.9645
▁plum	-10.9647
▁businesses	-10.9648
▁garlic	-10.9649
▁bulgaria	-10.9652
169	-10.9653
arte	-10.9655
▁florida	-10.9658
▁neutral	-10.9659
▁eliminate	-10.9659
▁rolled	-10.9661
▁aging	-10.9663
▁tt	-10.9666
▁terre	-10.9668
1.8	-10.9671
▁parameter	-10.9672
▁hinge	-10.9675
▁rohs	-10.9677
ality	-10.9678
▁oval	-10.9679
hydr	-10.9682
▁logic	-10.9687
▁ambassador	-10.9689
▁coupling	-10.9689
▁operational	-10.9692
▁launched	-10.9695
▁lowest	-10.9696
▁1080	-10.9701
▁marathon	-10.9704
▁volunteer	-10.9704
▁activation	-10.9704
▁sandy	-10.9704
▁courtyard	-10.9704
▁chu	-10.9705
▁notify	-10.9707
▁bbc	-10.9712
summer	-10.9718
▁gentle	-10.9719
▁crafts	-10.9719
▁sacred	-10.972
/08/20	-10.972
▁sito	-10.9722
▁tale	-10.9725
▁comb	-10.9728
203	-10.9729
▁router	-10.9731
▁adidas	-10.9734
▁pharmacy	-10.9735
▁fireplace	-10.9735
▁kir	-10.9735
▁silence	-10.9736
▁sem	-10.9737
▁lap	-10.9743
004	-10.9744
cool	-10.9746
▁20.00	-10.9746
▁appears	-10.9747
▁cashmere	-10.9749
▁username	-10.9752
▁quar	-10.9754
nan	-10.9755
rink	-10.9756
stat	-10.9757
ente	-10.9759
▁ethnic	-10.9764
▁romagna	-10.9766
▁86-	-10.9767
tum	-10.9768
emia	-10.9775
teria	-10.9775
▁hut	-10.9776
▁federal	-10.9779
▁hunter	-10.978
▁lugano	-10.978
▁ironing	-10.9786
required	-10.9792
340	-10.9793
▁engraving	-10.9794
▁nudist	-10.9794
▁joseph	-10.9795
▁spiritual	-10.9796
doc	-10.9799
music	-10.9801
185	-10.9806
track	-10.9808
▁heated	-10.9811
▁context	-10.9811
▁requesting	-10.9813
▁camper	-10.9814
▁lago	-10.9815
product	-10.9819
▁parent	-10.982
nelli	-10.9822
▁artisan	-10.9825
level	-10.9835
email	-10.9835
▁fal	-10.9838
▁centro	-10.984
▁edu	-10.9844
▁kris	-10.9845
▁iran	-10.9849
▁cheating	-10.9851
10%	-10.9853
▁otherwise	-10.9855
▁stripe	-10.9855
▁lex	-10.9859
▁1993	-10.9862
▁vineyard	-10.9862
pho	-10.9863
girlfriend	-10.9868
▁rossi	-10.9868
▁tomorrow	-10.987
▁champagne	-10.987
office	-10.9873
▁crib	-10.988
▁liner	-10.9882
este	-10.9883
▁comply	-10.9883
crete	-10.9884
6.5	-10.9884
▁receipt	-10.9885
▁solenoid	-10.9885
▁violet	-10.9885
▁tooth	-10.9888
▁tb	-10.9889
330	-10.989
▁moq	-10.9893
▁5.0	-10.9894
▁24/7	-10.9894
265	-10.9897
310	-10.99
▁rider	-10.9905
▁berry	-10.9906
▁floating	-10.9911
▁crop	-10.9915
▁sanitary	-10.9915
▁threat	-10.9915
generation	-10.9918
▁5*,	-10.9918
▁herbs	-10.9925
emp	-10.9926
▁masturbation	-10.993
850	-10.9931
▁anabolic	-10.9931
▁harbour	-10.9931
▁café	-10.9931
▁oriental	-10.9931
local	-10.9931
▁removed	-10.9932
▁preserve	-10.9933
multi	-10.9933
▁nuts	-10.9934
bay	-10.9934
▁almond	-10.9937
ddle	-10.9941
345	-10.9946
▁construct	-10.9947
131	-10.9954
lake	-10.9957
▁particularly	-10.9957
▁fear	-10.996
▁spanking	-10.9962
213	-10.9968
▁feli	-10.997
204	-10.9971
▁ry	-10.9972
▁trainer	-10.9976
▁gorgeous	-10.9977
▁hesitate	-10.9977
aggio	-10.9981
▁lauren	-10.9982
144	-10.9983
119	-10.9986
▁3.2	-10.9986
6.0	-10.999
block	-10.9993
▁tear	-10.9995
▁dosage	-10.9996
ambi	-11
▁batch	-11.0004
3000	-11.0005
▁bush	-11.0007
▁145	-11.0008
▁barbecue	-11.0008
▁cyprus	-11.0008
▁prestigious	-11.0008
▁reinforced	-11.0008
▁duplex	-11.0008
▁throw	-11.001
▁biggest	-11.001
rous	-11.0012
▁excel	-11.0019
▁advise	-11.0019
▁modena	-11.002
kon	-11.0022
▁declaration	-11.0023
▁alessandro	-11.0023
▁invitation	-11.0023
▁shr	-11.0026
▁outlook	-11.0028
▁georgia	-11.0029
▁beans	-11.003
▁zakynthos	-11.003
▁hz	-11.0031
▁opt	-11.0032
0.8	-11.0033
benz	-11.0034
▁archi	-11.0036
ador	-11.0036
your	-11.0036
▁viola	-11.0037
▁dad	-11.0038
▁giuseppe	-11.0038
▁refuge	-11.0038
▁toronto	-11.0039
▁liability	-11.0048
▁05:00	-11.0051
▁pastry	-11.0051
▁assets	-11.0053
▁hungary	-11.0054
▁ordinary	-11.0054
▁kraft	-11.0056
▁transformation	-11.0059
▁generate	-11.0066
▁gian	-11.0074
▁compared	-11.0078
▁deepthroat	-11.008
turn	-11.0083
▁fighting	-11.0087
▁blanket	-11.0089
▁quite	-11.0093
▁surrounding	-11.0094
▁announcement	-11.0094
124	-11.0099
▁rho	-11.0102
hara	-11.0102
smart	-11.0103
▁seeking	-11.0105
▁pacific	-11.011
.08.	-11.0113
▁lack	-11.0122
▁stair	-11.0135
▁organise	-11.0136
▁bathtub	-11.0142
▁labor	-11.0143
▁(25)	-11.0143
▁mq	-11.0145
▁concerning	-11.0146
▁sho	-11.0147
▁zan	-11.0163
▁leaving	-11.0163
006	-11.0163
download	-11.0164
▁keypad	-11.0166
▁solvent	-11.0166
▁insect	-11.0173
gmail	-11.0175
▁pregnancy	-11.0179
▁intervention	-11.0179
▁spr	-11.0185
▁gather	-11.0185
heim	-11.0187
▁incredible	-11.0194
▁interaction	-11.0194
▁studied	-11.0194
▁wishlist	-11.0196
0.4	-11.0198
▁deadline	-11.0199
center	-11.0202
▁mun	-11.0203
mania	-11.0203
pie	-11.0208
▁turned	-11.0209
▁legislative	-11.021
▁modify	-11.021
brand	-11.0211
▁spark	-11.0213
▁absolute	-11.0213
▁generally	-11.0214
▁2.1	-11.0214
/17	-11.0215
ggy	-11.0218
▁verde	-11.0223
▁argentina	-11.0226
▁elbow	-11.0226
call	-11.0227
▁strike	-11.0227
▁attachment	-11.0231
iser	-11.0232
plate	-11.0234
rfq	-11.0235
▁hdmi	-11.0239
▁parliament	-11.0242
▁kh	-11.0243
▁elba	-11.0244
▁smith	-11.0254
▁alice	-11.0255
sheet	-11.0256
▁broken	-11.0259
▁showcase	-11.0263
▁108	-11.0267
▁expression	-11.0269
▁victory	-11.0271
▁federation	-11.0273
▁renovated	-11.0273
▁bodies	-11.0273
129	-11.0274
▁ruby	-11.0275
small	-11.0276
▁fixing	-11.028
+2	-11.028
▁projector	-11.0286
▁impression	-11.0289
▁cham	-11.0291
▁birds	-11.0292
ccia	-11.0294
▁castello	-11.0296
uto	-11.0297
▁(*)	-11.0297
▁lumin	-11.0304
▁freight	-11.0305
▁175	-11.0306
▁kam	-11.0306
▁proposal	-11.031
▁maxi	-11.0311
▁baking	-11.0312
▁1989	-11.0315
▁swim	-11.0318
▁configure	-11.0321
▁exciting	-11.0321
▁lecture	-11.0321
▁vinegar	-11.0322
▁vanilla	-11.0323
▁bead	-11.0323
▁amber	-11.0325
▁jewellery	-11.0337
ferra	-11.0339
▁!!!	-11.0346
bury	-11.0346
length	-11.0353
▁suede	-11.0354
▁verification	-11.0355
▁institutions	-11.0355
neck	-11.0357
▁barber	-11.0365
touch	-11.0367
▁extensive	-11.0369
▁priest	-11.0373
▁ion	-11.0376
▁redtube	-11.0378
▁introduce	-11.0381
▁majestic	-11.0385
▁probably	-11.0385
▁nt	-11.0386
steel	-11.0387
▁nord	-11.0387
select	-11.0387
▁anyone	-11.0388
▁composer	-11.0395
▁rd	-11.0399
lee	-11.04
▁dispenser	-11.0401
▁bristol	-11.0401
▁tempered	-11.0401
▁automobile	-11.0402
▁gotporn	-11.0402
▁loose	-11.0406
▁desired	-11.0407
.03.2	-11.0408
4]	-11.0409
▁emotions	-11.0409
▁exclusively	-11.0411
▁suck	-11.0415
gne	-11.0415
▁amplifier	-11.0417
▁recycled	-11.0417
▁arrived	-11.0417
▁diode	-11.0418
▁ville	-11.0419
▁25%	-11.0424
abili	-11.0428
▁ava	-11.0429
euro	-11.0429
▁retrieve	-11.0433
▁texas	-11.0433
▁utc	-11.0436
480	-11.044
▁milfs	-11.0441
easy	-11.0441
▁reflective	-11.0447
8.5	-11.0447
▁exceed	-11.0449
▁8:00	-11.045
▁40%	-11.0452
▁reporting	-11.0453
▁mist	-11.0457
410	-11.0458
bud	-11.046
▁shore	-11.0463
▁polypropylene	-11.0465
▁strengthen	-11.0466
▁highlight	-11.0469
▁assemble	-11.0476
370	-11.048
▁vir	-11.0488
152	-11.0489
1.6	-11.0491
▁gloss	-11.0495
path	-11.0495
▁conversation	-11.0497
▁marrakech	-11.0497
▁beads	-11.0498
▁morocco	-11.0498
▁rid	-11.0499
▁bud	-11.0499
hardcore	-11.05
▁latitude	-11.0502
▁mut	-11.0504
▁retailer	-11.0504
▁disco	-11.0504
natural	-11.051
▁serie	-11.0513
▁diff	-11.0513
▁housewife	-11.0516
▁canon	-11.0518
vpn	-11.052
▁curve	-11.0526
▁marche	-11.0527
▁crypto	-11.0528
▁vase	-11.053
▁0.9	-11.053
▁alghero	-11.053
▁personnel	-11.0534
▁esp	-11.0536
▁shake	-11.0538
▁barcode	-11.054
▁chronic	-11.0546
▁cougar	-11.0546
▁gender	-11.0547
▁variation	-11.0548
aux	-11.0552
▁(28)	-11.0553
▁(27)	-11.0554
▁polishing	-11.0562
▁candidate	-11.0564
▁editorial	-11.0564
▁365	-11.0566
▁though	-11.0576
azione	-11.0576
▁luxembourg	-11.0579
▁wardrobe	-11.0579
▁jewels	-11.0582
▁notebook	-11.0584
just	-11.0587
▁bert	-11.0587
slav	-11.0588
oxid	-11.0595
▁femdom	-11.0595
▁treated	-11.0596
▁spider	-11.0598
▁merge	-11.0599
▁potatoes	-11.0601
▁ended	-11.0602
▁containing	-11.0605
4.2	-11.0614
▁vegas	-11.0614
▁vac	-11.0615
▁mentioned	-11.062
racy	-11.062
▁municipal	-11.0624
▁occ	-11.0625
▁boston	-11.0629
look	-11.063
▁9.00	-11.063
smoking	-11.0631
▁seville	-11.0631
▁radiator	-11.0632
▁deca	-11.0637
▁(26)	-11.0638
156	-11.064
▁theory	-11.0642
▁monastery	-11.0644
▁stockholm	-11.0644
▁tasty	-11.0645
▁expected	-11.0645
shell	-11.0646
▁dorm	-11.0647
reservation	-11.0648
4,00	-11.0648
▁conta	-11.0648
gui	-11.0649
▁banana	-11.0649
▁omni	-11.065
▁exactly	-11.0654
motion	-11.0654
▁fred	-11.0655
390	-11.0656
▁copenhagen	-11.0661
▁tentacle	-11.0661
▁essence	-11.0661
mol	-11.0664
▁radius	-11.0667
▁elect	-11.0673
▁literature	-11.0678
▁corsica	-11.068
▁soundproof	-11.068
▁gardena	-11.0685
▁false	-11.0686
▁165	-11.0686
▁specialties	-11.0691
▁pont	-11.0691
▁surgical	-11.0694
▁aurora	-11.0694
▁daddy	-11.0695
dog	-11.0696
/2014	-11.0697
▁gearbox	-11.0698
▁switches	-11.0709
▁pattaya	-11.071
▁verified	-11.0713
bru	-11.0713
▁thy	-11.0714
fill	-11.0718
▁customization	-11.0725
234	-11.0729
▁granite	-11.0731
stream	-11.0732
▁acqua	-11.0733
▁coal	-11.0733
lou	-11.0736
▁lind	-11.0737
▁yard	-11.0739
▁shu	-11.0739
016	-11.0741
133	-11.0741
▁oxford	-11.0743
▁cbd	-11.0743
▁astro	-11.0745
▁seaside	-11.0748
nite	-11.0751
175	-11.0754
▁jin	-11.0757
(7	-11.0758
▁surveillance	-11.076
▁archivi	-11.076
▁alanya	-11.076
▁mast	-11.076
▁opti	-11.0766
▁lava	-11.0767
▁developing	-11.0768
▁runner	-11.0769
▁skate	-11.0774
▁informed	-11.0774
cart	-11.0775
▁[]	-11.0776
▁appreciate	-11.0777
▁actress	-11.0777
atura	-11.0777
phase	-11.0777
▁poet	-11.0778
wine	-11.0781
door	-11.0781
▁limitation	-11.0783
▁barbara	-11.0785
▁tease	-11.0791
▁lacquer	-11.0793
▁awesome	-11.0793
▁buckle	-11.0794
culture	-11.08
▁divide	-11.0801
▁positioning	-11.0803
▁feast	-11.0805
270	-11.0807
▁proud	-11.0808
▁axle	-11.0809
▁arche	-11.0809
search	-11.0811
▁suction	-11.0813
resistant	-11.0814
cade	-11.0818
▁flora	-11.0821
cip	-11.0822
▁tenerife	-11.0827
▁concentrate	-11.0827
▁carbide	-11.0827
cumshot	-11.0828
▁lm	-11.083
▁finishes	-11.0836
▁unread	-11.0838
▁iceland	-11.0839
▁overlooking	-11.0843
▁entirely	-11.0844
▁mental	-11.0845
2.2	-11.0846
▁wound	-11.0846
▁heel	-11.0849
▁bishop	-11.0851
▁1991	-11.0853
2.7	-11.0855
evo	-11.0859
▁commerce	-11.086
▁consultancy	-11.0861
▁cousin	-11.0861
▁durability	-11.0863
current	-11.0865
▁permission	-11.0866
▁astoria	-11.0867
carbon	-11.0868
pop	-11.087
▁scrap	-11.087
▁sealed	-11.0872
▁rather	-11.0878
▁mud	-11.088
▁importance	-11.0881
▁eric	-11.0881
▁gli	-11.0881
▁conti	-11.0882
▁principle	-11.0882
▁retreat	-11.0882
▁smell	-11.0882
▁underwear	-11.0883
▁extraction	-11.0884
▁startup	-11.0884
▁donate	-11.0888
▁lite	-11.0892
▁gyno	-11.0894
▁rab	-11.0904
▁proposals	-11.0905
azzo	-11.0908
lash	-11.0909
▁piedmont	-11.0911
▁heroes	-11.0913
outdoor	-11.0917
404	-11.0919
zione	-11.0921
▁tiffany	-11.0928
▁drtuber	-11.0928
▁orlando	-11.0928
most	-11.0934
▁3.1	-11.0936
▁touring	-11.0939
▁filtration	-11.0941
▁reflection	-11.0943
▁noble	-11.0945
▁specify	-11.0946
▁850	-11.0946
para	-11.0947
▁seafood	-11.0951
wide	-11.0953
▁musician	-11.0958
lé	-11.0959
▁belvedere	-11.0961
▁outstanding	-11.0961
▁spent	-11.0962
▁bonuses	-11.0966
share	-11.0969
php	-11.0973
▁originally	-11.0978
▁bordeaux	-11.0978
▁calcium	-11.0978
▁electrode	-11.0979
▁prompt	-11.0979
yellow	-11.0984
▁testimonials	-11.0985
aku	-11.0985
have	-11.0986
▁loft	-11.0991
ibility	-11.0993
▁ergonomic	-11.0995
▁principal	-11.0995
▁emirates	-11.0995
▁titan	-11.0997
tian	-11.1002
▁straw	-11.1003
bedroom	-11.1004
▁tal	-11.1006
▁seems	-11.1011
▁biscuit	-11.1012
▁metropolitan	-11.1012
▁satisfy	-11.1012
▁universe	-11.1014
motor	-11.1016
wheel	-11.1018
build	-11.1019
iii	-11.102
kel	-11.1024
▁mia	-11.1024
▁greenhouse	-11.1025
▁objectives	-11.1027
138	-11.1029
▁eagle	-11.103
ivity	-11.1032
lesbian	-11.1038
▁6000	-11.1042
▁macro	-11.1043
▁sweater	-11.1043
▁nm	-11.1046
▁rpm	-11.1046
▁customizable	-11.1047
▁employ	-11.1048
micro	-11.1054
mobile	-11.1055
▁rum	-11.1056
290	-11.106
▁allactionhost	-11.1064
feld	-11.1064
▁optimal	-11.1064
▁ivory	-11.1065
▁llc	-11.1067
▁19:00	-11.1075
▁bend	-11.1078
▁cigarette	-11.1081
▁dictionary	-11.1081
▁5.5	-11.1081
177	-11.1087
▁flute	-11.1091
2008	-11.1094
▁koh	-11.1096
▁106	-11.1097
▁accommodate	-11.1098
▁marseille	-11.1098
▁cum	-11.1098
▁gown	-11.1099
▁crash	-11.1099
▁denim	-11.1102
▁mali	-11.1105
▁nose	-11.1109
▁actually	-11.1113
3.2	-11.1115
▁scheduled	-11.1115
▁naughty	-11.1115
▁identifie	-11.1116
▁publish	-11.1117
▁unisex	-11.1119
▁stor	-11.1122
▁petro	-11.1124
▁estimated	-11.1125
▁publisher	-11.1126
▁sheep	-11.1128
▁116	-11.113
50%	-11.1131
▁instructor	-11.1133
▁teenager	-11.1133
▁proper	-11.1134
▁qr	-11.1134
▁advisor	-11.1135
travel	-11.1135
▁describe	-11.1136
▁punch	-11.1138
▁teatro	-11.1141
▁plating	-11.1142
▁80%	-11.1148
condition	-11.115
▁forever	-11.115
▁realization	-11.115
aldi	-11.1151
▁270	-11.1154
▁retain	-11.1154
2.3	-11.1158
▁edi	-11.1161
▁reported	-11.1162
▁barba	-11.1166
▁gadget	-11.1167
▁ducati	-11.1167
▁tang	-11.1172
▁talking	-11.1174
▁normally	-11.1182
▁14:00	-11.1183
12345678910	-11.1184
▁sunporno	-11.1184
▁slightly	-11.1185
▁bir	-11.1185
being	-11.1185
▁grilled	-11.1187
▁jay	-11.1189
▁youll	-11.1191
roid	-11.1192
▁lamination	-11.1202
▁baggage	-11.1202
burn	-11.1203
▁dine	-11.1204
▁defined	-11.1206
▁math	-11.1208
▁viagra	-11.1211
▁basil	-11.1213
▁pakistan	-11.1219
▁paphos	-11.1219
▁reseller	-11.122
▁memories	-11.122
▁thinking	-11.122
▁stuff	-11.1222
hall	-11.1222
▁1-2	-11.1227
▁irish	-11.1232
▁sewing	-11.1234
cake	-11.1234
▁implant	-11.1238
▁alter	-11.1239
tab	-11.1239
▁binary	-11.124
▁natur	-11.1241
5000	-11.1241
pole	-11.1245
worth	-11.1249
▁1800	-11.1251
▁favor	-11.1253
▁perspective	-11.1254
▁walnut	-11.1254
▁montreal	-11.1255
▁carefully	-11.1261
▁thermostat	-11.1262
▁porta	-11.1264
▁strain	-11.1264
▁booster	-11.1269
▁sensitivity	-11.1271
▁spindle	-11.1272
▁cairo	-11.1273
biz	-11.1277
▁whose	-11.1278
▁alto	-11.1279
▁+41	-11.1279
▁ankle	-11.1279
196	-11.1279
▁feeder	-11.1282
image	-11.1284
▁insulated	-11.1289
▁fifth	-11.1289
▁brescia	-11.129
▁wake	-11.1292
▁9001	-11.1292
▁levi	-11.1298
stitution	-11.1302
▁colo	-11.1304
▁invisible	-11.1307
▁nominal	-11.1307
▁seduced	-11.1307
▁meditation	-11.1307
source	-11.1309
▁footwear	-11.131
215	-11.1311
breakfast	-11.1314
team	-11.1314
▁appliances	-11.1317
▁hanger	-11.132
▁authorized	-11.132
(8	-11.1321
▁correction	-11.1322
▁grinder	-11.1324
▁vapor	-11.1324
winter	-11.1329
material	-11.1332
▁refined	-11.1332
pixel	-11.1332
▁kart	-11.1337
stage	-11.1339
208	-11.1343
5]	-11.1344
▁classified	-11.1346
145	-11.135
▁720	-11.1353
▁mike	-11.1358
▁remaining	-11.1359
▁rainbow	-11.1359
▁tailored	-11.136
▁enamel	-11.136
anne	-11.1361
127	-11.1362
▁weld	-11.1366
yama	-11.1368
weight	-11.1371
coll	-11.1372
015	-11.1375
▁convenience	-11.1377
▁diagnosis	-11.1377
▁ventilation	-11.1377
▁speech	-11.1377
333	-11.138
▁speaking	-11.1384
▁cpu	-11.1384
▁lagoon	-11.1385
▁freezer	-11.1388
▁dock	-11.139
▁cosmo	-11.1391
▁=>	-11.1393
▁utility	-11.1395
▁renovation	-11.1395
▁induction	-11.1397
plant	-11.1402
▁smaller	-11.1402
▁underwater	-11.1404
▁480	-11.1405
quot	-11.1412
▁ero	-11.1412
▁trouble	-11.1412
▁107	-11.1413
▁shrink	-11.1413
▁simulation	-11.1414
▁fertil	-11.1417
factory	-11.1418
pool	-11.1426
▁microfiber	-11.143
▁producing	-11.143
▁coconut	-11.143
▁java	-11.1433
fall	-11.1443
▁tracker	-11.1443
▁chris	-11.1443
tree	-11.1444
155	-11.1444
▁jerusalem	-11.1448
▁jesolo	-11.1448
▁ambient	-11.1448
▁glitter	-11.1449
▁brought	-11.1449
▁esc	-11.145
▁advertisement	-11.1454
▁blast	-11.1454
▁cava	-11.1455
bie	-11.1456
▁ceo	-11.1456
007	-11.1458
▁rustic	-11.1459
cloud	-11.146
sseldorf	-11.1466
will	-11.1473
▁sperm	-11.1474
▁maison	-11.1475
/2013	-11.1481
▁petrol	-11.1482
vista	-11.1487
▁particle	-11.1491
▁plat	-11.1494
3.3	-11.1495
amine	-11.1497
▁2500	-11.1499
ghz	-11.15
▁rover	-11.1502
▁critic	-11.1502
▁stain	-11.1502
▁recommendations	-11.1503
0.6	-11.1504
zie	-11.1508
ncies	-11.151
▁headset	-11.1515
▁stroll	-11.1515
2.8	-11.1518
▁sightseeing	-11.152
▁tensile	-11.152
▁wu	-11.152
ether	-11.1521
▁kate	-11.1525
▁tiger	-11.1526
▁suggested	-11.1536
film	-11.1536
225	-11.1536
▁retention	-11.1537
▁liberty	-11.1538
▁155	-11.1538
▁surge	-11.1544
walk	-11.1548
▁shiny	-11.1552
couple	-11.1552
▁syracuse	-11.1555
▁baroque	-11.1556
bble	-11.1568
▁burning	-11.1569
▁lisa	-11.1572
▁administrator	-11.1573
+39	-11.1574
▁diego	-11.1575
▁difficulty	-11.1578
▁decorated	-11.1578
136	-11.1583
onne	-11.1587
186	-11.1587
nautic	-11.1588
▁campo	-11.1588
▁justice	-11.159
▁serbia	-11.1591
▁lanzarote	-11.1592
▁binding	-11.1594
▁premiere	-11.1597
▁alien	-11.1598
▁lithuanian	-11.1602
▁museo	-11.1605
▁mint	-11.1609
▁horizon	-11.1609
▁havana	-11.161
sperma	-11.1611
▁healing	-11.1612
▁granada	-11.1612
▁finland	-11.1615
▁biological	-11.1616
▁spe	-11.1617
▁patio	-11.1618
japanese	-11.162
▁lucky	-11.1623
ically	-11.1623
project	-11.1625
rock	-11.1627
▁versatile	-11.1628
▁shelves	-11.1628
▁calculate	-11.1629
▁mistress	-11.1629
▁mov	-11.1631
▁fol	-11.1632
▁sac	-11.1633
▁wrist	-11.1634
▁franco	-11.1634
▁gmt	-11.1634
▁weak	-11.1636
▁michele	-11.1638
▁thr	-11.164
440	-11.1642
country	-11.1643
▁1.7	-11.1644
▁twenty	-11.1646
▁throat	-11.1646
▁cancun	-11.1647
▁ghetto	-11.1647
▁mdf	-11.1649
▁joe	-11.1651
▁duke	-11.1652
▁vocal	-11.1652
horn	-11.1653
vari	-11.1656
frame	-11.1656
▁prove	-11.1657
▁90%	-11.1658
posi	-11.1664
▁cologne	-11.1664
▁rust	-11.1665
▁neu	-11.1665
▁enlarge	-11.1666
learn	-11.1667
▁stool	-11.1669
301	-11.167
visit	-11.1678
tory	-11.1679
▁builder	-11.1681
▁embassy	-11.1682
▁qualification	-11.1682
137	-11.1684
scale	-11.1686
▁renewable	-11.1687
▁lantern	-11.1688
flower	-11.1689
▁typ	-11.169
▁(30)	-11.1698
▁evidence	-11.1701
▁glasgow	-11.1701
4.8	-11.1701
▁greeting	-11.1701
▁affair	-11.1701
uzzi	-11.1701
condens	-11.1705
▁malaga	-11.1706
▁glory	-11.1706
▁betting	-11.1706
▁gsm	-11.1707
▁kla	-11.1712
▁pac	-11.1718
▁purchasing	-11.1719
▁observe	-11.172
esco	-11.172
▁foto	-11.1725
▁distributed	-11.1737
▁longitude	-11.1737
▁separator	-11.1737
▁intensive	-11.1737
▁licking	-11.1737
▁wishes	-11.1739
▁banking	-11.1739
▁dairy	-11.174
gay	-11.1741
▁hollow	-11.1741
ppe	-11.1743
flor	-11.1743
▁borgo	-11.1749
▁1988	-11.1749
▁teach	-11.1755
grade	-11.1755
▁knives	-11.1756
168	-11.1757
▁employment	-11.1758
▁7.5	-11.1759
▁copies	-11.1759
▁foldable	-11.1761
▁suspended	-11.1763
▁goose	-11.1768
▁characteristic	-11.1768
▁filler	-11.177
1500	-11.1772
shemale	-11.1773
▁inventory	-11.1774
▁courtesy	-11.1774
▁organizer	-11.1779
▁napa	-11.1781
bridge	-11.1782
▁johnson	-11.1784
▁gum	-11.1785
▁recorder	-11.1789
▁disclosure	-11.1792
knulling	-11.1792
▁bore	-11.1794
▁treviso	-11.1794
iglio	-11.1795
▁flashing	-11.1796
▁healthcare	-11.1796
430	-11.1798
720	-11.18
▁offset	-11.181
▁complement	-11.1811
▁perugia	-11.1811
1/2	-11.1812
3,00	-11.1814
▁brew	-11.1821
▁disney	-11.1833
▁becoming	-11.1834
▁raise	-11.1835
▁billion	-11.1837
▁swa	-11.184
▁sala	-11.1845
▁passing	-11.1848
four	-11.1851
▁trump	-11.1853
▁winding	-11.1854
▁juan	-11.1854
hood	-11.1855
▁chiller	-11.1857
▁tiny	-11.1866
4.1	-11.1868
▁determine	-11.1868
▁apulia	-11.1869
▁karl	-11.187
▁agenda	-11.1871
clean	-11.1874
found	-11.1876
▁discussion	-11.1878
titude	-11.1882
▁basin	-11.1883
8.0	-11.1885
146	-11.1889
▁greatest	-11.1891
single	-11.19
▁hygiene	-11.1903
▁technician	-11.1903
▁medication	-11.1904
▁oxide	-11.1904
▁dangerous	-11.1904
▁fusion	-11.1907
▁mig	-11.1917
liquid	-11.1918
510	-11.192
▁fog	-11.1921
▁robotic	-11.1925
▁fuck	-11.1931
including	-11.1934
▁victor	-11.1937
305	-11.1938
▁renaissance	-11.1941
▁sensual	-11.1941
▁bloom	-11.1941
▁mixture	-11.1943
▁bought	-11.1944
009	-11.1946
▁prima	-11.1948
wei	-11.1951
▁judge	-11.196
gran	-11.1964
▁uncle	-11.1966
▁painter	-11.1966
▁0039	-11.1968
▁mention	-11.1969
heng	-11.1977
▁satisfied	-11.1978
▁subsequent	-11.1978
▁eventually	-11.1978
▁vicenza	-11.1978
▁excess	-11.1979
ctu	-11.1979
▁twice	-11.198
▁dre	-11.1984
▁integrate	-11.1984
▁remained	-11.1987
tronic	-11.1989
paper	-11.199
boot	-11.1992
▁scott	-11.1997
206	-11.1999
▁crisis	-11.1999
▁employee	-11.1999
▁von	-11.2003
209	-11.2007
lang	-11.2008
▁marino	-11.2014
▁pursuant	-11.2016
▁salzburg	-11.2016
▁amusement	-11.2016
▁manchester	-11.2018
▁curved	-11.202
asco	-11.2023
▁strange	-11.2026
▁groove	-11.2026
correct	-11.2029
state	-11.2029
▁imported	-11.2033
.09.2	-11.2034
▁arabia	-11.2034
▁burner	-11.2035
▁tobacco	-11.2035
▁1100	-11.2036
▁aerial	-11.2037
▁mob	-11.2038
hoe	-11.205
▁jewish	-11.2054
▁ferrara	-11.2054
▁translated	-11.2056
▁endo	-11.2056
▁ghost	-11.2059
▁(29)	-11.2062
▁andrew	-11.2064
▁(31)	-11.2065
please	-11.2068
▁absolutely	-11.2068
▁moulding	-11.2071
▁abruzzo	-11.2073
▁matrix	-11.2073
▁postal	-11.2075
▁velo	-11.2077
install	-11.2083
building	-11.2083
▁elena	-11.2083
▁transmit	-11.2089
▁behavior	-11.2092
▁handheld	-11.2092
▁intended	-11.2092
▁radisson	-11.2092
logical	-11.2092
▁lecce	-11.2092
▁crowd	-11.2092
▁kept	-11.2097
▁balanced	-11.21
▁audition	-11.2105
▁bravotube	-11.2111
▁henry	-11.2111
colo	-11.2112
▁converted	-11.2114
▁plaster	-11.2115
▁09:00	-11.2115
▁shine	-11.2117
▁fuji	-11.2117
▁gau	-11.2119
▁rj	-11.2124
break	-11.2129
▁turbine	-11.213
▁colombia	-11.213
▁kinky	-11.2131
▁laminate	-11.2133
157	-11.2134
▁locker	-11.2136
▁gig	-11.214
ania	-11.2142
there	-11.2143
series	-11.2144
▁1.9	-11.2144
▁transparency	-11.2149
▁4.5+	-11.2155
▁chop	-11.2162
▁cert	-11.2162
hold	-11.2162
▁nap	-11.2163
165	-11.2165
arian	-11.2165
▁homo	-11.2167
▁academic	-11.2168
▁excluding	-11.2171
▁immobil	-11.2177
▁1985	-11.2177
brunette	-11.2182
▁truly	-11.2184
▁pork	-11.2186
▁luigi	-11.2187
▁alliance	-11.2188
▁brutal	-11.2189
▁magical	-11.2189
▁establishment	-11.2192
bella	-11.22
enzo	-11.2203
otel	-11.2204
▁equivalent	-11.2206
▁ethics	-11.2206
▁gasoline	-11.2206
▁fond	-11.2208
uru	-11.2208
▁datasheet	-11.2215
▁fem	-11.2221
operative	-11.2222
▁vivi	-11.2225
▁hectare	-11.2225
▁tram	-11.2226
▁rotating	-11.2227
▁associate	-11.2229
▁formal	-11.2229
▁verify	-11.2229
▁ssl	-11.2234
angle	-11.2234
▁defeat	-11.2237
channel	-11.2241
▁installing	-11.2243
format	-11.2245
▁prestige	-11.2245
▁conflict	-11.2245
▁decrease	-11.2245
▁slovenia	-11.2246
▁ov	-11.2248
▁shaving	-11.2249
▁vera	-11.2249
buck	-11.225
▁passport	-11.2252
5.6	-11.2253
▁carol	-11.2253
▁strand	-11.2256
▁gamb	-11.2256
▁chill	-11.2257
▁fulfill	-11.2259
chemical	-11.2259
▁ivan	-11.226
198	-11.2261
▁blister	-11.2265
▁compressed	-11.2266
▁rosso	-11.2267
▁neg	-11.2268
▁arcade	-11.2268
▁narrow	-11.2269
▁ginger	-11.227
▁1920	-11.2271
▁17:00	-11.2274
sight	-11.2276
▁strictly	-11.2276
▁strict	-11.2277
lead	-11.2279
▁refrigeration	-11.2283
▁examination	-11.2284
▁spoon	-11.2286
▁etna	-11.2287
▁nicole	-11.2292
sweet	-11.2292
5.0	-11.2293
▁enhanced	-11.2298
▁render	-11.23
▁lipo	-11.2301
▁bolzano	-11.2303
▁philippines	-11.2303
▁ravenna	-11.2303
▁firmware	-11.2306
2.4	-11.2309
▁10000	-11.2314
▁tilt	-11.2316
school	-11.2318
jiang	-11.2318
▁fare	-11.2329
▁quest	-11.2338
▁tart	-11.2341
▁spectacular	-11.2342
▁taylor	-11.2342
▁mallorca	-11.2342
7.0	-11.2343
▁fairy	-11.2343
enburg	-11.2345
▁tau	-11.2349
opera	-11.2349
▁blank	-11.2357
▁peru	-11.2357
1.4	-11.2358
▁emma	-11.2361
▁distinguish	-11.2361
▁welcoming	-11.2361
▁sausage	-11.2361
▁kur	-11.2363
201	-11.2365
▁portion	-11.237
▁genre	-11.237
▁dashboard	-11.2382
carton	-11.2383
▁contra	-11.2385
▁margin	-11.2387
▁1960	-11.2388
▁documentary	-11.2388
stripping	-11.2389
▁mailing	-11.2389
158	-11.2392
950	-11.2394
▁marker	-11.2396
**	-11.24
▁cfd	-11.2401
▁nuvid	-11.2402
sexy	-11.2405
▁1600	-11.2409
▁carrying	-11.2409
hub	-11.2411
4.0	-11.2412
pvc	-11.2413
▁brushes	-11.2416
blonde	-11.2416
first	-11.2416
▁dialogue	-11.242
dream	-11.2421
▁925	-11.2422
▁trigger	-11.2422
emme	-11.2434
▁cork	-11.2437
7,00	-11.2439
3.9	-11.2444
▁kitchenette	-11.2449
▁1950	-11.2451
▁athletic	-11.2459
▁engagement	-11.2459
▁told	-11.246
iere	-11.2465
▁pile	-11.2465
3.6	-11.2468
▁proposed	-11.2471
▁pill	-11.2475
▁neon	-11.2478
▁phoenix	-11.2479
▁recipient	-11.2479
▁spicy	-11.2481
▁sunrise	-11.2481
▁dai	-11.2481
graf	-11.2485
▁immobilier	-11.2485
▁corte	-11.2491
▁roger	-11.2495
▁rally	-11.2499
▁suzuki	-11.2499
▁scanning	-11.2501
ozzi	-11.2501
▁projection	-11.2502
▁07:00	-11.2505
▁luci	-11.2508
▁proven	-11.2508
▁ipod	-11.251
166	-11.2512
▁bbq	-11.2514
▁fda	-11.2515
protect	-11.2519
▁fastener	-11.2519
▁hab	-11.252
256	-11.2521
▁nordic	-11.2521
▁manga	-11.2521
▁338	-11.2522
▁energi	-11.2523
▁attached	-11.2524
▁20:00	-11.2525
▁+49	-11.2527
▁sew	-11.2529
classic	-11.2531
▁duck	-11.2534
▁clan	-11.2538
▁absorption	-11.2538
▁tarpaulin	-11.2538
▁colombo	-11.2538
▁execute	-11.2538
▁awareness	-11.2538
▁abstract	-11.2539
▁ecological	-11.2541
▁remind	-11.2542
▁12.00	-11.2549
▁coco	-11.2549
▁patron	-11.2552
▁doggy	-11.2553
french	-11.2555
▁bold	-11.2556
▁accompanied	-11.2558
▁tripadvisor	-11.2558
▁jr	-11.256
▁shutter	-11.2562
▁hiv	-11.2562
german	-11.2563
chel	-11.2568
▁1987	-11.2575
yuan	-11.2576
oggi	-11.2579
▁knot	-11.2579
▁trapani	-11.258
▁involve	-11.2583
▁gulf	-11.2584
▁riad	-11.2585
▁prosecco	-11.259
▁agreed	-11.2596
▁kiosk	-11.2598
▁99%	-11.2601
▁agro	-11.2601
▁lug	-11.2602
far	-11.2602
▁doesn	-11.2607
207	-11.261
▁santiago	-11.2618
▁totally	-11.2619
▁jessica	-11.2619
▁triangle	-11.2619
▁preferred	-11.262
▁miniature	-11.2621
▁lie	-11.2625
▁950	-11.2627
▁drawn	-11.2632
mouth	-11.2638
▁embedded	-11.2638
▁pollution	-11.2638
▁yobt	-11.2638
dorf	-11.2642
▁lightning	-11.2646
▁pirate	-11.2647
▁istria	-11.265
▁php	-11.2654
▁reputation	-11.2658
▁unusual	-11.2658
ashi	-11.2659
▁rat	-11.2659
1,00	-11.2659
▁massimo	-11.266
159	-11.2663
▁settlement	-11.2663
30%	-11.2663
195	-11.2663
▁chile	-11.2664
conditioned	-11.2667
▁designated	-11.2669
▁basel	-11.2671
▁helpful	-11.2671
extra	-11.2675
▁communities	-11.2678
▁improving	-11.2678
▁lodging	-11.2678
▁innocent	-11.2679
▁cuff	-11.268
bach	-11.2681
▁ole	-11.2682
▁fancy	-11.269
▁alberto	-11.2691
▁universities	-11.2698
▁severe	-11.2699
▁rico	-11.2704
187	-11.2709
▁wiring	-11.2714
rise	-11.2716
ée	-11.2719
▁bianco	-11.2719
▁exchanger	-11.2721
nomi	-11.2721
▁angelo	-11.2724
2.6	-11.2725
▁scarf	-11.2736
▁succeed	-11.2739
660	-11.274
▁dominican	-11.2743
▁specifically	-11.2744
▁vene	-11.2744
▁pear	-11.2748
▁combo	-11.2752
▁otel	-11.2754
▁austrian	-11.2754
▁pag	-11.2755
▁slovenian	-11.2758
▁pavilion	-11.2759
▁varieties	-11.2759
▁bodrum	-11.2759
▁frost	-11.2761
▁referred	-11.2763
▁unesco	-11.2763
▁acne	-11.2763
▁steak	-11.2764
▁1986	-11.2764
▁tran	-11.2767
▁carolina	-11.2767
cycli	-11.277
▁+86	-11.2771
▁lazio	-11.2774
▁fell	-11.2774
technic	-11.2779
▁profiling	-11.278
3.8	-11.2782
▁priority	-11.2786
▁creator	-11.2796
process	-11.2798
▁chassis	-11.28
▁ornament	-11.28
6]	-11.2803
▁genova	-11.2805
bound	-11.2807
drop	-11.2816
monte	-11.2818
▁prescription	-11.282
▁shy	-11.2821
▁tubing	-11.2828
▁num	-11.2839
▁brilliant	-11.2841
▁competence	-11.2841
turismo	-11.2842
very	-11.2849
▁debt	-11.2852
farm	-11.2853
▁footballer	-11.2856
previous	-11.286
purpose	-11.286
▁complimentary	-11.2861
▁timing	-11.2862
▁authorities	-11.2866
▁salmon	-11.2868
▁acquired	-11.2873
public	-11.2873
▁multifunctional	-11.2873
▁latvian	-11.2875
▁delle	-11.2877
▁realize	-11.2881
▁hike	-11.2881
▁circulation	-11.2882
▁positano	-11.2882
▁scissor	-11.2882
▁facing	-11.2883
▁marbella	-11.2885
▁1984	-11.2888
008	-11.2888
▁oslo	-11.2898
▁3.7	-11.29
▁pour	-11.29
▁sheraton	-11.2902
▁turnstile	-11.2902
▁benz	-11.2903
▁tat	-11.2909
▁reproduction	-11.2909
▁luis	-11.2912
booking	-11.2916
▁odessa	-11.2923
▁bareback	-11.2923
▁britain	-11.2925
▁tied	-11.2925
ellini	-11.2925
▁egyptian	-11.2927
.02.2	-11.2937
▁hoist	-11.2937
▁toxic	-11.294
▁capacitor	-11.2944
▁intellectual	-11.2944
▁slovak	-11.2944
▁roulette	-11.2944
▁trento	-11.2945
wash	-11.2945
axis	-11.2945
expo	-11.2947
▁previously	-11.2949
buy	-11.2949
▁barbie	-11.2955
▁peach	-11.2963
stainless	-11.2964
▁housewives	-11.2964
▁photovoltaic	-11.2964
▁spaghetti	-11.2964
▁adorable	-11.2964
▁compete	-11.2972
▁establish	-11.2972
▁grab	-11.2974
▁settle	-11.2978
880	-11.2984
▁biker	-11.2984
▁madonna	-11.2985
genic	-11.2986
▁expire	-11.2988
470	-11.2991
▁ingredient	-11.2995
kid	-11.3001
▁realized	-11.3003
▁hypo	-11.3006
▁slimming	-11.3007
lope	-11.3014
▁desi	-11.3017
brush	-11.3017
▁081	-11.3019
▁055	-11.3022
▁sib	-11.3024
company	-11.3025
▁investigation	-11.3027
▁courier	-11.3027
▁sketch	-11.3027
▁nun	-11.3028
▁julia	-11.3029
▁destroyed	-11.303
▁murano	-11.303
▁labeling	-11.3031
without	-11.3034
▁pulp	-11.3043
▁embroidered	-11.3048
▁magnesium	-11.3048
▁pyramid	-11.3048
▁intensity	-11.3048
▁profession	-11.3048
▁valuable	-11.3048
▁rocket	-11.3049
▁poison	-11.305
▁graph	-11.3058
▁solarium	-11.3059
9.0	-11.306
▁mak	-11.3061
▁cassi	-11.3063
▁muse	-11.3064
▁tungsten	-11.3068
▁programmable	-11.3069
▁dallas	-11.307
▁fiera	-11.307
188	-11.3071
▁churches	-11.3075
▁lawn	-11.3078
▁restored	-11.3079
▁stro	-11.3085
▁iris	-11.3088
▁concentration	-11.3089
▁emperor	-11.3089
▁doubt	-11.309
mission	-11.3091
▁armenia	-11.3093
▁wipe	-11.3093
▁chania	-11.3094
▁governor	-11.3097
mode	-11.3098
tropic	-11.3099
even	-11.3099
▁pax	-11.3106
rigo	-11.3109
▁calibration	-11.311
▁consequence	-11.311
graduate	-11.3111
▁intl	-11.3119
acci	-11.312
▁properly	-11.3126
▁punching	-11.3131
▁magnificent	-11.3132
▁15:00	-11.3134
person	-11.3138
carlo	-11.3138
organ	-11.3138
0.7	-11.315
▁sword	-11.315
▁float	-11.3151
▁cure	-11.3153
▁lubricant	-11.3153
▁multilingual	-11.3153
▁malaysia	-11.3153
227	-11.3153
language	-11.3153
▁berries	-11.3153
▁rad	-11.3155
▁scr	-11.3155
▁myself	-11.3159
▁(33)	-11.3159
casa	-11.316
▁collective	-11.3163
▁delhi	-11.317
▁romance	-11.3171
▁exact	-11.3172
▁recreation	-11.3174
▁appeal	-11.3175
▁categor	-11.3178
▁uploaded	-11.3179
lace	-11.3179
▁snowboard	-11.318
▁mhz	-11.3181
▁hemp	-11.3185
▁planner	-11.3185
▁memo	-11.3185
kiss	-11.3186
▁passive	-11.319
▁memorial	-11.3195
▁mystery	-11.3195
▁summit	-11.3195
▁savoy	-11.3195
▁sweatshirt	-11.3196
▁hunt	-11.3201
8.1	-11.3201
▁usual	-11.3209
0.9	-11.3212
phor	-11.3214
kib	-11.3216
▁enquiry	-11.3216
▁plywood	-11.3216
▁tongue	-11.3218
▁alma	-11.3222
▁mild	-11.3223
crypt	-11.3224
▁buses	-11.3228
chrom	-11.3228
▁classroom	-11.3229
plex	-11.323
176	-11.3231
▁displacement	-11.3237
▁swallow	-11.3237
▁criminal	-11.3237
▁encounter	-11.3237
▁houston	-11.3237
▁gothic	-11.3238
▁pageviews	-11.3238
▁poetry	-11.3241
▁choir	-11.3242
▁traders	-11.3243
▁relation	-11.3243
▁forged	-11.3246
▁lumen	-11.325
▁duct	-11.3252
▁correctly	-11.3254
▁oldest	-11.3256
▁expensive	-11.3259
▁helicopter	-11.3259
▁mozzarella	-11.3259
▁syndrome	-11.3259
▁nissan	-11.3259
▁agriturismo	-11.3259
▁jacob	-11.3259
▁mistake	-11.326
▁combat	-11.326
shaped	-11.3263
▁popularity	-11.3266
offer	-11.327
europe	-11.3275
▁possibilities	-11.328
▁zircon	-11.328
▁applies	-11.328
▁permit	-11.3281
▁percentage	-11.3282
▁maj	-11.3287
▁belle	-11.3295
▁tick	-11.3298
▁robust	-11.3302
▁osaka	-11.3303
▁transition	-11.3304
▁spotlight	-11.3307
▁reducer	-11.3307
▁2-3	-11.3308
2.9	-11.3313
▁sei	-11.3314
▁rotor	-11.3315
▁jon	-11.3315
167	-11.3315
▁pyr	-11.3319
▁virginia	-11.3319
▁encourage	-11.3323
▁gangbang	-11.3323
▁forgotten	-11.3325
adult	-11.3325
▁everywhere	-11.3327
1.3	-11.3328
make	-11.3329
self	-11.333
▁journalist	-11.3331
▁bosch	-11.3341
▁montenegro	-11.3345
▁sequence	-11.3345
▁licence	-11.3345
▁fellow	-11.3345
▁stir	-11.3348
south	-11.3352
▁variant	-11.3353
▁lean	-11.3364
▁gaz	-11.3365
▁dhl	-11.3366
▁dispute	-11.3367
▁concord	-11.3369
▁saddle	-11.3369
▁servi	-11.337
▁charity	-11.3374
1.7	-11.3378
toxic	-11.3379
phosphate	-11.3388
▁wrinkle	-11.3388
▁varnish	-11.3388
fran	-11.3388
acco	-11.339
▁achieved	-11.3392
▁6.5	-11.3393
▁offline	-11.3394
▁$10	-11.3405
▁espa	-11.3406
▁privilege	-11.3409
▁updating	-11.341
▁salento	-11.341
▁raid	-11.3413
▁progressive	-11.3415
▁walter	-11.3416
▁respective	-11.3417
▁reasonable	-11.3418
garden	-11.3419
▁defeated	-11.3419
▁evil	-11.3422
▁ott	-11.3423
▁ipl	-11.3424
izia	-11.3425
▁strat	-11.3426
▁dé	-11.3428
▁motorway	-11.3429
▁conservation	-11.3431
▁luxurious	-11.3431
▁filament	-11.3431
▁listening	-11.3435
▁metric	-11.344
ienne	-11.344
▁acceptance	-11.3444
▁bron	-11.3447
morph	-11.3449
mobili	-11.3451
▁persistent	-11.3453
▁luminous	-11.3455
▁loc	-11.3455
3.1	-11.3458
▁verb	-11.3459
enter	-11.3463
▁rif	-11.3465
colour	-11.3466
▁attach	-11.3466
▁armor	-11.3474
▁compensation	-11.3475
▁culinary	-11.3475
▁proportion	-11.3475
▁atlantis	-11.3475
▁abbey	-11.3475
▁schu	-11.3475
▁defence	-11.3478
▁jose	-11.3481
▁sarah	-11.3481
guan	-11.3484
ancing	-11.3485
isco	-11.3486
▁lotion	-11.3494
▁optimized	-11.3495
▁aperitif	-11.3496
▁bellevue	-11.3496
▁caribbean	-11.3496
argent	-11.3499
▁micron	-11.35
▁luck	-11.35
▁planned	-11.3501
▁1982	-11.3501
▁patches	-11.3502
▁domus	-11.3502
cock	-11.3503
▁parish	-11.3508
▁clearance	-11.351
▁cozy	-11.3511
▁achievement	-11.3514
▁bunk	-11.3515
blu	-11.3515
united	-11.3515
panel	-11.3518
▁cannabis	-11.3518
▁committed	-11.3518
▁elizabeth	-11.3518
▁hollywood	-11.3518
▁ladder	-11.3519
▁migration	-11.3519
bird	-11.3519
▁debit	-11.3519
▁diagram	-11.3519
▁alexis	-11.352
▁alexa	-11.3521
▁arrest	-11.3525
course	-11.3529
4.7	-11.3531
▁campus	-11.3538
▁sebastian	-11.354
▁supervisor	-11.354
▁screenshot	-11.354
▁await	-11.3541
▁fruity	-11.3544
comune	-11.3547
▁signage	-11.3553
▁constantly	-11.3556
large	-11.356
▁athletes	-11.3562
▁tnaflix	-11.3562
▁enemy	-11.3562
▁carlton	-11.3562
▁devil	-11.3569
▁merano	-11.357
▁fault	-11.3571
phil	-11.3576
▁calm	-11.3577
▁(32)	-11.3578
▁nearly	-11.358
▁gravity	-11.3584
▁submission	-11.3586
▁equi	-11.3586
▁regina	-11.3586
▁tuna	-11.3593
▁brushed	-11.3594
▁tokens	-11.3597
▁shear	-11.3599
iani	-11.36
▁refuse	-11.36
178	-11.3601
▁vii	-11.3603
rado	-11.3605
▁manifest	-11.3606
enberg	-11.3607
▁epoxy	-11.3608
bile	-11.361
▁(35)	-11.3612
▁tier	-11.3614
▁spoken	-11.3619
▁tend	-11.362
▁launches	-11.3624
4000	-11.3628
▁confidential	-11.3628
▁lobby	-11.3628
▁renault	-11.3629
▁0471	-11.3631
▁edward	-11.3632
▁fiction	-11.3633
▁recognized	-11.3634
silver	-11.3635
▁minh	-11.3636
▁hq	-11.364
▁monica	-11.3642
▁techno	-11.3645
▁fundamental	-11.3651
▁legislation	-11.3651
▁telescopic	-11.3651
▁logged	-11.3651
▁passes	-11.3651
logic	-11.3651
chino	-11.3653
▁1981	-11.3658
▁propose	-11.366
▁rifle	-11.3662
▁bernard	-11.3662
▁slider	-11.3668
italiano	-11.3669
▁passage	-11.3669
▁gastronomy	-11.3673
▁forklift	-11.3673
business	-11.3678
ifies	-11.3682
moto	-11.3683
borg	-11.3686
article	-11.3688
▁passionate	-11.3689
▁ballet	-11.3689
▁coaching	-11.3693
▁2,5	-11.3696
▁spell	-11.3697
▁toaster	-11.3697
general	-11.3701
▁gateway	-11.3702
ologi	-11.3703
▁logistic	-11.3708
▁despite	-11.3717
yard	-11.3718
▁atlas	-11.3719
▁analyse	-11.372
▁adopted	-11.3724
▁brian	-11.3725
index	-11.3735
▁stefan	-11.3735
▁effectively	-11.3735
▁cattolica	-11.374
▁mitsubishi	-11.374
▁catalonia	-11.374
claim	-11.374
▁ningbo	-11.374
▁rag	-11.3742
▁kay	-11.3744
▁enhancement	-11.375
▁stake	-11.3756
▁peninsula	-11.3762
2007	-11.3767
fashion	-11.3767
▁blower	-11.3769
▁holland	-11.377
▁breathable	-11.3772
▁cooker	-11.3773
▁withdraw	-11.3774
▁happiness	-11.3785
▁modul	-11.3785
▁aromatic	-11.3794
▁chang	-11.3796
▁elected	-11.3801
illon	-11.3801
▁auxiliary	-11.3807
▁survive	-11.3807
▁divine	-11.3808
▁reform	-11.3809
▁tough	-11.381
▁1978	-11.3811
spain	-11.3811
▁shark	-11.3812
utter	-11.3813
▁bushing	-11.3813
▁acquire	-11.3817
virtu	-11.3818
▁cult	-11.3823
▁sprint	-11.3826
▁60%	-11.3829
▁nitrogen	-11.383
▁swift	-11.383
▁housekeeping	-11.3833
▁duomo	-11.3835
▁refill	-11.3841
▁gru	-11.3841
▁acceptable	-11.3842
▁1983	-11.3844
▁renewal	-11.3847
▁facilitate	-11.3852
▁sublimation	-11.3852
▁ultrasound	-11.3853
▁canyon	-11.3854
▁wrapping	-11.3855
▁100.00(	-11.3855
▁aaa	-11.3856
andra	-11.3857
▁flashlight	-11.3858
▁dump	-11.3873
▁patrick	-11.3876
▁focused	-11.3877
▁queries	-11.3877
▁smt	-11.3878
cultural	-11.388
▁pond	-11.3882
▁flush	-11.3884
credit	-11.3884
▁grandpa	-11.3885
▁photographic	-11.3885
▁guardian	-11.3891
▁advertise	-11.3891
777	-11.3891
▁expanded	-11.3897
▁cylindrical	-11.3898
▁sapphire	-11.3898
▁kelly	-11.3898
▁concerto	-11.3902
angel	-11.3908
▁hart	-11.3911
fare	-11.3913
▁21:00	-11.3914
▁analyze	-11.3916
stimul	-11.3918
▁irrigation	-11.3921
▁assurance	-11.3921
france	-11.3921
▁legendary	-11.3924
▁poem	-11.3941
▁imagine	-11.3943
▁rabbit	-11.3945
▁riccione	-11.3945
▁ryan	-11.3945
smith	-11.3946
▁radiation	-11.3949
milano	-11.3949
peak	-11.3951
▁ou	-11.3954
▁iec	-11.3956
▁workout	-11.3957
▁splitter	-11.3957
▁flap	-11.3959
▁longest	-11.3961
▁represented	-11.3965
▁conclusion	-11.3966
▁loyalty	-11.3966
▁tunisia	-11.3966
▁salerno	-11.3967
▁knob	-11.3968
short	-11.398
grand	-11.3981
pornstar	-11.3989
▁concierge	-11.3989
▁raspberry	-11.3989
▁compartment	-11.3989
pathy	-11.3989
rama	-11.399
▁olbia	-11.399
▁cctv	-11.3992
family	-11.3995
▁grove	-11.3997
789	-11.4
discover	-11.4001
label	-11.4004
▁reject	-11.4007
▁dash	-11.401
▁fabulous	-11.4012
▁slurry	-11.4012
▁warrior	-11.4012
▁assisi	-11.4012
script	-11.4015
▁bible	-11.4017
▁dough	-11.4021
▁personality	-11.4023
▁grease	-11.4025
▁8.5	-11.4028
sterne	-11.4028
▁flyer	-11.4034
▁zombie	-11.4035
▁asphalt	-11.4035
explo	-11.404
depend	-11.4042
▁frequent	-11.4046
▁intuitive	-11.4058
▁bakery	-11.4058
▁bridal	-11.4059
▁wealth	-11.406
▁iceporn	-11.4063
machine	-11.4065
▁rocco	-11.4066
hawk	-11.4068
▁alexandra	-11.4069
▁dyna	-11.4071
▁arezzo	-11.4071
▁chrono	-11.4072
▁feather	-11.4081
▁krakow	-11.4081
▁weighing	-11.4082
▁decade	-11.4083
▁alphabet	-11.4083
▁chose	-11.4083
clip	-11.4084
lovense	-11.4086
▁webmaster	-11.4092
help	-11.4097
▁entrepreneur	-11.4101
▁hairdryer	-11.4105
▁supreme	-11.4105
▁kol	-11.4111
▁lotus	-11.4115
option	-11.4121
▁balsamic	-11.4128
▁graduated	-11.4128
chrome	-11.4128
quin	-11.4131
356	-11.4133
fair	-11.4134
▁tuning	-11.4135
▁robin	-11.4136
▁paulo	-11.4137
▁bach	-11.4138
▁matera	-11.414
directional	-11.4141
▁qty	-11.4144
▁smoked	-11.4145
▁verdi	-11.4149
▁centrifugal	-11.4151
▁interpretation	-11.4151
▁napoleon	-11.4151
▁politics	-11.4151
▁hanoi	-11.4152
▁thunder	-11.4153
▁apollo	-11.4153
▁exhibitors	-11.4153
▁constitution	-11.4154
▁airlines	-11.4154
▁1979	-11.4157
▁motorbike	-11.4158
▁bacteria	-11.4158
▁maybe	-11.4172
▁shut	-11.4172
▁integral	-11.4175
▁faucet	-11.4175
▁keychain	-11.4175
▁resume	-11.4176
▁cooked	-11.4179
▁echo	-11.4185
cloth	-11.4198
▁sanctuary	-11.4198
▁grad	-11.4204
▁rota	-11.4204
▁brushless	-11.4207
production	-11.4207
andro	-11.4215
▁1972	-11.422
▁tribute	-11.4222
▁sweat	-11.4224
▁potato	-11.4227
digital	-11.4229
engine	-11.423
plated	-11.4232
▁capability	-11.4235
otta	-11.4238
▁sql	-11.4239
▁determined	-11.4243
▁dolphin	-11.4245
▁nautical	-11.4245
▁chronograph	-11.4245
▁jess	-11.4247
▁padua	-11.4248
▁rush	-11.4257
▁accord	-11.4257
▁fob	-11.426
▁lust	-11.4268
▁algorithm	-11.4269
▁congratulations	-11.4269
▁protagonist	-11.4269
▁xiaomi	-11.4269
▁citrus	-11.4269
▁unavailable	-11.4271
▁deliveries	-11.4274
▁fail	-11.4275
▁conventional	-11.4276
▁dick	-11.4286
▁caravan	-11.4293
▁ugly	-11.4293
▁jade	-11.4294
▁eraser	-11.4295
▁insights	-11.4296
▁cheat	-11.4302
erhof	-11.4302
elena	-11.4308
▁1977	-11.4309
▁patented	-11.4312
▁chemistry	-11.4316
▁dentist	-11.4316
▁knitting	-11.4318
306	-11.4318
▁camel	-11.4319
▁1975	-11.432
▁bitter	-11.4322
pair	-11.4327
▁objective	-11.4328
content	-11.4329
inner	-11.4336
joy	-11.4338
▁196/2003	-11.434
▁capabilities	-11.434
▁chestnut	-11.434
▁hyatt	-11.434
▁pumpkin	-11.434
▁tavern	-11.4341
▁fresco	-11.4341
▁analyzer	-11.4344
▁doesnt	-11.4346
▁missionary	-11.4348
esti	-11.4352
▁prix	-11.4353
5.1	-11.436
▁regularly	-11.4362
▁scenario	-11.4364
▁sunshine	-11.4364
▁toscana	-11.4364
▁murder	-11.4368
3.4	-11.4376
▁breaker	-11.4377
▁bruno	-11.4378
eight	-11.438
▁ferro	-11.4382
▁directive	-11.4385
▁corrupt	-11.4387
▁cubic	-11.4389
▁quilt	-11.439
▁padova	-11.439
▁travelers	-11.439
▁adaptor	-11.4393
firm	-11.4396
▁couch	-11.44
▁wiki	-11.4401
▁salva	-11.4406
5.4	-11.4411
▁explosion	-11.4411
▁pilgrim	-11.4411
▁fencing	-11.4411
▁snake	-11.4412
▁trophy	-11.4413
1.9	-11.4424
▁fiscal	-11.4434
▁assortment	-11.4435
▁fermentation	-11.4435
▁penthouse	-11.4435
expiration	-11.4436
▁kayak	-11.4437
▁tnt	-11.4437
▁leaflet	-11.4438
▁maggiore	-11.4443
5.2	-11.4444
▁0541	-11.4444
hydro	-11.4444
▁aviation	-11.4444
windows	-11.4445
▁fru	-11.4448
▁firefox	-11.4459
▁shelter	-11.4459
▁relais	-11.4459
▁xvideos	-11.446
▁padded	-11.446
▁labour	-11.4465
hou	-11.4466
▁volvo	-11.4469
dynamic	-11.4469
▁snorkel	-11.4483
▁bianca	-11.4485
▁fraction	-11.4485
nonym	-11.4486
cription	-11.4486
atrice	-11.4486
▁philippe	-11.4488
▁boho	-11.4498
clock	-11.4501
▁coordination	-11.4508
▁humiliation	-11.4508
▁limousine	-11.4508
▁legacy	-11.4508
▁tulip	-11.4508
▁amino	-11.4508
aglia	-11.4517
swapping	-11.4523
▁venus	-11.4525
sound	-11.4527
▁heard	-11.4528
▁aloe	-11.4528
▁symphony	-11.4532
▁cristina	-11.4532
▁neighborhood	-11.4532
▁porsche	-11.4532
▁swimwear	-11.4532
▁chairman	-11.4534
pick	-11.4535
▁drainage	-11.4536
▁95%	-11.4539
▁manner	-11.4549
young	-11.455
▁babysitter	-11.4556
▁professionalism	-11.4556
▁bavaria	-11.4557
▁nonwoven	-11.4558
▁gambling	-11.4559
▁vincent	-11.4559
▁persian	-11.456
▁economical	-11.4565
0]	-11.457
▁maggio	-11.4571
▁comedy	-11.4571
▁jury	-11.4574
▁pierre	-11.4576
▁abrasive	-11.458
▁scotland	-11.458
▁separation	-11.458
▁descend	-11.458
▁swivel	-11.458
▁bureau	-11.4582
▁mou	-11.4585
▁authorization	-11.459
▁emotional	-11.4592
5.8	-11.4601
▁expedition	-11.4605
▁glamour	-11.4605
▁ballerina	-11.4605
▁banquet	-11.4605
▁condom	-11.4607
solution	-11.4608
▁fraud	-11.4608
▁primo	-11.461
▁reggio	-11.4611
9.90	-11.4615
restaurant	-11.4615
▁wherever	-11.4616
▁attended	-11.4625
▁destroy	-11.4626
▁messenger	-11.4629
▁occupation	-11.4629
▁kilometers	-11.4629
▁boasts	-11.4629
▁michelangelo	-11.4629
▁adobe	-11.463
▁footjob	-11.4632
▁puff	-11.4636
▁goat	-11.4639
final	-11.4639
built	-11.464
wave	-11.4643
▁lung	-11.4644
▁marvel	-11.4644
▁marian	-11.4654
▁facade	-11.4656
▁vending	-11.4657
▁joan	-11.466
▁multifunction	-11.4667
arrow	-11.4672
wiki	-11.4675
4.4	-11.4678
▁horror	-11.4678
▁budva	-11.4682
aggi	-11.4682
square	-11.4699
▁completion	-11.4703
▁anodized	-11.4703
▁govern	-11.4704
▁failed	-11.4708
health	-11.4714
▁grating	-11.4714
▁fabio	-11.4714
▁marcel	-11.4716
▁steve	-11.4717
▁washable	-11.4719
▁pace	-11.4721
▁fry	-11.4721
▁nuclear	-11.4728
talk	-11.4729
123456	-11.4729
manufacture	-11.4739
▁outfit	-11.4752
▁mosquito	-11.4752
▁recyclable	-11.4752
▁retired	-11.4752
▁novotel	-11.4753
▁seoul	-11.476
▁>>>	-11.476
0-2	-11.4761
terna	-11.4764
trust	-11.4764
cnc	-11.4765
▁defend	-11.477
▁scrub	-11.4774
▁blockchain	-11.4777
▁companion	-11.4777
▁stepmom	-11.4777
▁cialis	-11.4777
▁incident	-11.4779
▁midi	-11.4782
▁soviet	-11.4802
▁rialto	-11.4802
▁yeast	-11.481
▁hydrogen	-11.481
▁petite	-11.4811
▁glow	-11.4812
▁glove	-11.4812
floor	-11.4814
▁refine	-11.4822
▁coordinator	-11.4827
▁fuerteventura	-11.4827
▁kyoto	-11.4827
▁leggings	-11.4827
▁cardinal	-11.4829
▁crisp	-11.483
▁stuffed	-11.4843
brown	-11.4843
4.9	-11.4845
▁alpe	-11.4845
▁currencies	-11.4852
▁utilities	-11.4852
▁shrimp	-11.4852
▁tubular	-11.4853
azur	-11.4853
▁campania	-11.4853
9.95	-11.4856
▁stephen	-11.486
effect	-11.4865
▁tactical	-11.4877
▁sensation	-11.4878
▁alexandr	-11.4879
▁alkali	-11.4879
▁nikola	-11.4879
olina	-11.488
▁kun	-11.4885
ticket	-11.4887
payment	-11.4897
▁minibar	-11.4898
▁carmen	-11.49
▁apparel	-11.4902
▁evaluate	-11.4902
▁glance	-11.4904
▁pray	-11.4906
▁georg	-11.491
▁digi	-11.4912
▁representation	-11.4917
facial	-11.4917
▁mushroom	-11.4923
▁norm	-11.4926
▁bratislava	-11.4927
▁compliant	-11.4927
▁victim	-11.4927
▁cluster	-11.4927
▁cutlery	-11.4927
▁dimmable	-11.4928
▁quartet	-11.4928
▁rising	-11.493
radio	-11.4936
▁registry	-11.4936
lateral	-11.4945
azzi	-11.4945
▁validation	-11.4951
▁commander	-11.4951
▁potassium	-11.4953
▁hockey	-11.4953
ogni	-11.4957
scape	-11.4965
aluminum	-11.4966
▁bald	-11.4968
▁schi	-11.4972
▁brune	-11.4972
▁matteo	-11.4974
▁faculty	-11.4978
▁utensil	-11.4978
▁expiry	-11.4978
▁preparing	-11.4978
▁wikipedia	-11.4978
▁nasty	-11.4979
known	-11.4988
▁ferries	-11.4991
▁swan	-11.4992
flash	-11.5002
▁piercing	-11.5003
▁assigned	-11.5003
▁webinar	-11.5004
▁compress	-11.5015
(0)	-11.5018
central	-11.5028
▁embossed	-11.5029
▁hexagon	-11.5029
▁graz	-11.503
▁panda	-11.503
▁consistent	-11.5032
beach	-11.5039
national	-11.5043
2,000	-11.5045
number	-11.5048
grey	-11.5051
▁simplicity	-11.5054
▁charlotte	-11.5054
▁saudi	-11.5055
▁leadership	-11.5057
▁accessibility	-11.5058
▁disp	-11.5061
agne	-11.5061
▁cache	-11.5068
config	-11.5068
▁massive	-11.5071
rimming	-11.5073
desk	-11.5074
▁sphere	-11.5077
▁elephant	-11.508
▁vilnius	-11.508
▁strawberry	-11.508
▁thermometer	-11.5081
▁windsor	-11.5082
▁francesca	-11.5082
▁fashionable	-11.5083
▁nuova	-11.5083
▁chiara	-11.5091
▁spool	-11.5099
▁perforated	-11.5106
▁mozart	-11.5106
▁fondazione	-11.5106
▁junction	-11.5108
▁foursome	-11.5109
▁photogallery	-11.511
▁skull	-11.5116
author	-11.512
▁navi	-11.5122
▁centuries	-11.5131
▁interpreter	-11.5131
▁statistical	-11.5131
eptic	-11.5132
▁1976	-11.5145
▁bookmark	-11.5152
▁forbidden	-11.5157
▁fortress	-11.5158
▁locate	-11.5158
▁1969	-11.516
▁mastercard	-11.5163
women	-11.5173
▁gif	-11.5174
▁botanical	-11.5183
▁collaborate	-11.5183
▁friendship	-11.5186
▁compass	-11.5191
▁epic	-11.5192
tight	-11.5198
▁retardant	-11.5209
▁rethymno	-11.5209
▁lottery	-11.5209
▁laguna	-11.5209
▁cocoa	-11.5222
clear	-11.5223
access	-11.5225
▁syria	-11.5225
▁nutritional	-11.5229
▁consortium	-11.5235
▁hermitage	-11.5235
▁lubrication	-11.5235
▁vancouver	-11.5235
▁explanation	-11.5235
▁muslim	-11.5236
▁serra	-11.5237
▁microscope	-11.5237
▁eyewear	-11.5238
scribe	-11.5239
▁civic	-11.5241
▁parcel	-11.5242
april	-11.5248
▁viva	-11.5251
▁capable	-11.5251
▁albi	-11.5257
▁disappear	-11.5261
▁bizarre	-11.5261
▁helsinki	-11.5261
▁kefalonia	-11.5261
olini	-11.5267
▁ponte	-11.5269
▁dmca	-11.5272
▁susan	-11.5275
▁enanthate	-11.5287
▁intimate	-11.5287
▁pioneer	-11.5287
express	-11.5287
▁jungle	-11.5288
▁splash	-11.5289
8.8	-11.5289
▁pillar	-11.5292
▁silica	-11.5297
▁badia	-11.5298
▁candid	-11.53
▁subscribers	-11.5305
▁brava	-11.5307
▁rendering	-11.5307
▁envelope	-11.5313
▁columbia	-11.5313
▁syrup	-11.5313
▁zippo	-11.5321
▁bour	-11.5337
▁aisi	-11.5338
▁entitled	-11.5339
▁orientation	-11.5339
▁carriage	-11.5339
▁buried	-11.534
▁graphite	-11.534
chester	-11.5343
▁cleansing	-11.5349
▁[1]	-11.5354
duction	-11.5355
season	-11.536
▁wheelchair	-11.5366
▁earlier	-11.5366
▁lombardy	-11.5366
▁johann	-11.5366
▁transplant	-11.5367
agni	-11.5371
trail	-11.5375
▁premi	-11.5375
▁syl	-11.5377
russian	-11.5381
performance	-11.5382
▁mazz	-11.5384
▁sack	-11.5385
▁continuing	-11.5392
▁animated	-11.5392
▁infinity	-11.5392
▁contour	-11.5397
▁mason	-11.5398
▁baseball	-11.5399
kawa	-11.5399
▁genetic	-11.5403
0.30	-11.5405
▁transferred	-11.5412
▁slovakia	-11.5418
▁icloud	-11.5418
▁independence	-11.5418
▁viptube	-11.542
▁appliance	-11.5429
▁1973	-11.5434
png	-11.5435
efficient	-11.5436
▁headphone	-11.5436
6.1	-11.5437
▁jones	-11.5438
▁merry	-11.5441
6.2	-11.5441
▁extruder	-11.5445
▁livigno	-11.5445
▁stuttgart	-11.5445
▁infinite	-11.5445
▁blouse	-11.5445
▁swimsuit	-11.5445
▁cfnm	-11.5446
▁vinci	-11.5448
▁traction	-11.5449
▁messina	-11.545
baby	-11.5451
venice	-11.546
▁1,000	-11.546
▁negotiation	-11.5472
▁counsel	-11.5472
▁buenos	-11.5472
stadt	-11.5479
▁diary	-11.5481
▁montana	-11.5483
▁whit	-11.5484
ciano	-11.5485
watt	-11.5498
▁detergent	-11.5498
▁reusable	-11.5498
▁brace	-11.5499
2005	-11.5506
▁waterfall	-11.5507
▁hdpe	-11.5508
▁defending	-11.5508
seat	-11.5511
▁fender	-11.5514
▁morgan	-11.5518
▁physics	-11.5525
▁ritual	-11.5525
▁jumbo	-11.5525
▁jelly	-11.5525
▁honest	-11.5526
icular	-11.5526
▁crank	-11.5526
▁depart	-11.5526
▁carrot	-11.5526
▁fame	-11.553
▁cereal	-11.5531
▁sharm	-11.5531
▁flux	-11.5533
skaya	-11.5537
▁julian	-11.5537
▁kilo	-11.5538
▁finest	-11.554
bang	-11.554
▁toast	-11.5543
▁hermes	-11.5543
metry	-11.5546
▁soluble	-11.5547
▁branches	-11.5549
▁tanzania	-11.5552
▁triumph	-11.5552
▁merchant	-11.5552
▁boyfriend	-11.5552
▁earphone	-11.5553
▁diaper	-11.5555
▁unless	-11.5562
pink	-11.5562
holiday	-11.557
▁impossible	-11.5579
▁eternal	-11.5579
▁naxos	-11.5579
▁timberland	-11.5581
▁whenever	-11.5593
▁glen	-11.5601
▁motorized	-11.5602
▁trenbolone	-11.5606
▁knitted	-11.5607
▁vector	-11.5608
▁workflow	-11.5613
6000	-11.5623
balance	-11.5629
▁limo	-11.5631
▁penta	-11.5632
▁jim	-11.5632
▁empflix	-11.5633
▁turtle	-11.5633
▁rupee	-11.5633
▁injury	-11.5633
▁caramel	-11.5634
energy	-11.5634
doll	-11.5637
5.000	-11.5639
▁armani	-11.5642
complete	-11.5651
angelo	-11.5657
▁preset	-11.5657
▁cooper	-11.5657
▁confidence	-11.566
▁polyethylene	-11.566
▁souvenir	-11.566
4.3	-11.5662
▁filename	-11.5669
▁belarus	-11.5669
interracial	-11.5678
▁conquer	-11.5687
▁regency	-11.569
▁countertop	-11.5691
aaa	-11.5697
▁mort	-11.5698
▁redirect	-11.5707
▁addict	-11.571
▁perhaps	-11.5714
▁mylust	-11.5714
▁circus	-11.5715
▁thrill	-11.5716
▁silvia	-11.5717
graphy	-11.5717
▁sentence	-11.5722
lette	-11.5726
▁miracle	-11.5727
▁disinfect	-11.5741
▁exquisite	-11.5741
▁sophisticated	-11.5741
▁uncommon	-11.5742
▁percent	-11.5742
keeper	-11.5743
▁marketplace	-11.5746
▁corona	-11.5747
▁authentication	-11.5753
poker	-11.5756
▁conform	-11.5757
▁bocc	-11.5759
▁competitor	-11.5769
▁incentive	-11.5769
masturba	-11.5773
▁rocca	-11.5778
germany	-11.5782
march	-11.5783
▁texi	-11.5786
creampie	-11.5789
▁authorize	-11.5796
▁madagascar	-11.5796
▁risotto	-11.5797
▁rachel	-11.5799
medical	-11.5803
▁jackson	-11.5804
▁clash	-11.5808
▁wedge	-11.5816
professional	-11.5816
▁phuket	-11.5824
▁removing	-11.5824
▁worry	-11.5824
▁atelier	-11.5824
▁alignment	-11.5826
▁wellbeing	-11.5828
▁falcon	-11.5831
illion	-11.5835
technology	-11.5844
▁laugh	-11.5846
spring	-11.5849
partner	-11.5851
▁claudio	-11.5852
▁diabetes	-11.5852
▁palladium	-11.5852
▁atlanta	-11.5852
▁connectivity	-11.5853
▁ladyboy	-11.5853
▁steven	-11.5854
▁airplane	-11.5856
▁whatever	-11.5857
▁quiz	-11.5859
▁latvia	-11.5861
▁siren	-11.587
august	-11.5872
▁gastro	-11.5878
▁survival	-11.5879
7.2	-11.5889
▁reef	-11.5893
▁cheapest	-11.5894
eggio	-11.5898
9.1	-11.5899
crystal	-11.59
▁veneer	-11.5904
▁bumper	-11.5907
▁buffer	-11.5907
▁ramp	-11.5907
▁98%	-11.5909
▁existence	-11.591
▁parade	-11.591
▁trimmer	-11.5912
▁leverage	-11.5912
▁vanity	-11.5927
▁sculpt	-11.5934
▁hazelnut	-11.5935
▁quadruple	-11.5935
▁vaginal	-11.5935
▁valentino	-11.5935
▁tranquil	-11.5935
▁worship	-11.5935
▁knock	-11.5936
▁tariff	-11.5937
▁jackpot	-11.5937
▁orchid	-11.5939
▁lynn	-11.5939
▁standby	-11.5952
▁regime	-11.596
▁musk	-11.5963
▁transducer	-11.5963
▁hazard	-11.5963
▁alicante	-11.5963
▁trunk	-11.5963
▁picnic	-11.5966
shima	-11.597
grow	-11.5972
▁ayia	-11.5973
▁lent	-11.5973
▁bab	-11.5975
bdsm	-11.5985
▁illegal	-11.5992
▁immerse	-11.5992
chatting	-11.5992
▁granule	-11.5993
ologie	-11.5994
▁genius	-11.5994
▁pulley	-11.5996
sqm	-11.6003
▁swap	-11.6016
▁propriet	-11.6019
▁cheerleader	-11.6019
▁fleece	-11.6019
▁panasonic	-11.6019
................	-11.6019
▁collagen	-11.6019
▁relating	-11.6019
▁fillet	-11.6019
▁ticino	-11.6019
▁governance	-11.602
▁derby	-11.6025
▁chuck	-11.6026
▁pipeline	-11.6028
▁personalised	-11.6036
arium	-11.6036
▁masterpiece	-11.6045
▁antioxidant	-11.6047
▁chandelier	-11.6047
▁opposite	-11.6047
▁fatigue	-11.6047
▁friuli	-11.6048
▁timber	-11.6051
▁promoting	-11.6054
▁oscar	-11.6058
▁cliff	-11.6059
▁stall	-11.6064
▁tango	-11.6065
father	-11.6068
▁recognize	-11.6068
▁validity	-11.6071
▁marconi	-11.6075
▁demonstration	-11.6075
▁manicure	-11.6075
▁aerospace	-11.6076
▁scottish	-11.6077
▁luce	-11.6082
strict	-11.6089
electronic	-11.6097
▁margherita	-11.6104
▁wizard	-11.6104
▁resolve	-11.6104
▁creole	-11.6106
▁knit	-11.6108
reference	-11.6109
astro	-11.6119
▁truss	-11.6121
▁fastest	-11.6126
october	-11.6126
american	-11.6126
filter	-11.6126
9,90	-11.613
▁turquoise	-11.6132
▁bosnia	-11.6133
▁irri	-11.6136
▁supervision	-11.6136
▁danger	-11.6137
▁fastening	-11.6138
▁emotion	-11.6152
ctn	-11.6156
▁advisory	-11.6157
borough	-11.616
▁arriving	-11.6161
▁participating	-11.6161
▁locanda	-11.6161
▁defender	-11.6165
1800	-11.6171
___	-11.6173
facilities	-11.6184
pharma	-11.6184
related	-11.6187
▁blossom	-11.6189
▁observation	-11.6189
▁therapeutic	-11.6189
▁tribe	-11.6191
2006	-11.6192
▁ashley	-11.6193
0.000,00	-11.62
▁flori	-11.6201
▁norman	-11.6201
▁moore	-11.6207
▁prospect	-11.6209
▁distinct	-11.6216
webcam	-11.6217
▁celebrities	-11.6218
▁anthony	-11.6218
▁shareholders	-11.6218
▁sweep	-11.6218
▁haze	-11.6218
▁characterized	-11.6224
september	-11.6241
▁kitty	-11.6243
▁autonomous	-11.6246
▁enthusiast	-11.6246
▁integrity	-11.6246
▁mauritius	-11.6246
▁conclude	-11.6247
▁beirut	-11.6247
through	-11.6252
▁singing	-11.6266
4.6	-11.6267
▁dvr	-11.627
▁bigger	-11.6271
▁headlight	-11.6272
▁rhythm	-11.6275
▁plenty	-11.6275
▁vendor	-11.6276
▁teresa	-11.6278
▁ramada	-11.6279
▁fontana	-11.6287
▁olympia	-11.6304
▁pedestrian	-11.6304
▁mercury	-11.6304
▁zimmer	-11.6305
▁akvis	-11.6305
strong	-11.6309
florence	-11.6309
▁vila	-11.6314
▁multicolor	-11.6315
ossi	-11.6319
▁incoming	-11.6321
agri	-11.6323
▁hoodie	-11.6326
▁overhead	-11.6327
security	-11.6328
▁acknowledge	-11.6333
▁familiar	-11.6333
▁rugby	-11.6333
▁zagreb	-11.6333
▁jerking	-11.6333
▁apartament	-11.6333
▁emerge	-11.6335
▁ownership	-11.6336
▁capitol	-11.6337
▁herself	-11.6338
▁pesto	-11.634
▁interval	-11.6351
▁careful	-11.6354
▁terri	-11.6357
▁earthquake	-11.6362
▁obstacle	-11.6362
▁recessed	-11.6362
▁hawaii	-11.6362
▁nourish	-11.6362
▁cummins	-11.6362
▁bruges	-11.6363
▁spinning	-11.6365
▁effectiveness	-11.6375
plug	-11.6375
▁stats	-11.6379
available	-11.6384
personal	-11.639
6.3	-11.6391
▁curriculum	-11.6391
▁laboratories	-11.6391
▁legitimate	-11.6391
▁illumination	-11.6391
▁cladding	-11.6391
▁comprises	-11.6391
▁sophie	-11.6392
▁babies	-11.6393
▁paddle	-11.6395
▁softcore	-11.6396
,000,000	-11.6399
▁workplace	-11.6402
include	-11.6416
children	-11.6417
customized	-11.642
▁antivirus	-11.6421
▁emerald	-11.6421
▁garibaldi	-11.6421
▁sardegna	-11.6421
▁mercure	-11.6421
dimensional	-11.643
3.7	-11.6432
section	-11.6443
international	-11.6447
▁consume	-11.6447
▁encryption	-11.645
▁sofitel	-11.645
▁inquiries	-11.645
▁caesar	-11.645
▁troops	-11.6454
▁imaging	-11.6454
▁peaceful	-11.6458
▁moderate	-11.6467
▁impressive	-11.6479
▁wrestling	-11.6479
▁analytical	-11.6479
▁tirana	-11.648
▁sierra	-11.648
▁groped	-11.6481
derma	-11.6481
▁equity	-11.6482
▁guess	-11.6485
▁serum	-11.6497
▁yogurt	-11.6509
▁charcoal	-11.6509
▁ignition	-11.6509
▁liquor	-11.6509
9.6	-11.6516
▁drip	-11.6522
▁revision	-11.6525
8.3	-11.6528
8.9	-11.6531
▁fluor	-11.6537
▁immune	-11.6539
▁chrys	-11.654
supp	-11.6541
▁bodybuilding	-11.6542
▁serena	-11.6543
styl	-11.6547
▁1,0	-11.6547
official	-11.6565
▁dolomiti	-11.6568
▁guidance	-11.6568
▁cardigan	-11.6568
▁institutional	-11.6568
▁maremma	-11.6569
franc	-11.6573
▁debate	-11.6574
▁zante	-11.6588
▁pickup	-11.6589
intercontinental	-11.6598
▁hyundai	-11.6598
▁prepaid	-11.6598
▁honour	-11.6598
▁wisdom	-11.6598
▁routine	-11.6599
▁ongoing	-11.6603
6.6	-11.6603
▁differential	-11.6619
boobs	-11.6623
▁periodic	-11.6627
▁neighbor	-11.6628
▁alternator	-11.6628
▁sanremo	-11.6628
▁veronica	-11.6628
▁financing	-11.6628
▁whip	-11.6629
second	-11.6629
▁clause	-11.6632
▁maritime	-11.6633
woman	-11.6634
▁agios	-11.6642
▁9.30	-11.6647
▁accent	-11.6648
▁jeff	-11.665
▁haitian	-11.6658
▁hull	-11.6669
9.8	-11.6685
▁introducing	-11.6688
▁2016/679	-11.6688
▁belgian	-11.6688
▁galleria	-11.6689
▁tutor	-11.669
▁purification	-11.669
sheikh	-11.6691
▁exposed	-11.6693
▁cattle	-11.6694
ificio	-11.6696
refundable	-11.6697
???	-11.6703
▁decline	-11.6708
▁recall	-11.6709
▁harry	-11.6714
▁appetizer	-11.6718
▁federico	-11.6718
▁tallinn	-11.6718
▁iraq	-11.6718
▁madison	-11.6719
▁chateau	-11.6721
▁shrine	-11.6724
▁prada	-11.6724
button	-11.6725
pedia	-11.6739
▁cemetery	-11.6748
science	-11.6749
▁handlebar	-11.676
▁gallon	-11.6762
plane	-11.6773
▁sick	-11.6775
private	-11.6776
6.4	-11.6778
▁acidity	-11.6778
▁juicy	-11.6778
▁kenya	-11.6779
▁paragraph	-11.6781
▁avail	-11.6805
8.7	-11.6806
▁inhabitants	-11.6809
▁stomach	-11.6809
▁gravel	-11.6814
▁equip	-11.6814
▁saturn	-11.6815
▁manuel	-11.6818
▁fortune	-11.6819
▁pantone	-11.6819
▁hdporn	-11.6823
000000	-11.6826
▁melia	-11.6826
7.9	-11.6828
version	-11.6828
fruit	-11.6839
▁volkswagen	-11.6839
▁dhabi	-11.6839
▁cinque	-11.6839
▁geometric	-11.6841
▁fet	-11.6847
▁ferri	-11.6856
▁cruz	-11.6857
indian	-11.6863
western	-11.6868
ohmibod	-11.687
▁jennifer	-11.687
▁endurance	-11.687
▁ninja	-11.687
▁accompany	-11.6872
▁friction	-11.6872
▁mercy	-11.6877
▁proudly	-11.6892
txt	-11.6894
▁quantities	-11.6901
▁encoder	-11.6901
▁hangzhou	-11.6901
japan	-11.6908
▁spoke	-11.6914
▁paola	-11.6919
woven	-11.693
beauty	-11.693
vintage	-11.693
▁stabilizer	-11.6931
▁enzyme	-11.6931
wolf	-11.6935
▁wagon	-11.6936
▁napkin	-11.6938
5.3	-11.6947
stress	-11.6957
▁volcano	-11.696
▁columbus	-11.6962
▁maldives	-11.6962
▁evolve	-11.6962
▁pilates	-11.6962
▁overseas	-11.6963
▁styling	-11.6963
7.1	-11.6968
▁query	-11.6971
▁dario	-11.698
▁exception	-11.6983
update	-11.699
▁cultivation	-11.6993
▁scientist	-11.6993
▁flamingo	-11.6993
▁restricted	-11.6993
▁rugged	-11.6993
▁voyage	-11.6993
▁gloryhole	-11.6993
▁nicol	-11.6993
▁nigeria	-11.6994
▁kidney	-11.6994
transfer	-11.6995
▁gamma	-11.6997
▁ionian	-11.6998
▁biking	-11.701
technical	-11.7013
▁mobil	-11.7022
▁coaxial	-11.7024
▁remedies	-11.7024
▁islamic	-11.7024
▁rivet	-11.7029
milan	-11.7032
▁radial	-11.7034
value	-11.7039
▁scout	-11.7045
movie	-11.7055
▁behaviour	-11.7055
▁cosplay	-11.7056
▁wavelength	-11.7056
▁suitcase	-11.7057
facebook	-11.7058
squirt	-11.7058
dict	-11.7059
▁redazione	-11.7062
legal	-11.7063
▁shopify	-11.7064
tension	-11.7072
brook	-11.7079
▁lanka	-11.7084
match	-11.7086
▁rehabilitation	-11.7087
▁chloride	-11.7087
▁exploring	-11.7087
▁matthew	-11.7087
mainland	-11.7087
▁grappa	-11.7088
▁indonesia	-11.7089
▁sheath	-11.709
▁mosque	-11.7092
▁blackpool	-11.7097
▁postcard	-11.7099
▁curated	-11.7103
▁align	-11.7113
▁trevi	-11.7113
▁polycarbonate	-11.7118
▁prefabricated	-11.7118
▁preliminary	-11.7118
▁reinforcement	-11.7118
▁vittorio	-11.7118
▁spectrum	-11.7118
▁hobby	-11.7118
▁electromagnetic	-11.7118
▁balancing	-11.7119
▁aosta	-11.7121
▁veranda	-11.7122
metri	-11.7137
7.4	-11.714
money	-11.7142
▁claudia	-11.7149
▁libraries	-11.7149
▁thirty	-11.7149
▁paradiso	-11.7149
▁witness	-11.715
▁wrapped	-11.7151
▁opel	-11.7151
▁permitted	-11.7152
/08/2018	-11.7157
▁isabella	-11.7164
▁fifa	-11.7168
▁ourselves	-11.7181
▁peugeot	-11.7181
▁prohibited	-11.7181
▁regulated	-11.7181
▁assignment	-11.7181
▁joomla	-11.7181
▁hclips	-11.7181
industrial	-11.7181
▁terror	-11.7182
▁fingerprint	-11.7182
▁palette	-11.7187
leigh	-11.7189
▁champ	-11.719
▁realistic	-11.7194
▁customised	-11.7195
7.6	-11.7199
▁monza	-11.7201
▁sneaker	-11.7211
7,5	-11.7212
▁gimignano	-11.7213
▁consideration	-11.7213
luxury	-11.7213
▁citt	-11.723
▁minify	-11.7234
▁spike	-11.7242
▁mamma	-11.7244
1112131415	-11.7244
▁civitavecchia	-11.7244
▁determination	-11.7244
▁dinosaur	-11.7244
▁propionate	-11.7244
▁sauvignon	-11.7244
▁swarovski	-11.7244
iculie	-11.7245
▁inkjet	-11.7245
▁cradle	-11.7245
▁psychology	-11.7245
▁movable	-11.7251
▁breathtaking	-11.7276
▁miscellaneous	-11.7276
▁cavity	-11.7276
▁dawn	-11.7277
▁lipstick	-11.7277
suisse	-11.7278
▁gelato	-11.7281
▁radar	-11.7282
▁serge	-11.7282
ecchi	-11.7283
▁hottest	-11.729
owned	-11.7293
friend	-11.7298
▁capacitive	-11.7308
▁extruded	-11.7308
▁fascinating	-11.7308
▁peptide	-11.7308
▁lenght	-11.7308
▁upornia	-11.7308
▁cmyk	-11.7309
▁instance	-11.7309
▁athena	-11.7312
▁refract	-11.7312
▁inscription	-11.7312
display	-11.7313
ethyl	-11.7316
▁simultaneously	-11.732
handjob	-11.7328
▁discipline	-11.734
▁filippo	-11.734
▁ristorante	-11.734
▁solidarity	-11.734
▁abrasion	-11.734
▁agritourism	-11.734
▁giacomo	-11.734
▁termination	-11.7342
▁taught	-11.7343
▁midnight	-11.7343
▁mauro	-11.7348
▁lithuania	-11.7354
▁simultaneous	-11.736
▁berth	-11.7364
1,5	-11.7366
▁craftsmanship	-11.7372
▁fluorescent	-11.7372
▁interrupt	-11.7372
▁bibione	-11.7372
+02:00	-11.7372
▁melissa	-11.7374
▁denis	-11.7374
▁mower	-11.7374
spanish	-11.7376
▁corset	-11.738
▁headquarter	-11.7381
european	-11.7386
▁tetra	-11.739
▁rhinestone	-11.7405
▁liqueur	-11.7405
▁inclusion	-11.7405
▁jamaica	-11.7405
▁ottoman	-11.7405
▁injector	-11.7405
▁playstation	-11.7405
▁azure	-11.7406
▁curvy	-11.7408
5.7	-11.7408
▁uninstall	-11.741
▁advent	-11.7417
▁restart	-11.7418
▁urine	-11.7427
▁immersion	-11.7437
▁livorno	-11.7437
▁louboutin	-11.7437
▁malpensa	-11.7437
▁rectangle	-11.7437
▁hairdresser	-11.7437
▁scuba	-11.7437
▁enrico	-11.7437
▁50/60	-11.7437
▁informative	-11.7439
rough	-11.744
▁cellular	-11.7443
▁harley	-11.7447
▁cisco	-11.7452
▁sultan	-11.7452
▁definitely	-11.7469
▁fiumicino	-11.7469
▁toulouse	-11.7469
▁diversity	-11.747
▁cambridge	-11.7471
▁girona	-11.7472
▁sunflower	-11.7473
▁prostate	-11.7476
▁sushi	-11.7478
▁assemblies	-11.7502
▁pornoxo	-11.7502
▁mandarin	-11.7502
▁childhood	-11.7504
develop	-11.7504
finished	-11.7505
▁occurred	-11.7505
falco	-11.7509
▁lease	-11.7525
▁accademia	-11.7535
▁boulevard	-11.7535
▁philadelphia	-11.7535
▁pokémon	-11.7535
▁volleyball	-11.7535
▁accelerate	-11.7535
▁elderly	-11.7535
oire	-11.7538
organic	-11.754
▁decorate	-11.7541
7.8	-11.7544
▁buzz	-11.7553
2.50	-11.7556
▁accreditation	-11.7567
▁jacquard	-11.7567
▁zermatt	-11.7567
▁lisboa	-11.7567
▁reykjavik	-11.7568
▁stolen	-11.7569
▁jeep	-11.7571
court	-11.7572
▁siemens	-11.76
▁gospel	-11.7601
▁habitat	-11.7603
painted	-11.7604
▁dialog	-11.7606
▁keylogger	-11.7633
▁python	-11.7633
▁refrigerant	-11.7633
▁whirlpool	-11.7633
▁pinterest	-11.7633
▁essay	-11.7634
▁ancona	-11.7635
width	-11.7636
component	-11.7636
▁conformity	-11.7637
region	-11.7642
program	-11.7644
6.9	-11.7654
keeping	-11.7655
▁corso	-11.7657
▁buffalo	-11.7666
▁cellulite	-11.7666
▁ensemble	-11.7666
▁reversible	-11.7666
▁salvatore	-11.7666
▁halogen	-11.7666
▁orleans	-11.7666
▁londra	-11.7667
▁mileage	-11.7667
▁leopard	-11.7667
▁alfred	-11.7667
▁bistro	-11.7668
▁ikea	-11.7668
▁violation	-11.7669
▁chalk	-11.7669
coffee	-11.767
▁masseria	-11.7671
street	-11.7676
three	-11.7676
▁0,5	-11.7699
▁caterpillar	-11.77
▁meanwhile	-11.77
▁unexpected	-11.77
▁vicinity	-11.77
▁enemies	-11.77
▁hannover	-11.77
▁funeral	-11.77
▁fireproof	-11.7706
▁kevin	-11.7707
sphere	-11.7708
wife	-11.7711
▁admiral	-11.7733
▁jurisdiction	-11.7733
▁huawei	-11.7733
metre	-11.7733
▁trinity	-11.7733
▁typology	-11.7735
▁sergio	-11.7736
▁isolation	-11.7737
masturbation	-11.7738
setting	-11.7748
dvd	-11.7751
leather	-11.7754
8.6	-11.776
▁harbor	-11.7763
▁cryptocurrency	-11.7766
▁responsive	-11.7766
▁unfortunately	-11.7766
▁shaved	-11.7767
▁expectations	-11.7768
laser	-11.7768
▁genesis	-11.7769
▁merlot	-11.7773
▁continent	-11.7788
rubbing	-11.7792
▁boldenone	-11.78
▁ethiopia	-11.78
▁fragment	-11.78
▁canopy	-11.7801
▁weigh	-11.7806
▁venture	-11.7808
finger	-11.7827
▁biennale	-11.7834
▁grocery	-11.7834
▁impressum	-11.7834
▁shepherd	-11.7834
▁violence	-11.7834
▁bollard	-11.7834
▁scholarship	-11.7834
▁bellagio	-11.7835
lombard	-11.7837
fetish	-11.7839
▁assume	-11.7842
6.7	-11.7851
solid	-11.7851
▁carrara	-11.7868
solar	-11.787
▁footprint	-11.7873
perfect	-11.7876
fisting	-11.7876
except	-11.7879
9.7	-11.7888
7.30	-11.7895
▁diaphragm	-11.7901
▁viareggio	-11.7901
▁internship	-11.7901
▁harmonic	-11.7901
▁ethical	-11.7902
▁dvb	-11.7903
shield	-11.7907
▁monkey	-11.7907
▁contractual	-11.7908
▁loving	-11.7913
▁wilson	-11.7935
▁jasmine	-11.7935
▁gallipoli	-11.7936
▁medicinal	-11.7936
▁spezia	-11.7936
▁cavalli	-11.7938
▁sonata	-11.7944
▁anderson	-11.7945
shoes	-11.7967
▁mortar	-11.7968
▁bvlgari	-11.7969
▁motivation	-11.7969
▁poultry	-11.7969
▁exploration	-11.797
▁sophia	-11.797
▁midget	-11.7973
▁worm	-11.7973
▁jammer	-11.7977
▁crimp	-11.798
shoot	-11.798
▁termini	-11.7987
▁detox	-11.7995
medic	-11.7997
sleep	-11.8001
▁democratic	-11.8004
▁analogue	-11.8006
▁attendance	-11.8008
collection	-11.8009
▁everybody	-11.8011
switch	-11.8013
▁salami	-11.8013
urban	-11.8017
▁benedict	-11.8038
▁portofino	-11.8038
▁sliema	-11.8038
▁staircase	-11.8039
▁rotate	-11.8039
android	-11.804
▁absence	-11.8044
▁seduce	-11.8072
▁biodegradable	-11.8073
▁divorce	-11.8073
▁lebanon	-11.8073
▁vittoria	-11.8073
facesitting	-11.8073
▁stimulate	-11.8073
▁arthur	-11.8073
festival	-11.8079
phthal	-11.8083
spiele	-11.8106
▁allergic	-11.8107
▁occupancy	-11.8107
▁buddha	-11.8107
▁depression	-11.8107
▁collapse	-11.8108
▁vecchio	-11.8109
▁nutri	-11.8111
▁pablo	-11.8113
friday	-11.8117
▁hopper	-11.8124
▁convey	-11.8135
▁antwerp	-11.8142
▁admire	-11.8144
▁nokia	-11.8144
▁longines	-11.8145
▁ozone	-11.8157
▁recruit	-11.8174
▁enchanting	-11.8177
▁residue	-11.8177
▁submersible	-11.8177
▁optimum	-11.8177
▁lavender	-11.8177
▁parquet	-11.8177
▁allergy	-11.8177
▁yourlust	-11.8177
▁flirt	-11.8177
▁shipyard	-11.8178
▁dietary	-11.8184
▁mirage	-11.8195
▁viking	-11.8196
awg	-11.8205
▁engraved	-11.8212
▁riccardo	-11.8212
▁harmful	-11.8212
▁twelve	-11.8212
▁arbitration	-11.8214
nick	-11.8216
▁futur	-11.8221
ndez	-11.8222
weather	-11.8222
▁galli	-11.823
▁burger	-11.8237
ecanate	-11.8244
▁sieve	-11.8245
▁obvious	-11.8247
▁principe	-11.8247
▁vocation	-11.8247
▁varese	-11.825
▁whale	-11.8256
▁bournemouth	-11.8282
▁montepulciano	-11.8282
▁thessaloniki	-11.8282
▁dresden	-11.8282
▁cyclist	-11.8282
▁assess	-11.8282
▁purifier	-11.8283
▁bandwidth	-11.8283
▁taboo	-11.8287
scopic	-11.8289
▁udine	-11.8292
▁bosco	-11.8294
specific	-11.831
kitchen	-11.8315
▁catherine	-11.8317
▁moisturizing	-11.8317
▁stencil	-11.8317
▁apricot	-11.8317
▁injectable	-11.8317
▁austin	-11.8318
▁noodle	-11.8318
▁cowgirl	-11.8319
▁angry	-11.8319
▁rooftop	-11.8324
▁throne	-11.8324
▁besides	-11.8324
▁gianni	-11.8328
▁tripod	-11.8333
▁praise	-11.8344
▁maurizio	-11.8353
▁locarno	-11.8353
▁mermaid	-11.8353
▁penalty	-11.8353
▁belgrade	-11.8354
▁torture	-11.8355
▁glossary	-11.8356
▁compost	-11.8359
lapse	-11.836
structure	-11.836
▁creek	-11.836
▁pietra	-11.836
▁lombardi	-11.8363
social	-11.8366
▁encrypted	-11.8388
▁transceiver	-11.8388
▁cabernet	-11.8388
▁piemonte	-11.8389
▁canoe	-11.8395
▁adaptation	-11.8409
original	-11.8411
▁maternity	-11.8424
▁mumbai	-11.8424
▁neither	-11.8424
▁invasion	-11.8424
▁numeric	-11.8426
minimum	-11.8433
shipping	-11.844
▁synthesis	-11.846
▁sampling	-11.846
▁metropole	-11.8461
▁telegram	-11.8462
▁italien	-11.8463
▁possession	-11.8465
▁duties	-11.8467
▁hints	-11.8471
london	-11.8484
▁catamaran	-11.8496
▁chardonnay	-11.8496
▁observatory	-11.8496
▁upholstery	-11.8496
▁venezuela	-11.8496
▁tablespoon	-11.8496
▁awaken	-11.8496
▁breeze	-11.8496
▁syringe	-11.8496
▁aggregate	-11.8501
▁silva	-11.8502
▁cinnamon	-11.8532
▁gastronomic	-11.8532
▁opaque	-11.8532
▁cristian	-11.8533
▁blessed	-11.8533
▁jimmy	-11.8533
approx	-11.8542
▁medici	-11.8557
▁bathrobe	-11.8568
▁billiard	-11.8568
▁injuries	-11.8568
▁exploit	-11.8568
▁thrust	-11.8569
▁distribute	-11.8569
▁sequin	-11.857
▁convertible	-11.8576
nbsp	-11.8577
hydraulic	-11.8578
▁abandoned	-11.8605
▁carbohydrate	-11.8605
▁transponder	-11.8605
▁dispatch	-11.8605
5.9	-11.8609
december	-11.8615
▁irregular	-11.8641
▁parmesan	-11.8641
▁attorney	-11.8641
▁vimeo	-11.8641
▁flesh	-11.8642
▁calorie	-11.8642
▁freelance	-11.8642
▁tulle	-11.8646
▁pagan	-11.8658
ventura	-11.8663
4.99	-11.8667
▁hersonissos	-11.8678
▁qingdao	-11.8678
▁eyebrow	-11.8678
▁domenico	-11.8678
distribu	-11.8679
russia	-11.8679
▁ascend	-11.8679
museum	-11.8689
▁primarily	-11.8715
▁brewery	-11.8716
▁vespa	-11.8718
▁difficulties	-11.8719
▁provence	-11.872
▁odds	-11.8721
▁clement	-11.8729
bourg	-11.8749
▁anastasia	-11.8751
▁kazakhstan	-11.8751
▁occupied	-11.8751
▁zucchini	-11.8751
▁retractable	-11.8751
▁isolated	-11.8752
▁wristband	-11.8752
▁kernel	-11.8758
adjustable	-11.8763
▁selva	-11.877
▁gruppo	-11.8781
▁artichoke	-11.8788
▁buddhist	-11.8788
▁jamiroquai	-11.8788
▁washbasin	-11.8788
▁bespoke	-11.8788
▁shelving	-11.8788
▁behalf	-11.8789
▁disaster	-11.8789
▁messaggi	-11.8792
▁worn	-11.8792
▁cortina	-11.8794
▁turnkey	-11.8794
▁rinse	-11.8797
nutrient	-11.8806
▁avant	-11.8817
▁assembling	-11.8826
▁colosseum	-11.8826
▁gibraltar	-11.8826
▁manhattan	-11.8826
▁neighbour	-11.8826
▁nicholas	-11.8826
▁argument	-11.8826
phosphor	-11.8826
▁razor	-11.8826
▁velcro	-11.8827
7.7	-11.883
▁guido	-11.8831
▁cancelled	-11.8834
▁stern	-11.8857
▁azerbaijan	-11.8863
▁giardini	-11.8863
▁arduino	-11.8863
▁alotporn	-11.8863
▁manifold	-11.8863
▁cesare	-11.8864
▁meteor	-11.8864
▁samuel	-11.8864
▁locator	-11.8865
9,99	-11.8872
▁eleven	-11.8872
female	-11.8875
defined	-11.8875
▁societ	-11.8887
▁asparagus	-11.89
▁ceremonies	-11.89
▁peanut	-11.89
▁viscose	-11.89
▁acrobat	-11.89
▁minerva	-11.89
▁imitation	-11.89
▁recruitment	-11.8903
▁soundtrack	-11.8903
▁siege	-11.8905
▁erik	-11.8906
▁spinner	-11.891
deepthroat	-11.8913
which	-11.8913
register	-11.8914
▁ariel	-11.8932
▁deploy	-11.8935
▁kawasaki	-11.8938
▁reconstruction	-11.8938
▁rejuvenation	-11.8938
▁strasbourg	-11.8938
▁derived	-11.8938
▁couture	-11.8938
▁glacier	-11.8938
▁intention	-11.8938
▁conductivity	-11.8939
categories	-11.8951
november	-11.8951
9.9	-11.8956
ethanol	-11.8969
▁consecutive	-11.8976
▁imagination	-11.8976
▁merchandise	-11.8976
▁vincenzo	-11.8976
▁taipei	-11.8976
▁auckland	-11.8976
▁cassette	-11.8976
▁ensuring	-11.8976
▁renowned	-11.8976
▁carved	-11.898
▁prenota	-11.8983
▁synerg	-11.8988
▁estonia	-11.8998
indica	-11.901
▁brindisi	-11.9014
▁offshore	-11.9014
▁chiffon	-11.9014
▁galileo	-11.9014
▁substrate	-11.9014
▁multiplayer	-11.9014
▁qatar	-11.9014
▁cristal	-11.9015
▁oppose	-11.9015
▁stopped	-11.9022
▁torrent	-11.9022
tourism	-11.9036
▁albufeira	-11.9052
▁guangdong	-11.9052
▁mongolia	-11.9052
▁slitting	-11.9052
▁embrace	-11.9052
▁gradient	-11.9052
▁thermoplastic	-11.9053
▁jews	-11.9054
▁competent	-11.9054
/12/2018	-11.9055
▁gagging	-11.9056
software	-11.9063
empty	-11.9071
▁apparent	-11.909
▁migrant	-11.9091
▁nickname	-11.9091
▁curious	-11.9093
▁nikki	-11.9094
corporate	-11.9103
accessories	-11.9104
▁camouflage	-11.9128
▁magnolia	-11.9128
▁provincial	-11.9128
▁samantha	-11.9128
▁insulating	-11.9128
▁disturb	-11.9128
▁franchise	-11.9128
▁navigate	-11.9129
▁entity	-11.9129
▁prefab	-11.9132
▁scoop	-11.9134
▁revolutionary	-11.9134
▁literary	-11.9135
aglio	-11.9148
▁explosive	-11.9167
▁striptease	-11.9167
▁veterinary	-11.9167
▁hebrew	-11.9167
▁oyster	-11.9167
▁tackle	-11.9167
▁pesaro	-11.9167
▁sponsorship	-11.9169
▁bailey	-11.917
▁staple	-11.9175
▁isabel	-11.9203
▁admitted	-11.9205
▁arizona	-11.9205
▁consumables	-11.9205
▁hindi	-11.9206
▁organizing	-11.9208
▁distinctive	-11.9208
▁depict	-11.9209
people	-11.922
▁sicilia	-11.9227
▁babysitting	-11.9244
▁hyaluronic	-11.9244
▁inauguration	-11.9244
▁innsbruck	-11.9244
▁aegean	-11.9244
▁ferretti	-11.9244
▁tumble	-11.9245
▁municipalities	-11.9245
▁spotify	-11.9247
▁spinach	-11.9249
▁evangeli	-11.9249
truck	-11.9271
▁interchangeable	-11.9283
▁lincoln	-11.9283
▁residual	-11.9283
▁impedance	-11.9283
▁oracle	-11.9284
▁dissemination	-11.9284
▁duvet	-11.9284
▁colonial	-11.9286
▁deserve	-11.9287
catalog	-11.9298
jpeg	-11.9299
swiss	-11.9304
▁agrigento	-11.9322
▁birmingham	-11.9322
▁prestashop	-11.9322
▁cambodia	-11.9322
▁amendment	-11.9322
▁optimise	-11.9322
▁fossil	-11.9323
▁ricotta	-11.9323
▁xxxdan	-11.9325
▁factories	-11.933
▁outcome	-11.9336
0.10	-11.9338
phenol	-11.9346
martin	-11.9349
▁detachable	-11.9361
▁ralph	-11.9361
▁motif	-11.9361
▁cortona	-11.9361
▁bianchi	-11.9361
▁ragusa	-11.9362
▁geography	-11.9365
▁radical	-11.9384
▁consolidated	-11.9401
▁pesticide	-11.9401
▁nicotine	-11.9401
▁enclosed	-11.9401
▁specimen	-11.9401
▁urgent	-11.9401
▁pistol	-11.9401
▁poggio	-11.9401
▁pedro	-11.941
▁mystic	-11.9421
▁jonathan	-11.944
▁geometry	-11.9441
▁picasso	-11.9442
▁jaguar	-11.9448
▁fleur	-11.9452
ceramic	-11.9457
▁adjacent	-11.948
▁pistachio	-11.948
▁spherical	-11.948
▁elevation	-11.948
▁secretariat	-11.948
▁goddess	-11.948
▁hypno	-11.948
january	-11.9497
[...]
