<pad>	0
<s>	0
</s>	0
<unk>	0
s	-3.55388
.	-3.61987
,	-3.72115
▁the	-3.82597
▁and	-4.31239
:	-4.33075
▁of	-4.38345
▁in	-4.53491
▁to	-4.56203
▁a	-4.68365
▁-	-4.82178
-	-4.84412
▁for	-4.89906
▁	-5.07028
)	-5.22281
▁(	-5.28379
▁with	-5.2932
▁is	-5.38214
▁on	-5.57087
d	-5.64263
ing	-5.67095
▁from	-5.72239
a	-5.74637
▁hotel	-5.75434
▁by	-5.80454
/	-5.8367
▁you	-5.83901
ed	-5.86379
▁_	-5.88636
▁1	-5.91547
▁your	-5.96805
e	-6.01846
'	-6.07731
▁at	-6.12234
t	-6.12793
m	-6.13328
▁are	-6.13338
▁2	-6.15074
?	-6.20058
o	-6.2206
▁3	-6.22072
▁/	-6.2236
▁&	-6.23653
▁all	-6.24322
▁or	-6.24406
r	-6.28101
n	-6.30223
er	-6.30482
c	-6.32479
▁be	-6.33361
▁i	-6.33783
▁>	-6.35475
▁it	-6.36743
i	-6.36802
▁can	-6.38515
▁our	-6.4151
▁home	-6.43678
!	-6.48104
y	-6.48785
l	-6.50524
▁4	-6.50587
▁we	-6.53198
x	-6.54288
g	-6.54934
▁5	-6.55891
▁an	-6.55946
2	-6.57067
b	-6.57258
▁new	-6.57995
▁this	-6.59885
▁products	-6.60203
p	-6.65099
▁as	-6.68961
;	-6.69636
ly	-6.69997
k	-6.72104
f	-6.73224
in	-6.74031
v	-6.74207
w	-6.74369
th	-6.77169
▁10	-6.78036
▁no	-6.79005
▁s	-6.79462
▁more	-6.79516
▁that	-6.81598
com	-6.82432
▁was	-6.83006
▁:	-6.84066
al	-6.85016
"	-6.86148
▁"	-6.86545
3	-6.88635
▁will	-6.90818
▁us	-6.90915
h	-6.91388
it	-6.91505
▁b	-6.91653
▁free	-6.9228
▁not	-6.9397
1	-6.93976
▁m	-6.94348
▁6	-6.94548
▁how	-6.96086
▁e	-6.96599
mm	-6.97226
▁about	-6.97413
▁2019	-6.98244
...	-6.98641
▁do	-7.00545
▁have	-7.01804
▁price	-7.02038
4	-7.02756
es	-7.0675
▁time	-7.08078
▁p	-7.08506
▁high	-7.09215
▁he	-7.09556
▁2018	-7.12099
▁what	-7.13353
▁8	-7.14111
▁use	-7.1509
▁contact	-7.15263
▁c	-7.15687
▁x	-7.16095
▁12	-7.171
re	-7.1725
▁one	-7.17616
▁7	-7.17789
▁re	-7.19135
▁19	-7.1914
▁up	-7.19551
▁product	-7.20747
5	-7.20772
(	-7.21325
▁years	-7.22232
▁car	-7.22408
▁data	-7.23248
▁ago	-7.23488
▁information	-7.24522
▁20	-7.2511
▁per	-7.25509
▁machine	-7.2622
▁t	-7.26366
▁room	-7.28344
▁15	-7.28646
▁18	-7.29639
▁d	-7.32217
to	-7.32774
▁design	-7.32849
▁bed	-7.33088
▁hotels	-7.33289
▁g	-7.33319
▁service	-7.3505
▁has	-7.35615
_	-7.36191
▁live	-7.36791
▁2017	-7.36895
▁italy	-7.3696
▁online	-7.37606
▁de	-7.37917
en	-7.3793
▁now	-7.38139
le	-7.38255
or	-7.38289
z	-7.38674
▁system	-7.40284
▁other	-7.40482
▁best	-7.40914
▁china	-7.40993
▁my	-7.41551
▁quality	-7.41906
▁9	-7.41979
▁model	-7.42423
▁,	-7.43613
▁site	-7.45399
▁black	-7.45405
6	-7.45754
8	-7.45888
co	-7.46318
u	-7.46394
▁0	-7.46776
▁first	-7.47354
▁size	-7.48129
▁may	-7.48572
▁day	-7.48891
▁available	-7.49036
▁+	-7.49038
ra	-7.50895
▁water	-7.51482
▁website	-7.51824
▁30	-7.52755
▁power	-7.53195
▁steel	-7.53795
▁if	-7.53851
▁white	-7.55133
▁l	-7.5577
▁h	-7.55834
na	-7.55894
▁airport	-7.56559
on	-7.56893
▁16	-7.57847
▁there	-7.57885
▁number	-7.57946
▁here	-7.58011
▁out	-7.58403
▁n	-7.58425
▁v	-7.58708
▁apartments	-7.59036
▁24	-7.59323
▁la	-7.5973
▁also	-7.60311
▁video	-7.6042
▁policy	-7.60844
▁privacy	-7.61198
▁f	-7.61206
▁city	-7.61357
ia	-7.61797
▁color	-7.62379
▁view	-7.62446
7	-7.62549
▁co	-7.63066
st	-7.63595
▁light	-7.63749
▁air	-7.63968
▁name	-7.64029
▁get	-7.6442
▁download	-7.64684
▁his	-7.66011
▁code	-7.66615
]	-7.66868
▁year	-7.66874
▁type	-7.67563
▁world	-7.68563
▁special	-7.68929
▁km	-7.69132
▁any	-7.69239
de	-7.69859
▁services	-7.7058
us	-7.70833
▁11	-7.71307
*	-7.71371
▁area	-7.71574
▁house	-7.71616
▁like	-7.71897
▁[	-7.71962
▁so	-7.72026
no	-7.72217
▁italian	-7.72409
▁di	-7.72508
▁two	-7.72521
▁breakfast	-7.72852
▁news	-7.7294
▁25	-7.73376
30	-7.7367
▁14	-7.73707
te	-7.73794
▁13	-7.74093
ch	-7.74363
10	-7.74516
#	-7.74607
▁only	-7.74643
ro	-7.74662
▁led	-7.74736
▁find	-7.74935
ma	-7.75017
▁rights	-7.75143
▁beach	-7.75699
▁book	-7.75734
an	-7.76028
&	-7.76364
▁art	-7.76449
▁manufacturer	-7.76499
j	-7.76858
▁rooms	-7.76968
▁2016	-7.77068
>	-7.77432
9	-7.77785
▁which	-7.78127
ta	-7.78435
▁double	-7.78628
▁page	-7.79748
▁me	-7.79856
▁reserved	-7.79935
la	-7.80387
▁company	-7.80455
▁after	-7.81224
▁its	-7.81638
▁work	-7.81911
▁open	-7.82242
▁good	-7.82503
▁bar	-7.82688
▁last	-7.8271
▁over	-7.82727
▁set	-7.8279
▁control	-7.82974
▁days	-7.83113
▁*	-7.833
ca	-7.83445
▁see	-7.83928
▁r	-7.83966
li	-7.84192
▁17	-7.85271
▁apartment	-7.85843
▁minutes	-7.86015
▁made	-7.86516
▁50	-7.86576
▁sale	-7.86586
me	-7.86688
▁international	-7.87087
▁support	-7.87307
▁center	-7.87942
▁copyright	-7.88056
il	-7.88282
▁material	-7.8978
ic	-7.90265
ers	-7.90349
▁(1	-7.90391
▁mm	-7.90485
▁group	-7.90633
able	-7.9071
▁am	-7.90825
@	-7.9105
▁pro	-7.9108
▁top	-7.91185
▁go	-7.91235
▁when	-7.91484
▁holiday	-7.91525
▁please	-7.91824
▁most	-7.92137
▁sex	-7.9234
is	-7.93326
▁business	-7.9348
▁w	-7.9379
▁but	-7.94486
ne	-7.94551
▁full	-7.94835
▁offers	-7.95195
ion	-7.95345
▁k	-7.95364
▁used	-7.95458
▁order	-7.95942
0	-7.96227
▁phone	-7.96475
▁make	-7.96731
+	-7.97319
ti	-7.98846
▁list	-7.98973
▁box	-7.99021
▁...	-7.99439
▁who	-7.99729
▁+39	-7.9973
ri	-7.99774
▁web	-8.00028
▁man	-8.00042
▁info	-8.00067
▁sea	-8.00191
▁her	-8.00371
▁check	-8.00373
▁2.	-8.00634
40	-8.00977
▁st	-8.01145
▁map	-8.01646
▁100	-8.01651
20	-8.01686
ar	-8.01795
▁old	-8.01849
▁#	-8.02209
▁food	-8.02244
▁back	-8.02398
▁spa	-8.02413
▁1.	-8.02761
▁park	-8.02776
▁date	-8.02842
the	-8.02969
ni	-8.03069
%	-8.03527
▁long	-8.04566
▁oil	-8.0484
▁tel	-8.05057
▁large	-8.05104
at	-8.05146
▁red	-8.05401
▁un	-8.05832
ation	-8.06121
▁read	-8.06129
▁villa	-8.06273
▁children	-8.06624
▁line	-8.06705
▁people	-8.0679
▁2015	-8.07034
▁22	-8.0728
▁part	-8.07457
▁within	-8.0753
▁cm	-8.07627
▁their	-8.07648
12	-8.07712
go	-8.07798
▁where	-8.07828
▁guests	-8.0803
▁life	-8.08157
▁events	-8.08444
▁single	-8.08721
star	-8.08785
▁san	-8.08942
▁production	-8.09277
▁family	-8.0936
25	-8.09367
▁hot	-8.09402
▁play	-8.09501
▁official	-8.09989
▁search	-8.10038
▁place	-8.10737
▁than	-8.10871
ry	-8.11045
▁2020	-8.11174
mo	-8.11283
60	-8.11378
▁al	-8.11491
▁request	-8.11581
▁blue	-8.11697
▁21	-8.1173
▁september	-8.12123
01	-8.12261
da	-8.12381
▁factory	-8.12509
▁personal	-8.12972
15	-8.12983
▁english	-8.13193
▁equipment	-8.13322
18	-8.13399
▁stay	-8.13496
19	-8.13727
di	-8.14087
pa	-8.14158
▁offer	-8.14161
▁description	-8.14169
▁project	-8.14277
▁small	-8.1437
▁following	-8.14416
▁hours	-8.14417
ity	-8.14442
man	-8.14489
▁cookies	-8.14603
▁$	-8.14935
▁metal	-8.15287
▁april	-8.15726
11	-8.15753
90	-8.15965
▁show	-8.16009
▁add	-8.16121
▁october	-8.16432
▁take	-8.16801
▁drive	-8.16967
▁into	-8.17305
▁some	-8.17506
▁easy	-8.17511
▁3.	-8.17823
50	-8.18239
▁they	-8.18612
▁june	-8.18727
▁very	-8.19029
14	-8.19237
▁access	-8.19474
ga	-8.1969
lo	-8.19768
▁u	-8.20249
▁months	-8.20261
▁click	-8.20318
▁file	-8.20562
ba	-8.20644
▁plastic	-8.20744
el	-8.20837
▁total	-8.20971
▁visit	-8.21008
00	-8.21021
▁want	-8.21092
80	-8.21276
▁le	-8.21298
▁need	-8.21343
per	-8.21408
▁o	-8.21786
▁discover	-8.22126
▁choose	-8.22152
mi	-8.22287
▁game	-8.22322
▁23	-8.22912
▁under	-8.22945
▁private	-8.23104
▁parts	-8.23187
▁management	-8.23245
▁march	-8.23393
up	-8.23514
▁green	-8.23535
▁photo	-8.23671
▁resort	-8.23675
▁rome	-8.23881
▁card	-8.23993
▁en	-8.24135
▁amateur	-8.24167
▁wine	-8.24294
▁email	-8.24567
17	-8.25056
▁been	-8.25073
▁mar	-8.25313
▁team	-8.25423
age	-8.25541
▁40	-8.2555
▁4.	-8.25583
▁buy	-8.25871
▁via	-8.26009
▁right	-8.2607
se	-8.2616
35	-8.26195
▁were	-8.26397
▁supplier	-8.26482
ce	-8.26596
▁january	-8.266
▁weight	-8.26921
▁next	-8.27166
▁between	-8.27257
▁japanese	-8.27355
do	-8.27396
ve	-8.27434
▁july	-8.27703
▁main	-8.2775
▁office	-8.27919
am	-8.27982
vi	-8.28128
cm	-8.28143
▁(2	-8.28156
▁she	-8.28283
▁collection	-8.28462
ter	-8.28479
▁help	-8.28562
▁experience	-8.28715
▁stock	-8.28949
▁games	-8.29026
os	-8.29116
▁style	-8.29275
▁restaurant	-8.2931
▁night	-8.29317
▁location	-8.29338
um	-8.2954
▁music	-8.29554
▁paper	-8.29654
be	-8.29665
ine	-8.29672
▁bag	-8.29684
▁low	-8.29709
16	-8.29758
ton	-8.29851
▁travel	-8.30092
▁anti	-8.30474
▁standard	-8.31056
▁series	-8.31062
24	-8.3115
▁2014	-8.3116
▁property	-8.31309
▁love	-8.31358
▁december	-8.31705
pe	-8.31728
▁great	-8.31732
fi	-8.31804
▁real	-8.32012
▁tour	-8.32211
▁60	-8.32279
▁pre	-8.32324
▁version	-8.3241
▁venice	-8.32442
▁call	-8.32442
▁glass	-8.32451
sa	-8.32634
▁accessories	-8.32763
▁without	-8.32813
line	-8.32823
70	-8.32823
▁side	-8.32861
▁different	-8.32994
ie	-8.33055
▁november	-8.33104
ive	-8.33324
▁well	-8.33603
▁away	-8.33604
▁select	-8.33673
▁table	-8.33688
▁three	-8.34179
▁garden	-8.3436
▁image	-8.34367
▁sales	-8.34394
45	-8.34507
id	-8.3454
▁february	-8.34892
▁hair	-8.34953
32	-8.35008
▁start	-8.3518
▁natural	-8.35287
▁2013	-8.35397
▁display	-8.35404
▁www	-8.35407
▁professional	-8.35787
▁reviews	-8.35796
▁details	-8.35933
▁sa	-8.35959
▁film	-8.35973
▁gold	-8.36043
▁milan	-8.3608
▁customer	-8.36088
▁end	-8.3615
▁speed	-8.3616
net	-8.36261
▁tube	-8.36404
▁j	-8.36445
▁case	-8.36705
one	-8.36896
q	-8.3703
▁board	-8.37037
▁just	-8.3725
21	-8.37357
▁28	-8.37683
▁club	-8.37707
io	-8.37935
▁software	-8.37958
▁each	-8.38089
▁form	-8.38233
▁station	-8.38358
:00	-8.3842
▁reference	-8.38532
▁26	-8.38561
▁every	-8.38643
tic	-8.38961
▁anal	-8.38979
▁press	-8.39219
ge	-8.3941
ci	-8.39684
ka	-8.39722
▁welcome	-8.39994
▁videos	-8.40021
▁lesbian	-8.40031
▁shop	-8.4027
▁terms	-8.40441
▁delivery	-8.40586
ment	-8.40601
22	-8.40649
▁off	-8.40693
▁screen	-8.4088
▁through	-8.41178
un	-8.41414
▁these	-8.41425
▁digital	-8.4154
▁post	-8.41896
▁young	-8.42012
▁electric	-8.42551
13	-8.42603
).	-8.42676
ac	-8.42698
▁short	-8.42766
ul	-8.42792
38	-8.42969
▁29	-8.43199
▁range	-8.43276
bo	-8.43633
▁technical	-8.43737
▁august	-8.43752
75	-8.43805
▁brand	-8.43843
▁women	-8.43924
▁protection	-8.44167
▁items	-8.44183
▁outdoor	-8.44357
▁mobile	-8.44734
▁head	-8.44744
34	-8.44751
▁body	-8.44845
26	-8.44869
▁before	-8.44909
▁pool	-8.44927
▁men	-8.44975
et	-8.45004
ate	-8.45217
▁kitchen	-8.45384
27	-8.45749
▁custom	-8.45901
▁test	-8.45989
▁working	-8.46124
▁27	-8.46219
▁wall	-8.46351
▁q	-8.46377
▁account	-8.46425
▁pm	-8.46569
▁tv	-8.4658
▁does	-8.4665
▁address	-8.46674
▁person	-8.46684
▁technology	-8.46841
▁why	-8.4725
▁01	-8.47262
28	-8.4737
▁watch	-8.47414
▁category	-8.47466
▁public	-8.4749
▁way	-8.47497
▁temperature	-8.47557
▁using	-8.47624
▁stainless	-8.48035
▁cart	-8.48134
ur	-8.48139
▁treatment	-8.48139
49	-8.48214
▁many	-8.48392
▁li	-8.48573
▁during	-8.48616
29	-8.48693
▁max	-8.48742
▁(3	-8.48799
▁pe	-8.48897
▁non	-8.48986
con	-8.48991
99	-8.49337
ll	-8.49347
▁hand	-8.49432
▁wood	-8.49436
▁close	-8.49602
▁euro	-8.49708
▁review	-8.4984
▁guide	-8.49954
▁cable	-8.50095
▁photos	-8.50261
ty	-8.5037
ke	-8.50393
as	-8.51032
▁automatic	-8.51293
23	-8.51646
▁florence	-8.52189
▁05	-8.52213
▁length	-8.52263
▁cookie	-8.523
▁ro	-8.52404
▁school	-8.52745
▁know	-8.52843
▁classic	-8.52998
▁z	-8.53387
▁31	-8.53471
▁application	-8.53559
ting	-8.53616
36	-8.53697
▁centre	-8.53929
▁industrial	-8.54012
▁united	-8.54052
▁teen	-8.54129
land	-8.54223
▁local	-8.54273
▁general	-8.54696
ist	-8.54839
▁battery	-8.54865
65	-8.54921
55	-8.54997
▁features	-8.55093
▁included	-8.552
ant	-8.55231
▁multi	-8.55286
▁04	-8.55367
▁super	-8.55397
▁transfer	-8.55524
▁market	-8.56001
▁conditions	-8.562
▁step	-8.5671
▁create	-8.56742
48	-8.56754
▁island	-8.56972
▁port	-8.57018
▁app	-8.57057
02	-8.57067
31	-8.57069
▁big	-8.5714
05	-8.57518
▁energy	-8.57623
▁history	-8.5767
less	-8.5777
▁systems	-8.57801
▁mini	-8.57903
▁user	-8.58101
▁2012	-8.58358
▁store	-8.58366
://	-8.58414
▁categories	-8.58423
▁event	-8.5843
▁star	-8.5848
▁motor	-8.58533
44	-8.58782
pi	-8.5913
▁grand	-8.59178
▁week	-8.59258
ling	-8.59348
▁booking	-8.59405
▁luxury	-8.59408
ina	-8.59707
▁da	-8.59785
ian	-8.59788
▁summer	-8.60056
39	-8.60231
▁network	-8.60273
▁results	-8.6028
▁send	-8.60324
▁cap	-8.60638
▁safety	-8.60655
ness	-8.60717
▁gallery	-8.60884
min	-8.6119
▁road	-8.61494
04	-8.61551
▁located	-8.61564
▁views	-8.61566
▁country	-8.61635
ko	-8.61647
▁enjoy	-8.6173
42	-8.61774
33	-8.61993
▁powder	-8.62018
▁french	-8.62059
09	-8.62063
chi	-8.621
▁leather	-8.6214
▁security	-8.62215
ino	-8.62228
▁mature	-8.62238
▁processing	-8.62414
95	-8.6249
▁sun	-8.62517
▁(4	-8.62602
ex	-8.62669
ent	-8.62838
▁payment	-8.63182
bi	-8.63372
▁south	-8.63622
ha	-8.63658
▁vi	-8.63709
▁residence	-8.64036
▁5.	-8.64169
nd	-8.64195
▁rental	-8.64281
▁change	-8.64424
é	-8.64437
▁ce	-8.64628
▁guest	-8.64866
▁bus	-8.64953
▁performance	-8.64975
37	-8.65067
▁ma	-8.65128
▁fabric	-8.65187
▁age	-8.65239
▁na	-8.6552
▁since	-8.65911
47	-8.65954
▁shoes	-8.66258
▁shipping	-8.66595
▁extra	-8.66689
▁language	-8.66897
▁wire	-8.67027
mar	-8.67149
▁mo	-8.67191
▁solutions	-8.67192
▁06	-8.67198
▁02	-8.67317
▁central	-8.67322
▁supply	-8.67329
▁town	-8.67351
▁found	-8.67418
▁con	-8.67459
▁ca	-8.67496
03	-8.67587
▁storage	-8.67622
▁look	-8.67639
▁would	-8.67766
▁training	-8.67903
▁prices	-8.68031
▁packaging	-8.68162
▁comments	-8.68301
▁walk	-8.68375
68	-8.68377
08	-8.68557
▁bi	-8.68585
▁own	-8.6863
▁building	-8.68661
▁200	-8.68666
▁space	-8.68715
88	-8.68763
▁museum	-8.68927
▁silver	-8.68985
66	-8.69102
000	-8.69157
▁100%	-8.69359
▁receive	-8.69722
▁bo	-8.69857
▁level	-8.69928
64	-8.70087
▁process	-8.70251
▁today	-8.70321
▁care	-8.70321
▁floor	-8.70346
▁train	-8.70353
ary	-8.70376
▁auto	-8.70495
▁based	-8.70544
▁content	-8.70613
▁'	-8.70781
▁meters	-8.7093
▁beautiful	-8.70973
▁asian	-8.7113
po	-8.71137
▁national	-8.71161
ini	-8.71185
out	-8.7132
▁near	-8.71711
▁capacity	-8.72009
son	-8.72039
▁parking	-8.72096
86	-8.72296
▁village	-8.72318
▁35	-8.72323
85	-8.7249
▁social	-8.72502
▁party	-8.7252
▁filter	-8.72533
▁accommodation	-8.72636
▁manual	-8.72844
▁key	-8.72847
▁suppliers	-8.72859
▁package	-8.72948
ler	-8.72995
▁pi	-8.73006
▁bike	-8.73125
▁fa	-8.73435
▁had	-8.73729
▁season	-8.73756
:30	-8.73896
07	-8.73914
46	-8.74047
▁profile	-8.74225
▁materials	-8.74229
gi	-8.74339
43	-8.74446
▁latest	-8.74509
▁mi	-8.74649
▁sign	-8.74705
▁heart	-8.7477
▁street	-8.74821
06	-8.74938
100	-8.74999
▁sport	-8.75041
▁front	-8.75193
▁eur	-8.75234
▁03	-8.75284
▁inter	-8.75303
▁media	-8.75315
▁perfect	-8.75365
▁festival	-8.75389
▁bathroom	-8.75403
▁around	-8.7543
▁500	-8.75508
and	-8.75581
▁palace	-8.75693
▁development	-8.75758
▁ex	-8.75879
▁skin	-8.75941
▁course	-8.76109
▁tax	-8.7617
▁height	-8.76181
▁save	-8.76194
▁industry	-8.76241
▁wi	-8.7628
ad	-8.76302
▁should	-8.76302
▁80	-8.76513
kg	-8.76542
▁current	-8.76827
▁rate	-8.76836
▁min	-8.76945
pro	-8.77011
▁surface	-8.7707
69	-8.77081
▁panel	-8.77082
si	-8.77122
67	-8.77217
▁tags	-8.77251
ut	-8.77298
▁pressure	-8.77318
mb	-8.77318
▁must	-8.77361
ny	-8.77422
▁aluminum	-8.77509
▁activities	-8.77551
▁customers	-8.77605
▁girls	-8.77738
▁wedding	-8.77861
▁windows	-8.77893
▁complete	-8.78
▁european	-8.78061
▁program	-8.7812
▁ka	-8.78163
▁legal	-8.78207
▁(5	-8.78351
▁month	-8.78396
▁y	-8.78498
ja	-8.78628
▁stars	-8.78695
▁newsletter	-8.78826
▁tools	-8.79057
▁modern	-8.79158
61	-8.79245
▁posted	-8.79354
▁soft	-8.79553
▁point	-8.799
▁times	-8.7997
▁etc	-8.80128
▁second	-8.80194
41	-8.80381
▁health	-8.80483
▁europe	-8.80497
63	-8.80517
▁down	-8.8053
58	-8.80585
▁mac	-8.80739
▁kit	-8.80797
▁coffee	-8.80834
▁val	-8.80939
rs	-8.81009
76	-8.81009
▁massage	-8.8105
79	-8.81123
▁enter	-8.8126
▁ip	-8.81293
▁ar	-8.81337
der	-8.81399
▁lake	-8.81473
▁item	-8.81733
▁round	-8.81777
▁land	-8.81787
▁2011	-8.81956
0.00	-8.82101
77	-8.82197
op	-8.82256
▁discount	-8.82443
▁unique	-8.82537
▁share	-8.82645
em	-8.82804
▁ba	-8.82817
▁fashion	-8.82848
74	-8.82851
▁friday	-8.82906
89	-8.83025
▁el	-8.83119
▁07	-8.83323
▁45	-8.8334
54	-8.83399
▁safe	-8.83447
▁beauty	-8.83562
▁printing	-8.8357
▁lu	-8.83847
▁cost	-8.83953
▁del	-8.83969
▁article	-8.83995
sh	-8.84004
59	-8.84096
ir	-8.84181
ous	-8.84237
56	-8.84345
▁rent	-8.84403
for	-8.84425
▁farm	-8.84517
▁possible	-8.84518
▁link	-8.84531
▁girl	-8.8454
62	-8.84548
▁blog	-8.84627
▁heat	-8.84689
▁same	-8.84892
hi	-8.84933
▁learn	-8.84954
98	-8.84965
▁face	-8.85021
▁hd	-8.85046
he	-8.85066
▁pa	-8.85072
▁cover	-8.85158
▁unit	-8.85286
▁original	-8.85417
▁monday	-8.85444
▁cutting	-8.85647
▁sports	-8.85832
▁always	-8.85886
im	-8.85939
▁fast	-8.85944
▁6.	-8.85951
lu	-8.85993
▁customized	-8.86081
▁update	-8.86101
▁laser	-8.86449
▁ball	-8.86561
▁smart	-8.86588
▁square	-8.86604
nt	-8.86722
71	-8.86792
ze	-8.86841
▁sunday	-8.86851
▁menu	-8.86925
▁hard	-8.86949
▁below	-8.86975
▁device	-8.86988
▁08	-8.86992
▁door	-8.87038
▁according	-8.87045
▁edition	-8.87073
▁sp	-8.87084
▁engine	-8.87116
▁touch	-8.87198
ted	-8.87206
72	-8.87328
▁print	-8.8742
est	-8.87477
▁them	-8.87512
▁gas	-8.87782
▁ad	-8.87811
▁london	-8.87837
▁spring	-8.87938
▁pipe	-8.88021
▁war	-8.88092
▁saturday	-8.88142
▁base	-8.88165
▁vat	-8.88318
ies	-8.88398
ml	-8.88556
57	-8.88641
78	-8.88663
▁ne	-8.88804
▁tool	-8.88868
ance	-8.88919
tra	-8.88924
▁class	-8.89063
▁nature	-8.89211
▁until	-8.89237
by	-8.89262
▁pump	-8.89263
▁(1)	-8.89268
au	-8.89594
87	-8.89634
que	-8.89677
▁then	-8.89748
96	-8.89778
iva	-8.89797
che	-8.89799
ated	-8.89869
▁works	-8.89877
▁bio	-8.89878
lin	-8.89888
▁90	-8.90036
end	-8.90049
ft	-8.90063
▁fun	-8.90118
▁such	-8.90225
▁blonde	-8.90357
▁simple	-8.90451
▁internet	-8.9066
va	-8.90781
▁installation	-8.91081
▁construction	-8.9117
▁shower	-8.91343
▁ni	-8.91388
▁camera	-8.91565
▁kg	-8.91573
▁come	-8.91677
▁09	-8.9189
ana	-8.92031
▁distance	-8.92047
▁ko	-8.92088
52	-8.92096
▁german	-8.921
▁research	-8.9221
minute	-8.92292
ol	-8.92419
▁winter	-8.92437
▁both	-8.92461
84	-8.92539
▁foot	-8.92857
▁keep	-8.92908
▁images	-8.92965
▁32	-8.93036
▁solution	-8.93145
mail	-8.93192
97	-8.93351
▁gift	-8.93616
▁cat	-8.93632
▁reach	-8.93692
▁cream	-8.93737
▁pc	-8.9383
▁flat	-8.9384
▁opening	-8.93841
▁previous	-8.93851
▁daily	-8.94004
".	-8.94046
▁powered	-8.94338
▁dis	-8.94413
83	-8.94452
51	-8.9452
▁studio	-8.94528
▁section	-8.94572
▁shopping	-8.94737
▁yellow	-8.94912
▁ra	-8.95065
▁four	-8.95098
▁ho	-8.95478
▁updated	-8.95665
ber	-8.95689
▁self	-8.95856
▁much	-8.95859
▁maximum	-8.959
▁rates	-8.95939
ano	-8.95961
▁meeting	-8.96046
▁sheet	-8.96138
▁lo	-8.96252
▁files	-8.96434
▁ha	-8.9651
▁furniture	-8.96517
▁su	-8.96542
53	-8.96585
▁ski	-8.96615
500	-8.96651
▁designed	-8.96674
▁users	-8.96696
0,00	-8.96721
▁follow	-8.96726
▁law	-8.96742
▁medical	-8.9689
▁mode	-8.96931
200	-8.96942
▁2010	-8.96964
▁living	-8.97118
▁trade	-8.97162
▁excellent	-8.9721
▁fi	-8.97218
73	-8.97302
▁provide	-8.97336
▁70	-8.9762
way	-8.97753
▁mom	-8.97826
▁ac	-8.98003
▁pay	-8.98047
time	-8.98293
▁boutique	-8.98305
▁third	-8.98307
82	-8.98425
▁300	-8.98471
92	-8.98534
▁rentals	-8.9857
▁diameter	-8.98635
▁yes	-8.98667
▁load	-8.98722
▁compilation	-8.98963
▁ci	-8.98994
▁sub	-8.98994
▁srl	-8.99034
▁required	-8.9913
vo	-8.99284
▁bra	-8.993
91	-8.99328
▁dress	-8.99349
tor	-8.9936
▁150	-8.99723
let	-8.9978
▁final	-8.99895
▁charge	-8.99911
▁eco	-8.99918
mp	-8.99945
▁bottle	-9.00147
▁frame	-9.00183
▁pack	-9.00235
-1	-9.00337
▁function	-9.00548
▁options	-9.00647
▁even	-9.00668
▁saint	-9.00683
▁3-	-9.00691
▁master	-9.00735
▁registration	-9.00755
▁don	-9.00911
▁quick	-9.01591
ner	-9.01594
▁published	-9.01611
▁plant	-9.01622
▁commercial	-9.01671
gu	-9.01709
▁computer	-9.01733
ized	-9.01738
ium	-9.01742
▁manufacturers	-9.01877
▁pvc	-9.02085
▁fair	-9.02097
▁bank	-9.02154
ver	-9.02163
▁value	-9.02333
▁structure	-9.02354
▁exhibition	-9.025
▁micro	-9.02587
▁paris	-9.02591
▁added	-9.02606
▁facilities	-9.02731
ure	-9.02765
93	-9.02777
▁register	-9.02783
ish	-9.02804
▁id	-9.02819
▁lamp	-9.02909
▁band	-9.02915
▁fire	-9.02952
▁carbon	-9.03023
▁http	-9.03078
▁holidays	-9.03164
pm	-9.03233
ip	-9.03246
▁church	-9.03289
▁electronic	-9.03463
▁give	-9.03483
▁clear	-9.03621
81	-9.03629
▁cup	-9.0366
▁cross	-9.03738
▁00	-9.03827
▁royal	-9.03827
▁ru	-9.0384
▁fiber	-9.03908
om	-9.03945
▁rose	-9.03952
ster	-9.03989
▁cotton	-9.04005
ap	-9.04068
▁weather	-9.04125
▁android	-9.04128
art	-9.04282
▁tri	-9.04348
▁baby	-9.04495
▁active	-9.04532
▁important	-9.04683
▁position	-9.0474
▁width	-9.04892
▁si	-9.0491
▁pen	-9.04934
▁pdf	-9.05025
we	-9.05076
▁university	-9.05328
fe	-9.05447
▁popular	-9.05482
of	-9.05547
▁hi	-9.0555
94	-9.05605
ah	-9.05786
▁cleaning	-9.05821
ya	-9.05846
▁region	-9.06104
ria	-9.06116
▁valve	-9.06117
▁including	-9.06224
ang	-9.06267
▁google	-9.06336
▁text	-9.06396
ella	-9.06452
▁du	-9.06467
▁ri	-9.06576
▁chi	-9.06609
car	-9.06612
▁showing	-9.06616
du	-9.0662
▁transport	-9.06768
▁=	-9.06826
▁fetish	-9.06994
board	-9.07234
▁environment	-9.07238
za	-9.07369
so	-9.07538
▁various	-9.0756
fa	-9.0759
ho	-9.07631
▁christmas	-9.07672
org	-9.07694
rd	-9.07733
▁marketing	-9.07746
▁period	-9.07901
ru	-9.08055
ring	-9.08066
ten	-9.08079
▁hostel	-9.08087
▁ring	-9.08146
ise	-9.08314
▁return	-9.08511
▁logo	-9.08517
▁chat	-9.08518
▁se	-9.08564
tro	-9.08654
hotel	-9.08937
▁north	-9.09164
can	-9.09198
▁human	-9.09399
▁deposit	-9.09464
ot	-9.0959
$	-9.09612
▁usb	-9.09632
▁stand	-9.09666
ig	-9.09774
▁money	-9.09775
www	-9.0978
▁stop	-9.09799
▁nice	-9.0981
▁solar	-9.09843
▁projects	-9.10237
▁action	-9.10285
mon	-9.10328
▁colour	-9.10823
▁american	-9.11078
▁bags	-9.11204
▁fresh	-9.11217
▁wide	-9.11228
ki	-9.1128
▁let	-9.11492
▁france	-9.11569
▁plate	-9.1157
▁field	-9.11841
▁spain	-9.11863
▁plan	-9.12068
▁mon	-9.12103
▁33	-9.12194
ism	-9.12266
▁cam	-9.12282
▁reservation	-9.12373
▁output	-9.12499
▁state	-9.12604
=	-9.12631
▁companies	-9.12634
room	-9.12653
res	-9.1269
▁switch	-9.12724
▁accept	-9.12801
▁lighting	-9.12888
▁packing	-9.12975
▁36	-9.12976
▁sound	-9.1298
dy	-9.13131
▁questions	-9.13139
▁platform	-9.13304
▁little	-9.13325
bar	-9.13331
▁few	-9.13505
▁rubber	-9.13539
▁swimming	-9.13606
▁notice	-9.13616
▁report	-9.13674
▁terrace	-9.13712
▁pin	-9.13896
▁dry	-9.13966
▁story	-9.14043
tion	-9.14071
▁boat	-9.14079
▁250	-9.14149
▁king	-9.14252
▁vintage	-9.14302
▁kids	-9.14482
▁usd	-9.14484
▁cas	-9.14499
▁types	-9.14528
ization	-9.14547
▁machines	-9.14706
light	-9.14711
▁built	-9.14749
▁arm	-9.14754
▁lock	-9.148
ola	-9.14872
ding	-9.14964
ck	-9.14983
▁spanish	-9.15075
):	-9.1511
lic	-9.15238
▁***	-9.15302
▁stone	-9.15367
tri	-9.15401
▁7.	-9.15426
▁sweet	-9.15473
▁run	-9.15474
▁making	-9.15746
free	-9.15752
▁button	-9.15776
▁@	-9.15841
▁him	-9.15856
▁purchase	-9.1599
ron	-9.16027
▁suite	-9.16048
▁cut	-9.16066
▁kingdom	-9.16077
▁po	-9.16109
▁global	-9.16133
▁better	-9.16252
▁tag	-9.16469
▁audio	-9.16486
▁(6	-9.16495
▁selection	-9.16517
▁conference	-9.16638
▁contacts	-9.16691
ica	-9.16719
▁try	-9.1673
▁tea	-9.16796
▁culture	-9.16806
▁strong	-9.16918
▁casino	-9.16978
▁olive	-9.17031
▁child	-9.17084
ating	-9.17135
ator	-9.17193
▁ltd	-9.17298
▁thanks	-9.17356
our	-9.1774
▁suitable	-9.17745
▁shape	-9.17779
▁regular	-9.17857
▁applications	-9.18076
▁wife	-9.18091
▁partner	-9.18137
▁inn	-9.18142
fo	-9.18144
▁choice	-9.1818
▁orgasm	-9.18229
▁voltage	-9.18332
▁pan	-9.18344
ley	-9.18358
▁less	-9.18381
▁grey	-9.18499
port	-9.18524
▁include	-9.18575
▁1000	-9.18606
ence	-9.18637
▁fish	-9.18661
▁convert	-9.18828
▁roll	-9.18946
▁)	-9.18951
▁germany	-9.18958
▁bedroom	-9.19022
▁dr	-9.19041
▁iso	-9.19085
▁left	-9.19093
▁2009	-9.1932
▁born	-9.19385
▁states	-9.19404
▁password	-9.19411
▁rock	-9.19463
▁flexible	-9.19614
▁bay	-9.19656
▁iron	-9.19916
▁thursday	-9.19938
eg	-9.19947
▁ideal	-9.19958
▁future	-9.19971
ai	-9.20079
▁individual	-9.20095
▁eu	-9.2011
▁pet	-9.20133
tu	-9.20143
▁common	-9.20176
▁bath	-9.20262
▁join	-9.20264
ful	-9.20297
ps	-9.20462
▁against	-9.20525
pcs	-9.20547
▁points	-9.20586
▁thickness	-9.20587
bu	-9.20725
▁source	-9.20878
eu	-9.21038
ts	-9.21095
▁models	-9.21142
▁tourist	-9.21158
▁method	-9.21214
▁%	-9.2138
▁hydraulic	-9.21397
▁manager	-9.2141
▁comfort	-9.21421
▁russian	-9.21469
▁gr	-9.21487
▁hall	-9.21573
▁additional	-9.21644
▁members	-9.21674
▁radio	-9.21805
▁chinese	-9.21822
▁author	-9.21842
▁turn	-9.21843
▁clean	-9.22048
▁hu	-9.22105
▁wheel	-9.2214
▁organic	-9.22283
▁friends	-9.22418
▁net	-9.22466
rt	-9.22727
▁wednesday	-9.22748
▁domain	-9.2278
▁cheap	-9.22783
▁another	-9.22814
▁communication	-9.22825
▁tuesday	-9.22835
cc	-9.22991
day	-9.23063
ology	-9.23067
-10	-9.23123
▁properties	-9.23203
▁woman	-9.23271
▁direct	-9.23302
▁rating	-9.23331
▁rimini	-9.23396
▁note	-9.23406
tel	-9.23483
▁exclusive	-9.23534
▁availability	-9.23545
▁did	-9.23573
▁provided	-9.23581
▁8.	-9.23591
▁mountain	-9.23616
show	-9.23624
▁courses	-9.23625
▁could	-9.23783
▁album	-9.23862
▁meet	-9.23904
▁indian	-9.23928
▁iphone	-9.23977
▁tours	-9.24019
▁plus	-9.24041
ice	-9.24069
▁wind	-9.24199
▁48	-9.24274
val	-9.24344
side	-9.24502
▁credit	-9.24628
▁director	-9.24731
▁dark	-9.24772
▁golf	-9.24782
▁adults	-9.24798
▁while	-9.24876
▁present	-9.24901
▁par	-9.24911
▁fat	-9.24947
▁maintenance	-9.2498
ide	-9.25078
▁naples	-9.25089
▁release	-9.25214
▁cal	-9.25219
▁ti	-9.25235
ard	-9.25238
hotels	-9.25309
▁pink	-9.25314
▁ja	-9.25486
les	-9.25491
▁wellness	-9.2551
▁those	-9.25682
▁server	-9.25699
▁half	-9.25732
▁articles	-9.25738
▁specific	-9.25766
▁cell	-9.25907
▁34	-9.25982
▁taste	-9.26006
gen	-9.26048
▁ph	-9.26119
▁120	-9.26133
jo	-9.26137
▁sand	-9.26215
▁arrival	-9.263
▁em	-9.26331
▁son	-9.26496
▁picture	-9.26508
▁resistance	-9.26575
▁needs	-9.26588
uk	-9.26661
▁analysis	-9.26763
▁connection	-9.26801
▁ask	-9.26808
▁ii	-9.26869
▁become	-9.26927
▁further	-9.26981
▁track	-9.27009
▁created	-9.2702
▁login	-9.27039
▁tu	-9.2709
300	-9.27098
ware	-9.27129
ea	-9.27262
elli	-9.27451
cia	-9.27508
▁ta	-9.27649
▁york	-9.27723
▁above	-9.27723
▁****	-9.27745
▁traditional	-9.27851
▁subject	-9.27945
bra	-9.28023
▁member	-9.28322
▁inside	-9.2835
▁crystal	-9.28363
▁im	-9.28543
▁milano	-9.28585
▁operation	-9.28586
▁win	-9.2861
▁west	-9.28762
▁later	-9.28859
ries	-9.2886
="	-9.28902
▁stage	-9.29099
▁minimum	-9.29127
▁advanced	-9.2913
▁gu	-9.29183
▁far	-9.29185
ak	-9.29216
▁(2)	-9.29265
▁estate	-9.29352
oni	-9.29436
▁telephone	-9.29444
if	-9.29459
mer	-9.29469
box	-9.2949
▁ml	-9.29492
men	-9.29565
-2	-9.29641
▁ice	-9.29653
▁block	-9.29727
▁colors	-9.29775
ng	-9.29807
red	-9.29809
▁dc	-9.29905
▁being	-9.29913
▁staff	-9.30158
▁brown	-9.30159
▁fine	-9.30211
▁format	-9.30212
▁option	-9.30447
▁2008	-9.3051
ee	-9.30677
▁title	-9.3071
ger	-9.30751
gr	-9.30829
▁module	-9.30954
▁heating	-9.31008
▁mail	-9.31095
▁verona	-9.31226
▁areas	-9.31269
ello	-9.3144
ab	-9.31459
▁couple	-9.31486
od	-9.31491
▁updates	-9.31549
▁tank	-9.31765
▁install	-9.31792
▁basic	-9.31921
▁ceramic	-9.32039
▁looking	-9.32127
▁together	-9.32195
▁houses	-9.32195
▁55	-9.3224
▁starting	-9.32244
▁devices	-9.32325
▁bologna	-9.32483
▁38	-9.32537
▁nights	-9.3268
▁log	-9.32697
▁deep	-9.32838
▁components	-9.3284
▁ver	-9.32866
▁sha	-9.33004
ping	-9.3304
cu	-9.33323
▁grade	-9.33366
▁75	-9.33372
▁ve	-9.33526
all	-9.33644
▁contract	-9.33661
▁repair	-9.33714
my	-9.33793
total	-9.338
▁innovation	-9.33877
▁indoor	-9.33982
-3	-9.3409
▁cor	-9.34092
▁handle	-9.34199
ara	-9.34328
▁seat	-9.34374
▁requirements	-9.34429
▁mat	-9.34451
▁acid	-9.34501
▁directly	-9.34631
▁ready	-9.34632
▁flower	-9.34653
▁duration	-9.34698
qui	-9.34769
▁fit	-9.34853
ari	-9.34911
ph	-9.34913
▁message	-9.35048
ite	-9.35143
▁catalogue	-9.35209
▁usa	-9.35351
▁pp	-9.35408
▁effect	-9.35538
▁400	-9.35699
▁express	-9.35712
▁pu	-9.35729
▁chain	-9.3574
▁trading	-9.35749
▁hardcore	-9.35798
pp	-9.35921
▁jo	-9.35925
▁pictures	-9.3596
led	-9.36051
hu	-9.36082
-12	-9.36084
▁loss	-9.36085
▁venue	-9.36099
▁castle	-9.36106
▁39	-9.36157
ita	-9.36158
▁lead	-9.36221
▁interior	-9.36246
▁il	-9.36259
her	-9.36337
▁places	-9.36392
▁visitors	-9.36483
▁wooden	-9.36518
▁remote	-9.36576
▁?	-9.3659
▁casa	-9.36592
cl	-9.36621
▁happy	-9.36787
▁monte	-9.36837
▁mr	-9.36933
▁bedrooms	-9.36933
▁exchange	-9.36937
▁dimensions	-9.37029
▁cold	-9.37099
▁again	-9.37193
▁barcelona	-9.37242
▁ticket	-9.37393
▁wholesale	-9.37428
▁guarantee	-9.37433
▁solid	-9.37438
▁japan	-9.37605
▁related	-9.3761
▁mp	-9.37616
▁2000	-9.37735
▁milk	-9.37766
▁waterproof	-9.37783
ura	-9.37826
▁chemical	-9.37885
▁alloy	-9.37916
▁race	-9.38036
pt	-9.38071
▁brunette	-9.38072
-20	-9.38217
▁suites	-9.38323
den	-9.38331
▁mod	-9.38343
era	-9.38357
▁still	-9.38413
▁portable	-9.38544
▁bit	-9.38546
▁mother	-9.38627
▁ga	-9.38691
▁ground	-9.3884
▁reached	-9.38992
▁babe	-9.39019
▁sensor	-9.39108
lan	-9.39146
▁fan	-9.3915
▁soon	-9.39186
▁fruit	-9.39221
▁closed	-9.39299
▁ke	-9.39423
▁subscribe	-9.39423
▁strip	-9.39474
▁chair	-9.39496
bb	-9.39635
oc	-9.39656
▁cha	-9.39726
▁write	-9.39737
▁sl	-9.39783
▁tips	-9.39806
▁major	-9.39888
▁oem	-9.399
▁xhamster	-9.39908
▁inch	-9.39914
tes	-9.40047
ff	-9.40108
▁golden	-9.40233
▁volume	-9.40285
▁sexy	-9.40315
▁certificate	-9.40318
▁sample	-9.40372
olo	-9.40404
▁dream	-9.40464
▁holder	-9.40466
▁extension	-9.4047
▁coast	-9.40512
▁comp	-9.40526
▁advertising	-9.40531
▁uk	-9.40536
▁vo	-9.40549
▁ob	-9.40632
▁santa	-9.40701
▁cloud	-9.40708
ier	-9.40754
▁never	-9.40766
▁fall	-9.40783
bit	-9.40911
▁tower	-9.40972
▁::	-9.40983
▁pass	-9.41185
book	-9.41319
over	-9.41346
▁interracial	-9.41389
▁put	-9.41438
cam	-9.41471
▁several	-9.41474
▁controller	-9.41494
▁swiss	-9.41557
▁community	-9.41569
▁hosting	-9.41658
▁internal	-9.41705
tech	-9.41771
▁4-	-9.41794
▁countries	-9.41892
▁college	-9.41926
▁cl	-9.42024
▁te	-9.42068
▁za	-9.42075
▁river	-9.42145
▁thermal	-9.42237
▁tuscany	-9.42315
▁pure	-9.42452
oli	-9.4249
▁drop	-9.42507
▁export	-9.42522
-5	-9.42549
▁warm	-9.42575
▁angel	-9.42646
▁apply	-9.42651
400	-9.42701
ability	-9.42732
5.00	-9.4282
▁dinner	-9.42825
▁gi	-9.4283
▁creampie	-9.42886
nu	-9.42932
▁archives	-9.43039
▁villas	-9.43045
▁driver	-9.43076
sta	-9.4324
▁cur	-9.4325
▁tra	-9.43475
zo	-9.43482
▁strength	-9.43514
▁magazine	-9.43583
▁player	-9.43611
▁efficiency	-9.43612
▁registered	-9.43616
▁channel	-9.43634
zi	-9.43779
▁eye	-9.43781
▁>>	-9.43843
ven	-9.43919
han	-9.43929
▁operating	-9.44014
▁catalog	-9.44239
▁translation	-9.44261
ani	-9.44274
kw	-9.44317
▁casting	-9.44393
top	-9.44399
▁improve	-9.44431
▁gar	-9.4445
▁because	-9.44552
▁ch	-9.4459
▁leave	-9.44609
sha	-9.44624
▁dishes	-9.44645
▁comment	-9.44747
▁sky	-9.44787
▁flow	-9.448
▁liquid	-9.44825
▁tickets	-9.44831
▁cu	-9.45203
▁42	-9.45204
▁association	-9.45241
▁(19	-9.45267
▁job	-9.45271
pl	-9.45358
▁65	-9.45381
▁window	-9.45447
▁external	-9.45466
▁male	-9.45567
▁dedicated	-9.45599
king	-9.45609
▁outside	-9.45961
gh	-9.45992
back	-9.46012
▁female	-9.46103
▁increase	-9.46172
▁doctor	-9.46227
▁orange	-9.46238
bs	-9.46263
▁imp	-9.46298
▁carton	-9.46451
▁kind	-9.46523
▁known	-9.46567
▁vehicle	-9.46647
▁already	-9.46724
▁piece	-9.46776
▁flowers	-9.46777
▁extract	-9.46884
▁whole	-9.47051
ile	-9.47096
▁hour	-9.4714
▁label	-9.47179
600	-9.47212
cy	-9.47251
van	-9.47254
▁trip	-9.47339
cent	-9.47362
▁break	-9.47391
▁watches	-9.47412
▁partners	-9.47431
▁cast	-9.47536
▁fo	-9.47599
▁37	-9.47617
▁roller	-9.47625
ek	-9.47692
zz	-9.47769
▁testing	-9.47865
▁workshop	-9.47867
ach	-9.47878
▁(18+)	-9.47901
▁cheese	-9.47935
▁comfortable	-9.47943
▁links	-9.47948
km	-9.47976
▁44	-9.4798
pre	-9.4805
▁feature	-9.48097
gar	-9.48109
▁truck	-9.48163
ud	-9.48307
▁agency	-9.48474
▁john	-9.48518
▁che	-9.48553
sp	-9.48555
▁fuel	-9.48617
ow	-9.48704
tt	-9.4873
▁2-	-9.48771
▁har	-9.48808
▁sector	-9.48852
▁thank	-9.48887
-4	-9.49005
▁ab	-9.49076
▁movie	-9.49078
su	-9.4929
▁facebook	-9.49335
▁(0)	-9.49376
▁weeks	-9.49396
▁result	-9.49442
▁republic	-9.49468
▁aluminium	-9.49489
ag	-9.49505
▁precision	-9.49597
▁origin	-9.49685
▁core	-9.49742
use	-9.49751
more	-9.49815
▁beds	-9.49832
▁mark	-9.49903
▁among	-9.50145
▁wireless	-9.50152
▁secure	-9.50183
▁lights	-9.50187
set	-9.50203
▁mag	-9.50224
▁medium	-9.50259
▁lift	-9.50285
▁bal	-9.50336
▁input	-9.50344
▁tell	-9.50379
▁penetration	-9.50418
site	-9.50423
▁study	-9.50537
▁chocolate	-9.50556
▁adjustable	-9.50598
▁raw	-9.5065
▁electrical	-9.50716
▁2007	-9.50736
▁fill	-9.50751
shop	-9.50761
gue	-9.5077
▁**	-9.50835
▁sold	-9.50959
▁2006	-9.51027
▁limited	-9.51057
▁say	-9.51167
▁mask	-9.51254
(1	-9.51284
▁once	-9.51305
▁protect	-9.51365
▁costs	-9.51401
▁district	-9.51465
br	-9.51526
▁god	-9.51602
▁browser	-9.51657
▁continue	-9.51697
▁decoration	-9.51727
▁twin	-9.51765
▁host	-9.51824
▁dance	-9.51868
▁remove	-9.51887
▁archive	-9.51895
ix	-9.51897
▁italia	-9.51994
▁valid	-9.52
▁warranty	-9.52019
▁mechanical	-9.52054
ran	-9.52068
▁due	-9.52093
▁sc	-9.52106
▁muscle	-9.52161
▁interface	-9.5227
▁paint	-9.52318
▁mesh	-9.52398
▁9.	-9.52442
▁diamond	-9.52498
▁tape	-9.52501
▁mt	-9.52539
▁marina	-9.52562
▁wear	-9.52563
▁mill	-9.52565
▁(20	-9.52603
born	-9.52606
▁connect	-9.52608
▁cr	-9.52614
▁ten	-9.52646
▁award	-9.52651
▁restaurants	-9.52684
▁webcam	-9.52733
▁corporate	-9.52745
▁coating	-9.52747
▁historical	-9.52753
tre	-9.52858
▁dog	-9.5287
▁path	-9.52884
▁question	-9.52928
▁spray	-9.53054
work	-9.53097
▁600	-9.53146
▁heavy	-9.53183
▁belt	-9.53194
off	-9.53217
▁die	-9.53258
▁painting	-9.53264
▁printed	-9.53266
▁jacket	-9.53324
▁cnc	-9.53334
▁camp	-9.53441
house	-9.53711
▁nu	-9.53759
▁$1	-9.53802
▁western	-9.53898
ial	-9.53924
▁cards	-9.53939
5%	-9.53977
-8	-9.53989
▁capital	-9.54008
▁bridge	-9.5408
▁op	-9.54088
▁activity	-9.54183
▁education	-9.54252
▁court	-9.54362
▁wild	-9.54435
▁quantity	-9.54469
air	-9.54482
▁century	-9.54489
cha	-9.54764
▁client	-9.54865
▁polyester	-9.54881
sex	-9.54894
▁spare	-9.54963
ize	-9.54976
▁feel	-9.55009
▁released	-9.55023
▁tradition	-9.5505
press	-9.55105
▁everything	-9.55228
▁environmental	-9.55242
▁movies	-9.55275
0,000	-9.55283
cal	-9.55382
▁license	-9.55445
▁switzerland	-9.5549
▁lies	-9.55502
▁benefits	-9.5559
▁east	-9.55673
▁fl	-9.55712
▁ge	-9.55735
▁five	-9.55779
▁sal	-9.55832
▁gra	-9.55846
▁insert	-9.55847
ec	-9.56031
▁cars	-9.56031
▁clients	-9.56033
▁fu	-9.56075
▁berlin	-9.56143
▁recovery	-9.56186
▁finish	-9.56232
▁trans	-9.5632
▁navigation	-9.5632
▁frequency	-9.56472
▁ship	-9.56477
▁currently	-9.56482
▁solo	-9.56526
▁lot	-9.56543
▁america	-9.56553
▁(7	-9.56633
▁cd	-9.56637
▁written	-9.56642
▁provides	-9.56695
▁printer	-9.56806
▁includes	-9.56823
▁sch	-9.56823
▁mer	-9.5684
ati	-9.56955
▁won	-9.56967
▁mass	-9.57069
▁risk	-9.57078
ave	-9.57177
▁wines	-9.5722
▁camping	-9.57279
▁credits	-9.57312
▁pages	-9.57432
▁recommended	-9.57463
ong	-9.5747
▁assembly	-9.575
▁miss	-9.57508
▁cabinet	-9.57522
▁calendar	-9.57573
▁poly	-9.5758
▁fully	-9.57631
▁bu	-9.57655
▁persons	-9.57661
▁certification	-9.57743
ep	-9.57763
▁early	-9.57766
▁attractions	-9.57946
▁example	-9.57979
ane	-9.58044
▁mb	-9.58071
▁greece	-9.58133
▁copy	-9.58139
▁bracelet	-9.5817
ato	-9.5819
▁things	-9.5824
▁interest	-9.58251
▁balance	-9.5829
▁easily	-9.58355
▁mc	-9.5841
▁toys	-9.58436
▁islands	-9.58476
▁meat	-9.58493
800	-9.58594
▁multiple	-9.58601
▁pop	-9.58604
▁route	-9.58608
▁student	-9.58656
▁reply	-9.58697
▁strap	-9.58731
▁apple	-9.58747
▁fe	-9.58756
▁er	-9.58775
▁clothing	-9.58783
▁rod	-9.58838
▁friendly	-9.58861
ji	-9.58893
▁reduce	-9.59053
▁situated	-9.59143
▁term	-9.59212
▁groups	-9.59282
▁organization	-9.59298
▁cre	-9.59354
▁cool	-9.59368
▁monitor	-9.59415
▁fixed	-9.59418
▁competition	-9.59444
▁sofa	-9.5954
▁gay	-9.5956
▁pcs	-9.59679
▁equipped	-9.5971
▁premium	-9.59713
▁semi	-9.59775
▁rest	-9.59959
▁past	-9.60046
▁000	-9.602
▁sent	-9.6024
▁said	-9.60264
ok	-9.60306
▁move	-9.6031
▁!	-9.6032
▁phase	-9.60353
▁success	-9.60403
▁salt	-9.60497
▁steps	-9.60536
▁six	-9.60552
shirt	-9.60687
▁think	-9.6072
▁million	-9.60779
▁mirror	-9.60814
▁ag	-9.60823
▁uni	-9.60863
▁president	-9.60891
fr	-9.60945
▁average	-9.61045
▁british	-9.61082
ero	-9.61109
▁however	-9.61213
▁department	-9.61242
▁pick	-9.61243
▁selected	-9.61398
ning	-9.61494
ou	-9.61497
▁wa	-9.61508
▁gear	-9.61508
hour	-9.61666
wood	-9.6172
/2019	-9.61728
▁match	-9.61773
fer	-9.61852
pc	-9.61867
-6	-9.61873
▁languages	-9.61923
▁manage	-9.61935
▁vol	-9.62015
▁bur	-9.62038
▁br	-9.62074
▁passion	-9.62076
▁mg	-9.62175
▁science	-9.62247
▁allowed	-9.62265
▁error	-9.62592
ris	-9.62625
▁valley	-9.62697
▁assistance	-9.62832
▁useful	-9.62926
▁replica	-9.62974
▁64	-9.6298
▁football	-9.63121
▁financial	-9.63139
▁vacation	-9.63152
▁plants	-9.63245
ric	-9.63385
▁lcd	-9.63531
▁reception	-9.63571
▁snow	-9.63575
▁vacuum	-9.63611
▁magic	-9.63665
ez	-9.63685
▁conditioning	-9.63752
wa	-9.63924
af	-9.63989
mg	-9.64138
▁effects	-9.64141
▁tourism	-9.64193
▁saving	-9.64214
▁friend	-9.64242
tte	-9.64267
▁800	-9.6427
5,00	-9.6427
▁province	-9.64322
tal	-9.64328
ical	-9.64394
▁pieces	-9.64502
ue	-9.64549
▁virtual	-9.64605
▁target	-9.64683
gb	-9.64692
▁43	-9.64714
▁elegant	-9.648
▁act	-9.6484
▁resources	-9.64907
▁disc	-9.64958
▁(3)	-9.65019
▁generator	-9.65039
▁bre	-9.65062
▁upon	-9.65103
▁settings	-9.65108
▁typical	-9.65113
▁balcony	-9.65119
▁fr	-9.65128
▁methods	-9.65333
-19	-9.6539
▁horse	-9.65407
▁pad	-9.6549
▁machinery	-9.65566
▁para	-9.6557
▁consumption	-9.65602
dia	-9.65643
illa	-9.6579
je	-9.65816
▁ju	-9.65874
▁concept	-9.65891
▁angle	-9.65916
▁integrated	-9.65944
▁welding	-9.6596
cor	-9.65998
▁injection	-9.66084
ham	-9.66151
ities	-9.66152
▁build	-9.66214
▁blu	-9.6627
▁bicycle	-9.66292
▁started	-9.66399
▁thread	-9.66413
▁hospital	-9.66416
▁became	-9.66449
▁mor	-9.66563
▁feet	-9.6661
);	-9.66672
▁designer	-9.66719
▁gen	-9.6673
▁mal	-9.66816
▁52	-9.66841
▁nylon	-9.66857
▁rack	-9.66896
▁pl	-9.66939
▁roman	-9.66949
▁sell	-9.66984
▁cash	-9.66986
▁van	-9.67024
▁tree	-9.67062
▁gre	-9.67106
▁bring	-9.67136
▁czech	-9.67139
hz	-9.67153
nic	-9.67169
▁relax	-9.67175
▁bonus	-9.6725
▁necessary	-9.67302
▁breakfasts	-9.67328
des	-9.67342
▁col	-9.67424
▁signal	-9.67503
▁detail	-9.67548
▁dvd	-9.67548
oo	-9.67586
▁degree	-9.67606
max	-9.67647
▁mid	-9.67698
▁ideas	-9.67698
lie	-9.67709
lab	-9.67759
▁inflatable	-9.67794
▁admin	-9.67836
▁connector	-9.67859
▁entry	-9.6797
▁wifi	-9.68027
▁units	-9.6826
▁interview	-9.68303
▁lost	-9.68328
150	-9.68371
▁departure	-9.68373
▁ensure	-9.68373
sen	-9.68378
▁ever	-9.68402
pu	-9.68446
▁practice	-9.68453
ore	-9.68503
▁outlet	-9.68553
ky	-9.68559
▁cooking	-9.68665
▁leg	-9.6867
▁tap	-9.68764
▁optional	-9.68785
italy	-9.6881
ju	-9.68843
▁adult	-9.68982
▁motorcycle	-9.68999
tec	-9.69023
bus	-9.69053
▁ben	-9.69055
▁ancient	-9.69076
form	-9.69079
▁pr	-9.69282
▁word	-9.69283
▁martin	-9.69294
▁cylinder	-9.69326
▁sardinia	-9.69326
tan	-9.69337
qua	-9.69403
▁vertical	-9.69454
ker	-9.69462
▁flash	-9.69495
▁gate	-9.69544
▁os	-9.69625
▁copper	-9.69633
berg	-9.69671
▁bor	-9.69682
app	-9.6972
▁th	-9.69802
▁boxes	-9.69844
▁amount	-9.69851
▁session	-9.6987
▁bright	-9.69965
▁foundation	-9.70039
▁yacht	-9.70057
▁engineering	-9.70141
yo	-9.70205
▁bri	-9.70261
▁2005	-9.70301
▁manufacturing	-9.70332
▁worldwide	-9.70385
▁prize	-9.70391
▁monthly	-9.70513
▁coil	-9.70559
9.00	-9.70566
▁adventure	-9.70671
ens	-9.7071
▁cooling	-9.70757
▁shirt	-9.70781
▁rules	-9.70789
▁silicone	-9.70793
▁union	-9.70848
▁46	-9.70926
▁dimension	-9.70951
▁mono	-9.70986
▁straight	-9.71039
▁received	-9.71045
ata	-9.711
▁sleep	-9.71126
▁bearing	-9.71145
ms	-9.71149
▁lab	-9.71213
▁means	-9.7122
▁uv	-9.71407
▁along	-9.71418
▁certified	-9.71562
▁allow	-9.71565
▁lunch	-9.71616
ell	-9.71618
▁walking	-9.71639
▁independent	-9.71646
▁cuisine	-9.71689
point	-9.7173
▁blood	-9.71732
▁distribution	-9.7186
tv	-9.71905
▁canada	-9.7192
▁candle	-9.72007
▁maria	-9.72009
▁boots	-9.72027
▁voice	-9.72047
▁father	-9.72099
vin	-9.72165
▁circuit	-9.72203
▁monitoring	-9.72206
ative	-9.7221
▁zone	-9.7229
▁gal	-9.72293
gan	-9.72295
open	-9.72364
▁removal	-9.72418
▁least	-9.72452
ku	-9.72457
▁cycle	-9.72494
▁pcb	-9.72495
ug	-9.72505
▁roma	-9.72505
▁fitness	-9.72574
amp	-9.72588
▁death	-9.72594
▁served	-9.72618
▁lines	-9.72628
▁investment	-9.72662
▁marine	-9.72678
▁41	-9.72691
▁reg	-9.72692
▁complex	-9.7272
▁document	-9.72756
▁ste	-9.7276
▁record	-9.72777
▁110	-9.72793
▁movement	-9.72816
▁cancel	-9.72828
ble	-9.72843
ving	-9.72913
▁rich	-9.7294
▁middle	-9.7294
▁cute	-9.7296
▁arab	-9.72969
▁usage	-9.72972
ada	-9.73005
▁mu	-9.7304
▁notes	-9.73044
▁documents	-9.73075
▁normal	-9.73189
▁plug	-9.73256
▁dec	-9.73332
tter	-9.73369
▁seal	-9.73405
ors	-9.73414
▁able	-9.73439
ally	-9.73455
▁forest	-9.73457
ung	-9.73502
▁ed	-9.73514
▁pocket	-9.73543
mat	-9.73548
izing	-9.73558
▁chf	-9.7359
▁queen	-9.7363
▁hat	-9.73716
▁ft	-9.73721
fin	-9.73727
▁yourself	-9.73769
▁220	-9.73776
▁screw	-9.73778
▁posts	-9.73814
sc	-9.73869
▁ec	-9.73904
yl	-9.73947
▁called	-9.73973
eo	-9.74065
▁produced	-9.74082
▁pot	-9.74143
▁problem	-9.74143
ros	-9.74176
▁brake	-9.74221
▁fee	-9.74225
▁presentation	-9.74287
via	-9.74298
▁54	-9.74316
-01	-9.74359
▁(10	-9.74388
▁(8	-9.74405
▁ultra	-9.74431
▁effective	-9.7453
ef	-9.74536
ena	-9.74587
are	-9.74686
▁resistant	-9.7472
▁edge	-9.74748
vis	-9.74756
▁foam	-9.74812
uff	-9.74826
ves	-9.74951
▁memory	-9.74951
home	-9.74995
high	-9.75006
ay	-9.75007
▁programme	-9.75049
▁washing	-9.75098
▁lower	-9.75102
ray	-9.75207
matic	-9.75218
▁sites	-9.75275
ins	-9.75366
▁roof	-9.75376
▁corner	-9.75462
▁nearby	-9.75471
▁converter	-9.75558
▁cinema	-9.75619
don	-9.75622
▁cultural	-9.75643
▁allows	-9.75697
rate	-9.7573
sis	-9.75876
▁coming	-9.75933
▁poker	-9.75945
▁secret	-9.75952
▁count	-9.76042
ori	-9.76149
ski	-9.76226
view	-9.76239
▁pra	-9.76243
▁nov	-9.76249
▁gran	-9.76283
par	-9.76326
llo	-9.76393
ward	-9.7646
▁sauce	-9.76466
▁rated	-9.76488
▁mount	-9.76517
▁virgin	-9.76529
ox	-9.76536
ev	-9.76614
▁wish	-9.76621
▁insurance	-9.7668
▁85	-9.76691
▁spot	-9.76692
kin	-9.76698
▁opera	-9.76709
wi	-9.76741
▁tre	-9.76758
▁dur	-9.76829
ct	-9.7688
▁fla	-9.76885
▁true	-9.76944
▁held	-9.76969
new	-9.7701
int	-9.77024
▁challenge	-9.7704
▁ep	-9.77049
▁interested	-9.77064
▁turin	-9.77084
/3	-9.77095
sk	-9.77122
▁jewelry	-9.77133
▁forum	-9.77204
▁smooth	-9.77221
ene	-9.77243
az	-9.77313
ual	-9.77315
▁takes	-9.77463
▁visual	-9.77585
▁sole	-9.77593
ik	-9.77595
▁goods	-9.77603
▁rain	-9.77681
cut	-9.77697
▁adapter	-9.77717
uc	-9.77739
▁cra	-9.77755
▁49	-9.77777
ey	-9.77785
log	-9.77887
sion	-9.77892
act	-9.77958
ette	-9.77964
▁jan	-9.77966
250	-9.78176
▁aqua	-9.78185
▁knowledge	-9.78218
well	-9.7824
ub	-9.78273
ira	-9.78316
▁prevent	-9.78487
gra	-9.78503
[	-9.78546
etti	-9.78604
▁hidden	-9.7863
▁lady	-9.78638
001	-9.78665
▁waste	-9.78699
▁urban	-9.78718
ale	-9.78719
ese	-9.78778
▁russia	-9.78793
porn	-9.78796
-7	-9.7881
▁growth	-9.78823
elle	-9.78837
hr	-9.78839
ible	-9.78843
▁reduction	-9.78872
▁evening	-9.78923
▁others	-9.78968
▁dollar	-9.79119
▁entrance	-9.79134
▁explore	-9.79303
▁quote	-9.79328
▁students	-9.79329
hot	-9.79339
av	-9.79367
▁running	-9.79426
▁compatible	-9.7946
▁dining	-9.79464
▁doors	-9.79522
▁https	-9.79524
▁pair	-9.79632
lio	-9.7964
▁vision	-9.79675
nia	-9.79685
▁theme	-9.79714
▁christ	-9.79772
▁reality	-9.79794
▁focus	-9.79829
▁force	-9.7984
▁sim	-9.79869
lon	-9.79872
▁changes	-9.79886
▁ku	-9.79919
▁promotion	-9.79946
▁scale	-9.79952
▁technologies	-9.79998
▁cons	-9.80042
▁sure	-9.80087
▁similar	-9.80105
▁180	-9.80125
▁demo	-9.80177
▁ki	-9.80256
etta	-9.80283
▁innovative	-9.80338
▁specifications	-9.80365
bel	-9.80398
▁fees	-9.80402
▁3*	-9.80409
▁orders	-9.80425
▁mix	-9.80454
old	-9.80465
▁shows	-9.80466
▁container	-9.80514
▁makes	-9.80521
▁score	-9.80543
▁creation	-9.80594
eur	-9.80615
▁resolution	-9.80679
otto	-9.80748
▁sugar	-9.80777
▁threesome	-9.8083
▁ref	-9.8086
▁brands	-9.80879
▁earth	-9.80919
▁battle	-9.80949
▁xxx	-9.80951
▁advantages	-9.80987
ren	-9.81015
▁forward	-9.8103
▁favorite	-9.81041
▁mont	-9.81064
▁ability	-9.81066
sur	-9.81229
▁palermo	-9.81321
▁compact	-9.81331
gia	-9.81361
tz	-9.81395
▁hydro	-9.81433
▁instructions	-9.81458
dis	-9.81499
▁marco	-9.81542
▁characteristics	-9.81716
fu	-9.81747
▁impact	-9.81765
▁scene	-9.81797
▁brother	-9.81798
▁medicine	-9.81802
▁4*	-9.81815
▁romantic	-9.81839
ico	-9.81895
▁gps	-9.81954
▁david	-9.81999
2018	-9.82031
▁developed	-9.82052
▁croatia	-9.82172
▁agree	-9.8218
▁difference	-9.82218
▁africa	-9.8222
▁reserve	-9.82341
▁1.5	-9.82343
▁annual	-9.8241
▁toilet	-9.82434
cer	-9.82525
▁10%	-9.82543
ense	-9.8263
▁brochure	-9.82646
▁chrome	-9.82648
▁teacher	-9.82672
▁universal	-9.82694
▁answer	-9.82736
2017	-9.8274
▁wheels	-9.82755
120	-9.8278
▁variety	-9.82789
▁bottom	-9.82837
ib	-9.82862
▁famous	-9.82932
▁mold	-9.82975
▁diesel	-9.8303
read	-9.83057
▁durable	-9.83164
▁va	-9.83182
▁produce	-9.83211
▁alarm	-9.83337
ele	-9.83361
-11	-9.83495
▁electro	-9.83498
etto	-9.8355
/10	-9.83555
▁ocean	-9.83556
▁campaign	-9.83604
▁military	-9.83604
black	-9.83658
del	-9.83663
▁replacement	-9.83669
▁panels	-9.83754
▁talk	-9.83758
▁architecture	-9.83803
▁ceiling	-9.83845
▁police	-9.83861
ect	-9.83909
▁slide	-9.83945
▁coated	-9.83946
▁inc	-9.83969
▁role	-9.83977
ltd	-9.83986
▁purposes	-9.83997
ture	-9.84045
▁sicily	-9.84086
lt	-9.84091
▁chip	-9.84133
ula	-9.8414
▁feed	-9.84224
▁essential	-9.84231
low	-9.84234
▁hp	-9.84246
▁pizza	-9.84247
▁kar	-9.84255
link	-9.84301
▁4*,	-9.84376
▁reading	-9.84428
▁chart	-9.84553
▁flight	-9.84573
▁terminal	-9.84619
▁rail	-9.84663
▁47	-9.84688
▁(4)	-9.84742
▁problems	-9.84772
▁offering	-9.84799
▁cro	-9.84807
▁boy	-9.84831
cast	-9.8491
▁5-	-9.8495
▁creative	-9.84968
iv	-9.84978
▁australia	-9.84985
▁books	-9.85004
pdf	-9.8508
▁polish	-9.85085
▁silk	-9.85102
▁career	-9.85118
▁ir	-9.85121
▁et	-9.85141
▁jul	-9.85184
▁fer	-9.85223
▁pets	-9.85278
▁bill	-9.85329
▁treat	-9.85341
▁racing	-9.85353
▁status	-9.85354
▁drink	-9.85362
▁collect	-9.85428
▁marble	-9.8548
▁entertainment	-9.85498
▁tutorial	-9.85503
▁kw	-9.85508
▁palm	-9.85565
▁agreement	-9.85598
cher	-9.85676
with	-9.85742
pin	-9.85791
▁tagged	-9.85793
▁58	-9.8588
▁measurement	-9.85886
ade	-9.85908
▁piano	-9.85952
▁meter	-9.85975
▁superior	-9.85992
▁economic	-9.8602
▁tasting	-9.8604
▁cake	-9.86092
from	-9.86152
▁tin	-9.86184
▁ul	-9.86223
cul	-9.8627
▁morning	-9.86344
▁sleeve	-9.86353
▁library	-9.86384
ign	-9.86445
▁tattoo	-9.86489
uri	-9.86521
▁really	-9.86554
tation	-9.8657
▁geo	-9.86621
▁offered	-9.86675
▁tele	-9.86782
▁mil	-9.86834
ery	-9.86939
▁railway	-9.86943
▁journey	-9.87079
▁eva	-9.87136
▁apr	-9.87199
▁bon	-9.87207
color	-9.87212
▁icon	-9.87238
▁minute	-9.87308
▁porto	-9.87332
▁paul	-9.87344
▁having	-9.87444
mal	-9.87458
▁glasses	-9.87519
▁awards	-9.87571
ima	-9.87573
▁artist	-9.87668
▁nail	-9.87673
▁cycling	-9.87679
▁attack	-9.8768
▁moscow	-9.87779
▁split	-9.87813
head	-9.87833
▁desk	-9.8788
▁ly	-9.87884
▁mission	-9.87942
▁worth	-9.8796
ua	-9.8801
▁issue	-9.88017
tur	-9.88037
design	-9.88116
web	-9.88218
▁bel	-9.88243
▁0.0	-9.88245
▁bad	-9.88245
med	-9.88263
▁loading	-9.88264
▁mel	-9.88277
▁dual	-9.88305
▁dildo	-9.88342
▁rear	-9.88378
▁jun	-9.88564
▁cy	-9.88582
▁apps	-9.88641
▁song	-9.88711
▁escort	-9.88737
inter	-9.88786
▁3*,	-9.88836
ised	-9.88987
▁landscape	-9.88993
▁fields	-9.89236
/12	-9.89256
1000	-9.89268
▁ingredients	-9.89373
▁fax	-9.89413
ball	-9.89491
▁deluxe	-9.8955
▁players	-9.89552
▁purpose	-9.89597
▁coat	-9.89606
">	-9.89688
▁lace	-9.89709
uni	-9.89712
▁given	-9.89712
▁shuttle	-9.89807
▁expo	-9.89862
▁(9	-9.89877
iz	-9.89922
stone	-9.89927
▁fund	-9.89933
water	-9.90028
gna	-9.90046
▁advice	-9.90117
▁99	-9.90171
sky	-9.90294
▁demand	-9.90374
life	-9.90445
▁suit	-9.90486
▁pain	-9.90505
zza	-9.90567
▁separate	-9.90681
▁idea	-9.90711
style	-9.9072
str	-9.9073
▁bell	-9.90736
▁eat	-9.90744
▁lounge	-9.90788
▁condition	-9.90831
▁juice	-9.90853
pan	-9.91061
▁comes	-9.91079
▁launch	-9.91083
▁56	-9.91112
ration	-9.91161
xi	-9.91168
▁pisa	-9.91251
▁grow	-9.91285
700	-9.91307
▁planning	-9.91422
info	-9.91478
▁oct	-9.91493
▁damage	-9.91597
und	-9.91661
▁63	-9.91681
ass	-9.91683
▁yoga	-9.91703
▁christian	-9.91805
play	-9.91843
▁sat	-9.91905
▁brush	-9.91911
▁gel	-9.91929
▁acrylic	-9.91932
,50	-9.92025
spi	-9.92048
▁formula	-9.92095
▁es	-9.92116
cap	-9.92181
teen	-9.92191
▁brass	-9.92204
▁mind	-9.92218
▁getting	-9.92227
▁database	-9.92234
▁parties	-9.92292
▁foreign	-9.92296
spect	-9.92416
▁360	-9.92457
tti	-9.92539
▁contains	-9.92546
load	-9.92546
non	-9.92554
▁tennis	-9.92559
▁owner	-9.92592
▁thai	-9.92592
▁sep	-9.92598
▁often	-9.92744
▁temp	-9.92771
▁2.0	-9.92853
din	-9.92854
▁59	-9.92872
mark	-9.92889
▁kr	-9.9289
vol	-9.92922
▁2003	-9.92958
▁smoking	-9.92969
bre	-9.93023
▁yu	-9.93137
▁paid	-9.9318
▁2004	-9.93247
ular	-9.93258
-15	-9.93289
▁magnetic	-9.93298
▁57	-9.93308
▁consent	-9.93318
shi	-9.93421
lar	-9.93447
▁elements	-9.9347
▁overview	-9.93502
▁transparent	-9.93508
▁advance	-9.93527
▁trail	-9.93546
▁bl	-9.9355
▁oven	-9.93586
ified	-9.93614
burg	-9.93636
▁moon	-9.93711
▁saw	-9.93815
cr	-9.93829
▁ya	-9.93862
▁pat	-9.93871
▁hire	-9.93893
▁fly	-9.93894
ali	-9.93899
▁longer	-9.93925
pr	-9.93983
pack	-9.93984
▁tip	-9.93995
▁greek	-9.93997
ude	-9.9405
ient	-9.94082
▁contemporary	-9.94094
mas	-9.94123
ora	-9.94145
▁ok	-9.94196
▁fix	-9.9421
ov	-9.94253
▁trust	-9.94255
▁seven	-9.94257
ions	-9.94258
▁clip	-9.94303
year	-9.94368
▁steam	-9.94421
▁dont	-9.94423
city	-9.9446
nc	-9.94467
▁pornstar	-9.94483
rn	-9.94486
▁requests	-9.9449
tr	-9.94507
sch	-9.94523
▁wave	-9.94539
▁continuous	-9.94576
▁tro	-9.94644
▁69	-9.94656
▁direction	-9.9467
▁pasta	-9.94741
ship	-9.94745
▁yet	-9.94789
▁alternative	-9.94791
pal	-9.94811
hd	-9.94827
▁cod	-9.94866
▁gun	-9.94892
▁backup	-9.94921
▁featured	-9.94922
▁sta	-9.94936
▁protected	-9.94957
lli	-9.94997
▁statement	-9.95067
ville	-9.9508
▁generation	-9.95122
▁72	-9.95126
▁words	-9.95137
▁350	-9.95159
▁housing	-9.95278
part	-9.95278
▁india	-9.95337
▁sm	-9.95342
▁expert	-9.95369
▁played	-9.954
/2018	-9.95448
▁dan	-9.95449
▁joint	-9.95596
lam	-9.95611
▁string	-9.95635
rich	-9.95649
▁vehicles	-9.95727
nce	-9.95736
▁profit	-9.95752
anti	-9.95771
▁animal	-9.95837
▁forming	-9.95851
▁stick	-9.95882
▁taxi	-9.95885
girl	-9.9591
▁51	-9.95914
▁cer	-9.9597
▁ban	-9.96037
/8	-9.96061
▁53	-9.96068
fit	-9.96107
-9	-9.96117
▁galvanized	-9.96206
▁recent	-9.96224
fl	-9.96248
pers	-9.96304
▁learning	-9.96368
tube	-9.96406
rio	-9.96515
ral	-9.96527
▁got	-9.96572
table	-9.96574
▁hands	-9.96669
▁layer	-9.96744
▁tight	-9.96771
▁pole	-9.96821
▁youtube	-9.96821
▁avoid	-9.96862
110	-9.969
ida	-9.96914
▁amazing	-9.96968
down	-9.97005
/19	-9.97023
▁hose	-9.97066
▁garda	-9.97142
eria	-9.97198
▁fishing	-9.97222
▁leader	-9.97223
/20	-9.97234
▁done	-9.97258
▁wet	-9.97262
tive	-9.97287
▁advantage	-9.97303
▁reservations	-9.97337
▁filling	-9.97361
▁championship	-9.97412
▁optical	-9.97426
▁pattern	-9.97428
gg	-9.97441
white	-9.97443
▁retail	-9.97537
▁ze	-9.97556
▁emergency	-9.97629
ona	-9.97631
▁tan	-9.97675
▁wordpress	-9.97694
not	-9.97702
▁tent	-9.97793
mt	-9.978
bed	-9.97815
tta	-9.97827
▁strategy	-9.97851
▁charger	-9.97915
sy	-9.97947
▁eyes	-9.97954
▁asia	-9.97969
▁ram	-9.98001
(2	-9.98012
▁traffic	-9.98073
▁bronze	-9.98085
field	-9.98113
▁cord	-9.98141
▁erotic	-9.98164
▁perform	-9.98177
▁fur	-9.98232
▁supported	-9.98264
▁automation	-9.98352
▁edit	-9.98421
▁hardware	-9.98492
▁turkish	-9.98519
list	-9.98537
▁something	-9.98577
▁ray	-9.98587
▁spread	-9.98591
▁chamber	-9.9864
pen	-9.98644
▁rice	-9.98667
tar	-9.98695
▁gym	-9.98728
▁recommend	-9.98736
▁unlimited	-9.98742
long	-9.98746
▁han	-9.98798
▁efficient	-9.98818
ties	-9.98827
bag	-9.98876
▁dynamic	-9.9889
win	-9.98903
▁couples	-9.98924
▁str	-9.98956
▁sorrento	-9.98967
▁photography	-9.98984
▁guaranteed	-9.99002
stra	-9.99012
▁cru	-9.9902
▁exercise	-9.99023
▁ear	-9.99031
gon	-9.99047
▁distributor	-9.99079
ute	-9.99107
card	-9.99191
lm	-9.99201
▁inspection	-9.99248
▁placed	-9.99308
▁shell	-9.99321
▁instant	-9.99366
▁theater	-9.99378
▁zip	-9.99392
▁incl	-9.99474
ick	-9.99508
▁preparation	-9.99529
▁prague	-9.99538
py	-9.99581
▁army	-9.99586
▁recipes	-9.99676
▁euros	-9.9972
▁retro	-9.99722
bol	-9.99732
2019	-9.99807
▁gloves	-9.99893
▁budget	-9.99926
▁tech	-9.99952
▁concert	-9.99981
▁hol	-9.99985
▁triple	-10.0002
▁reliable	-10.001
▁appearance	-10.001
▁temple	-10.0012
▁seconds	-10.0013
qu	-10.0014
▁contest	-10.0017
▁connected	-10.0021
▁faq	-10.0023
▁setting	-10.0028
▁serve	-10.0031
▁oral	-10.0034
▁going	-10.0038
▁stories	-10.0045
post	-10.0045
ama	-10.0045
▁moment	-10.0046
▁hold	-10.005
▁pur	-10.0051
▁promote	-10.0053
▁convenient	-10.0061
▁bro	-10.0066
▁clock	-10.0067
▁studies	-10.0067
cho	-10.0069
▁(5)	-10.007
▁24-	-10.0075
▁hostels	-10.008
pass	-10.0081
cur	-10.0082
mic	-10.0083
▁cad	-10.0084
len	-10.0089
aria	-10.0096
▁dam	-10.0099
▁historic	-10.0102
▁adhesive	-10.0102
."	-10.0105
▁11.	-10.0107
▁hairy	-10.0108
▁index	-10.0109
▁transmission	-10.0112
▁serving	-10.0113
▁luggage	-10.0118
ob	-10.0121
db	-10.0122
▁reasons	-10.0123
ose	-10.0124
▁nike	-10.0124
8.00	-10.0126
ili	-10.0127
▁cases	-10.013
▁element	-10.013
▁sizes	-10.0135
▁cc	-10.0139
▁took	-10.014
▁disabled	-10.0143
▁died	-10.0145
gno	-10.015
▁import	-10.0152
gio	-10.0152
▁currency	-10.0152
▁elevator	-10.0152
▁levels	-10.0153
▁stores	-10.0154
▁scar	-10.0156
▁guided	-10.0161
▁sen	-10.0161
▁command	-10.0166
hen	-10.0167
▁neck	-10.0169
▁tab	-10.0183
▁birth	-10.0183
nes	-10.0192
▁sitemap	-10.0192
▁dust	-10.0198
900	-10.0199
▁ride	-10.0203
you	-10.0205
▁tur	-10.0206
gy	-10.0206
▁inner	-10.0208
▁too	-10.0209
▁response	-10.021
▁bisexual	-10.0216
▁ways	-10.0216
▁trial	-10.0218
▁fri	-10.022
ique	-10.022
0.0	-10.0225
▁commission	-10.0228
▁sauna	-10.0229
▁integration	-10.0234
▁apk	-10.0237
lia	-10.024
▁character	-10.024
▁introduction	-10.0256
ition	-10.0257
▁cities	-10.0258
▁wash	-10.0264
/1	-10.0265
▁charging	-10.0265
▁channels	-10.0271
▁istanbul	-10.0274
▁votes	-10.0274
▁decorative	-10.0274
▁hole	-10.0277
nch	-10.0286
▁came	-10.0289
ken	-10.0291
▁deal	-10.0292
▁insulation	-10.0293
▁michael	-10.0297
▁letter	-10.0302
▁refer	-10.0305
ging	-10.0309
right	-10.0316
▁ol	-10.032
▁healthy	-10.032
▁lt	-10.032
▁packages	-10.0321
avi	-10.0323
▁porn	-10.0325
▁sar	-10.0326
▁hits	-10.033
▁stretch	-10.0338
pon	-10.0339
▁theatre	-10.0341
▁140	-10.0345
-18	-10.0346
▁government	-10.0351
▁powerful	-10.0351
▁throughout	-10.0353
▁portal	-10.0356
▁schedule	-10.0368
▁noise	-10.0371
▁congress	-10.0373
▁125	-10.0378
bro	-10.0379
▁amenities	-10.0379
ction	-10.0379
▁pallet	-10.0381
tin	-10.0381
▁slip	-10.0389
▁families	-10.0391
▁mediterranean	-10.0391
▁shops	-10.0395
▁counter	-10.0402
▁sk	-10.0402
▁leisure	-10.0403
▁$2	-10.0409
/5	-10.0416
▁austria	-10.0416
▁enterprise	-10.042
▁meals	-10.0426
▁daughter	-10.0427
proof	-10.0431
▁pull	-10.0438
▁sh	-10.0439
▁civil	-10.0444
ante	-10.0447
100%	-10.0448
▁guy	-10.0454
▁dia	-10.046
pet	-10.046
-2019	-10.0462
▁textile	-10.0473
▁composition	-10.0474
ova	-10.0475
▁daniel	-10.0475
▁reduced	-10.0476
▁entire	-10.048
▁behind	-10.048
▁wo	-10.0481
see	-10.0481
▁sam	-10.0485
▁attention	-10.0486
nal	-10.0487
▁automatically	-10.0489
▁buffet	-10.0498
▁tray	-10.0501
▁pearl	-10.0506
istic	-10.0508
▁plaza	-10.0511
▁95	-10.0513
▁writing	-10.0517
▁hook	-10.053
▁rec	-10.0537
ius	-10.0539
▁62	-10.054
cat	-10.0545
tain	-10.0547
▁fence	-10.055
▁spirit	-10.0551
-03	-10.0553
lim	-10.056
▁nurse	-10.0564
▁corn	-10.0564
:15	-10.0565
▁filters	-10.0578
▁drawing	-10.0582
▁economy	-10.0582
▁66	-10.0582
ax	-10.0584
▁tire	-10.0587
▁standards	-10.0587
▁duty	-10.0587
▁vienna	-10.0589
▁slot	-10.0594
dra	-10.0595
▁configuration	-10.06
▁des	-10.0607
ille	-10.0609
▁upper	-10.0609
made	-10.0622
video	-10.0623
▁concrete	-10.0624
▁cla	-10.0628
roll	-10.0629
▁pri	-10.063
▁2)	-10.063
▁finished	-10.0633
▁pornhub	-10.0636
▁object	-10.0637
/2	-10.0637
▁gain	-10.0639
sol	-10.064
▁prime	-10.064
▁160	-10.0646
xxx	-10.0647
lum	-10.065
▁resin	-10.0651
▁mexico	-10.0654
▁din	-10.0668
▁feb	-10.0669
▁specification	-10.0671
ned	-10.0671
▁functions	-10.068
▁satellite	-10.069
▁league	-10.069
▁combination	-10.069
0.000	-10.0691
ika	-10.0697
pri	-10.0702
▁alcohol	-10.0702
▁flag	-10.0707
▁tar	-10.0709
-30	-10.0713
▁ios	-10.0716
▁ur	-10.0716
▁instruments	-10.0719
▁bottles	-10.0722
▁browse	-10.0723
▁0.5	-10.0725
▁firm	-10.0727
▁push	-10.0735
▁eng	-10.074
/06	-10.0745
ei	-10.0747
▁homemade	-10.0749
▁tokyo	-10.0752
▁taken	-10.0755
▁robot	-10.0761
▁50%	-10.0765
▁drill	-10.0771
▁vs	-10.0779
▁heritage	-10.0788
▁dates	-10.0792
uck	-10.0793
▁beer	-10.0794
gas	-10.0797
▁sq	-10.0798
based	-10.0801
▁ebony	-10.0803
zu	-10.0805
▁carlo	-10.0811
▁sister	-10.0813
▁1)	-10.0814
▁pal	-10.0815
ulate	-10.0817
power	-10.0818
▁squirt	-10.0819
▁spy	-10.0823
▁ser	-10.0825
▁everyone	-10.0825
var	-10.0826
▁gla	-10.0827
▁0.1	-10.0829
▁gt	-10.0834
gre	-10.0836
▁(6)	-10.0839
▁wool	-10.0839
▁depth	-10.084
▁basket	-10.0843
▁tournament	-10.0843
▁directions	-10.0844
▁says	-10.0847
▁riding	-10.0848
order	-10.0848
ches	-10.085
▁institute	-10.0854
▁relationship	-10.0856
▁(18	-10.0861
▁76	-10.0865
night	-10.0865
▁late	-10.0877
▁promotions	-10.0877
ency	-10.0882
▁taking	-10.0882
▁overall	-10.0882
contact	-10.0886
▁sy	-10.0887
▁destination	-10.0891
-02	-10.0891
ney	-10.0892
rus	-10.0893
▁facial	-10.0903
▁aid	-10.0904
▁granny	-10.0907
live	-10.0909
zzo	-10.091
▁exp	-10.0915
▁academy	-10.0918
lock	-10.0921
rol	-10.0921
english	-10.0923
▁cruise	-10.0924
▁thought	-10.0931
-04	-10.0934
▁excursions	-10.0938
tone	-10.0958
▁gets	-10.0961
bri	-10.0962
▁reader	-10.0962
▁uses	-10.0964
▁leading	-10.0964
▁shared	-10.0964
▁costa	-10.0965
▁panoramic	-10.0967
nm	-10.0973
iano	-10.0982
▁2.5	-10.0983
▁develop	-10.0984
▁maintain	-10.0989
▁higher	-10.0989
rk	-10.0992
▁transportation	-10.0996
mini	-10.0997
▁rub	-10.1
sport	-10.1006
oid	-10.1006
▁clar	-10.1015
▁artists	-10.1015
▁hill	-10.1031
▁applied	-10.1043
▁canvas	-10.1044
▁upgrade	-10.1046
/2017	-10.105
2015	-10.1056
▁cloth	-10.1058
ici	-10.1059
▁68	-10.1061
nova	-10.1067
ever	-10.1069
▁ky	-10.1069
ich	-10.107
▁96	-10.1072
▁limit	-10.108
lc	-10.1081
▁kb	-10.1091
▁installed	-10.1092
▁column	-10.1093
▁physical	-10.1099
▁coupon	-10.1106
/03	-10.1108
▁rough	-10.111
▁mai	-10.1111
▁uniform	-10.1113
▁processes	-10.1114
▁shot	-10.1114
▁hy	-10.1122
▁deals	-10.1122
▁graphic	-10.1124
▁conversion	-10.1125
▁bdsm	-10.1126
▁shipment	-10.1128
▁approach	-10.1131
▁markets	-10.1135
▁cleaner	-10.1141
bin	-10.1143
▁junior	-10.115
▁playing	-10.1153
▁od	-10.1157
mann	-10.1162
▁weekend	-10.1165
▁dolomites	-10.1165
▁regulation	-10.1166
▁beam	-10.1168
▁130	-10.1172
service	-10.1176
▁mixed	-10.1176
▁quickly	-10.1181
▁au	-10.1182
▁secretary	-10.1184
▁gri	-10.1186
▁abs	-10.1188
▁700	-10.1188
▁smartphone	-10.119
pot	-10.1192
▁bowl	-10.1197
▁blade	-10.12
▁drum	-10.1201
enza	-10.1202
▁sets	-10.1202
▁miles	-10.1204
aro	-10.1205
/4	-10.1207
▁dubai	-10.1208
▁6,	-10.1212
last	-10.1215
▁rh	-10.1216
▁compressor	-10.1217
▁sleeping	-10.1221
▁programs	-10.1224
▁guesthouse	-10.123
▁pumps	-10.1233
▁iii	-10.1234
▁conf	-10.1235
ux	-10.1236
▁budapest	-10.124
▁rs	-10.1243
about	-10.1246
▁arc	-10.1247
▁ken	-10.125
code	-10.1251
9,00	-10.1252
vent	-10.1264
▁tablet	-10.1265
san	-10.1266
▁7,	-10.1266
▁jack	-10.1269
▁participate	-10.1278
▁elastic	-10.1278
dr	-10.128
▁crown	-10.1281
▁sol	-10.1282
▁shall	-10.1284
▁consulting	-10.1289
▁hub	-10.129
▁los	-10.1291
▁athens	-10.1293
▁seen	-10.1295
ification	-10.1303
late	-10.1305
▁driving	-10.131
▁necklace	-10.1311
eri	-10.1311
ising	-10.1312
▁vip	-10.1314
▁wonderful	-10.1325
▁values	-10.1329
▁com	-10.1334
ash	-10.1334
▁covered	-10.1334
▁pic	-10.1339
ological	-10.1346
▁bread	-10.1347
eng	-10.135
▁recover	-10.1353
▁10:00	-10.1357
▁seats	-10.1358
▁fra	-10.136
▁waiting	-10.1362
serv	-10.1366
▁laboratory	-10.1369
▁honey	-10.137
▁collections	-10.1374
▁gb	-10.1379
▁agent	-10.1388
▁amsterdam	-10.1388
▁scooter	-10.1388
▁forecast	-10.1389
▁aparthotel	-10.1396
▁woven	-10.1415
▁highest	-10.1418
soft	-10.1419
▁sw	-10.1419
▁linen	-10.1424
▁editor	-10.1434
how	-10.1434
lla	-10.1435
▁siena	-10.1436
▁television	-10.1441
▁upload	-10.1441
▁peace	-10.1447
▁machining	-10.1447
▁addition	-10.1455
▁division	-10.1456
tina	-10.1459
▁collaboration	-10.146
▁tracking	-10.1463
gli	-10.1466
▁turkey	-10.1467
rin	-10.1467
▁mol	-10.147
▁riviera	-10.1473
▁charm	-10.1473
hy	-10.1474
▁instrument	-10.1475
▁bang	-10.1475
oz	-10.1476
▁linear	-10.1476
bl	-10.1479
-07	-10.1482
▁drug	-10.1485
▁stable	-10.1488
▁yo	-10.1489
mont	-10.1492
▁cancellation	-10.1493
size	-10.1494
▁matter	-10.1495
ret	-10.1496
▁submit	-10.1505
▁champion	-10.1508
get	-10.1508
▁began	-10.1508
▁dresses	-10.151
▁antenna	-10.1513
other	-10.1515
▁sort	-10.1515
▁society	-10.1515
▁rev	-10.1516
▁vin	-10.1518
▁princess	-10.1519
▁tubes	-10.1522
▁warehouse	-10.1526
▁rope	-10.1531
rie	-10.1534
key	-10.1539
▁shi	-10.154
2016	-10.1551
!!	-10.1563
▁slow	-10.1567
▁sku	-10.1571
▁clothes	-10.1572
▁lens	-10.1572
▁peter	-10.158
▁mas	-10.1584
▁anna	-10.1584
love	-10.1591
▁holy	-10.1591
nese	-10.1601
ford	-10.1604
▁specialist	-10.1611
friendly	-10.1612
▁shoulder	-10.162
▁dating	-10.162
▁sin	-10.1627
▁latin	-10.1629
▁mary	-10.163
▁cook	-10.1633
1.5	-10.1634
vers	-10.1635
▁highly	-10.1635
▁fight	-10.1638
rp	-10.1639
▁sorted	-10.1642
▁desktop	-10.1647
▁sheets	-10.165
▁soul	-10.1652
▁density	-10.1652
▁beginning	-10.1653
▁proof	-10.1655
ucci	-10.1657
▁therapy	-10.1658
▁gray	-10.1665
▁named	-10.1667
▁needed	-10.1669
▁victoria	-10.167
▁backpack	-10.167
next	-10.1671
▁guitar	-10.1673
▁pla	-10.1675
▁regional	-10.1676
mu	-10.1676
▁ibiza	-10.1679
240	-10.168
▁30%	-10.1683
▁bear	-10.1685
▁territory	-10.1686
▁former	-10.1688
chan	-10.1689
▁bluetooth	-10.1692
/05	-10.1693
east	-10.1693
▁permanent	-10.1699
▁rosa	-10.1702
zer	-10.1703
▁ham	-10.1704
2000	-10.1706
▁extreme	-10.1706
onia	-10.1706
▁garage	-10.1711
-2018	-10.1712
▁thermo	-10.1721
▁je	-10.1722
220	-10.1726
▁remember	-10.1726
▁(12	-10.1728
▁mens	-10.1731
▁lan	-10.1735
gal	-10.1737
▁founded	-10.1737
▁skills	-10.1745
▁ads	-10.1746
▁61	-10.1749
▁visa	-10.1758
group	-10.1759
2.5	-10.176
▁completely	-10.1762
▁der	-10.1766
meter	-10.1767
oil	-10.1772
phy	-10.1775
mes	-10.1778
izer	-10.1779
▁suspension	-10.178
▁blow	-10.1782
▁beat	-10.1782
▁hong	-10.1786
dom	-10.179
pos	-10.1792
▁dar	-10.1796
▁competitive	-10.1798
▁musical	-10.18
▁respect	-10.1801
▁root	-10.1807
▁madrid	-10.1807
▁cannot	-10.1809
▁drilling	-10.1811
▁petersburg	-10.1814
▁visits	-10.1822
vat	-10.1822
▁domination	-10.1828
▁married	-10.1828
▁grill	-10.183
▁lord	-10.1832
▁mad	-10.1832
▁uncensored	-10.1834
▁youth	-10.1839
▁brief	-10.1842
▁met	-10.1848
▁tables	-10.1856
▁3000	-10.186
bike	-10.1862
tis	-10.1863
▁deliver	-10.1872
yn	-10.1877
dic	-10.1878
vel	-10.1886
▁blend	-10.1888
nor	-10.1889
▁maker	-10.1892
store	-10.1906
▁ger	-10.1906
bell	-10.1908
▁laundry	-10.191
▁background	-10.1911
▁enable	-10.1912
▁emails	-10.1921
▁chapter	-10.1923
▁67	-10.1931
▁capri	-10.1933
▁kong	-10.1941
▁slim	-10.1944
▁aim	-10.1947
▁def	-10.1947
▁chairs	-10.1948
▁developer	-10.195
ala	-10.1952
▁dealer	-10.1954
▁promotional	-10.196
bet	-10.196
fc	-10.1961
▁animals	-10.1963
▁detector	-10.1965
▁guard	-10.1965
▁den	-10.1965
mor	-10.1968
▁1/2	-10.1971
▁subscription	-10.1972
ii	-10.1974
:10	-10.1977
▁definition	-10.1978
▁humidity	-10.1978
▁paradise	-10.1978
▁andrea	-10.1979
▁salon	-10.198
ations	-10.1982
rr	-10.1982
▁;	-10.1986
band	-10.1988
▁lemon	-10.1989
▁occasion	-10.1999
▁hope	-10.2005
▁correct	-10.201
1.00	-10.2018
▁locations	-10.2018
▁pepper	-10.202
160	-10.2021
▁vegetable	-10.2024
▁council	-10.2027
▁certain	-10.2027
▁mould	-10.2028
▁jump	-10.2028
▁instead	-10.2034
▁motion	-10.2038
oro	-10.2038
▁coach	-10.2041
▁egg	-10.2041
-06	-10.2043
▁valves	-10.2048
▁samsung	-10.2055
screen	-10.2055
mate	-10.2061
▁om	-10.2061
▁mare	-10.2062
har	-10.2063
▁rank	-10.2074
▁hr	-10.208
▁cartoon	-10.2084
▁arts	-10.2089
▁responsible	-10.209
▁titanium	-10.209
▁dental	-10.2091
▁2002	-10.2097
uro	-10.2098
0000	-10.2098
▁wait	-10.2101
▁comm	-10.2104
aff	-10.2108
▁recording	-10.211
▁beaches	-10.2112
▁pom	-10.2119
▁88	-10.212
▁eli	-10.2122
▁records	-10.2124
rina	-10.2126
▁polo	-10.2128
tru	-10.213
▁drinks	-10.2133
ped	-10.2134
▁numbers	-10.2135
▁measure	-10.214
/07	-10.2144
▁rapid	-10.2151
anna	-10.2157
poli	-10.2163
▁accepted	-10.2166
▁sur	-10.2166
▁residential	-10.2167
▁almost	-10.2168
▁ali	-10.2173
test	-10.2175
▁magnet	-10.2179
hand	-10.218
▁automotive	-10.2181
▁symbol	-10.2181
▁sunny	-10.2181
▁possibility	-10.2188
▁doll	-10.2189
▁executive	-10.2195
▁sustainable	-10.2195
world	-10.2196
ants	-10.2198
▁particular	-10.2198
nn	-10.2208
▁pleasure	-10.2209
wear	-10.221
▁constant	-10.2211
▁scan	-10.2214
wall	-10.2218
▁horizontal	-10.222
sign	-10.2225
▁79	-10.2228
▁excellence	-10.223
▁kat	-10.2232
▁sant	-10.2235
▁spec	-10.2237
▁adjust	-10.2238
▁directory	-10.2243
▁population	-10.2252
oma	-10.2253
▁tr	-10.2253
mag	-10.2255
▁oh	-10.2257
▁exit	-10.2261
isation	-10.2262
▁salad	-10.2266
media	-10.2266
▁kill	-10.2267
▁apart	-10.2269
-05	-10.227
▁samples	-10.2271
ming	-10.2271
▁approved	-10.2271
▁detailed	-10.2272
▁draw	-10.2277
▁asked	-10.2285
blue	-10.2287
front	-10.2287
▁terra	-10.2287
▁swedish	-10.2287
▁mari	-10.229
▁barrier	-10.2295
term	-10.2295
▁quiet	-10.2296
▁pitch	-10.2307
▁factor	-10.2307
news	-10.231
▁functional	-10.2314
▁appointment	-10.2316
▁bass	-10.2316
▁believe	-10.2316
▁matt	-10.2318
/01	-10.2321
▁iv	-10.2322
▁450	-10.2328
▁fin	-10.2328
▁dutch	-10.233
▁pendant	-10.233
▁wh	-10.2331
▁castel	-10.2333
tex	-10.2335
▁joy	-10.2337
iti	-10.2339
▁colours	-10.234
▁shaft	-10.2341
▁piazza	-10.2344
▁trend	-10.2347
▁shoe	-10.2351
tea	-10.2353
aries	-10.2355
ening	-10.2357
▁immediately	-10.2358
▁coin	-10.2361
page	-10.2366
▁twitter	-10.2367
▁sil	-10.237
-09	-10.237
▁#1	-10.2371
▁sculpture	-10.2373
▁brazil	-10.2378
▁pregnant	-10.2387
▁buildings	-10.2393
chen	-10.2398
▁moncler	-10.2402
▁helmet	-10.2409
▁bulb	-10.2416
▁spin	-10.2421
zio	-10.2424
ear	-10.2424
lit	-10.2425
▁microwave	-10.2431
▁disease	-10.2436
▁figure	-10.2437
▁jersey	-10.2438
▁flavor	-10.2438
inch	-10.2444
▁rea	-10.2445
▁exhibitions	-10.2445
izz	-10.2449
▁900	-10.2451
ics	-10.2454
usa	-10.2455
▁cutter	-10.2457
▁autumn	-10.246
▁86	-10.2463
ban	-10.2463
▁cho	-10.2466
big	-10.2467
▁instruction	-10.2467
▁deck	-10.2471
▁towards	-10.2486
vic	-10.2488
▁13,	-10.2493
quality	-10.2498
▁planet	-10.2498
▁tam	-10.25
rent	-10.2505
▁collected	-10.2509
tine	-10.2513
▁*****	-10.2516
▁cabin	-10.252
▁changed	-10.252
▁handling	-10.2529
▁celebrate	-10.2532
▁norwegian	-10.2532
▁lessons	-10.2533
▁sav	-10.2533
▁98	-10.2533
park	-10.254
▁discounts	-10.2551
▁metro	-10.2556
▁ter	-10.2557
▁20%	-10.2558
▁nude	-10.256
▁gives	-10.256
ado	-10.2561
▁antonio	-10.2579
▁selling	-10.2581
▁flex	-10.2585
▁zero	-10.2586
▁->	-10.2586
▁busty	-10.2594
▁protective	-10.2596
▁mixer	-10.2598
▁batteries	-10.2598
▁depend	-10.2599
▁james	-10.2601
▁sharing	-10.2609
▁pneumatic	-10.2611
▁consult	-10.2614
nel	-10.2618
▁78	-10.2622
▁provider	-10.2623
mc	-10.2626
▁palazzo	-10.2628
▁contain	-10.2631
aki	-10.2632
▁benefit	-10.2635
▁ipad	-10.2635
▁harvest	-10.2643
care	-10.2643
host	-10.2645
▁hiking	-10.2645
▁refund	-10.2649
▁jet	-10.2651
▁modular	-10.2654
cra	-10.2657
▁accuracy	-10.2657
▁protein	-10.2657
▁dublin	-10.2665
▁oak	-10.2665
▁bars	-10.2668
▁sec	-10.267
▁stream	-10.2673
▁novel	-10.2675
▁les	-10.268
▁newsletters	-10.268
▁issues	-10.2681
-16	-10.2681
▁earn	-10.2682
▁seeds	-10.2684
▁lingerie	-10.2687
▁hills	-10.2692
▁ladies	-10.2695
hl	-10.2698
erie	-10.2699
▁0.2	-10.2699
▁lamps	-10.2702
▁optic	-10.2703
▁indicator	-10.2709
▁(7)	-10.2715
▁stamp	-10.2721
▁returns	-10.2723
▁george	-10.2725
▁(11	-10.2726
tto	-10.2728
▁cent	-10.2732
▁thin	-10.2732
▁finger	-10.2734
▁ms	-10.2735
▁bulk	-10.274
ons	-10.275
▁processed	-10.2755
nie	-10.2755
▁feedback	-10.277
gp	-10.2773
▁fittings	-10.2774
▁por	-10.2778
▁climate	-10.2784
▁(15	-10.2784
▁lip	-10.2785
ago	-10.2786
▁boats	-10.2786
▁boot	-10.2789
▁practical	-10.2791
▁followers	-10.2792
▁birthday	-10.2794
▁clamp	-10.2802
▁folding	-10.2804
▁confirm	-10.2805
▁zinc	-10.2808
▁ic	-10.281
▁av	-10.2812
▁steroids	-10.2815
▁korean	-10.282
pol	-10.282
▁funny	-10.282
rl	-10.2824
▁mira	-10.2828
▁mineral	-10.2833
mond	-10.2835
▁interactive	-10.2838
:45	-10.2845
▁louis	-10.285
▁vitamin	-10.2854
▁bug	-10.2857
▁lin	-10.2859
bio	-10.2862
▁till	-10.2865
▁survey	-10.2866
▁sd	-10.2874
▁schools	-10.2876
▁studios	-10.2879
nda	-10.2879
die	-10.2882
▁vis	-10.2888
-0	-10.289
▁stations	-10.2893
▁seduction	-10.2897
▁1.2	-10.29
dc	-10.2901
▁offices	-10.2901
▁cathedral	-10.2904
▁insertion	-10.2906
phone	-10.2907
!!!	-10.2914
▁plans	-10.2919
▁moving	-10.2921
▁increased	-10.2924
▁microsoft	-10.293
▁1200	-10.2934
▁yarn	-10.2936
▁treatments	-10.2937
ments	-10.2942
▁obtain	-10.2946
▁fre	-10.2949
▁inquiry	-10.295
▁reports	-10.2951
▁task	-10.2954
▁engineer	-10.2954
▁trailer	-10.2956
bc	-10.2959
▁farmhouse	-10.2961
▁pod	-10.2963
▁manufacture	-10.2966
▁messages	-10.2969
▁row	-10.297
▁fran	-10.2971
-08	-10.2972
39)	-10.2972
▁cosmetic	-10.2974
▁orgy	-10.2978
ock	-10.298
▁cardboard	-10.2982
▁grass	-10.2984
▁understand	-10.2986
▁dj	-10.2987
▁parameters	-10.2989
▁spend	-10.2998
▁mean	-10.3002
▁jeans	-10.3007
▁requirement	-10.3007
▁partnership	-10.3012
:59	-10.3015
kt	-10.3017
▁conduct	-10.3018
cell	-10.3018
▁atmosphere	-10.3019
▁danish	-10.302
▁creating	-10.3021
dildo	-10.3025
▁supplement	-10.303
▁84	-10.3032
▁hit	-10.3037
▁pala	-10.3039
▁affiliate	-10.3042
▁opportunities	-10.3042
▁2001	-10.3045
dan	-10.3046
▁films	-10.3047
▁walls	-10.3052
▁sn	-10.3052
▁objects	-10.3053
▁measuring	-10.3057
▁vr	-10.3064
▁basis	-10.3064
▁hyper	-10.3069
▁ros	-10.3074
▁aug	-10.3076
▁administration	-10.308
▁disk	-10.308
▁skip	-10.3082
cca	-10.3086
aging	-10.3088
▁transaction	-10.3088
▁carry	-10.3088
cept	-10.3092
▁tie	-10.3094
▁sponsor	-10.3095
▁simply	-10.3096
▁compare	-10.3101
▁antalya	-10.3103
▁paypal	-10.3105
▁spaces	-10.311
▁minor	-10.3116
▁pills	-10.3131
▁arabic	-10.3133
▁rare	-10.3137
▁mis	-10.314
▁operations	-10.314
▁producer	-10.314
▁gifts	-10.3141
▁analytics	-10.3142
zy	-10.3144
▁fil	-10.315
▁89	-10.315
ify	-10.315
▁shock	-10.3151
▁forex	-10.3153
",	-10.3155
▁surf	-10.3162
hp	-10.3163
▁knife	-10.3165
▁14,	-10.3171
▁lisbon	-10.3173
▁sup	-10.3174
master	-10.3174
ole	-10.3174
tric	-10.3175
▁museums	-10.3176
0.1	-10.3177
market	-10.3185
▁rf	-10.3189
34)	-10.3191
▁across	-10.3193
▁lodge	-10.3197
▁costume	-10.3199
▁established	-10.3199
▁personalized	-10.32
▁speak	-10.32
▁ran	-10.32
▁cop	-10.3201
map	-10.3204
▁monaco	-10.3204
▁combined	-10.3205
▁invest	-10.3206
▁77	-10.3214
best	-10.3216
lot	-10.3216
▁drivers	-10.3219
iff	-10.3226
cio	-10.3227
▁situation	-10.3228
▁nor	-10.3228
rest	-10.3238
▁largest	-10.3248
▁regarding	-10.3248
▁hospitality	-10.3249
▁portfolio	-10.3251
▁completed	-10.3252
cus	-10.3254
commerce	-10.3257
▁pharmaceutical	-10.3259
4.00	-10.3261
▁fridge	-10.3262
▁voyeur	-10.3267
▁disposable	-10.3267
▁thick	-10.3273
▁speaker	-10.3273
name	-10.3274
▁jordan	-10.3275
▁ireland	-10.3275
▁munich	-10.3275
▁diet	-10.3276
▁97	-10.3278
▁fitting	-10.3283
▁mega	-10.3284
▁repeat	-10.3284
▁moto	-10.3285
▁bondage	-10.3285
▁architect	-10.3289
▁contents	-10.3291
▁3.5	-10.33
bot	-10.3302
▁firenze	-10.3306
▁bet	-10.3307
▁finishing	-10.3309
mun	-10.3309
pur	-10.3311
▁ren	-10.3315
▁usually	-10.3319
▁mouth	-10.3327
osa	-10.3331
▁ye	-10.3334
ple	-10.3335
▁relaxation	-10.3336
▁craft	-10.334
-2017	-10.3341
▁tablets	-10.3347
ets	-10.3349
▁imperial	-10.3362
▁//	-10.3369
iana	-10.3369
▁shanghai	-10.337
▁mounted	-10.3372
▁empty	-10.3375
:20	-10.3376
villa	-10.3378
▁supports	-10.3384
▁stadium	-10.3386
▁dead	-10.3386
vid	-10.3387
▁tiles	-10.3389
▁intelligent	-10.3394
▁amp	-10.3396
lle	-10.3396
class	-10.3397
▁74	-10.3401
▁tile	-10.3407
▁weekly	-10.3408
▁satin	-10.341
▁flour	-10.3414
▁sunglasses	-10.3417
▁covers	-10.3421
▁3)	-10.3422
bor	-10.343
▁hum	-10.3431
▁aroma	-10.3434
▁scientific	-10.3441
▁wallpaper	-10.3442
▁older	-10.3445
▁earrings	-10.3449
▁wal	-10.345
▁folder	-10.3451
/2016	-10.3452
▁dial	-10.3453
▁convention	-10.3455
mac	-10.3464
▁positive	-10.3465
▁rotary	-10.3466
rum	-10.3468
▁hello	-10.347
▁tyrol	-10.3474
▁electronics	-10.3484
▁11,	-10.3485
▁seminar	-10.3491
▁(8)	-10.3491
▁bow	-10.3492
kov	-10.3493
▁vegetables	-10.3493
ais	-10.3494
▁gem	-10.3505
▁punta	-10.3506
▁bru	-10.3506
▁rfid	-10.3508
140	-10.3519
flex	-10.3523
▁affect	-10.3523
ase	-10.3524
▁goes	-10.3524
▁dragon	-10.3529
▁flavour	-10.353
▁sqm	-10.3532
▁william	-10.3538
▁patch	-10.3541
▁bond	-10.3543
type	-10.3543
▁mounting	-10.3543
▁sail	-10.355
▁colorful	-10.3551
▁joined	-10.3554
▁pun	-10.3556
bon	-10.3559
▁finally	-10.3562
▁10-	-10.3567
like	-10.3567
▁mosaic	-10.357
▁mall	-10.3581
▁zo	-10.3582
▁(14	-10.3583
▁successful	-10.3588
▁med	-10.3595
but	-10.3596
▁operate	-10.3596
/02	-10.3598
amo	-10.3603
▁snack	-10.3603
0.5	-10.3604
mil	-10.3605
▁legs	-10.3607
▁(+39)	-10.3611
▁cab	-10.3617
▁3.0	-10.3618
▁javascript	-10.3619
▁font	-10.3622
▁gio	-10.3623
▁1.0	-10.3623
▁african	-10.3627
col	-10.363
lux	-10.3631
▁compliance	-10.3635
▁classes	-10.3635
▁750	-10.3636
▁charter	-10.3637
▁characters	-10.3639
jpg	-10.3643
▁arrive	-10.3643
▁lib	-10.3646
*1	-10.3649
▁var	-10.3652
650	-10.3676
▁laptop	-10.3677
▁grain	-10.3677
phi	-10.3682
kk	-10.3684
print	-10.3684
▁claim	-10.3685
▁est	-10.3686
▁homepage	-10.3686
gging	-10.3691
activ	-10.3692
3%	-10.3696
enti	-10.3697
hard	-10.37
▁medal	-10.3701
▁clo	-10.3703
▁---	-10.3704
anda	-10.3706
▁jam	-10.3707
▁italiano	-10.371
▁sul	-10.3711
▁ji	-10.3714
:16	-10.372
▁ratio	-10.372
▁0.00	-10.3721
▁cafe	-10.3721
onic	-10.3722
▁lux	-10.3725
xx	-10.3727
▁payments	-10.3728
▁returned	-10.3728
▁procedure	-10.3733
▁kn	-10.3733
▁malta	-10.3735
180	-10.3736
-25	-10.374
▁modified	-10.3743
uv	-10.3744
▁corfu	-10.3745
green	-10.3746
row	-10.3747
-14	-10.3748
▁painted	-10.3752
▁babes	-10.3753
▁invite	-10.3754
▁socks	-10.3758
▁thousand	-10.3758
▁signed	-10.3761
▁border	-10.3767
36)	-10.3774
▁decision	-10.3775
▁graphics	-10.3779
▁73	-10.378
trans	-10.3783
350	-10.3788
oxy	-10.379
▁adapt	-10.3794
▁pov	-10.3795
▁kan	-10.3796
▁towels	-10.3797
▁interesting	-10.3801
▁93	-10.3804
▁mos	-10.3805
hal	-10.3806
▁flame	-10.3809
▁lit	-10.3811
▁1500	-10.3814
▁episode	-10.3816
add	-10.3823
luc	-10.3824
▁patient	-10.3826
▁consumer	-10.3827
days	-10.383
zar	-10.3832
graph	-10.3834
▁torino	-10.3835
▁progress	-10.3839
▁hilton	-10.3841
▁paste	-10.3845
▁winner	-10.3849
ography	-10.385
41)	-10.385
▁curtain	-10.3851
▁hood	-10.3851
▁cartridge	-10.3851
▁pos	-10.3854
▁easter	-10.3857
▁closure	-10.3858
▁authentic	-10.3863
▁bitcoin	-10.3867
2.00	-10.3867
▁db	-10.387
▁artistic	-10.3875
▁bas	-10.3875
▁handmade	-10.3877
lb	-10.3877
gor	-10.3881
▁arch	-10.3887
43)	-10.3891
▁crane	-10.3892
▁recipe	-10.3895
▁controlled	-10.3895
▁mur	-10.3898
▁opportunity	-10.39
eller	-10.3902
▁artificial	-10.3908
▁bolt	-10.3908
▁clips	-10.3913
▁meta	-10.3914
assi	-10.3915
▁heater	-10.3922
▁chicken	-10.3924
▁agricultural	-10.3925
iso	-10.3933
▁belgium	-10.3933
▁cannes	-10.3939
cro	-10.3949
italia	-10.3949
▁zen	-10.395
▁bin	-10.3954
▁strapon	-10.3964
ists	-10.397
▁ultrasonic	-10.3975
▁cri	-10.3982
2012	-10.3984
bul	-10.3987
-13	-10.3989
▁techniques	-10.399
▁vpn	-10.3991
▁lifting	-10.3992
▁jar	-10.3994
ew	-10.4001
▁portuguese	-10.4001
▁soil	-10.4011
▁meetings	-10.4012
▁huge	-10.4014
▁pav	-10.4016
▁valencia	-10.4017
▁beverage	-10.4017
▁monument	-10.4026
lay	-10.4031
▁florist	-10.4032
▁organ	-10.4034
▁zh	-10.4036
▁initial	-10.4036
month	-10.4038
▁logistics	-10.4039
▁approx	-10.4041
37)	-10.4042
-24	-10.4043
▁pillow	-10.4043
▁needle	-10.4044
▁goal	-10.4045
bil	-10.4045
▁robert	-10.405
▁char	-10.405
▁newest	-10.4051
(3	-10.4051
2%	-10.4053
rica	-10.4057
▁trees	-10.4059
▁prince	-10.4061
▁doc	-10.4065
▁scal	-10.4068
▁socket	-10.4068
arm	-10.4071
▁closing	-10.4078
berry	-10.4082
ava	-10.4087
metal	-10.4089
▁employees	-10.4094
102	-10.4095
54)	-10.4102
▁17,	-10.4103
▁maps	-10.4103
ace	-10.4104
▁breath	-10.4109
▁bench	-10.4113
6.00	-10.4113
▁county	-10.4116
▁primary	-10.4121
▁orchestra	-10.4128
▁82	-10.4133
▁potential	-10.4137
▁netherlands	-10.4145
▁ultimate	-10.4145
▁opinion	-10.4145
▁promo	-10.4146
▁87	-10.4154
suit	-10.4163
verse	-10.4167
▁hack	-10.4168
▁guides	-10.417
ere	-10.4175
▁230	-10.4176
▁anniversary	-10.418
mah	-10.4186
otti	-10.4186
ators	-10.419
▁variable	-10.4192
▁tomato	-10.4198
101	-10.4202
bian	-10.4203
▁operator	-10.4205
47)	-10.4207
▁ven	-10.421
what	-10.4212
▁mountains	-10.4218
38)	-10.4222
mod	-10.4226
▁capture	-10.4227
▁94	-10.4229
▁modules	-10.4229
▁(10)	-10.4234
▁surroundings	-10.4234
▁qu	-10.4235
▁fluid	-10.4236
▁grant	-10.4253
fp	-10.4254
▁dev	-10.426
▁assist	-10.4261
▁wed	-10.4261
▁liter	-10.4263
▁bot	-10.4265
▁singapore	-10.4266
▁nothing	-10.4269
▁dy	-10.427
mus	-10.4273
▁quartz	-10.4275
▁rings	-10.4279
ela	-10.4287
oh	-10.4288
▁cave	-10.429
▁linux	-10.4293
▁cables	-10.4295
▁1999	-10.4298
▁opened	-10.4298
▁default	-10.4301
▁animation	-10.4301
▁xl	-10.4308
▁favourite	-10.431
▁diving	-10.431
▁91	-10.4312
:12	-10.4312
▁bangkok	-10.4318
▁identity	-10.4318
▁ischia	-10.432
▁umbrella	-10.4327
▁thomas	-10.4327
▁whether	-10.4327
▁carpet	-10.433
met	-10.4333
▁chef	-10.4333
▁boys	-10.4334
▁regulations	-10.4341
xl	-10.4341
vac	-10.4342
▁ash	-10.4343
ack	-10.4343
▁outer	-10.4344
▁cir	-10.4344
▁amazon	-10.4345
bla	-10.4348
blowjob	-10.4351
▁lithium	-10.4353
dol	-10.4367
304	-10.4369
▁81	-10.4374
▁template	-10.4374
▁ut	-10.4394
▁jazz	-10.4395
▁went	-10.4396
▁might	-10.4398
ister	-10.44
▁1998	-10.4403
mix	-10.4404
bert	-10.4404
▁existing	-10.4409
▁pants	-10.4414
▁experiences	-10.4416
44)	-10.4416
▁shade	-10.4418
▁luca	-10.4418
750	-10.4422
45)	-10.4422
ttle	-10.4424
▁husband	-10.4424
▁networks	-10.4428
▁240	-10.4428
▁monster	-10.4428
▁mercedes	-10.4433
▁plated	-10.4441
▁wax	-10.4443
▁approximately	-10.4444
party	-10.4445
7.00	-10.4448
▁ukraine	-10.445
▁directed	-10.4465
blo	-10.447
▁exam	-10.4471
▁profiles	-10.4471
eta	-10.4474
vert	-10.448
vy	-10.4485
polis	-10.4485
▁presence	-10.4486
▁technique	-10.4487
▁depending	-10.4491
▁(16	-10.4492
/09/20	-10.4502
▁dell	-10.4505
run	-10.4506
bal	-10.4509
002	-10.4511
▁routes	-10.4512
▁92	-10.4516
▁broker	-10.4522
▁bol	-10.4523
▁foil	-10.4529
uf	-10.4531
▁21,	-10.4534
▁freedom	-10.4535
/04/20	-10.4536
▁emi	-10.4537
▁ct	-10.4537
gram	-10.4539
lus	-10.4545
▁dryer	-10.4547
▁vest	-10.4548
▁gourmet	-10.4548
▁educational	-10.4548
▁arena	-10.455
case	-10.4552
▁kor	-10.4554
46)	-10.4555
▁(9)	-10.4559
▁england	-10.456
▁$3	-10.4562
3.00	-10.4563
▁..	-10.4564
▁instagram	-10.4566
▁venezia	-10.4566
mel	-10.4571
▁audit	-10.4575
▁delete	-10.4576
▁pilot	-10.4586
▁antique	-10.4587
▁poland	-10.4593
▁grid	-10.4593
dress	-10.4595
▁miami	-10.4596
photo	-10.4599
arch	-10.4604
▁lets	-10.4619
▁motel	-10.462
china	-10.4621
40)	-10.4622
fici	-10.4623
125	-10.4629
▁(13	-10.4631
▁aircraft	-10.4632
▁warning	-10.4632
▁require	-10.4635
▁statistics	-10.4638
▁abroad	-10.4639
rant	-10.464
56)	-10.4643
▁rc	-10.4646
▁perfume	-10.4647
▁bathrooms	-10.4647
rated	-10.465
:02	-10.4654
▁fabrics	-10.4658
130	-10.4663
▁listed	-10.4665
▁era	-10.4667
▁enough	-10.4667
▁kinds	-10.4667
ffe	-10.4671
▁gmbh	-10.4674
nov	-10.4674
▁gardens	-10.4676
▁rio	-10.4676
▁genoa	-10.4677
gate	-10.4685
italian	-10.4685
▁prior	-10.4687
ulation	-10.4688
▁bomb	-10.4692
eno	-10.4693
▁exhibit	-10.4696
▁forms	-10.4699
▁professionals	-10.4699
▁documentation	-10.4699
▁exhaust	-10.4701
▁(17	-10.4703
▁lee	-10.4704
▁pie	-10.4707
lor	-10.471
▁connectors	-10.4713
▁actions	-10.4716
▁cuckold	-10.4719
▁dubrovnik	-10.4719
▁sab	-10.4726
▁fisting	-10.4727
▁consider	-10.4727
date	-10.473
▁viewing	-10.473
▁wallet	-10.4733
▁[1	-10.4734
▁likes	-10.4737
▁flooring	-10.4737
▁drunk	-10.4737
▁bbw	-10.4738
▁url	-10.4742
▁conc	-10.4747
▁displaying	-10.4747
▁sailing	-10.4749
▁bulgarian	-10.4749
▁corrosion	-10.475
bia	-10.4751
▁websites	-10.4757
-17	-10.4757
▁aero	-10.4757
▁bella	-10.476
▁axis	-10.4764
▁dear	-10.4764
▁380	-10.4766
▁girlfriend	-10.4766
52)	-10.4768
▁improvement	-10.4773
▁cocktail	-10.4774
▁ill	-10.4778
▁committee	-10.4783
▁therefore	-10.4783
▁changing	-10.4788
▁0.3	-10.479
stock	-10.479
wel	-10.4791
zing	-10.4792
▁sap	-10.4795
▁listing	-10.4796
▁gross	-10.4798
▁keyboard	-10.4799
▁california	-10.4801
▁delivered	-10.4802
▁quarter	-10.4803
mpa	-10.4806
▁mus	-10.4807
▁alpine	-10.4811
2013	-10.4814
:19	-10.4816
▁dal	-10.4817
food	-10.4818
▁detection	-10.4823
▁confirmation	-10.4824
sole	-10.4824
▁drawer	-10.4828
▁accommodations	-10.4838
▁giovanni	-10.4838
ison	-10.4841
anal	-10.4842
ami	-10.4849
▁specialized	-10.4849
▁starts	-10.4849
▁songs	-10.4853
▁excl	-10.4853
▁plain	-10.4856
▁absorb	-10.4866
itis	-10.4868
▁relaxing	-10.4869
▁preview	-10.4871
▁fc	-10.4877
▁accident	-10.4884
/6	-10.4889
▁shown	-10.4892
▁holes	-10.4894
:50	-10.4898
▁wrap	-10.4901
▁surgery	-10.4904
▁reset	-10.4905
▁beyond	-10.4912
▁municipality	-10.4913
▁applicable	-10.4921
▁especially	-10.4921
▁listen	-10.4927
▁ty	-10.4931
▁grip	-10.4931
▁caught	-10.4932
▁scanner	-10.4941
▁continental	-10.4943
▁bull	-10.495
▁+33	-10.4958
▁synthetic	-10.4966
eva	-10.4966
cle	-10.4966
▁patients	-10.4966
▁signs	-10.4968
▁soccer	-10.4968
rome	-10.4969
▁sliding	-10.4977
▁quad	-10.498
▁shenzhen	-10.4984
▁surprise	-10.4986
nl	-10.4991
cin	-10.4995
▁83	-10.4996
42)	-10.4997
price	-10.5001
▁brussels	-10.5005
▁leaves	-10.5007
▁evolution	-10.5014
cker	-10.5015
▁trends	-10.5018
▁vent	-10.5018
▁snap	-10.5024
▁flu	-10.5026
▁ele	-10.5028
online	-10.5028
▁avi	-10.5029
▁chance	-10.5031
▁sunset	-10.5031
ire	-10.5032
▁celebrity	-10.5033
ilia	-10.5033
▁71	-10.5037
▁vari	-10.5038
yan	-10.5039
▁boiler	-10.5043
vr	-10.5045
-22	-10.5048
▁philosophy	-10.5052
awa	-10.5053
▁stra	-10.5058
tour	-10.506
uz	-10.5061
▁finnish	-10.5061
▁measures	-10.5061
▁wolf	-10.5061
▁israel	-10.5064
▁qua	-10.5065
▁electricity	-10.5066
▁chosen	-10.507
/18	-10.5071
war	-10.5076
working	-10.5078
piece	-10.5078
▁loop	-10.5079
▁classical	-10.508
▁embroidery	-10.508
49)	-10.5082
▁motors	-10.5083
speed	-10.5089
▁glo	-10.5092
▁enhance	-10.5097
▁170	-10.5098
▁expand	-10.51
▁collar	-10.5101
▁participants	-10.5103
▁lc	-10.5104
▁dm	-10.5106
▁calculated	-10.5108
▁masturbating	-10.5108
club	-10.5113
▁adjustment	-10.5113
▁growing	-10.5114
▁redhead	-10.5114
▁stove	-10.5115
▁gor	-10.5118
▁smoke	-10.5121
▁dose	-10.5121
gel	-10.5125
▁extended	-10.5125
force	-10.5126
▁purple	-10.5128
▁slave	-10.5132
▁teaching	-10.5136
▁stockings	-10.5136
▁gh	-10.5137
▁sor	-10.5138
▁organized	-10.5141
▁html	-10.5142
ui	-10.5144
▁toggle	-10.5146
▁cause	-10.5149
▁api	-10.5151
▁spi	-10.5153
▁temporary	-10.5156
▁wing	-10.5156
▁dogs	-10.5157
▁considered	-10.5157
62)	-10.516
electric	-10.516
▁versions	-10.5163
▁nearest	-10.5164
▁hungarian	-10.5165
▁symptoms	-10.5165
fort	-10.5168
▁disposal	-10.5175
rist	-10.5178
kh	-10.5182
cate	-10.5183
▁puzzle	-10.5184
105	-10.5185
▁destinations	-10.5187
pad	-10.5189
51)	-10.519
▁pol	-10.5192
▁sofia	-10.5197
▁22,	-10.5202
▁omega	-10.5203
▁bmw	-10.5204
▁prepare	-10.5215
odi	-10.5218
tag	-10.5218
▁pine	-10.5219
▁aged	-10.5223
▁accurate	-10.5223
▁examples	-10.5223
▁umbria	-10.5232
▁portrait	-10.5232
▁experts	-10.5233
▁stack	-10.5236
▁parents	-10.5238
▁wp	-10.5239
ory	-10.5239
position	-10.524
▁bikini	-10.5241
▁francesco	-10.5242
▁finance	-10.5243
▁climbing	-10.5247
▁shield	-10.525
▁genuine	-10.5251
▁jesus	-10.5251
▁alex	-10.5252
▁elite	-10.5253
▁represent	-10.5257
▁leaf	-10.5257
ement	-10.5263
▁helps	-10.5266
▁replace	-10.5267
▁vinyl	-10.5271
eb	-10.5271
watch	-10.5272
▁stress	-10.5272
▁component	-10.5275
els	-10.5276
▁burn	-10.5277
▁gro	-10.5278
▁composite	-10.528
▁pap	-10.5281
▁aunt	-10.5281
▁bla	-10.5282
ographic	-10.5282
▁lightweight	-10.5282
▁bun	-10.5283
▁26,	-10.5288
▁27,	-10.5288
connect	-10.5296
:11	-10.5297
▁suggest	-10.5299
zen	-10.53
▁labels	-10.53
▁trace	-10.53
▁automated	-10.5309
▁ecommerce	-10.5311
▁happen	-10.5314
▁nar	-10.5316
10)	-10.5318
▁voucher	-10.5318
▁skill	-10.532
title	-10.5323
18)	-10.5324
▁stroke	-10.5325
▁hal	-10.5326
▁zealand	-10.5328
▁pencil	-10.5328
▁northern	-10.5328
▁managed	-10.5329
▁makeup	-10.5334
▁23,	-10.5336
14)	-10.534
▁customize	-10.534
▁restoration	-10.5347
▁circle	-10.5348
ony	-10.5349
▁nickel	-10.5349
▁texture	-10.5354
▁supplies	-10.5357
▁pharma	-10.5359
tek	-10.5359
12)	-10.5359
imp	-10.5362
▁cosmetics	-10.5365
▁galaxy	-10.5367
▁agriculture	-10.5367
▁intense	-10.5367
▁escape	-10.5371
flu	-10.5373
▁deco	-10.5374
cre	-10.5377
pla	-10.5378
phe	-10.5378
▁sense	-10.538
▁watt	-10.5383
123	-10.5384
▁beijing	-10.5386
▁bracket	-10.5386
▁statue	-10.5386
ido	-10.5388
▁plates	-10.5391
▁decor	-10.5396
▁topic	-10.5399
▁poster	-10.5402
pel	-10.5403
:25	-10.5405
▁reason	-10.5406
▁either	-10.5406
58)	-10.5409
ema	-10.541
▁reliability	-10.5415
▁generated	-10.5418
▁prison	-10.5419
▁transfers	-10.542
nea	-10.542
lite	-10.5421
ben	-10.5422
▁304	-10.5422
▁chic	-10.5425
▁fleet	-10.5425
▁nation	-10.5431
▁vas	-10.5435
450	-10.5437
▁composed	-10.5445
▁honor	-10.5447
63)	-10.5447
▁parks	-10.5456
▁quin	-10.5456
▁rule	-10.5458
▁anne	-10.5458
html	-10.5462
mid	-10.5464
sale	-10.5466
face	-10.5468
▁cape	-10.5473
▁flood	-10.5475
▁plugin	-10.5476
ious	-10.5482
▁moved	-10.5483
▁broadcast	-10.5484
2011	-10.5485
▁productivity	-10.5488
▁sight	-10.5496
▁fantasy	-10.5503
ska	-10.5504
▁releases	-10.5508
71)	-10.551
▁scent	-10.5512
▁publications	-10.5513
anta	-10.5513
stein	-10.5522
▁mess	-10.5522
▁delicious	-10.5523
▁anything	-10.5524
▁thailand	-10.5527
▁tracks	-10.5527
▁soap	-10.5527
▁hide	-10.5528
64)	-10.5529
▁legend	-10.5535
▁edinburgh	-10.5543
itch	-10.5543
▁accounts	-10.5543
▁10.00	-10.5544
mine	-10.5547
▁eight	-10.5549
charge	-10.5549
▁elegance	-10.5553
enna	-10.5555
▁rav	-10.5559
▁nat	-10.5559
▁hip	-10.5566
▁involved	-10.557
cri	-10.557
▁publication	-10.5572
▁simon	-10.5576
▁twist	-10.5579
2014	-10.5579
ctor	-10.5581
▁summary	-10.5582
▁layout	-10.5584
▁fact	-10.5586
▁nut	-10.5589
▁rechargeable	-10.5592
▁cala	-10.5593
▁ost	-10.5593
:05	-10.5594
▁4.0	-10.5595
▁sending	-10.5598
tsu	-10.5598
▁script	-10.5599
:18	-10.5607
▁skirt	-10.5608
▁reward	-10.5609
48)	-10.561
▁sustainability	-10.5612
▁trademark	-10.5614
▁gp	-10.5616
▁estimate	-10.5617
▁cups	-10.5617
chu	-10.5622
▁ferrari	-10.5622
▁blind	-10.5622
▁charming	-10.5625
▁fox	-10.5629
▁egypt	-10.563
▁influence	-10.5632
▁taormina	-10.5632
▁coins	-10.5632
pped	-10.5632
▁zurich	-10.5632
ré	-10.5635
sec	-10.5638
▁accessible	-10.5638
67)	-10.5639
event	-10.564
▁emb	-10.5647
▁105	-10.5648
fold	-10.5653
plus	-10.5653
▁attend	-10.5655
▁pt	-10.5659
▁mattress	-10.5662
▁cellar	-10.5662
▁species	-10.5664
▁inclusive	-10.5666
town	-10.5667
zia	-10.5667
▁patent	-10.5668
▁grinding	-10.5672
▁rolex	-10.5672
▁welded	-10.5678
▁jobs	-10.5685
▁epi	-10.5689
7%	-10.5689
▁della	-10.5691
▁exterior	-10.5692
▁28,	-10.5696
▁seed	-10.5699
▁else	-10.5699
▁womens	-10.5701
▁visiting	-10.5701
▁bird	-10.5702
▁hosted	-10.5703
:14	-10.5704
ington	-10.5704
57)	-10.5707
▁como	-10.5709
▁bob	-10.571
▁feeling	-10.5711
▁tests	-10.5711
▁performed	-10.5712
▁wonder	-10.5714
010	-10.5716
▁causes	-10.5718
duct	-10.572
▁bern	-10.5729
▁dot	-10.573
▁itself	-10.573
▁restore	-10.5731
rian	-10.5731
▁detect	-10.574
▁rim	-10.5743
73)	-10.5746
tino	-10.5749
53)	-10.5751
▁evaluation	-10.5752
▁iva	-10.5752
▁inches	-10.5755
▁equal	-10.5757
dio	-10.5759
▁static	-10.5761
una	-10.5762
▁comparison	-10.5762
ht	-10.5763
▁spacious	-10.5765
▁formats	-10.5768
privacy	-10.577
▁marc	-10.5771
▁charles	-10.5775
fish	-10.5777
▁engines	-10.5777
55)	-10.5781
▁platforms	-10.5782
▁pleasant	-10.5782
▁skiing	-10.5783
11)	-10.5784
▁becomes	-10.5785
lp	-10.5786
cover	-10.5788
▁lifestyle	-10.5788
8%	-10.579
▁reverse	-10.5793
stand	-10.5802
vio	-10.5803
▁ron	-10.5804
▁kits	-10.5805
road	-10.5809
▁teens	-10.5813
▁keyword	-10.5824
▁alba	-10.5824
▁extend	-10.5825
skin	-10.5826
▁brightness	-10.5827
▁12:00	-10.5832
▁stability	-10.5834
111	-10.5841
▁underground	-10.5845
60)	-10.5846
uch	-10.5847
17)	-10.585
mber	-10.585
ram	-10.5851
ulator	-10.5853
▁obligation	-10.5853
▁dried	-10.5854
▁clinic	-10.5855
▁compression	-10.5855
▁talent	-10.5858
▁hunting	-10.5859
▁eve	-10.5862
away	-10.5866
▁lovely	-10.5871
data	-10.5871
-00	-10.5874
▁francis	-10.5882
▁inform	-10.5884
▁thing	-10.5886
▁0,00	-10.5887
dri	-10.589
zh	-10.5895
▁defense	-10.5895
▁prefer	-10.5897
▁sharp	-10.5897
▁recorded	-10.5899
▁tuscan	-10.59
▁peak	-10.59
pieces	-10.5901
▁coral	-10.5902
boat	-10.5908
▁dreams	-10.591
15)	-10.591
body	-10.5911
active	-10.5925
▁greater	-10.5927
base	-10.593
▁transformer	-10.5933
▁sources	-10.5933
west	-10.5937
▁newspaper	-10.5938
3.5	-10.5941
▁worked	-10.5942
▁participation	-10.5945
▁pit	-10.5946
uda	-10.5948
▁topics	-10.595
86)	-10.5951
guard	-10.5955
13)	-10.5956
72)	-10.596
try	-10.5962
▁190	-10.5964
▁serial	-10.5967
gsm	-10.5969
▁notification	-10.5971
▁skinny	-10.5976
▁amalfi	-10.5976
▁alexander	-10.5976
▁faster	-10.5977
68)	-10.5982
▁tub	-10.5983
chat	-10.5984
▁portugal	-10.5987
logy	-10.5987
▁smd	-10.5987
/16	-10.5988
▁cherry	-10.5989
hel	-10.5993
65)	-10.5996
▁marriott	-10.5997
▁carrier	-10.5997
-21	-10.6001
cious	-10.6004
count	-10.6005
79)	-10.6007
:04	-10.6009
▁mario	-10.6012
tail	-10.6024
61)	-10.6024
▁frames	-10.6025
▁sum	-10.6027
▁southern	-10.6028
▁nano	-10.6033
▁headquarters	-10.6035
▁keys	-10.6036
▁improved	-10.6037
▁lion	-10.6037
▁olympic	-10.6038
▁pound	-10.6039
▁audi	-10.6042
▁solve	-10.6043
aire	-10.6045
▁xi	-10.6046
▁cana	-10.6049
▁catania	-10.6049
84)	-10.605
103	-10.6052
:55	-10.6053
16)	-10.6054
▁marking	-10.6058
oon	-10.6059
auto	-10.6062
core	-10.6064
▁hor	-10.6065
▁nav	-10.6067
▁commitment	-10.6069
▁relative	-10.6069
▁carried	-10.607
59)	-10.6073
▁diamonds	-10.6074
▁swinger	-10.6075
2.0	-10.6076
▁exist	-10.6078
▁booth	-10.6079
jan	-10.6079
ject	-10.6083
main	-10.6084
heat	-10.6091
▁regulator	-10.6091
▁kettle	-10.6091
tica	-10.6095
▁afternoon	-10.6101
▁butter	-10.6104
cn	-10.6105
▁fm	-10.6105
▁appear	-10.6107
▁(11)	-10.6109
▁neo	-10.6114
▁hero	-10.6115
-100	-10.6115
▁cle	-10.6115
direct	-10.6118
▁lid	-10.6119
74)	-10.612
anza	-10.6121
▁substance	-10.6122
rick	-10.6124
▁sud	-10.6125
▁5000	-10.6125
▁assistant	-10.6126
***	-10.6129
▁prevention	-10.613
▁gluten	-10.6132
▁alta	-10.6134
▁sca	-10.6135
▁stud	-10.6136
▁bc	-10.6137
▁desire	-10.6138
▁linkedin	-10.6143
char	-10.6149
tract	-10.6152
▁sr	-10.6155
▁diseases	-10.6155
0.2	-10.6155
▁conveyor	-10.6156
▁managing	-10.6158
▁bucket	-10.6163
▁representative	-10.6164
▁pas	-10.6165
▁actor	-10.6167
▁presented	-10.6169
▁sweden	-10.6174
▁dei	-10.6178
ride	-10.618
tori	-10.618
/2020	-10.6184
▁diagnostic	-10.6184
▁expansion	-10.6184
▁cottage	-10.6185
▁latex	-10.6185
pha	-10.619
oul	-10.6191
stan	-10.6193
sub	-10.6194
▁crete	-10.6195
:40	-10.6196
▁sink	-10.6196
sim	-10.6197
▁trips	-10.6198
▁colle	-10.62
▁proceed	-10.6206
▁scenes	-10.6207
▁hybrid	-10.6207
▁kid	-10.6208
▁nova	-10.621
▁frequently	-10.6211
▁photographer	-10.6215
▁medi	-10.6216
▁frankfurt	-10.6216
maker	-10.6217
-50	-10.6223
▁revolution	-10.6225
▁sco	-10.6227
▁cement	-10.6233
66)	-10.6237
▁shelf	-10.6237
▁fragrance	-10.6237
▁bubble	-10.6238
▁draft	-10.6238
▁sms	-10.624
iki	-10.6243
ario	-10.6247
▁naked	-10.6248
▁follows	-10.625
▁trolley	-10.6258
▁seamless	-10.6258
▁ny	-10.6259
uploaded	-10.6259
▁fake	-10.627
▁banner	-10.6272
▁communications	-10.6273
▁shampoo	-10.628
▁initiative	-10.628
▁gui	-10.6283
▁rise	-10.6285
▁journal	-10.6286
some	-10.6287
▁jean	-10.629
▁providing	-10.629
▁15%	-10.629
mhz	-10.629
▁officer	-10.6291
lina	-10.6293
▁brazilian	-10.6293
▁plc	-10.63
▁plane	-10.6302
19)	-10.6309
▁colored	-10.631
:57	-10.6311
▁panties	-10.6315
tile	-10.6316
104	-10.6317
▁buttons	-10.6319
▁responsibility	-10.6322
▁qui	-10.6323
▁tyre	-10.6323
▁goals	-10.6326
▁korea	-10.6326
▁glue	-10.6327
▁lesbians	-10.6328
▁organize	-10.6328
gest	-10.6329
optional	-10.633
double	-10.6334
▁seller	-10.6341
dec	-10.6343
▁downtown	-10.6345
ough	-10.6346
▁meal	-10.6346
83)	-10.6348
▁jackets	-10.6348
▁chiang	-10.6349
▁poll	-10.6349
trade	-10.6351
bur	-10.6352
▁panorama	-10.6354
▁sir	-10.6357
▁lido	-10.6363
▁circular	-10.6365
210	-10.6365
360	-10.6366
▁provision	-10.6368
▁implement	-10.6372
170	-10.6373
▁mouse	-10.6375
▁explain	-10.6376
▁torre	-10.6377
▁ble	-10.6379
▁(12)	-10.6384
▁precise	-10.6386
▁refresh	-10.6388
▁vegan	-10.6389
70)	-10.6392
hua	-10.6393
▁stands	-10.6393
▁garment	-10.6395
real	-10.6397
this	-10.6398
take	-10.64
▁shaped	-10.6402
▁infrastructure	-10.6408
system	-10.641
▁txxx	-10.641
▁wins	-10.6411
hol	-10.6413
▁inspired	-10.6419
▁sneakers	-10.6419
▁sara	-10.642
76)	-10.6423
2010	-10.6428
▁vatican	-10.644
▁adam	-10.6443
▁towel	-10.6445
ien	-10.6446
▁cv	-10.6449
▁testosterone	-10.6451
lation	-10.6451
▁oasis	-10.6451
▁basilica	-10.6452
▁membership	-10.6453
▁seo	-10.6458
hai	-10.6462
▁nutrition	-10.6462
▁tested	-10.6463
:03	-10.6464
click	-10.6466
▁specified	-10.6473
▁eastern	-10.6475
▁emilia	-10.6476
1.2	-10.6477
ught	-10.648
lov	-10.648
▁respond	-10.6484
▁industries	-10.6484
http	-10.6486
▁programming	-10.6486
▁displayed	-10.649
▁himself	-10.6495
ardi	-10.6498
▁frank	-10.6503
▁fantastic	-10.6505
ature	-10.6507
ome	-10.651
(4	-10.6512
-40	-10.6513
lig	-10.6515
▁awarded	-10.6516
▁metres	-10.6519
")	-10.6521
:13	-10.6525
003	-10.6526
▁chest	-10.6529
▁structures	-10.653
▁(18)	-10.6531
ably	-10.6532
▁oz	-10.6533
▁extremely	-10.6536
▁oxygen	-10.6538
20)	-10.6539
▁cf	-10.6541
▁gall	-10.6543
▁meaning	-10.6543
77)	-10.6545
▁refrigerator	-10.6549
▁bat	-10.655
▁riva	-10.655
▁casual	-10.6551
dent	-10.6554
ologist	-10.6554
▁dessert	-10.656
:28	-10.6561
▁bone	-10.6563
ccio	-10.6565
▁pier	-10.657
▁capsules	-10.6574
ovo	-10.6575
▁grape	-10.658
▁domestic	-10.6582
1.0	-10.6582
place	-10.6582
81)	-10.6583
▁plot	-10.6583
▁emo	-10.6585
▁sealing	-10.6586
▁tanks	-10.6587
▁sexual	-10.6591
wind	-10.6591
109	-10.6592
▁bungalow	-10.6592
round	-10.6594
mare	-10.6598
▁cot	-10.66
▁truffle	-10.6603
▁pretty	-10.6604
▁swing	-10.6605
▁napoli	-10.6607
▁branch	-10.6607
tia	-10.6614
▁tail	-10.6614
▁xp	-10.6619
▁syn	-10.6621
▁slots	-10.6624
▁achieve	-10.6625
▁anonymous	-10.6625
▁cooperation	-10.6627
cum	-10.663
:56	-10.664
:17	-10.664
▁inverter	-10.6648
asso	-10.6649
eau	-10.6649
pill	-10.665
▁zoom	-10.6651
108	-10.6653
toria	-10.6655
une	-10.6656
▁associated	-10.6657
check	-10.6662
full	-10.6667
▁gene	-10.6668
ume	-10.6669
▁disclaimer	-10.667
▁protector	-10.667
▁organisation	-10.667
▁begin	-10.6671
ule	-10.6674
▁requested	-10.6674
range	-10.6675
▁zipper	-10.6678
▁protocol	-10.6681
camp	-10.6684
▁2.4	-10.6686
▁1.6	-10.6691
gt	-10.6691
may	-10.6693
▁divided	-10.6693
▁101	-10.6693
▁4.5	-10.6694
:07	-10.67
▁floral	-10.6701
wing	-10.6702
boy	-10.6703
▁containers	-10.6704
▁gauge	-10.6704
▁evo	-10.6705
▁tune	-10.6707
▁rip	-10.6707
▁partition	-10.6709
▁wan	-10.6709
fla	-10.671
▁brain	-10.6712
▁colon	-10.6717
▁boost	-10.6718
▁handbag	-10.6718
02)	-10.6719
78)	-10.6722
▁leon	-10.6725
▁occur	-10.6726
22)	-10.6729
▁household	-10.673
▁rolling	-10.6731
▁washington	-10.6732
▁adriatic	-10.6736
▁rgb	-10.6737
▁authority	-10.6737
▁1.1	-10.674
-60	-10.6743
▁vibration	-10.6747
▁fans	-10.6748
anie	-10.6748
.....	-10.6751
▁tw	-10.6751
▁listings	-10.6754
6%	-10.6758
▁flights	-10.6758
▁revenue	-10.6758
03)	-10.676
▁vote	-10.6761
▁giant	-10.6766
▁paolo	-10.6766
▁workshops	-10.6769
▁bearings	-10.6769
▁assessment	-10.6771
roma	-10.6773
▁1.8	-10.6776
▁dye	-10.6778
tical	-10.6778
aka	-10.6779
▁viewed	-10.6779
▁pricing	-10.6781
cycle	-10.6783
▁brick	-10.6785
fun	-10.6789
▁cancer	-10.679
▁steroid	-10.6791
▁medieval	-10.6792
1.1	-10.6793
▁kra	-10.6795
▁maid	-10.6797
▁slice	-10.6798
9001	-10.6803
▁wrote	-10.6803
21)	-10.6803
layer	-10.6807
studio	-10.6807
kar	-10.6812
▁strategic	-10.6814
▁gasket	-10.6814
▁combine	-10.6815
pul	-10.6818
▁purity	-10.682
imo	-10.6821
pping	-10.6824
/10/20	-10.6824
▁(20)	-10.6825
▁creativity	-10.6825
▁dishwasher	-10.6825
▁smile	-10.6829
▁slope	-10.6833
ened	-10.6834
▁316	-10.684
edge	-10.6841
▁shooting	-10.6847
▁1996	-10.6847
▁mexican	-10.6848
75)	-10.6848
usd	-10.6848
▁rep	-10.685
82)	-10.6853
▁corporation	-10.6859
▁inspiration	-10.6859
▁dn	-10.6867
reg	-10.6868
▁drinking	-10.687
▁cali	-10.6873
gin	-10.6875
▁blanc	-10.6881
▁agri	-10.6881
▁felt	-10.6885
▁delay	-10.6886
ivo	-10.6886
▁ker	-10.6888
▁lay	-10.6889
▁rhodes	-10.6893
▁lucca	-10.6895
▁molding	-10.6897
:08	-10.6901
pic	-10.6904
▁chianti	-10.6907
▁cameras	-10.691
gold	-10.6913
420	-10.6915
▁armchair	-10.6915
88)	-10.6916
:24	-10.692
▁doing	-10.692
custom	-10.692
▁bib	-10.6923
▁dive	-10.6925
▁teeth	-10.6926
▁5%	-10.6927
020	-10.6928
▁vita	-10.6929
▁cow	-10.6933
copy	-10.6934
▁zu	-10.6935
tool	-10.6937
▁experiment	-10.6938
▁treasure	-10.6938
▁widget	-10.6938
▁dirty	-10.6938
▁1.4	-10.6939
▁silicon	-10.6939
▁anime	-10.694
23)	-10.6942
▁melt	-10.6948
▁supplied	-10.6949
▁metallic	-10.6952
▁milling	-10.6957
90)	-10.6958
▁senior	-10.6961
▁guidelines	-10.6961
69)	-10.6962
▁crazy	-10.6962
▁bergamo	-10.6962
▁translate	-10.6966
:58	-10.6968
▁fountain	-10.6972
▁tunnel	-10.6972
▁pulse	-10.6972
▁bari	-10.6973
▁gil	-10.6973
▁campsite	-10.6975
▁(22)	-10.6979
ination	-10.6984
▁identification	-10.6984
▁ross	-10.6984
▁broad	-10.6987
320	-10.6988
▁(21)	-10.6991
control	-10.6991
▁latina	-10.6994
▁infrared	-10.6995
▁dish	-10.6995
:26	-10.7001
▁reveal	-10.7007
▁answers	-10.7007
:31	-10.7009
kan	-10.7009
osis	-10.7012
:37	-10.7017
▁furnished	-10.7018
▁identify	-10.7018
98)	-10.7018
▁seasons	-10.7025
▁stored	-10.7027
▁polar	-10.7027
tus	-10.7028
▁ana	-10.7029
▁cp	-10.703
▁imprint	-10.7031
▁drying	-10.7033
▁candy	-10.7034
:09	-10.7035
▁agents	-10.7037
▁fiat	-10.704
▁appointed	-10.7041
▁excavator	-10.7041
▁political	-10.7041
graphic	-10.7042
▁cb	-10.7044
▁flo	-10.7044
▁pension	-10.7045
89)	-10.7049
▁cushion	-10.7052
▁receiving	-10.7052
▁goji	-10.7052
▁flexibility	-10.7052
cola	-10.7053
▁warship	-10.7055
▁cage	-10.706
▁navy	-10.706
92)	-10.706
qual	-10.7062
▁astm	-10.7065
▁giulia	-10.7065
fur	-10.7066
hof	-10.7068
▁stones	-10.7069
▁floors	-10.7071
24)	-10.7071
/11/20	-10.7072
▁anton	-10.7072
▁tall	-10.7073
kv	-10.7075
▁acoustic	-10.7075
87)	-10.7076
▁honda	-10.7077
▁playground	-10.7078
▁nero	-10.708
▁matches	-10.7082
iga	-10.7087
▁sometimes	-10.7087
▁sym	-10.7087
▁sit	-10.7096
struct	-10.7096
▁religious	-10.7098
▁remain	-10.7098
▁115	-10.7106
▁luna	-10.7109
▁trekking	-10.711
230	-10.7113
space	-10.7113
▁functionality	-10.7115
▁(21	-10.7126
▁sensors	-10.7132
▁volt	-10.7133
▁mobility	-10.7134
▁giving	-10.7135
ett	-10.7135
▁marked	-10.7136
▁diver	-10.7136
▁crew	-10.7136
:06	-10.7137
▁zi	-10.7139
cb	-10.714
▁handles	-10.7142
▁catering	-10.7145
▁hamburg	-10.7145
▁650	-10.7146
▁nr	-10.7149
▁waist	-10.7151
▁someone	-10.7151
▁mul	-10.7155
▁mah	-10.7155
ote	-10.7156
:23	-10.7159
▁(24	-10.7167
▁ukrainian	-10.7168
▁reaction	-10.7168
:29	-10.7169
▁conductor	-10.717
▁entered	-10.717
▁fab	-10.7173
▁alfa	-10.7173
▁pantyhose	-10.7179
▁itunes	-10.718
close	-10.7181
▁showroom	-10.7182
▁rotation	-10.7184
▁females	-10.7184
▁sv	-10.719
32)	-10.719
▁choosing	-10.7191
och	-10.7192
▁hammer	-10.7194
05)	-10.7199
▁michel	-10.7201
80)	-10.7202
▁leonardo	-10.7203
metric	-10.7203
1%	-10.7204
▁bookingsuite	-10.7204
▁multimedia	-10.7206
▁visited	-10.7209
glo	-10.721
25)	-10.7212
cken	-10.7214
▁1997	-10.7215
▁turbo	-10.7215
drive	-10.7217
▁implementation	-10.7218
▁rigid	-10.7218
guide	-10.7225
31)	-10.7227
▁barrel	-10.7231
eli	-10.7232
9.99	-10.7234
▁ple	-10.7236
▁concern	-10.7239
▁320	-10.7239
▁pellet	-10.7245
▁canal	-10.7249
▁crush	-10.7251
shed	-10.7253
ender	-10.7253
▁tester	-10.7258
▁approval	-10.7261
good	-10.7262
09)	-10.7263
▁sto	-10.7263
9%	-10.7265
▁marrakesh	-10.7273
▁shoot	-10.7274
▁presents	-10.7274
▁tension	-10.7275
▁professor	-10.7284
▁sensitive	-10.7284
▁sydney	-10.7284
▁vibrator	-10.7284
▁ef	-10.7286
▁certificates	-10.7289
▁drama	-10.729
▁(+	-10.7293
rine	-10.7295
▁kha	-10.7295
30)	-10.7296
▁nozzle	-10.7296
/2015	-10.7297
▁winning	-10.7299
95)	-10.7306
▁tc	-10.7306
▁boss	-10.7307
▁highlights	-10.731
▁precious	-10.7311
▁shadow	-10.7311
▁turning	-10.7311
▁lar	-10.7311
/11	-10.7313
shire	-10.7314
▁ev	-10.7314
eon	-10.7317
▁stem	-10.732
▁jen	-10.732
96)	-10.7322
▁accessory	-10.7323
121	-10.7325
gger	-10.7326
▁standing	-10.7331
▁avenue	-10.7331
▁nest	-10.7333
:22	-10.7333
▁08:00	-10.7335
+1	-10.7335
▁pope	-10.7336
▁drugs	-10.7338
▁(19)	-10.7338
▁clinical	-10.7344
128	-10.7345
▁packed	-10.7348
▁vice	-10.7349
▁arrange	-10.7349
law	-10.7351
▁bou	-10.7352
▁fruits	-10.7355
▁canadian	-10.7355
gene	-10.7356
enni	-10.7358
26)	-10.7364
▁rai	-10.7364
▁truth	-10.7365
▁virus	-10.7366
-23	-10.7368
:27	-10.7368
▁checkout	-10.7369
▁fibre	-10.737
:21	-10.7372
milf	-10.7377
▁facility	-10.7379
▁actuator	-10.7379
▁shan	-10.7379
clo	-10.738
▁mine	-10.738
cute	-10.7382
▁geneva	-10.7383
▁knee	-10.7383
▁(13)	-10.7384
▁atlantic	-10.7391
93)	-10.7392
▁winery	-10.7394
▁buying	-10.7394
▁relations	-10.7395
ardo	-10.7398
tent	-10.7402
99)	-10.7406
▁pv	-10.7409
8,00	-10.741
only	-10.7412
▁native	-10.7412
▁procedures	-10.7415
▁kal	-10.7417
▁filled	-10.7418
▁cells	-10.7422
▁(22	-10.7425
▁velvet	-10.7428
▁coverage	-10.7431
▁sleeves	-10.7438
▁admission	-10.7439
94)	-10.7442
▁tons	-10.7443
kn	-10.7445
▁bamboo	-10.745
▁benidorm	-10.745
▁1990	-10.7451
/7	-10.746
▁]	-10.7461
:36	-10.7466
9]	-10.747
380	-10.7477
▁belong	-10.7479
▁fourth	-10.7484
▁aquarium	-10.7486
▁gaming	-10.7488
▁submitted	-10.7489
rov	-10.7489
▁dun	-10.749
4.5	-10.7493
▁soup	-10.7494
omi	-10.7496
▁delicate	-10.7498
ural	-10.7502
▁sel	-10.7503
zioni	-10.7504
alia	-10.7504
▁polished	-10.7507
glass	-10.7508
▁decree	-10.751
▁anchor	-10.7511
▁brun	-10.7511
▁ital	-10.7515
▁scope	-10.7515
▁stelle	-10.7515
▁nine	-10.753
27)	-10.7534
▁supermarket	-10.7537
135	-10.7539
:43	-10.754
stick	-10.754
▁hanging	-10.7543
static	-10.7543
▁buyer	-10.7544
▁stereo	-10.7547
mill	-10.7547
▁creature	-10.7547
▁giu	-10.7547
pec	-10.7547
asia	-10.7547
▁basketball	-10.7547
▁ratings	-10.7548
put	-10.7548
▁lovers	-10.755
▁210	-10.7553
▁australian	-10.7554
▁135	-10.7554
91)	-10.7555
08)	-10.7557
▁porcelain	-10.7558
▁technological	-10.7558
▁optimize	-10.7559
:51	-10.7561
▁passenger	-10.7567
▁celebration	-10.757
▁artwork	-10.7573
▁fuse	-10.7576
▁comic	-10.7579
▁prepared	-10.758
▁citizen	-10.7582
▁starter	-10.7582
:46	-10.7583
:54	-10.7585
crea	-10.7586
232	-10.7587
fast	-10.759
▁lose	-10.7591
▁empire	-10.7594
▁exposure	-10.7595
▁mic	-10.7596
▁lining	-10.7597
▁feeding	-10.7599
▁span	-10.76
pay	-10.7601
▁yan	-10.7603
▁lucia	-10.7603
▁random	-10.7607
▁processor	-10.7608
▁gdpr	-10.7609
97)	-10.7612
▁lamb	-10.7613
mount	-10.7615
▁correspond	-10.7619
temp	-10.7623
mmer	-10.7626
01)	-10.7627
▁(50	-10.7629
▁ribbon	-10.7631
▁cagliari	-10.7643
▁catalan	-10.7643
▁tim	-10.7646
▁expertise	-10.7646
▁difficult	-10.7651
▁connections	-10.7652
hair	-10.7653
products	-10.7653
▁philip	-10.7654
▁setup	-10.7655
sea	-10.7665
pra	-10.7667
▁administrative	-10.7667
▁calculator	-10.7667
▁chubby	-10.7667
▁easier	-10.7667
85)	-10.7674
▁consists	-10.7674
28)	-10.7674
▁alert	-10.7675
:33	-10.7676
▁tweet	-10.768
▁thu	-10.7681
esi	-10.7689
▁significant	-10.7692
▁unforgettable	-10.7692
▁veneto	-10.7696
trip	-10.7699
▁donna	-10.77
▁cams	-10.7701
▁consultant	-10.7703
29)	-10.7706
▁transform	-10.7706
▁holding	-10.7707
telli	-10.7711
▁meets	-10.7711
▁lang	-10.7717
▁begins	-10.7722
▁appeared	-10.7725
▁(23)	-10.7726
▁accounting	-10.7727
▁hundred	-10.7729
▁adopt	-10.7731
week	-10.7733
▁lp	-10.7733
▁css	-10.7736
▁schoolgirl	-10.7745
▁sticker	-10.7746
gie	-10.7748
▁rap	-10.7753
▁jacuzzi	-10.7753
▁vietnamese	-10.7754
sales	-10.7756
kit	-10.7756
odor	-10.7758
▁pam	-10.7758
▁unlock	-10.776
rose	-10.7764
▁vessel	-10.7766
▁lor	-10.7767
▁workers	-10.7774
▁chicago	-10.7778
hole	-10.7782
▁pixel	-10.7783
▁clutch	-10.779
▁trousers	-10.779
user	-10.7793
▁mug	-10.7793
mina	-10.7794
issa	-10.7799
:48	-10.7799
485	-10.78
cad	-10.7806
▁pads	-10.7807
▁segment	-10.7809
4%	-10.781
▁delight	-10.781
▁sterling	-10.7815
▁tit	-10.7821
▁marie	-10.7828
2.1	-10.7831
cf	-10.7835
▁gin	-10.7838
▁suffer	-10.784
▁beginner	-10.7841
▁pul	-10.7843
▁5*	-10.7848
04)	-10.7848
▁adrian	-10.7851
▁photograph	-10.7852
▁moisture	-10.7852
▁relevant	-10.7852
▁audience	-10.7853
hon	-10.7855
▁rom	-10.786
▁resource	-10.7861
▁forget	-10.7862
▁mechanism	-10.7865
▁mining	-10.7866
▁withdrawal	-10.787
/100	-10.7874
▁concerts	-10.7875
▁clay	-10.7875
now	-10.7876
mov	-10.7877
:53	-10.7882
▁bucharest	-10.789
▁contribution	-10.789
▁len	-10.7892
▁unrated	-10.7894
▁romanian	-10.7901
under	-10.7902
▁contribute	-10.7902
▁execution	-10.7902
▁hormone	-10.7902
haus	-10.7903
hill	-10.7907
:52	-10.7907
fusion	-10.7909
▁1994	-10.7909
▁fior	-10.791
▁furnishing	-10.7915
uta	-10.7917
mature	-10.7917
step	-10.7921
▁molecular	-10.7927
▁vig	-10.7931
▁franc	-10.7936
▁tomatoes	-10.7941
280	-10.7947
▁ferry	-10.7947
▁downloaded	-10.7948
▁debut	-10.795
▁laminated	-10.795
rub	-10.7951
admin	-10.7953
bank	-10.7954
▁mir	-10.7963
▁covering	-10.7964
▁tractor	-10.7966
job	-10.7966
▁investor	-10.7968
▁minister	-10.7969
coin	-10.7969
▁certifications	-10.797
▁spice	-10.7971
▁blond	-10.7971
zone	-10.7975
▁structural	-10.7977
▁compound	-10.7977
cel	-10.7989
▁communicate	-10.799
▁santorini	-10.799
▁pixels	-10.7992
▁nh	-10.7992
▁except	-10.7994
liber	-10.7996
▁steril	-10.7999
▁reel	-10.8
▁itineraries	-10.8002
▁themes	-10.8006
▁bb	-10.8007
▁announced	-10.8012
▁aesthetic	-10.8015
▁550	-10.8021
▁supplements	-10.8022
▁exc	-10.8028
▁stefano	-10.8032
▁mala	-10.8032
▁kiss	-10.8036
▁wanted	-10.8037
▁angeles	-10.804
▁steering	-10.8041
33)	-10.8041
plastic	-10.8042
▁widely	-10.8044
▁dome	-10.8046
▁writer	-10.8047
note	-10.805
▁enclosure	-10.8053
▁diffuser	-10.8053
(5	-10.8061
▁fig	-10.8062
rill	-10.8062
▁trentino	-10.8066
▁sodium	-10.8066
eti	-10.8069
▁caff	-10.807
▁tp	-10.8071
▁enabled	-10.8073
▁(15)	-10.8075
▁lime	-10.8077
▁followed	-10.8077
ific	-10.8078
▁grapes	-10.8086
▁1995	-10.809
019	-10.8095
cine	-10.8096
▁featuring	-10.8104
▁alone	-10.8104
▁taiwan	-10.8104
▁recently	-10.8107
▁paintings	-10.8115
▁romania	-10.8117
:44	-10.8122
used	-10.8127
ession	-10.8136
▁gua	-10.8138
▁0.8	-10.8139
train	-10.814
▁entries	-10.8142
therapy	-10.8144
▁heaven	-10.8155
itz	-10.8158
where	-10.8158
▁vel	-10.8158
oba	-10.8161
▁vineyards	-10.8161
▁beta	-10.8166
▁reflect	-10.8167
▁secondary	-10.8167
▁tissue	-10.8168
▁serious	-10.8168
location	-10.817
▁indicate	-10.8171
▁chief	-10.8171
▁sorry	-10.8172
▁rolls	-10.8178
07)	-10.8178
▁indonesian	-10.818
▁stella	-10.8184
▁cube	-10.8192
▁laura	-10.8192
▁mit	-10.8192
▁ceremony	-10.8194
▁fertilizer	-10.8194
▁resist	-10.8196
ifying	-10.8203
▁halloween	-10.8206
▁effort	-10.8207
nica	-10.8211
▁pigment	-10.8211
▁purchased	-10.8211
550	-10.8213
▁eating	-10.8213
▁playlist	-10.8214
▁winners	-10.8215
▁lesson	-10.8216
▁singer	-10.8219
▁beige	-10.822
▁agencies	-10.8221
▁fixture	-10.8221
▁pouch	-10.8221
▁breed	-10.8224
2020	-10.8225
kva	-10.823
▁1970	-10.823
▁giorgio	-10.8232
▁policies	-10.8232
260	-10.8233
▁francisco	-10.8239
tana	-10.824
ident	-10.8241
▁pietro	-10.8247
▁discharge	-10.8247
▁4+	-10.8255
grad	-10.8256
▁consist	-10.8257
▁founder	-10.8258
lift	-10.8258
▁prof	-10.8258
▁thus	-10.8261
gle	-10.8264
▁nik	-10.8269
▁servo	-10.8275
fix	-10.8277
▁gala	-10.8278
:41	-10.828
▁parma	-10.8284
▁accomodation	-10.8284
▁gabriel	-10.8284
▁attract	-10.8289
▁blocks	-10.8292
▁announce	-10.8292
35)	-10.8293
▁fest	-10.8294
stop	-10.8296
▁chick	-10.8297
▁poli	-10.8298
▁gap	-10.8298
▁gab	-10.8301
▁pub	-10.8304
▁cyber	-10.8304
:39	-10.8308
235	-10.8309
▁safari	-10.831
▁pel	-10.831
▁pale	-10.831
▁arg	-10.8314
▁badge	-10.8317
▁fen	-10.832
▁coordinate	-10.8323
▁ranking	-10.8323
▁lots	-10.8329
ground	-10.8331
▁confirmed	-10.8333
cream	-10.8333
▁deutsch	-10.8335
▁qualified	-10.8336
▁diploma	-10.8336
▁letters	-10.8337
▁9:00	-10.8341
▁chalet	-10.8341
▁sicilian	-10.8342
▁gir	-10.8343
▁facts	-10.8345
uring	-10.835
:47	-10.8351
▁ht	-10.8353
▁hang	-10.8353
316	-10.8356
0.3	-10.8357
iglia	-10.8359
▁4000	-10.836
▁mainly	-10.8364
▁larger	-10.8364
tron	-10.8365
▁hear	-10.8366
▁seasonal	-10.8366
▁prev	-10.8369
▁regard	-10.837
▁activated	-10.8371
yu	-10.8374
▁neoprene	-10.8375
▁stylish	-10.8375
▁sandwich	-10.8375
▁roast	-10.8377
rail	-10.8379
▁chor	-10.838
▁sync	-10.8384
▁0.6	-10.8384
▁removable	-10.8388
-28	-10.8389
▁degrees	-10.839
050	-10.8391
06)	-10.8395
race	-10.8399
▁yamaha	-10.8401
▁butterfly	-10.8401
▁0.4	-10.8403
▁norway	-10.8404
▁attractive	-10.8404
▁raised	-10.8406
▁successfully	-10.8408
wan	-10.841
▁cargo	-10.8411
▁hydra	-10.8411
nik	-10.8412
▁peel	-10.8412
▁thi	-10.8413
▁que	-10.8414
▁riga	-10.8415
▁128	-10.8415
▁duo	-10.8415
support	-10.8418
▁leak	-10.842
tax	-10.8421
▁lenses	-10.8421
115	-10.8423
▁pig	-10.8426
▁wrong	-10.8428
▁faith	-10.8428
▁gang	-10.8429
▁anywhere	-10.8433
▁mixing	-10.8433
▁contrast	-10.8434
2,00	-10.8435
▁headphones	-10.8436
▁capsule	-10.8437
▁donation	-10.844
▁shin	-10.844
▁highway	-10.8442
▁tee	-10.8447
ugg	-10.8449
▁pant	-10.8453
▁cuba	-10.8454
oral	-10.8456
▁screws	-10.8456
▁alpha	-10.8459
▁fitted	-10.8461
▁conditioner	-10.8463
▁maxim	-10.8465
cial	-10.8465
▁intelligence	-10.8467
▁increasing	-10.8467
elia	-10.8469
▁storm	-10.847
▁trim	-10.8472
▁violin	-10.8473
file	-10.8473
7.5	-10.8474
117	-10.8477
atory	-10.848
▁marriage	-10.8481
▁pizzeria	-10.8481
▁recycling	-10.8481
▁infection	-10.8481
▁microphone	-10.8483
▁partial	-10.8484
▁minimal	-10.8489
▁1.3	-10.8489
zhou	-10.8493
▁extrusion	-10.8494
blog	-10.8496
ounce	-10.8496
-2020	-10.8497
tini	-10.8498
▁gbp	-10.8499
▁condo	-10.8502
▁excursion	-10.8503
▁anni	-10.8506
▁denmark	-10.8508
▁passed	-10.8508
iko	-10.852
▁chapel	-10.8522
▁requires	-10.8522
▁activate	-10.8525
▁moments	-10.8527
▁funds	-10.8529
▁espresso	-10.8534
▁acc	-10.8536
▁fold	-10.8536
▁climb	-10.854
▁collector	-10.8541
▁piston	-10.8542
▁plasma	-10.8547
▁signature	-10.8549
▁forced	-10.8552
▁hay	-10.8553
▁twink	-10.8553
dine	-10.8554
▁flying	-10.8554
▁decide	-10.8555
▁prayer	-10.8557
rel	-10.8557
▁valentine	-10.856
▁sparkling	-10.8562
▁trap	-10.8565
▁conv	-10.8566
▁poor	-10.8571
glia	-10.8574
illo	-10.8575
rey	-10.8576
fra	-10.8577
116	-10.8586
▁invoice	-10.8587
esse	-10.8588
▁2.2	-10.8589
khz	-10.8594
▁(14)	-10.8594
▁stickers	-10.8595
vita	-10.8595
▁nan	-10.8596
fuck	-10.8596
ometer	-10.8597
▁palma	-10.8597
▁owners	-10.8597
▁drain	-10.86
▁biography	-10.8604
▁bride	-10.8605
automatic	-10.8605
▁ot	-10.8606
▁flip	-10.8608
▁seg	-10.861
▁gram	-10.8614
▁figures	-10.8616
ault	-10.862
aver	-10.8626
▁lawyer	-10.8628
▁immediate	-10.8628
▁stamping	-10.8635
▁dp	-10.8638
▁accu	-10.8638
▁catch	-10.864
ritz	-10.864
▁membrane	-10.8641
▁transsexual	-10.8641
▁yesterday	-10.8641
▁liguria	-10.8641
▁melbourne	-10.8641
▁introduced	-10.8643
▁polymer	-10.8645
!"	-10.8645
uce	-10.8646
▁analog	-10.8646
num	-10.8649
▁surrounded	-10.865
pussy	-10.865
▁acquisition	-10.8654
▁forces	-10.8656
massage	-10.8659
106	-10.8662
▁neuro	-10.8665
▁resident	-10.8667
▁hentai	-10.8668
▁experienced	-10.8672
ridge	-10.8674
3.0	-10.8676
etc	-10.8678
▁drag	-10.8679
▁tecno	-10.8681
▁flor	-10.8683
▁critical	-10.8686
▁discuss	-10.8687
▁additive	-10.8695
▁cooler	-10.8695
vision	-10.8696
▁visitor	-10.8697
trad	-10.8698
▁70%	-10.8702
▁pedal	-10.8703
▁relay	-10.8707
▁optimization	-10.8708
▁relief	-10.8708
▁criteria	-10.8708
▁desert	-10.8709
▁probe	-10.8714
rating	-10.8716
5,000	-10.8716
▁arte	-10.872
gro	-10.872
▁everyday	-10.8721
▁expect	-10.8721
▁quotation	-10.8722
latin	-10.8732
▁kick	-10.8734
▁indication	-10.8735
▁editing	-10.8738
function	-10.8739
special	-10.8741
▁killed	-10.8748
▁platinum	-10.8749
▁auction	-10.875
▁altitude	-10.8751
ove	-10.8753
▁0.7	-10.8754
▁herbal	-10.8758
▁boom	-10.8758
▁delta	-10.8761
▁numerous	-10.8762
▁preferences	-10.8763
ieri	-10.8768
▁operated	-10.8772
▁console	-10.878
▁rib	-10.8784
▁skype	-10.8787
▁rescue	-10.879
▁negative	-10.879
▁yearly	-10.8791
▁albania	-10.8792
▁remains	-10.8795
fri	-10.8798
▁crack	-10.8808
▁bending	-10.8808
▁europa	-10.8814
▁heels	-10.8816
▁ministry	-10.8817
▁cock	-10.8818
▁fiberglass	-10.8818
▁phil	-10.8823
▁$5	-10.8824
▁teachers	-10.8829
▁guangzhou	-10.8831
jun	-10.8831
▁described	-10.8831
▁lyon	-10.8832
▁modification	-10.8833
▁kiev	-10.8833
▁forgot	-10.8833
▁obtained	-10.884
▁trick	-10.8842
018	-10.8843
▁corp	-10.8843
▁[3	-10.8851
▁digit	-10.8858
▁prototype	-10.8858
▁strategies	-10.8858
▁yield	-10.8858
▁[...]	-10.8858
▁pissing	-10.8858
▁dip	-10.8863
▁wheat	-10.8863
2009	-10.8864
▁rural	-10.8866
▁streaming	-10.8867
agna	-10.8868
▁myth	-10.8868
▁visible	-10.8873
▁clicking	-10.8874
▁predict	-10.8875
▁missing	-10.8877
▁none	-10.8877
▁thor	-10.8879
▁bound	-10.8881
lau	-10.8882
▁renew	-10.8889
ghi	-10.8893
▁appropriate	-10.8893
▁layers	-10.8894
▁puglia	-10.89
▁exceptional	-10.8901
▁cone	-10.8902
bat	-10.8902
▁matching	-10.8908
▁colli	-10.8909
▁define	-10.8911
▁roblox	-10.8913
▁beau	-10.8914
▁alps	-10.8916
▁rig	-10.892
▁indicated	-10.8924
▁albert	-10.8925
lect	-10.8925
▁although	-10.8927
▁failure	-10.8928
▁280	-10.8933
▁timetable	-10.8935
▁mk	-10.8939
▁catholic	-10.8941
▁calabria	-10.8941
▁grams	-10.8943
▁fx	-10.8943
holder	-10.8944
▁silent	-10.8945
1200	-10.8949
▁lg	-10.8953
▁calculation	-10.8955
▁liverpool	-10.8955
▁toyota	-10.8955
▁scroll	-10.8957
iya	-10.8959
▁globe	-10.8961
mir	-10.8964
▁suggestions	-10.897
▁shipped	-10.8971
nico	-10.8972
▁emission	-10.8975
▁radi	-10.8979
illi	-10.8987
▁eggs	-10.8988
▁decided	-10.8992
jet	-10.8992
▁browsing	-10.8997
▁parallel	-10.8997
▁ptfe	-10.8998
▁panama	-10.9001
▁3/4	-10.9004
▁lever	-10.9004
▁mandatory	-10.9011
▁architectural	-10.9011
▁income	-10.9013
▁rt	-10.9013
▁lifetime	-10.9018
scope	-10.9018
▁addresses	-10.9019
▁hearing	-10.902
▁matte	-10.9023
▁deleted	-10.9024
▁exotic	-10.9025
▁weapon	-10.9025
ifier	-10.9026
▁richard	-10.9028
▁dressing	-10.9032
▁grace	-10.9032
▁charged	-10.9037
▁continued	-10.9039
▁transmitter	-10.904
▁sucking	-10.9041
zan	-10.9041
▁+1	-10.9045
▁bau	-10.9045
▁piace	-10.9046
fire	-10.9049
▁gave	-10.9051
▁publishing	-10.9052
▁sandals	-10.9054
▁lorenzo	-10.9055
▁terme	-10.9057
385	-10.906
rini	-10.9062
plast	-10.9064
occo	-10.9064
▁tai	-10.9068
▁formed	-10.9069
bic	-10.9069
▁tailor	-10.9071
999	-10.9072
cie	-10.9073
▁eden	-10.9073
therm	-10.9077
118	-10.9081
▁archaeological	-10.9081
▁proximity	-10.9081
190	-10.9081
▁santo	-10.9083
amateur	-10.9088
▁lv	-10.909
▁kissing	-10.9091
issi	-10.9092
▁drawings	-10.9093
▁corrugated	-10.9095
▁mykonos	-10.9095
▁stitch	-10.9101
asian	-10.9102
▁connecting	-10.9105
▁zoo	-10.9108
▁religion	-10.9109
▁formation	-10.9112
▁kim	-10.9114
5.5	-10.9117
atta	-10.9118
ander	-10.9119
▁kin	-10.9129
apartment	-10.9131
▁odm	-10.9131
▁discovery	-10.9134
▁harmony	-10.9137
▁tropical	-10.9137
▁passengers	-10.914
roy	-10.914
▁dancing	-10.9142
▁caused	-10.9149
wick	-10.915
9.5	-10.9152
▁issued	-10.9152
▁trieste	-10.9152
▁dolce	-10.9153
▁roberto	-10.9158
107	-10.9163
▁intermediate	-10.9165
jack	-10.9166
standard	-10.9175
model	-10.9175
▁election	-10.9176
▁jizzbunker	-10.9179
▁polyurethane	-10.9179
▁galleries	-10.918
▁18:00	-10.918
▁123	-10.9181
wire	-10.9186
▁understanding	-10.9186
google	-10.9188
▁mood	-10.919
960	-10.9192
▁$4	-10.9192
▁complaint	-10.9194
!-[	-10.9194
126	-10.9196
change	-10.9203
▁replaced	-10.9203
6,00	-10.9204
▁bouquet	-10.9208
▁excluded	-10.9208
▁speakers	-10.9208
▁attempt	-10.9208
▁ease	-10.9213
▁taxes	-10.9218
▁valle	-10.922
▁receiver	-10.9221
▁1980	-10.9221
▁1,5	-10.9222
▁pir	-10.9222
▁trio	-10.9224
▁asset	-10.9226
▁nicola	-10.9226
▁alt	-10.923
atti	-10.9231
cross	-10.9236
▁pandora	-10.9236
▁11:00	-10.9237
▁accordance	-10.9237
uel	-10.9237
cina	-10.9239
▁shift	-10.924
▁tac	-10.9242
making	-10.9245
▁vietnam	-10.925
▁illustration	-10.9251
▁satisfaction	-10.9251
corn	-10.9253
▁diana	-10.9254
▁cher	-10.9257
/15	-10.9259
▁(18+)1	-10.9259
▁gia	-10.9263
▁jewel	-10.9263
zero	-10.9264
▁restriction	-10.9265
▁vital	-10.9267
▁(16)	-10.927
▁tits	-10.927
▁cartier	-10.9276
▁nick	-10.9277
▁kon	-10.9277
▁washer	-10.9278
▁frozen	-10.9279
▁surname	-10.928
▁declare	-10.928
vdc	-10.9281
▁promise	-10.9281
▁diy	-10.9282
▁lou	-10.9283
exe	-10.9285
▁001	-10.9286
▁premier	-10.9287
cchio	-10.9289
▁(0	-10.9291
▁compatibility	-10.9294
▁carnival	-10.9294
▁sponge	-10.9294
▁wc	-10.9295
▁oli	-10.9296
365	-10.9298
▁tru	-10.93
▁patterns	-10.9303
phon	-10.9303
▁adv	-10.9305
▁vista	-10.931
▁1992	-10.9311
gallery	-10.9313
▁rou	-10.9313
▁jane	-10.9321
rone	-10.9321
▁splendid	-10.9322
idi	-10.9324
12.20	-10.9328
▁gan	-10.9331
▁consultation	-10.9332
005	-10.9333
▁comprehensive	-10.9337
▁itinerary	-10.9337
▁themselves	-10.9337
264	-10.9337
▁torque	-10.9338
▁limits	-10.9341
▁112	-10.9349
uga	-10.9349
▁torch	-10.9357
▁(24)	-10.9359
suite	-10.9368
▁batt	-10.9369
▁bai	-10.9376
▁rectangular	-10.938
▁vid	-10.9383
▁captain	-10.9385
▁sony	-10.9386
▁hop	-10.9387
▁arrangement	-10.9389
/9	-10.939
▁manufactured	-10.939
▁hardness	-10.9395
▁whom	-10.9396
ential	-10.9397
▁soldier	-10.9399
▁actual	-10.9399
▁scam	-10.9401
▁dd	-10.9402
aldo	-10.9402
cookie	-10.9404
/24	-10.9405
122	-10.9406
-2016	-10.9407
▁whatsapp	-10.941
▁generic	-10.9411
▁sitting	-10.9412
▁arrow	-10.9413
▁drone	-10.9417
113	-10.9417
139	-10.9418
▁countryside	-10.9419
game	-10.9419
▁abuse	-10.942
▁damaged	-10.942
▁travelling	-10.9422
▁glossy	-10.9423
▁supporting	-10.9424
▁stunning	-10.9424
▁explorer	-10.9429
▁array	-10.943
ignano	-10.943
▁overnight	-10.9433
leg	-10.9434
▁lane	-10.9434
▁affordable	-10.9438
text	-10.9439
▁scheme	-10.9439
▁ace	-10.9442
▁ibis	-10.9444
safe	-10.9447
▁disable	-10.9447
circ	-10.9448
chy	-10.945
▁tender	-10.9453
▁reducing	-10.9453
▁crime	-10.9453
▁balloon	-10.9455
▁knight	-10.9461
poly	-10.9465
▁uncategorized	-10.9467
▁venetian	-10.9468
▁classification	-10.9471
ancy	-10.9477
after	-10.9478
▁1/4	-10.9481
▁extraordinary	-10.9482
▁recognition	-10.9482
▁scratch	-10.9482
▁tolerance	-10.9482
▁simulator	-10.9483
▁dong	-10.9486
▁3.5+	-10.9489
▁glad	-10.9493
▁stan	-10.9493
▁spiral	-10.9498
lino	-10.9499
illumina	-10.95
▁sci	-10.9501
word	-10.9502
▁harness	-10.9505
▁principles	-10.9507
205	-10.9509
▁acetate	-10.9511
omy	-10.9514
▁beef	-10.9514
▁framework	-10.9516
▁happens	-10.9518
▁saved	-10.9522
plan	-10.9523
super	-10.9526
▁vegetarian	-10.9526
▁translator	-10.9526
▁premises	-10.9526
▁operators	-10.9533
dale	-10.9535
▁vary	-10.9541
two	-10.9542
babe	-10.9543
flow	-10.9546
zip	-10.9551
gun	-10.9551
▁bullet	-10.9551
112	-10.9554
tun	-10.9555
craft	-10.9555
▁furnace	-10.9556
▁upcoming	-10.9557
▁youporn	-10.956
▁loan	-10.9561
▁estonian	-10.9563
▁perfectly	-10.9563
▁sig	-10.9565
(6	-10.9565
▁templates	-10.9566
▁warsaw	-10.957
134	-10.9574
▁(17)	-10.9575
methyl	-10.9575
▁horn	-10.9578
ppa	-10.9578
psy	-10.9579
▁fried	-10.9585
▁bundle	-10.9585
foot	-10.9593
eye	-10.9593
▁berg	-10.9598
chlor	-10.9599
▁ethernet	-10.96
▁puerto	-10.96
▁unknown	-10.9602
quest	-10.9603
▁mtb	-10.9607
asi	-10.9608
▁hell	-10.9613
▁0.01	-10.9615
▁mushrooms	-10.9617
▁vine	-10.9618
▁psycho	-10.9619
games	-10.9622
▁infant	-10.9625
flat	-10.9629
ista	-10.9629
▁spandex	-10.963
olone	-10.9636
▁romeo	-10.9637
marine	-10.9638
▁subway	-10.9639
▁seating	-10.9639
any	-10.9642
▁excelsior	-10.9644
▁folk	-10.9645
▁visibility	-10.9645
▁blades	-10.9645
iness	-10.9647
▁plum	-10.9647
▁businesses	-10.9648
fan	-10.9649
▁garlic	-10.9649
169	-10.9651
▁bulgaria	-10.9652
arte	-10.9656
▁florida	-10.9659
▁neutral	-10.9659
▁eliminate	-10.9659
▁rolled	-10.9662
▁aging	-10.9663
▁tt	-10.9666
▁terre	-10.9668
▁parameter	-10.9673
1.8	-10.9674
▁hinge	-10.9675
▁rohs	-10.9678
ality	-10.9678
▁oval	-10.9679
hydr	-10.9682
▁logic	-10.9687
▁ambassador	-10.9689
▁coupling	-10.9689
▁operational	-10.9693
▁launched	-10.9695
▁lowest	-10.9697
▁1080	-10.9701
▁marathon	-10.9704
▁volunteer	-10.9704
▁activation	-10.9704
▁chu	-10.9704
▁sandy	-10.9704
▁courtyard	-10.9705
▁notify	-10.9708
▁bbc	-10.9712
summer	-10.9718
▁gentle	-10.9719
▁crafts	-10.9719
▁sacred	-10.972
/08/20	-10.9721
▁sito	-10.9723
▁tale	-10.9725
▁comb	-10.9728
▁router	-10.9731
203	-10.9732
▁adidas	-10.9734
▁pharmacy	-10.9735
▁fireplace	-10.9736
▁kir	-10.9736
▁silence	-10.9736
▁sem	-10.9737
004	-10.9742
▁lap	-10.9743
cool	-10.9746
▁20.00	-10.9746
▁appears	-10.9747
▁cashmere	-10.9749
▁username	-10.9753
▁quar	-10.9754
rink	-10.9756
stat	-10.9757
ente	-10.9758
nan	-10.9759
▁ethnic	-10.9765
▁romagna	-10.9766
▁86-	-10.9767
tum	-10.9768
emia	-10.9774
▁hut	-10.9776
teria	-10.9778
▁federal	-10.9779
▁hunter	-10.978
▁lugano	-10.978
▁ironing	-10.9786
required	-10.9792
▁engraving	-10.9794
▁nudist	-10.9794
▁joseph	-10.9795
▁spiritual	-10.9796
340	-10.9798
doc	-10.9799
music	-10.9801
185	-10.9807
track	-10.9808
▁heated	-10.9811
▁context	-10.9811
▁requesting	-10.9813
▁camper	-10.9814
▁lago	-10.9815
product	-10.9819
▁parent	-10.982
nelli	-10.9823
▁artisan	-10.9825
level	-10.9835
email	-10.9835
▁fal	-10.9837
▁centro	-10.984
▁edu	-10.9844
▁kris	-10.9845
▁iran	-10.9849
▁cheating	-10.9851
10%	-10.9853
▁otherwise	-10.9855
▁stripe	-10.9856
▁lex	-10.9858
▁rossi	-10.9861
▁1993	-10.9862
▁vineyard	-10.9863
pho	-10.9865
girlfriend	-10.9868
▁tomorrow	-10.987
▁champagne	-10.987
office	-10.9873
▁crib	-10.9881
▁liner	-10.9882
este	-10.9883
▁comply	-10.9883
6.5	-10.9884
crete	-10.9884
▁receipt	-10.9885
▁solenoid	-10.9885
▁violet	-10.9886
▁tooth	-10.9888
▁tb	-10.9889
▁moq	-10.9893
▁5.0	-10.9894
▁24/7	-10.9894
265	-10.9896
330	-10.9897
310	-10.9905
▁rider	-10.9905
▁berry	-10.9906
850	-10.9909
▁floating	-10.9911
▁crop	-10.9915
▁sanitary	-10.9916
▁threat	-10.9916
generation	-10.9918
▁5*,	-10.9918
▁herbs	-10.9925
emp	-10.9927
▁masturbation	-10.993
▁anabolic	-10.9931
▁harbour	-10.9931
▁café	-10.9931
▁oriental	-10.9931
local	-10.9932
▁removed	-10.9932
▁preserve	-10.9933
multi	-10.9933
▁nuts	-10.9934
bay	-10.9934
▁almond	-10.9938
ddle	-10.9941
▁construct	-10.9947
345	-10.9949
131	-10.9953
lake	-10.9957
▁particularly	-10.9958
▁fear	-10.996
▁spanking	-10.9963
213	-10.9968
▁feli	-10.9969
204	-10.9971
▁ry	-10.9972
▁trainer	-10.9976
▁gorgeous	-10.9977
▁hesitate	-10.9977
aggio	-10.9981
▁lauren	-10.9983
144	-10.9983
119	-10.9986
▁3.2	-10.9987
6.0	-10.999
block	-10.9993
▁tear	-10.9995
▁dosage	-10.9996
ambi	-10.9999
▁batch	-11.0004
3000	-11.0007
▁bush	-11.0007
▁145	-11.0008
▁barbecue	-11.0008
▁cyprus	-11.0008
▁prestigious	-11.0008
▁reinforced	-11.0008
▁duplex	-11.0009
▁throw	-11.001
▁biggest	-11.0011
rous	-11.0012
▁excel	-11.0019
▁advise	-11.002
▁modena	-11.002
▁declaration	-11.0023
▁alessandro	-11.0023
▁invitation	-11.0023
▁shr	-11.0026
kon	-11.0027
▁outlook	-11.0028
▁beans	-11.003
▁zakynthos	-11.0031
▁georgia	-11.0031
▁hz	-11.0031
▁opt	-11.0032
benz	-11.0034
0.8	-11.0035
▁archi	-11.0036
your	-11.0037
▁viola	-11.0038
▁giuseppe	-11.0039
▁refuge	-11.0039
▁toronto	-11.0039
ador	-11.0045
▁liability	-11.0048
▁05:00	-11.0051
▁pastry	-11.0051
▁assets	-11.0053
▁gian	-11.0054
▁hungary	-11.0054
▁ordinary	-11.0054
▁kraft	-11.0056
▁dad	-11.0058
▁transformation	-11.0059
▁generate	-11.0066
▁compared	-11.0078
▁deepthroat	-11.008
turn	-11.0083
▁fighting	-11.0087
▁blanket	-11.0089
▁quite	-11.0094
▁surrounding	-11.0094
▁announcement	-11.0095
124	-11.0099
▁rho	-11.0102
smart	-11.0104
hara	-11.0104
▁seeking	-11.0105
▁pacific	-11.0111
.08.	-11.0114
▁lack	-11.0122
▁stair	-11.0135
▁organise	-11.0136
▁bathtub	-11.0142
▁labor	-11.0143
▁(25)	-11.0144
▁mq	-11.0146
▁concerning	-11.0146
▁sho	-11.0147
▁zan	-11.0163
006	-11.0163
▁leaving	-11.0163
download	-11.0164
▁keypad	-11.0166
▁solvent	-11.0166
▁insect	-11.0173
gmail	-11.0175
▁pregnancy	-11.0179
▁intervention	-11.0179
▁spr	-11.0185
▁gather	-11.0186
heim	-11.0187
▁incredible	-11.0195
▁interaction	-11.0195
▁studied	-11.0195
▁wishlist	-11.0196
0.4	-11.0197
▁deadline	-11.0199
center	-11.0202
▁mun	-11.0203
▁turned	-11.0209
mania	-11.021
pie	-11.021
▁legislative	-11.021
▁modify	-11.021
brand	-11.0212
▁spark	-11.0213
▁absolute	-11.0214
▁generally	-11.0214
▁2.1	-11.0214
/17	-11.0215
ggy	-11.0217
▁verde	-11.0223
▁argentina	-11.0226
▁elbow	-11.0226
call	-11.0226
▁strike	-11.0227
▁attachment	-11.0232
iser	-11.0233
plate	-11.0234
rfq	-11.0235
▁hdmi	-11.024
▁parliament	-11.0242
▁kh	-11.0242
▁elba	-11.0245
▁smith	-11.0254
▁alice	-11.0255
sheet	-11.0256
▁broken	-11.0259
▁showcase	-11.0263
▁expression	-11.0269
▁108	-11.0269
▁victory	-11.0271
▁federation	-11.0273
▁renovated	-11.0273
▁bodies	-11.0274
▁ruby	-11.0276
small	-11.0276
129	-11.0279
+2	-11.028
▁fixing	-11.028
▁projector	-11.0286
▁impression	-11.0289
ccia	-11.0291
▁birds	-11.0292
▁cham	-11.0293
▁castello	-11.0296
▁(*)	-11.0297
uto	-11.0298
▁lumin	-11.0304
▁freight	-11.0306
▁175	-11.0306
▁kam	-11.0306
▁proposal	-11.031
▁maxi	-11.0311
▁baking	-11.0312
▁1989	-11.0315
▁swim	-11.0318
▁configure	-11.0321
▁exciting	-11.0321
▁lecture	-11.0321
▁vinegar	-11.0322
▁vanilla	-11.0324
▁bead	-11.0324
▁amber	-11.0325
▁jewellery	-11.0337
ferra	-11.0339
▁!!!	-11.0346
bury	-11.0346
length	-11.0354
▁suede	-11.0355
▁verification	-11.0355
▁institutions	-11.0356
neck	-11.0357
▁barber	-11.0365
touch	-11.0368
▁extensive	-11.0369
8.5	-11.0369
▁priest	-11.0374
▁ion	-11.0378
▁redtube	-11.0378
▁introduce	-11.0382
▁majestic	-11.0385
▁probably	-11.0385
▁nt	-11.0386
▁nord	-11.0387
steel	-11.0387
select	-11.0388
▁anyone	-11.0388
▁composer	-11.0395
▁rd	-11.0399
lee	-11.04
▁dispenser	-11.0401
▁bristol	-11.0401
▁tempered	-11.0401
▁automobile	-11.0402
▁gotporn	-11.0403
▁loose	-11.0406
▁desired	-11.0408
.03.2	-11.0408
4]	-11.0408
▁emotions	-11.0409
▁exclusively	-11.0411
gne	-11.0415
▁suck	-11.0415
▁amplifier	-11.0417
▁recycled	-11.0417
▁arrived	-11.0417
▁diode	-11.0418
▁ville	-11.042
▁25%	-11.0424
abili	-11.0429
euro	-11.043
▁ava	-11.0432
▁retrieve	-11.0433
▁texas	-11.0433
▁utc	-11.0436
▁milfs	-11.0441
easy	-11.0442
480	-11.0445
▁reflective	-11.0447
▁exceed	-11.0449
▁8:00	-11.045
▁40%	-11.0452
▁reporting	-11.0453
▁mist	-11.0457
410	-11.0457
bud	-11.046
▁shore	-11.0464
▁polypropylene	-11.0465
▁strengthen	-11.0466
▁highlight	-11.0469
▁assemble	-11.0477
370	-11.0486
▁vir	-11.0488
152	-11.0489
1.6	-11.0491
▁gloss	-11.0495
path	-11.0495
▁conversation	-11.0498
▁marrakech	-11.0498
▁beads	-11.0498
▁morocco	-11.0498
▁rid	-11.0499
▁bud	-11.05
hardcore	-11.05
▁latitude	-11.0502
▁mut	-11.0503
▁retailer	-11.0504
▁disco	-11.0505
natural	-11.051
▁serie	-11.0513
▁diff	-11.0513
▁housewife	-11.0516
vpn	-11.052
▁canon	-11.052
▁marche	-11.0523
▁curve	-11.0526
▁crypto	-11.0528
▁vase	-11.053
▁0.9	-11.053
▁alghero	-11.053
▁personnel	-11.0534
▁esp	-11.0536
▁shake	-11.0538
▁barcode	-11.054
▁chronic	-11.0546
▁cougar	-11.0546
▁gender	-11.0548
▁variation	-11.0548
aux	-11.0552
▁(28)	-11.0554
▁(27)	-11.0555
▁polishing	-11.0563
▁candidate	-11.0564
▁editorial	-11.0564
▁365	-11.0568
▁though	-11.0576
azione	-11.0577
▁luxembourg	-11.0579
▁wardrobe	-11.0579
▁jewels	-11.0583
▁notebook	-11.0584
▁bert	-11.0587
just	-11.0587
slav	-11.0588
oxid	-11.0595
▁femdom	-11.0596
▁treated	-11.0596
▁spider	-11.0598
▁merge	-11.0599
▁potatoes	-11.0602
▁ended	-11.0603
▁containing	-11.0605
4.2	-11.0613
▁vegas	-11.0615
▁vac	-11.0615
▁mentioned	-11.062
racy	-11.062
▁municipal	-11.0624
▁occ	-11.0626
▁boston	-11.0629
look	-11.063
▁9.00	-11.063
smoking	-11.0631
▁seville	-11.0631
▁radiator	-11.0632
156	-11.0637
▁deca	-11.0637
▁(26)	-11.0638
▁theory	-11.0642
▁monastery	-11.0644
▁stockholm	-11.0644
▁tasty	-11.0645
▁expected	-11.0646
shell	-11.0646
▁dorm	-11.0647
4,00	-11.0648
reservation	-11.0649
▁conta	-11.0649
gui	-11.0649
▁banana	-11.065
▁omni	-11.065
▁exactly	-11.0654
motion	-11.0654
390	-11.066
▁fred	-11.066
▁copenhagen	-11.0661
▁tentacle	-11.0661
▁essence	-11.0661
▁radius	-11.0667
mol	-11.0672
▁elect	-11.0677
▁literature	-11.0678
▁corsica	-11.068
▁soundproof	-11.068
▁gardena	-11.0685
▁false	-11.0686
▁165	-11.0686
▁specialties	-11.0691
▁pont	-11.0691
▁surgical	-11.0694
▁aurora	-11.0694
▁daddy	-11.0695
/2014	-11.0697
▁gearbox	-11.0698
dog	-11.0698
▁switches	-11.0709
▁pattaya	-11.071
bru	-11.0713
▁verified	-11.0713
▁thy	-11.0714
fill	-11.0718
▁customization	-11.0725
▁granite	-11.0731
stream	-11.0732
234	-11.0733
▁acqua	-11.0733
▁coal	-11.0734
▁lind	-11.0737
lou	-11.0737
▁yard	-11.0739
▁shu	-11.0739
016	-11.074
▁oxford	-11.0744
▁cbd	-11.0744
▁astro	-11.0745
nite	-11.0746
▁seaside	-11.0748
133	-11.0754
175	-11.0754
▁jin	-11.0757
(7	-11.0758
▁surveillance	-11.076
▁mast	-11.076
▁archivi	-11.076
▁alanya	-11.076
▁opti	-11.0767
▁lava	-11.0768
▁developing	-11.0768
▁runner	-11.0769
▁skate	-11.0774
▁informed	-11.0774
cart	-11.0776
▁[]	-11.0776
▁appreciate	-11.0777
▁actress	-11.0777
atura	-11.0777
phase	-11.0778
▁poet	-11.0779
wine	-11.0781
door	-11.0782
▁limitation	-11.0783
▁barbara	-11.0785
▁tease	-11.0791
▁lacquer	-11.0793
▁awesome	-11.0793
▁buckle	-11.0794
culture	-11.08
▁divide	-11.0801
▁positioning	-11.0803
270	-11.0805
▁feast	-11.0806
▁proud	-11.0808
▁axle	-11.0809
▁arche	-11.0809
search	-11.0812
▁suction	-11.0814
resistant	-11.0814
cade	-11.0818
▁flora	-11.0821
cip	-11.0824
▁tenerife	-11.0827
▁concentrate	-11.0827
▁carbide	-11.0827
cumshot	-11.0828
▁lm	-11.083
▁finishes	-11.0836
▁unread	-11.0838
▁iceland	-11.0839
▁overlooking	-11.0844
▁entirely	-11.0845
▁mental	-11.0845
2.2	-11.0845
▁wound	-11.0847
▁heel	-11.085
▁bishop	-11.0852
▁1991	-11.0853
2.7	-11.0854
▁commerce	-11.086
evo	-11.0861
▁consultancy	-11.0861
▁cousin	-11.0861
▁durability	-11.0863
current	-11.0866
▁permission	-11.0866
▁astoria	-11.0867
carbon	-11.0868
pop	-11.087
▁scrap	-11.087
▁sealed	-11.0872
▁rather	-11.0878
▁mud	-11.088
▁importance	-11.0881
▁conti	-11.0881
▁eric	-11.0881
▁gli	-11.0882
▁principle	-11.0882
▁retreat	-11.0882
▁smell	-11.0883
▁underwear	-11.0884
▁extraction	-11.0884
▁startup	-11.0885
▁donate	-11.0888
▁lite	-11.0892
▁gyno	-11.0894
▁rab	-11.0904
▁proposals	-11.0905
azzo	-11.0909
lash	-11.0909
▁piedmont	-11.0911
▁heroes	-11.0913
outdoor	-11.0917
404	-11.0918
zione	-11.0921
▁tiffany	-11.0928
▁drtuber	-11.0928
▁orlando	-11.0928
most	-11.0934
▁3.1	-11.0936
▁touring	-11.094
▁filtration	-11.0942
▁reflection	-11.0943
▁noble	-11.0945
▁specify	-11.0946
▁850	-11.0946
para	-11.0947
▁seafood	-11.0951
wide	-11.0953
▁musician	-11.0958
lé	-11.096
▁belvedere	-11.0962
▁outstanding	-11.0962
▁spent	-11.0963
▁bonuses	-11.0967
share	-11.097
php	-11.0973
▁originally	-11.0978
▁bordeaux	-11.0979
▁calcium	-11.0979
▁electrode	-11.0979
▁prompt	-11.0979
aku	-11.0981
yellow	-11.0984
▁testimonials	-11.0985
have	-11.0986
tian	-11.099
▁loft	-11.0991
ibility	-11.0993
▁ergonomic	-11.0996
▁principal	-11.0996
▁emirates	-11.0996
▁titan	-11.0997
▁straw	-11.1004
bedroom	-11.1005
▁mia	-11.1005
▁seems	-11.1012
▁biscuit	-11.1013
▁metropolitan	-11.1013
▁satisfy	-11.1013
▁universe	-11.1014
motor	-11.1017
wheel	-11.1018
build	-11.1019
iii	-11.1022
kel	-11.1024
▁greenhouse	-11.1025
▁objectives	-11.1028
▁eagle	-11.103
ivity	-11.1032
▁tal	-11.1034
lesbian	-11.1039
▁6000	-11.1042
▁macro	-11.1043
▁sweater	-11.1044
▁nm	-11.1047
▁rpm	-11.1047
▁customizable	-11.1047
▁employ	-11.1048
micro	-11.1054
mobile	-11.1056
▁rum	-11.1057
290	-11.1058
▁allactionhost	-11.1064
feld	-11.1064
▁optimal	-11.1065
▁ivory	-11.1065
▁llc	-11.1067
▁19:00	-11.1075
▁bend	-11.1079
▁5.5	-11.1081
▁cigarette	-11.1081
▁dictionary	-11.1081
177	-11.1086
▁flute	-11.1092
2008	-11.1095
▁koh	-11.1096
▁106	-11.1097
▁accommodate	-11.1098
▁marseille	-11.1098
▁cum	-11.1098
▁gown	-11.1099
▁crash	-11.1099
▁denim	-11.1102
▁mali	-11.1108
138	-11.1108
▁nose	-11.1109
▁actually	-11.1113
▁scheduled	-11.1115
▁naughty	-11.1115
3.2	-11.1116
▁identifie	-11.1117
▁publish	-11.1117
▁unisex	-11.1119
▁stor	-11.1122
▁petro	-11.1124
▁estimated	-11.1125
▁publisher	-11.1126
▁sheep	-11.1128
▁116	-11.113
50%	-11.1131
▁instructor	-11.1133
▁teenager	-11.1133
▁proper	-11.1134
▁qr	-11.1134
▁advisor	-11.1135
travel	-11.1136
▁describe	-11.1136
▁punch	-11.1138
▁teatro	-11.1141
▁plating	-11.1142
▁80%	-11.1149
condition	-11.115
▁forever	-11.115
▁realization	-11.115
aldi	-11.1152
▁270	-11.1154
▁retain	-11.1155
2.3	-11.1161
▁edi	-11.1161
▁reported	-11.1163
▁barba	-11.1167
▁gadget	-11.1167
▁ducati	-11.1167
▁tang	-11.1172
▁talking	-11.1175
▁normally	-11.1182
▁14:00	-11.1184
12345678910	-11.1185
▁sunporno	-11.1185
▁slightly	-11.1185
being	-11.1185
▁bir	-11.1186
▁grilled	-11.1187
▁jay	-11.119
▁youll	-11.1191
roid	-11.1193
▁lamination	-11.1202
▁baggage	-11.1202
burn	-11.1204
▁dine	-11.1205
▁defined	-11.1206
▁math	-11.1208
▁viagra	-11.1212
▁basil	-11.1215
▁pakistan	-11.1219
▁paphos	-11.1219
▁reseller	-11.122
▁memories	-11.122
▁thinking	-11.122
▁stuff	-11.1222
hall	-11.1222
▁1-2	-11.1227
▁irish	-11.1232
▁sewing	-11.1234
cake	-11.1235
▁implant	-11.1238
tab	-11.1239
▁alter	-11.1239
▁binary	-11.1241
5000	-11.1241
▁natur	-11.1241
pole	-11.1246
worth	-11.1249
▁1800	-11.1251
▁favor	-11.1254
▁perspective	-11.1254
▁walnut	-11.1254
▁montreal	-11.1255
▁carefully	-11.1262
▁thermostat	-11.1262
▁porta	-11.1264
▁strain	-11.1265
▁booster	-11.1269
▁sensitivity	-11.1272
▁spindle	-11.1272
▁cairo	-11.1273
biz	-11.1277
▁whose	-11.1278
▁alto	-11.1279
▁+41	-11.1279
▁ankle	-11.1279
196	-11.1279
▁feeder	-11.1283
image	-11.1284
▁insulated	-11.1289
▁fifth	-11.1289
▁brescia	-11.129
▁wake	-11.1292
▁9001	-11.1292
▁levi	-11.1298
stitution	-11.1302
▁colo	-11.1304
▁invisible	-11.1307
215	-11.1307
▁nominal	-11.1307
▁seduced	-11.1307
▁meditation	-11.1308
source	-11.1309
▁footwear	-11.131
breakfast	-11.1314
▁appliances	-11.1317
▁hanger	-11.132
team	-11.132
▁authorized	-11.132
(8	-11.1322
▁correction	-11.1323
▁grinder	-11.1324
▁vapor	-11.1325
winter	-11.1329
material	-11.1332
▁refined	-11.1332
pixel	-11.1332
▁kart	-11.1337
stage	-11.1339
5]	-11.1344
208	-11.1346
▁classified	-11.1347
145	-11.135
▁720	-11.1353
▁mike	-11.1358
▁remaining	-11.1359
▁rainbow	-11.136
▁tailored	-11.136
▁enamel	-11.136
127	-11.1361
anne	-11.1363
▁weld	-11.1367
yama	-11.1368
weight	-11.1371
coll	-11.1372
015	-11.1374
▁convenience	-11.1377
▁diagnosis	-11.1377
▁ventilation	-11.1377
▁speech	-11.1377
▁speaking	-11.1384
▁cpu	-11.1384
▁lagoon	-11.1386
▁freezer	-11.1388
▁dock	-11.139
▁cosmo	-11.1392
▁=>	-11.1393
▁utility	-11.1395
▁renovation	-11.1395
▁induction	-11.1398
plant	-11.1402
▁smaller	-11.1402
▁underwater	-11.1404
333	-11.1405
▁480	-11.1405
quot	-11.1412
▁ero	-11.1412
▁trouble	-11.1413
▁107	-11.1413
▁shrink	-11.1413
▁simulation	-11.1414
▁fertil	-11.1418
factory	-11.1418
pool	-11.1426
▁microfiber	-11.143
▁producing	-11.143
▁coconut	-11.143
▁java	-11.1434
007	-11.1441
fall	-11.1443
▁tracker	-11.1443
▁chris	-11.1444
tree	-11.1444
155	-11.1448
▁jerusalem	-11.1448
▁jesolo	-11.1448
▁ambient	-11.1448
▁glitter	-11.1449
▁brought	-11.1449
▁esc	-11.145
▁advertisement	-11.1454
▁blast	-11.1454
▁cava	-11.1456
▁ceo	-11.1456
bie	-11.1456
▁rustic	-11.146
cloud	-11.146
sseldorf	-11.1466
will	-11.1473
▁sperm	-11.1474
▁maison	-11.1475
/2013	-11.1481
▁petrol	-11.1482
vista	-11.1487
▁particle	-11.1491
▁plat	-11.1494
amine	-11.1498
ghz	-11.15
▁2500	-11.15
3.3	-11.1501
▁rover	-11.1502
▁critic	-11.1503
▁stain	-11.1503
▁recommendations	-11.1503
0.6	-11.1504
zie	-11.1508
ncies	-11.151
▁headset	-11.1515
▁stroll	-11.1515
▁sightseeing	-11.152
▁tensile	-11.152
▁wu	-11.152
ether	-11.1522
2.8	-11.1522
▁kate	-11.1525
▁tiger	-11.1527
▁suggested	-11.1536
film	-11.1536
▁retention	-11.1538
▁liberty	-11.1538
▁155	-11.1538
▁surge	-11.1544
225	-11.1547
walk	-11.1548
▁shiny	-11.1552
couple	-11.1553
▁syracuse	-11.1556
▁baroque	-11.1556
bble	-11.1568
▁burning	-11.157
▁lisa	-11.1572
▁administrator	-11.1574
+39	-11.1574
▁diego	-11.1575
▁difficulty	-11.1578
▁decorated	-11.1578
136	-11.1583
nautic	-11.1588
onne	-11.1588
▁campo	-11.1588
▁justice	-11.159
▁lanzarote	-11.1592
▁serbia	-11.1592
▁binding	-11.1595
▁premiere	-11.1598
▁alien	-11.1599
▁lithuanian	-11.1602
186	-11.1604
▁museo	-11.1605
▁mint	-11.1609
▁horizon	-11.1609
▁havana	-11.161
sperma	-11.1612
▁healing	-11.1612
▁granada	-11.1612
▁finland	-11.1615
▁biological	-11.1616
▁spe	-11.1617
▁patio	-11.1618
japanese	-11.162
▁lucky	-11.1623
ically	-11.1624
project	-11.1626
rock	-11.1627
▁versatile	-11.1628
▁shelves	-11.1628
▁calculate	-11.1629
▁mistress	-11.1629
▁mov	-11.1631
▁sac	-11.1632
▁fol	-11.1632
▁wrist	-11.1634
▁franco	-11.1634
▁gmt	-11.1634
▁weak	-11.1637
▁michele	-11.1638
▁thr	-11.164
country	-11.1643
▁1.7	-11.1644
▁twenty	-11.1646
▁throat	-11.1646
▁cancun	-11.1647
▁ghetto	-11.1647
440	-11.1649
▁mdf	-11.1649
▁joe	-11.1652
▁duke	-11.1652
▁vocal	-11.1652
horn	-11.1653
vari	-11.1656
frame	-11.1656
▁prove	-11.1657
▁90%	-11.1658
▁cologne	-11.1664
posi	-11.1665
▁rust	-11.1666
▁neu	-11.1666
▁enlarge	-11.1667
▁stool	-11.1669
learn	-11.1669
tory	-11.1677
301	-11.1678
visit	-11.1679
▁builder	-11.1681
▁embassy	-11.1683
▁qualification	-11.1683
scale	-11.1686
▁renewable	-11.1687
▁lantern	-11.1688
flower	-11.1689
▁typ	-11.169
137	-11.1694
▁(30)	-11.1698
uzzi	-11.17
▁evidence	-11.1701
▁glasgow	-11.1701
▁greeting	-11.1701
▁affair	-11.1701
condens	-11.1705
▁malaga	-11.1706
4.8	-11.1706
▁glory	-11.1706
▁betting	-11.1706
▁gsm	-11.1707
▁kla	-11.1712
▁purchasing	-11.1719
▁pac	-11.172
▁observe	-11.1721
esco	-11.1721
▁foto	-11.1725
▁distributed	-11.1737
▁longitude	-11.1737
▁separator	-11.1737
▁intensive	-11.1737
▁licking	-11.1738
▁wishes	-11.1739
▁banking	-11.1739
▁dairy	-11.174
gay	-11.1741
▁hollow	-11.1741
ppe	-11.1742
▁borgo	-11.1749
▁1988	-11.175
flor	-11.1753
▁teach	-11.1755
grade	-11.1756
▁knives	-11.1756
▁employment	-11.1758
▁7.5	-11.1759
▁copies	-11.1759
▁foldable	-11.1761
▁suspended	-11.1764
168	-11.1765
▁goose	-11.1768
▁characteristic	-11.1768
▁filler	-11.177
1500	-11.1772
shemale	-11.1773
▁inventory	-11.1774
▁courtesy	-11.1774
▁organizer	-11.1779
▁napa	-11.1781
bridge	-11.1783
▁johnson	-11.1784
▁gum	-11.1785
▁recorder	-11.179
▁disclosure	-11.1792
knulling	-11.1793
▁treviso	-11.1794
▁bore	-11.1794
430	-11.1795
iglio	-11.1795
▁flashing	-11.1796
▁healthcare	-11.1796
720	-11.18
▁offset	-11.1811
▁complement	-11.1811
▁perugia	-11.1812
1/2	-11.1812
3,00	-11.1816
▁brew	-11.1821
▁disney	-11.1834
▁becoming	-11.1834
▁raise	-11.1835
▁billion	-11.1837
▁swa	-11.1841
▁sala	-11.1845
▁passing	-11.1849
four	-11.1851
▁trump	-11.1853
▁winding	-11.1854
▁juan	-11.1855
hood	-11.1855
▁chiller	-11.1858
▁tiny	-11.1866
4.1	-11.1867
▁determine	-11.1868
▁apulia	-11.187
▁karl	-11.187
▁agenda	-11.1871
clean	-11.1875
found	-11.1876
▁discussion	-11.1878
titude	-11.1882
▁basin	-11.1884
8.0	-11.1887
146	-11.1889
▁greatest	-11.1892
single	-11.19
▁hygiene	-11.1904
▁technician	-11.1904
▁medication	-11.1904
▁oxide	-11.1904
▁dangerous	-11.1905
▁fusion	-11.1907
▁mig	-11.1917
liquid	-11.1918
510	-11.1919
▁robotic	-11.1925
▁fuck	-11.1932
including	-11.1934
▁victor	-11.1936
▁renaissance	-11.1941
▁sensual	-11.1941
▁bloom	-11.1941
305	-11.1941
▁fog	-11.1943
▁mixture	-11.1943
▁bought	-11.1944
009	-11.1945
▁prima	-11.1949
wei	-11.1952
▁judge	-11.196
gran	-11.1965
▁uncle	-11.1966
▁painter	-11.1966
▁0039	-11.1968
▁mention	-11.1969
heng	-11.1977
▁satisfied	-11.1979
▁subsequent	-11.1979
▁eventually	-11.1979
▁vicenza	-11.1979
▁excess	-11.1979
ctu	-11.1979
▁twice	-11.198
▁integrate	-11.1984
▁dre	-11.1984
▁remained	-11.1987
tronic	-11.1989
paper	-11.199
boot	-11.1993
▁scott	-11.1997
▁crisis	-11.1999
▁employee	-11.1999
206	-11.2
▁von	-11.2004
209	-11.2005
lang	-11.2008
▁marino	-11.2014
▁pursuant	-11.2016
▁salzburg	-11.2016
▁amusement	-11.2016
▁manchester	-11.2019
▁curved	-11.202
asco	-11.2023
▁groove	-11.2026
▁strange	-11.2026
correct	-11.2029
state	-11.203
▁imported	-11.2033
.09.2	-11.2034
▁burner	-11.2035
▁tobacco	-11.2035
▁1100	-11.2036
▁aerial	-11.2037
▁mob	-11.2038
▁arabia	-11.2049
hoe	-11.2049
▁jewish	-11.2054
▁ferrara	-11.2054
▁translated	-11.2056
▁endo	-11.2056
▁ghost	-11.206
▁(29)	-11.2062
▁andrew	-11.2064
▁(31)	-11.2065
please	-11.2068
▁absolutely	-11.2069
▁moulding	-11.2072
▁abruzzo	-11.2073
▁matrix	-11.2073
▁postal	-11.2075
▁velo	-11.2078
install	-11.2083
building	-11.2083
▁elena	-11.2085
▁transmit	-11.2089
▁behavior	-11.2092
▁handheld	-11.2092
▁intended	-11.2092
▁radisson	-11.2092
logical	-11.2092
▁lecce	-11.2092
▁crowd	-11.2092
arian	-11.2094
▁kept	-11.2098
▁balanced	-11.21
▁audition	-11.2105
▁bravotube	-11.2111
▁henry	-11.2111
▁converted	-11.2114
▁plaster	-11.2115
▁09:00	-11.2115
colo	-11.2116
▁shine	-11.2117
▁fuji	-11.2117
▁gau	-11.2119
▁rj	-11.2125
break	-11.2129
▁turbine	-11.213
▁colombia	-11.213
▁kinky	-11.2131
▁laminate	-11.2133
157	-11.2135
▁locker	-11.2136
▁gig	-11.214
there	-11.2143
series	-11.2144
▁1.9	-11.2145
▁transparency	-11.2149
ania	-11.2155
▁4.5+	-11.2155
▁cert	-11.2161
hold	-11.2162
▁chop	-11.2162
▁nap	-11.2163
165	-11.2165
▁homo	-11.2167
▁academic	-11.2168
▁excluding	-11.2171
▁immobil	-11.2177
▁1985	-11.2177
brunette	-11.2182
▁truly	-11.2184
▁pork	-11.2186
▁luigi	-11.2188
▁alliance	-11.2188
▁brutal	-11.2189
▁magical	-11.219
▁establishment	-11.2192
bella	-11.2201
enzo	-11.2203
otel	-11.2205
▁equivalent	-11.2206
▁ethics	-11.2207
▁gasoline	-11.2207
▁fond	-11.2208
uru	-11.2209
▁datasheet	-11.2215
▁fem	-11.2222
operative	-11.2223
▁vivi	-11.2224
▁tram	-11.2225
▁hectare	-11.2226
▁rotating	-11.2227
▁associate	-11.2229
▁formal	-11.2229
▁verify	-11.2229
▁ssl	-11.2234
angle	-11.2235
▁defeat	-11.2238
channel	-11.2241
▁installing	-11.2243
format	-11.2245
▁prestige	-11.2245
▁conflict	-11.2245
▁decrease	-11.2245
▁slovenia	-11.2246
▁ov	-11.2248
▁shaving	-11.2249
▁vera	-11.2249
buck	-11.225
5.6	-11.2252
▁passport	-11.2252
▁carol	-11.2254
▁chill	-11.2256
▁strand	-11.2256
▁gamb	-11.2257
▁fulfill	-11.2259
chemical	-11.226
▁ivan	-11.2261
198	-11.2264
▁blister	-11.2266
▁compressed	-11.2266
▁rosso	-11.2268
▁neg	-11.2268
▁arcade	-11.2268
▁narrow	-11.2269
▁ginger	-11.227
▁1920	-11.2272
▁17:00	-11.2274
sight	-11.2276
▁strictly	-11.2277
▁strict	-11.2277
lead	-11.2279
▁refrigeration	-11.2284
▁examination	-11.2284
▁spoon	-11.2287
▁etna	-11.2287
▁nicole	-11.2292
sweet	-11.2292
5.0	-11.2293
▁enhanced	-11.2298
▁render	-11.23
▁lipo	-11.2301
▁bolzano	-11.2303
▁philippines	-11.2303
▁ravenna	-11.2304
▁firmware	-11.2306
2.4	-11.2307
▁10000	-11.2314
▁tilt	-11.2317
school	-11.2318
jiang	-11.2319
▁fare	-11.233
▁quest	-11.2338
▁tart	-11.234
▁spectacular	-11.2342
▁taylor	-11.2342
▁mallorca	-11.2342
7.0	-11.2343
▁fairy	-11.2344
enburg	-11.2346
▁tau	-11.235
opera	-11.235
▁blank	-11.2357
▁peru	-11.2357
1.4	-11.2358
▁emma	-11.2361
▁distinguish	-11.2361
▁welcoming	-11.2361
▁sausage	-11.2361
▁kur	-11.2362
201	-11.2365
▁portion	-11.237
▁genre	-11.237
▁dashboard	-11.2382
carton	-11.2383
▁contra	-11.2385
▁margin	-11.2387
▁1960	-11.2388
▁documentary	-11.2388
stripping	-11.2389
▁mailing	-11.2389
950	-11.2393
158	-11.2395
▁marker	-11.2396
**	-11.24
▁cfd	-11.2401
▁nuvid	-11.2402
sexy	-11.2405
▁1600	-11.241
▁carrying	-11.241
hub	-11.2411
4.0	-11.2412
pvc	-11.2413
▁brushes	-11.2416
blonde	-11.2416
first	-11.2417
▁dialogue	-11.2421
dream	-11.2421
▁925	-11.2422
▁trigger	-11.2422
emme	-11.2434
▁cork	-11.2437
7,00	-11.2439
3.9	-11.2446
▁kitchenette	-11.2449
▁1950	-11.2451
▁athletic	-11.2459
▁engagement	-11.2459
▁told	-11.246
▁pile	-11.2466
iere	-11.2466
3.6	-11.2469
▁proposed	-11.2471
▁pill	-11.2475
▁neon	-11.2479
▁phoenix	-11.2479
▁recipient	-11.2479
▁spicy	-11.2481
▁sunrise	-11.2481
▁dai	-11.2483
graf	-11.2485
▁immobilier	-11.2485
▁corte	-11.2491
▁roger	-11.2495
▁rally	-11.2499
▁suzuki	-11.2499
▁luci	-11.2499
ozzi	-11.2501
▁scanning	-11.2501
▁projection	-11.2503
▁07:00	-11.2505
▁proven	-11.2509
▁ipod	-11.251
166	-11.2512
▁bbq	-11.2514
▁fda	-11.2515
protect	-11.2519
▁fastener	-11.2519
▁hab	-11.252
256	-11.252
▁nordic	-11.2521
▁manga	-11.2521
▁energi	-11.2523
▁attached	-11.2525
▁20:00	-11.2526
▁+49	-11.2528
▁sew	-11.253
classic	-11.2531
▁duck	-11.2534
▁clan	-11.2538
▁absorption	-11.2539
▁tarpaulin	-11.2539
▁colombo	-11.2539
▁execute	-11.2539
▁awareness	-11.2539
▁abstract	-11.2539
▁ecological	-11.2542
▁remind	-11.2542
▁12.00	-11.2549
▁coco	-11.255
▁patron	-11.2552
▁doggy	-11.2553
french	-11.2555
▁bold	-11.2556
▁accompanied	-11.2558
▁tripadvisor	-11.2558
▁jr	-11.256
▁shutter	-11.2562
▁hiv	-11.2562
german	-11.2563
chel	-11.2567
▁1987	-11.2576
yuan	-11.2576
oggi	-11.2579
▁knot	-11.258
▁trapani	-11.258
▁involve	-11.2583
▁gulf	-11.2584
▁riad	-11.2585
▁prosecco	-11.2591
▁agreed	-11.2596
▁kiosk	-11.2598
▁99%	-11.2602
▁agro	-11.2602
▁lug	-11.2602
far	-11.2602
▁doesn	-11.2608
207	-11.261
▁santiago	-11.2618
▁totally	-11.2619
▁jessica	-11.2619
▁triangle	-11.262
▁preferred	-11.262
▁miniature	-11.2622
▁lie	-11.2626
▁950	-11.2627
▁drawn	-11.2632
mouth	-11.2638
▁embedded	-11.2638
▁pollution	-11.2638
▁yobt	-11.2638
dorf	-11.2642
▁lightning	-11.2646
▁pirate	-11.2648
▁istria	-11.2651
▁php	-11.2654
▁reputation	-11.2658
▁unusual	-11.2658
▁rat	-11.2659
1,00	-11.2659
▁massimo	-11.266
ashi	-11.2661
195	-11.2663
159	-11.2663
▁settlement	-11.2663
30%	-11.2663
▁chile	-11.2664
conditioned	-11.2668
▁designated	-11.2669
▁basel	-11.2671
▁helpful	-11.2671
extra	-11.2675
▁communities	-11.2679
▁improving	-11.2679
▁lodging	-11.2679
▁innocent	-11.2679
▁cuff	-11.268
bach	-11.2681
▁ole	-11.2683
▁fancy	-11.2691
▁alberto	-11.2691
▁universities	-11.2699
▁severe	-11.2699
▁rico	-11.2704
▁wiring	-11.2714
rise	-11.2716
ée	-11.2719
▁bianco	-11.2719
187	-11.2721
▁exchanger	-11.2721
nomi	-11.2723
▁angelo	-11.2724
2.6	-11.2724
▁scarf	-11.2736
▁succeed	-11.2739
660	-11.274
▁dominican	-11.2743
▁specifically	-11.2744
▁vene	-11.2745
▁pear	-11.2748
▁combo	-11.275
▁pag	-11.2751
▁otel	-11.2754
▁austrian	-11.2754
▁slovenian	-11.2758
▁pavilion	-11.2759
▁varieties	-11.2759
▁bodrum	-11.2759
▁frost	-11.2761
▁referred	-11.2763
▁acne	-11.2763
▁unesco	-11.2763
▁steak	-11.2764
▁1986	-11.2765
▁carolina	-11.2767
cycli	-11.277
▁+86	-11.2772
▁lazio	-11.2774
▁fell	-11.2774
▁tran	-11.2774
technic	-11.2779
▁profiling	-11.278
▁priority	-11.2786
3.8	-11.2789
▁creator	-11.2797
process	-11.2799
▁chassis	-11.28
▁ornament	-11.2801
6]	-11.2803
▁genova	-11.2805
bound	-11.2807
drop	-11.2816
monte	-11.2818
▁prescription	-11.2821
▁shy	-11.2821
▁tubing	-11.2828
▁num	-11.284
▁brilliant	-11.2841
▁competence	-11.2841
turismo	-11.2843
very	-11.2849
▁debt	-11.2852
farm	-11.2854
▁footballer	-11.2856
previous	-11.286
purpose	-11.286
▁complimentary	-11.2861
▁timing	-11.2862
▁authorities	-11.2867
008	-11.2868
▁salmon	-11.2868
▁acquired	-11.2873
public	-11.2873
▁multifunctional	-11.2874
▁latvian	-11.2875
▁delle	-11.2877
▁realize	-11.2881
▁hike	-11.2882
▁circulation	-11.2882
▁positano	-11.2882
▁scissor	-11.2882
▁facing	-11.2883
▁marbella	-11.2885
▁1984	-11.2888
▁oslo	-11.2898
▁3.7	-11.29
▁pour	-11.2901
▁sheraton	-11.2903
▁turnstile	-11.2903
▁benz	-11.2903
▁tat	-11.2909
▁reproduction	-11.2909
▁luis	-11.2912
booking	-11.2916
▁odessa	-11.2923
▁bareback	-11.2923
▁britain	-11.2925
▁tied	-11.2926
▁egyptian	-11.2927
ellini	-11.2927
.02.2	-11.2937
▁hoist	-11.2937
▁toxic	-11.294
▁slovak	-11.2943
▁capacitor	-11.2944
▁intellectual	-11.2944
▁roulette	-11.2944
wash	-11.2945
▁trento	-11.2945
axis	-11.2945
expo	-11.2947
▁previously	-11.2949
buy	-11.2949
▁barbie	-11.2955
▁peach	-11.2963
stainless	-11.2964
▁housewives	-11.2965
▁photovoltaic	-11.2965
▁spaghetti	-11.2965
▁adorable	-11.2965
▁compete	-11.2972
▁establish	-11.2973
▁grab	-11.2975
▁settle	-11.2978
▁biker	-11.2984
▁madonna	-11.2985
genic	-11.2986
▁expire	-11.2988
470	-11.299
▁ingredient	-11.2995
880	-11.2996
kid	-11.3001
▁realized	-11.3004
▁hypo	-11.3006
▁slimming	-11.3007
lope	-11.3015
▁desi	-11.3017
brush	-11.3017
▁081	-11.3019
▁055	-11.3022
▁sib	-11.3025
company	-11.3025
▁investigation	-11.3027
▁courier	-11.3027
▁sketch	-11.3027
▁nun	-11.3028
▁julia	-11.3029
▁destroyed	-11.303
▁murano	-11.303
▁labeling	-11.3031
without	-11.3034
▁pulp	-11.3043
▁embroidered	-11.3048
▁magnesium	-11.3048
▁pyramid	-11.3048
▁intensity	-11.3048
▁profession	-11.3048
▁valuable	-11.3048
▁rocket	-11.3049
▁poison	-11.305
▁graph	-11.3059
▁solarium	-11.3059
9.0	-11.306
▁mak	-11.3061
▁cassi	-11.3062
▁muse	-11.3064
▁tungsten	-11.3069
▁programmable	-11.3069
▁dallas	-11.307
▁fiera	-11.3071
▁churches	-11.3076
188	-11.3078
▁lawn	-11.3078
▁restored	-11.308
▁stro	-11.3086
▁iris	-11.3088
▁concentration	-11.309
▁emperor	-11.309
▁doubt	-11.309
mission	-11.3092
▁armenia	-11.3093
▁wipe	-11.3093
▁chania	-11.3095
8.1	-11.3097
▁governor	-11.3097
mode	-11.3099
tropic	-11.3099
even	-11.31
▁pax	-11.3106
rigo	-11.3109
▁calibration	-11.3111
▁consequence	-11.3111
graduate	-11.3111
acci	-11.3117
▁intl	-11.3119
▁properly	-11.3126
▁punching	-11.3132
▁magnificent	-11.3133
▁15:00	-11.3134
person	-11.3138
carlo	-11.3138
organ	-11.314
0.7	-11.3149
▁sword	-11.315
▁rad	-11.3151
▁float	-11.3152
▁lubricant	-11.3153
▁multilingual	-11.3153
▁cure	-11.3153
▁malaysia	-11.3153
language	-11.3153
▁berries	-11.3153
▁scr	-11.3155
▁myself	-11.3159
▁(33)	-11.3159
casa	-11.316
▁collective	-11.3163
227	-11.3168
▁delhi	-11.317
▁romance	-11.3172
▁exact	-11.3172
▁recreation	-11.3174
▁appeal	-11.3175
▁categor	-11.3179
▁uploaded	-11.3179
lace	-11.3179
▁snowboard	-11.318
▁mhz	-11.3181
▁hemp	-11.3185
▁planner	-11.3186
▁memo	-11.3186
kiss	-11.3186
▁passive	-11.319
▁memorial	-11.3195
▁mystery	-11.3195
▁summit	-11.3195
▁savoy	-11.3196
▁sweatshirt	-11.3196
▁hunt	-11.3201
▁usual	-11.3209
0.9	-11.3211
kib	-11.3216
▁enquiry	-11.3216
▁plywood	-11.3216
▁tongue	-11.3218
▁alma	-11.3222
▁mild	-11.3223
crypt	-11.3225
phor	-11.3226
▁buses	-11.3228
chrom	-11.3228
▁classroom	-11.3229
plex	-11.323
176	-11.3232
▁displacement	-11.3238
▁swallow	-11.3238
▁criminal	-11.3238
▁encounter	-11.3238
▁houston	-11.3238
▁gothic	-11.3238
▁pageviews	-11.3238
▁poetry	-11.3242
▁choir	-11.3242
▁traders	-11.3244
▁relation	-11.3244
▁forged	-11.3247
▁lumen	-11.325
▁duct	-11.3252
▁correctly	-11.3254
▁oldest	-11.3256
▁expensive	-11.3259
▁helicopter	-11.3259
▁mozzarella	-11.3259
▁syndrome	-11.3259
▁nissan	-11.3259
▁agriturismo	-11.3259
▁jacob	-11.3259
▁mistake	-11.326
▁combat	-11.326
shaped	-11.3264
▁popularity	-11.3266
offer	-11.3271
europe	-11.3275
▁possibilities	-11.328
▁zircon	-11.328
▁applies	-11.3281
▁permit	-11.3281
▁percentage	-11.3282
▁maj	-11.3287
▁belle	-11.3295
▁tick	-11.3298
▁robust	-11.3302
▁osaka	-11.3303
▁transition	-11.3304
▁spotlight	-11.3307
▁reducer	-11.3307
▁2-3	-11.3309
167	-11.3309
2.9	-11.3313
▁sei	-11.3315
▁rotor	-11.3315
▁jon	-11.3316
▁pyr	-11.3319
▁virginia	-11.332
▁encourage	-11.3323
▁gangbang	-11.3323
▁forgotten	-11.3325
adult	-11.3326
▁everywhere	-11.3327
make	-11.3329
self	-11.333
▁journalist	-11.3331
1.3	-11.3333
▁bosch	-11.3341
▁montenegro	-11.3345
▁sequence	-11.3345
▁licence	-11.3345
▁fellow	-11.3346
▁stir	-11.3348
south	-11.3353
▁variant	-11.3353
▁lean	-11.3364
▁gaz	-11.3364
▁dhl	-11.3366
▁dispute	-11.3367
▁concord	-11.3369
▁saddle	-11.337
▁servi	-11.337
▁charity	-11.3374
1.7	-11.3377
toxic	-11.3379
phosphate	-11.3388
▁wrinkle	-11.3388
▁varnish	-11.3388
acco	-11.3388
fran	-11.3389
▁achieved	-11.3392
▁6.5	-11.3393
▁offline	-11.3394
▁$10	-11.3405
▁espa	-11.3406
▁privilege	-11.341
▁updating	-11.341
▁salento	-11.341
▁ott	-11.3411
▁raid	-11.3413
▁progressive	-11.3416
▁walter	-11.3417
▁respective	-11.3417
▁reasonable	-11.3418
garden	-11.3419
▁defeated	-11.342
▁evil	-11.3423
▁ipl	-11.3425
▁strat	-11.3426
izia	-11.3427
▁dé	-11.3428
▁motorway	-11.3429
▁conservation	-11.3431
▁luxurious	-11.3431
▁filament	-11.3431
▁listening	-11.3435
▁metric	-11.344
ienne	-11.3441
▁acceptance	-11.3444
▁bron	-11.3447
morph	-11.345
mobili	-11.3452
▁persistent	-11.3453
▁luminous	-11.3455
▁loc	-11.3455
3.1	-11.3458
▁verb	-11.3459
enter	-11.3463
▁rif	-11.3466
colour	-11.3466
▁attach	-11.3466
▁armor	-11.3475
▁compensation	-11.3475
▁culinary	-11.3475
▁atlantis	-11.3475
▁proportion	-11.3475
▁abbey	-11.3475
▁schu	-11.3475
▁defence	-11.3478
▁sarah	-11.3481
▁jose	-11.3481
ancing	-11.3485
guan	-11.3486
isco	-11.3487
▁lotion	-11.3494
▁optimized	-11.3495
▁aperitif	-11.3497
▁bellevue	-11.3497
▁caribbean	-11.3497
argent	-11.3499
▁micron	-11.35
▁luck	-11.3501
▁planned	-11.3501
▁1982	-11.3502
▁patches	-11.3502
▁domus	-11.3503
cock	-11.3503
▁parish	-11.3509
▁clearance	-11.3511
▁cozy	-11.3511
▁achievement	-11.3515
▁bunk	-11.3515
blu	-11.3515
united	-11.3516
panel	-11.3518
▁cannabis	-11.3518
▁committed	-11.3518
▁elizabeth	-11.3518
▁hollywood	-11.3518
▁ladder	-11.3519
▁migration	-11.3519
bird	-11.3519
▁debit	-11.352
▁diagram	-11.352
▁alexis	-11.352
▁alexa	-11.3521
▁arrest	-11.3525
course	-11.353
4.7	-11.3531
▁campus	-11.3538
▁sebastian	-11.354
▁supervisor	-11.3541
▁screenshot	-11.3541
▁await	-11.3541
▁fruity	-11.3545
comune	-11.3547
▁signage	-11.3553
▁constantly	-11.3557
large	-11.356
▁athletes	-11.3562
▁tnaflix	-11.3562
▁enemy	-11.3563
▁carlton	-11.3563
▁devil	-11.357
▁merano	-11.3571
▁fault	-11.3571
phil	-11.3576
▁calm	-11.3578
▁(32)	-11.3578
▁nearly	-11.358
▁gravity	-11.3584
▁submission	-11.3586
▁equi	-11.3586
▁regina	-11.3587
▁tuna	-11.3593
▁brushed	-11.3594
▁tokens	-11.3598
▁shear	-11.3599
▁refuse	-11.36
▁vii	-11.3601
178	-11.3604
▁manifest	-11.3606
enberg	-11.3607
rado	-11.3608
▁epoxy	-11.3608
bile	-11.361
▁(35)	-11.3612
▁tier	-11.3615
▁tend	-11.3618
▁spoken	-11.3619
▁launches	-11.3624
4000	-11.3628
▁confidential	-11.3629
▁lobby	-11.3629
▁renault	-11.3629
▁0471	-11.3631
▁edward	-11.3633
▁fiction	-11.3634
▁recognized	-11.3634
silver	-11.3635
▁minh	-11.3636
▁hq	-11.364
▁monica	-11.3642
▁techno	-11.3646
▁fundamental	-11.3651
▁legislation	-11.3651
▁telescopic	-11.3651
▁logged	-11.3651
▁passes	-11.3651
logic	-11.3651
chino	-11.3653
▁1981	-11.3659
▁propose	-11.366
▁rifle	-11.3662
▁bernard	-11.3662
▁slider	-11.3668
italiano	-11.3669
▁passage	-11.367
▁gastronomy	-11.3673
▁forklift	-11.3673
business	-11.3678
ifies	-11.3683
moto	-11.3683
article	-11.3688
▁passionate	-11.3689
▁ballet	-11.3689
▁coaching	-11.3693
borg	-11.3693
▁2,5	-11.3696
▁spell	-11.3697
▁toaster	-11.3698
general	-11.3701
▁gateway	-11.3702
ologi	-11.3707
▁logistic	-11.3708
▁despite	-11.3718
yard	-11.3718
▁atlas	-11.3719
▁analyse	-11.372
▁adopted	-11.3724
▁brian	-11.3725
index	-11.3735
▁stefan	-11.3735
▁effectively	-11.3735
▁cattolica	-11.374
▁mitsubishi	-11.374
▁catalonia	-11.374
claim	-11.374
▁ningbo	-11.374
▁rag	-11.3742
▁kay	-11.3745
▁enhancement	-11.375
▁stake	-11.3757
▁peninsula	-11.3762
fashion	-11.3767
2007	-11.3767
▁blower	-11.3769
▁holland	-11.377
▁breathable	-11.3772
▁cooker	-11.3773
▁withdraw	-11.3775
▁happiness	-11.3785
▁modul	-11.3785
▁aromatic	-11.3795
▁chang	-11.3796
▁elected	-11.3801
illon	-11.3803
▁auxiliary	-11.3807
▁survive	-11.3807
▁divine	-11.3808
▁reform	-11.3809
▁tough	-11.381
▁1978	-11.3811
spain	-11.3811
▁shark	-11.3812
utter	-11.3813
▁bushing	-11.3813
▁acquire	-11.3817
virtu	-11.3819
▁cult	-11.3823
▁sprint	-11.3826
▁60%	-11.3829
▁nitrogen	-11.383
▁swift	-11.383
▁housekeeping	-11.3833
▁duomo	-11.3835
▁refill	-11.3841
▁gru	-11.3841
▁acceptable	-11.3843
▁1983	-11.3844
▁renewal	-11.3847
▁facilitate	-11.3853
▁sublimation	-11.3853
▁ultrasound	-11.3853
▁canyon	-11.3855
▁wrapping	-11.3855
▁100.00(	-11.3856
▁aaa	-11.3856
andra	-11.3857
▁flashlight	-11.3858
▁dump	-11.3873
▁patrick	-11.3876
▁focused	-11.3877
▁queries	-11.3877
▁smt	-11.3878
cultural	-11.388
▁pond	-11.3883
▁guardian	-11.3883
▁flush	-11.3885
credit	-11.3885
▁grandpa	-11.3886
▁photographic	-11.3886
777	-11.389
▁advertise	-11.3891
▁expanded	-11.3898
▁cylindrical	-11.3898
▁sapphire	-11.3898
▁kelly	-11.3898
▁concerto	-11.3903
angel	-11.3909
▁hart	-11.3912
fare	-11.3913
▁21:00	-11.3914
▁analyze	-11.3916
stimul	-11.3918
▁irrigation	-11.3921
▁assurance	-11.3921
france	-11.3921
▁legendary	-11.3925
▁poem	-11.3942
▁imagine	-11.3944
▁rabbit	-11.3945
▁riccione	-11.3945
▁ryan	-11.3945
smith	-11.3947
▁radiation	-11.3949
milano	-11.3949
peak	-11.3952
▁ou	-11.3954
▁iec	-11.3956
▁workout	-11.3957
▁splitter	-11.3957
▁flap	-11.3959
▁longest	-11.3961
▁represented	-11.3965
▁conclusion	-11.3966
▁loyalty	-11.3966
▁tunisia	-11.3967
▁salerno	-11.3967
▁knob	-11.3969
short	-11.398
grand	-11.3981
pornstar	-11.3989
▁concierge	-11.3989
▁raspberry	-11.3989
▁compartment	-11.3989
pathy	-11.3989
▁olbia	-11.3991
▁cctv	-11.3992
family	-11.3996
▁grove	-11.3997
discover	-11.4001
789	-11.4002
label	-11.4004
rama	-11.4006
▁reject	-11.4007
▁dash	-11.401
▁fabulous	-11.4012
▁slurry	-11.4012
▁warrior	-11.4012
▁assisi	-11.4013
script	-11.4016
▁bible	-11.4017
▁dough	-11.4021
▁personality	-11.4024
▁grease	-11.4026
sterne	-11.4029
▁8.5	-11.4029
▁flyer	-11.4034
▁zombie	-11.4035
▁asphalt	-11.4036
depend	-11.4043
explo	-11.4043
▁frequent	-11.4046
▁intuitive	-11.4059
▁bakery	-11.4059
▁bridal	-11.4059
▁wealth	-11.406
▁iceporn	-11.4063
machine	-11.4065
▁rocco	-11.4066
hawk	-11.4068
▁alexandra	-11.407
▁dyna	-11.4071
▁arezzo	-11.4071
▁chrono	-11.4072
▁feather	-11.4082
▁krakow	-11.4082
▁weighing	-11.4082
▁decade	-11.4083
▁alphabet	-11.4083
▁chose	-11.4084
clip	-11.4084
lovense	-11.4086
▁webmaster	-11.4092
help	-11.4097
▁entrepreneur	-11.4102
▁hairdryer	-11.4105
▁supreme	-11.4105
▁kol	-11.4111
▁lotus	-11.4115
option	-11.4121
▁balsamic	-11.4128
▁graduated	-11.4128
chrome	-11.4129
quin	-11.4132
fair	-11.4134
▁tuning	-11.4135
▁robin	-11.4136
▁paulo	-11.4137
▁bach	-11.4138
356	-11.4138
▁matera	-11.414
directional	-11.4142
▁qty	-11.4144
▁smoked	-11.4145
▁verdi	-11.4149
▁centrifugal	-11.4151
▁interpretation	-11.4151
▁napoleon	-11.4152
▁politics	-11.4152
▁hanoi	-11.4152
▁thunder	-11.4153
▁apollo	-11.4153
▁exhibitors	-11.4153
▁constitution	-11.4154
▁airlines	-11.4155
▁1979	-11.4158
▁motorbike	-11.4158
▁bacteria	-11.4158
▁maybe	-11.4173
▁shut	-11.4173
▁integral	-11.4175
▁faucet	-11.4175
▁keychain	-11.4175
▁resume	-11.4176
▁cooked	-11.418
▁echo	-11.4185
cloth	-11.4198
▁sanctuary	-11.4198
▁rota	-11.4199
▁grad	-11.4204
▁brushless	-11.4207
production	-11.4207
andro	-11.4215
▁1972	-11.422
▁tribute	-11.4222
▁sweat	-11.4225
▁potato	-11.4227
digital	-11.423
engine	-11.423
plated	-11.4232
▁capability	-11.4235
▁sql	-11.4239
▁determined	-11.4243
▁dolphin	-11.4245
▁nautical	-11.4245
▁chronograph	-11.4246
▁jess	-11.4247
▁padua	-11.4249
otta	-11.4251
▁rush	-11.4257
▁accord	-11.4257
▁fob	-11.426
▁lust	-11.4268
▁algorithm	-11.4269
▁congratulations	-11.4269
▁protagonist	-11.4269
▁xiaomi	-11.4269
▁citrus	-11.4269
▁unavailable	-11.4271
▁deliveries	-11.4274
▁fail	-11.4275
▁conventional	-11.4277
▁dick	-11.4286
▁caravan	-11.4293
▁ugly	-11.4293
▁jade	-11.4294
▁eraser	-11.4296
▁insights	-11.4296
▁cheat	-11.4302
erhof	-11.4302
elena	-11.4309
▁1977	-11.4309
▁patented	-11.4312
▁chemistry	-11.4316
▁dentist	-11.4316
▁knitting	-11.4318
▁camel	-11.4319
▁1975	-11.432
▁bitter	-11.4322
306	-11.4323
pair	-11.4327
▁objective	-11.4328
content	-11.4329
inner	-11.4337
joy	-11.4338
▁196/2003	-11.434
▁capabilities	-11.434
▁chestnut	-11.434
▁hyatt	-11.434
▁pumpkin	-11.434
▁tavern	-11.4341
▁fresco	-11.4342
▁analyzer	-11.4345
▁doesnt	-11.4347
▁missionary	-11.4348
▁prix	-11.4353
esti	-11.4354
5.1	-11.4359
▁regularly	-11.4362
▁scenario	-11.4364
▁sunshine	-11.4364
▁toscana	-11.4364
▁murder	-11.4368
▁breaker	-11.4377
3.4	-11.4377
▁bruno	-11.4378
eight	-11.438
▁ferro	-11.4382
▁directive	-11.4385
▁corrupt	-11.4388
▁cubic	-11.4389
▁quilt	-11.439
▁padova	-11.4391
▁travelers	-11.4391
▁adaptor	-11.4393
firm	-11.4397
▁couch	-11.4401
▁wiki	-11.4402
▁salva	-11.4407
5.4	-11.441
▁explosion	-11.4412
▁pilgrim	-11.4412
▁fencing	-11.4412
▁snake	-11.4412
▁trophy	-11.4413
1.9	-11.4423
▁fiscal	-11.4435
▁assortment	-11.4436
▁fermentation	-11.4436
▁penthouse	-11.4436
expiration	-11.4436
▁kayak	-11.4437
▁tnt	-11.4437
▁leaflet	-11.4439
▁maggiore	-11.4443
▁0541	-11.4444
hydro	-11.4444
▁aviation	-11.4445
windows	-11.4445
▁fru	-11.4448
5.2	-11.4458
▁firefox	-11.446
▁shelter	-11.446
▁relais	-11.446
▁xvideos	-11.446
▁padded	-11.446
▁labour	-11.4466
hou	-11.4467
▁volvo	-11.4469
dynamic	-11.4469
▁snorkel	-11.4484
▁bianca	-11.4485
▁fraction	-11.4485
nonym	-11.4486
cription	-11.4486
atrice	-11.4486
▁philippe	-11.4489
▁boho	-11.4498
clock	-11.4502
▁coordination	-11.4508
▁humiliation	-11.4508
▁limousine	-11.4508
▁legacy	-11.4508
▁tulip	-11.4508
▁amino	-11.4508
aglia	-11.4511
swapping	-11.4523
▁venus	-11.4525
sound	-11.4527
▁heard	-11.4528
▁aloe	-11.4529
▁symphony	-11.4532
▁cristina	-11.4532
▁neighborhood	-11.4532
▁porsche	-11.4532
▁swimwear	-11.4533
▁chairman	-11.4534
pick	-11.4535
▁drainage	-11.4537
▁95%	-11.4539
▁manner	-11.455
young	-11.4551
▁babysitter	-11.4556
▁professionalism	-11.4557
▁bavaria	-11.4557
▁nonwoven	-11.4558
▁gambling	-11.4559
▁vincent	-11.4559
▁persian	-11.456
▁economical	-11.4565
0]	-11.457
▁maggio	-11.4571
▁comedy	-11.4571
▁jury	-11.4574
▁pierre	-11.4576
▁marian	-11.4581
▁abrasive	-11.4581
▁scotland	-11.4581
▁separation	-11.4581
▁descend	-11.4581
▁swivel	-11.4581
▁bureau	-11.4582
▁mou	-11.4585
▁authorization	-11.4591
▁emotional	-11.4592
5.8	-11.4605
▁expedition	-11.4605
▁glamour	-11.4605
▁ballerina	-11.4605
▁banquet	-11.4605
▁condom	-11.4607
solution	-11.4608
▁fraud	-11.4608
▁primo	-11.461
▁reggio	-11.4611
9.90	-11.4615
restaurant	-11.4615
▁wherever	-11.4616
▁attended	-11.4625
▁destroy	-11.4626
▁messenger	-11.4629
▁occupation	-11.4629
▁kilometers	-11.4629
▁boasts	-11.4629
▁michelangelo	-11.463
▁adobe	-11.463
▁footjob	-11.4632
▁puff	-11.4636
▁goat	-11.4639
final	-11.4639
built	-11.464
wave	-11.4643
▁lung	-11.4644
▁marvel	-11.4645
aggi	-11.4649
▁facade	-11.4656
▁vending	-11.4658
▁joan	-11.4661
▁multifunction	-11.4667
arrow	-11.4672
4.4	-11.4675
wiki	-11.4675
▁horror	-11.4679
▁budva	-11.4682
square	-11.47
▁completion	-11.4703
▁anodized	-11.4703
▁govern	-11.4704
▁failed	-11.4708
health	-11.4714
▁grating	-11.4714
▁fabio	-11.4715
▁marcel	-11.4716
▁steve	-11.4717
▁washable	-11.4719
▁pace	-11.4721
▁fry	-11.4721
▁nuclear	-11.4729
talk	-11.4729
123456	-11.4729
manufacture	-11.4739
▁outfit	-11.4752
▁mosquito	-11.4753
▁recyclable	-11.4753
▁retired	-11.4753
▁novotel	-11.4753
▁seoul	-11.476
▁>>>	-11.476
0-2	-11.4761
terna	-11.4764
trust	-11.4765
cnc	-11.4765
▁defend	-11.477
▁scrub	-11.4774
▁blockchain	-11.4777
▁companion	-11.4777
▁stepmom	-11.4778
▁cialis	-11.4778
▁incident	-11.4779
▁midi	-11.4783
▁soviet	-11.4802
▁rialto	-11.4802
▁yeast	-11.4811
▁hydrogen	-11.4811
▁petite	-11.4811
▁glow	-11.4812
▁glove	-11.4812
floor	-11.4815
▁refine	-11.4823
▁coordinator	-11.4827
▁fuerteventura	-11.4827
▁kyoto	-11.4827
▁leggings	-11.4828
▁cardinal	-11.4829
▁crisp	-11.483
▁stuffed	-11.4843
4.9	-11.4843
brown	-11.4843
▁alpe	-11.4845
▁currencies	-11.4852
▁utilities	-11.4852
▁shrimp	-11.4853
▁tubular	-11.4853
azur	-11.4854
▁campania	-11.4854
9.95	-11.4856
▁stephen	-11.486
effect	-11.4865
▁tactical	-11.4878
▁sensation	-11.4878
▁alexandr	-11.4879
▁alkali	-11.4879
▁nikola	-11.488
olina	-11.4881
▁kun	-11.4886
ticket	-11.4887
payment	-11.4898
▁minibar	-11.4898
▁carmen	-11.49
▁apparel	-11.4902
▁evaluate	-11.4902
▁glance	-11.4904
▁pray	-11.4906
▁georg	-11.4907
▁digi	-11.4912
▁representation	-11.4917
facial	-11.4918
▁mushroom	-11.4923
▁norm	-11.4927
▁bratislava	-11.4928
▁compliant	-11.4928
▁victim	-11.4928
▁cluster	-11.4928
▁cutlery	-11.4928
▁dimmable	-11.4928
▁quartet	-11.4928
▁rising	-11.4931
▁registry	-11.4936
radio	-11.4937
azzi	-11.4943
lateral	-11.4945
▁validation	-11.4951
▁commander	-11.4951
▁potassium	-11.4953
▁hockey	-11.4953
ogni	-11.4958
scape	-11.4965
aluminum	-11.4966
▁bald	-11.4967
▁brune	-11.4972
▁schi	-11.4973
▁matteo	-11.4975
▁faculty	-11.4978
▁utensil	-11.4978
▁expiry	-11.4978
▁preparing	-11.4978
▁wikipedia	-11.4978
▁nasty	-11.498
known	-11.4988
▁ferries	-11.4991
▁swan	-11.4992
flash	-11.5002
▁piercing	-11.5004
▁assigned	-11.5004
▁webinar	-11.5004
▁compress	-11.5016
(0)	-11.5019
central	-11.5029
▁embossed	-11.5029
▁hexagon	-11.5029
▁panda	-11.503
▁consistent	-11.5032
beach	-11.5039
national	-11.5044
2,000	-11.5045
number	-11.5048
grey	-11.5052
▁simplicity	-11.5055
▁charlotte	-11.5055
▁saudi	-11.5055
▁leadership	-11.5057
▁accessibility	-11.5059
▁disp	-11.5061
agne	-11.5061
config	-11.5068
▁cache	-11.5068
▁massive	-11.5071
rimming	-11.5074
desk	-11.5074
▁sphere	-11.5078
▁elephant	-11.508
▁vilnius	-11.508
▁strawberry	-11.5081
▁thermometer	-11.5082
▁windsor	-11.5082
▁francesca	-11.5082
▁fashionable	-11.5083
▁nuova	-11.5083
▁chiara	-11.5092
▁graz	-11.5096
▁spool	-11.5099
▁perforated	-11.5106
▁mozart	-11.5106
▁fondazione	-11.5106
▁junction	-11.5108
▁foursome	-11.5109
▁photogallery	-11.511
▁skull	-11.5116
author	-11.512
▁navi	-11.5122
▁centuries	-11.5131
▁interpreter	-11.5131
▁statistical	-11.5131
eptic	-11.5132
▁1976	-11.5145
▁bookmark	-11.5152
▁forbidden	-11.5157
▁fortress	-11.5158
▁locate	-11.5158
▁1969	-11.516
▁mastercard	-11.5163
women	-11.5174
▁gif	-11.5174
8.8	-11.5181
▁botanical	-11.5183
▁collaborate	-11.5183
▁friendship	-11.5186
▁compass	-11.5191
▁epic	-11.5192
tight	-11.5199
▁retardant	-11.5209
▁rethymno	-11.5209
▁lottery	-11.5209
▁laguna	-11.5209
▁cocoa	-11.5222
clear	-11.5223
access	-11.5225
▁syria	-11.5227
▁nutritional	-11.5229
▁consortium	-11.5235
▁hermitage	-11.5235
▁lubrication	-11.5235
▁vancouver	-11.5235
▁explanation	-11.5235
▁muslim	-11.5236
▁serra	-11.5237
▁microscope	-11.5237
▁eyewear	-11.5238
scribe	-11.5239
▁civic	-11.5242
▁parcel	-11.5242
april	-11.5248
▁viva	-11.5251
▁capable	-11.5251
▁albi	-11.5256
▁disappear	-11.5261
▁bizarre	-11.5261
▁helsinki	-11.5261
▁kefalonia	-11.5261
▁ponte	-11.5269
olini	-11.527
▁dmca	-11.5272
▁susan	-11.5275
▁enanthate	-11.5287
▁intimate	-11.5287
▁pioneer	-11.5287
express	-11.5287
▁jungle	-11.5288
▁splash	-11.5289
▁pillar	-11.5292
▁silica	-11.5297
▁badia	-11.5299
▁candid	-11.53
▁subscribers	-11.5305
▁brava	-11.5307
▁rendering	-11.5307
▁envelope	-11.5313
▁columbia	-11.5313
▁syrup	-11.5313
▁zippo	-11.5321
▁bour	-11.5337
▁aisi	-11.5338
▁entitled	-11.534
▁orientation	-11.534
▁carriage	-11.534
▁buried	-11.534
▁graphite	-11.5341
chester	-11.5343
▁cleansing	-11.5349
▁[1]	-11.5354
duction	-11.5355
season	-11.5361
▁wheelchair	-11.5366
▁earlier	-11.5366
▁lombardy	-11.5366
▁johann	-11.5366
▁transplant	-11.5367
trail	-11.5375
▁premi	-11.5375
▁syl	-11.5377
russian	-11.5381
performance	-11.5382
agni	-11.5383
▁mazz	-11.5384
▁sack	-11.5385
▁continuing	-11.5392
▁animated	-11.5392
▁infinity	-11.5392
▁contour	-11.5397
▁mason	-11.5399
kawa	-11.5399
▁baseball	-11.54
▁genetic	-11.5403
0.30	-11.5405
▁transferred	-11.5413
▁icloud	-11.5419
▁independence	-11.5419
▁slovakia	-11.542
▁viptube	-11.5421
▁appliance	-11.5429
▁1973	-11.5434
png	-11.5435
6.1	-11.5435
efficient	-11.5436
▁headphone	-11.5437
▁jones	-11.5438
6.2	-11.5441
▁merry	-11.5441
▁extruder	-11.5445
▁livigno	-11.5445
▁stuttgart	-11.5445
▁infinite	-11.5445
▁blouse	-11.5445
▁swimsuit	-11.5446
▁cfnm	-11.5446
▁vinci	-11.5448
▁traction	-11.5449
▁messina	-11.545
baby	-11.5452
venice	-11.546
▁1,000	-11.5461
▁counsel	-11.5472
▁negotiation	-11.5472
▁buenos	-11.5472
stadt	-11.5479
▁diary	-11.5481
▁montana	-11.5483
▁whit	-11.5484
ciano	-11.5486
watt	-11.5498
▁detergent	-11.5498
▁reusable	-11.5499
▁brace	-11.5499
2005	-11.5506
▁waterfall	-11.5507
▁hdpe	-11.5508
▁defending	-11.5509
seat	-11.5511
▁fender	-11.5514
▁morgan	-11.5519
▁physics	-11.5525
▁ritual	-11.5525
▁jumbo	-11.5525
▁jelly	-11.5525
icular	-11.5526
▁honest	-11.5526
▁crank	-11.5526
▁depart	-11.5526
▁carrot	-11.5527
▁fame	-11.553
▁cereal	-11.5531
▁sharm	-11.5531
▁flux	-11.5533
▁julian	-11.5536
skaya	-11.5537
▁kilo	-11.5538
▁finest	-11.554
bang	-11.5541
▁toast	-11.5543
▁hermes	-11.5543
metry	-11.5546
▁soluble	-11.5547
▁branches	-11.5549
▁triumph	-11.5552
▁tanzania	-11.5552
▁merchant	-11.5552
▁boyfriend	-11.5552
▁earphone	-11.5554
▁diaper	-11.5556
▁unless	-11.5562
pink	-11.5562
holiday	-11.557
▁impossible	-11.5579
▁eternal	-11.5579
▁naxos	-11.5579
▁timberland	-11.5581
▁whenever	-11.5593
▁glen	-11.5601
▁motorized	-11.5603
▁trenbolone	-11.5606
▁knitted	-11.5607
▁vector	-11.5608
▁workflow	-11.5613
6000	-11.5623
balance	-11.5629
▁limo	-11.5631
▁penta	-11.5632
▁jim	-11.5632
▁empflix	-11.5633
▁turtle	-11.5633
▁rupee	-11.5633
▁injury	-11.5633
▁caramel	-11.5634
energy	-11.5634
doll	-11.5637
5.000	-11.5639
▁armani	-11.5642
complete	-11.5651
angelo	-11.5657
▁preset	-11.5658
▁cooper	-11.5658
▁confidence	-11.566
▁polyethylene	-11.566
▁souvenir	-11.566
4.3	-11.5665
▁belarus	-11.5669
▁filename	-11.5669
interracial	-11.5679
▁conquer	-11.5688
▁regency	-11.569
▁countertop	-11.5691
▁mort	-11.5697
aaa	-11.5698
▁redirect	-11.5707
▁addict	-11.571
▁perhaps	-11.5714
▁mylust	-11.5714
▁circus	-11.5716
▁thrill	-11.5717
▁silvia	-11.5717
graphy	-11.5718
▁sentence	-11.5722
lette	-11.5726
▁miracle	-11.5727
▁disinfect	-11.5742
▁exquisite	-11.5742
▁sophisticated	-11.5742
▁uncommon	-11.5742
▁percent	-11.5742
keeper	-11.5743
▁marketplace	-11.5746
▁corona	-11.5747
▁authentication	-11.5753
poker	-11.5756
▁conform	-11.5758
▁bocc	-11.5759
▁competitor	-11.5769
▁incentive	-11.5769
masturba	-11.5773
▁rocca	-11.5779
germany	-11.5782
▁texi	-11.5787
creampie	-11.5789
march	-11.5791
▁authorize	-11.5796
▁madagascar	-11.5797
▁risotto	-11.5797
▁rachel	-11.58
medical	-11.5803
▁jackson	-11.5804
▁clash	-11.5808
▁wedge	-11.5816
professional	-11.5816
▁phuket	-11.5824
▁removing	-11.5824
▁worry	-11.5824
▁atelier	-11.5824
▁alignment	-11.5826
▁wellbeing	-11.5828
▁falcon	-11.5831
illion	-11.5836
technology	-11.5844
▁laugh	-11.5846
spring	-11.5849
partner	-11.5851
▁claudio	-11.5852
▁diabetes	-11.5852
▁palladium	-11.5852
▁atlanta	-11.5852
▁connectivity	-11.5853
▁ladyboy	-11.5853
▁steven	-11.5854
▁airplane	-11.5856
▁whatever	-11.5857
▁quiz	-11.586
▁latvia	-11.5862
▁siren	-11.587
august	-11.5872
▁gastro	-11.5879
▁survival	-11.5879
7.2	-11.5888
▁reef	-11.5893
▁cheapest	-11.5894
eggio	-11.5898
9.1	-11.5899
crystal	-11.59
▁veneer	-11.5904
▁bumper	-11.5907
▁ramp	-11.5907
▁buffer	-11.5908
▁98%	-11.5909
▁existence	-11.591
▁parade	-11.5911
▁trimmer	-11.5912
▁leverage	-11.5913
▁vanity	-11.5928
▁sculpt	-11.5934
▁hazelnut	-11.5935
▁quadruple	-11.5935
▁vaginal	-11.5935
▁valentino	-11.5935
▁tranquil	-11.5935
▁worship	-11.5936
▁knock	-11.5936
▁tariff	-11.5937
▁jackpot	-11.5937
▁orchid	-11.5939
▁lynn	-11.594
▁standby	-11.5952
▁regime	-11.5961
▁musk	-11.5963
▁transducer	-11.5963
▁hazard	-11.5963
▁alicante	-11.5963
▁trunk	-11.5963
▁picnic	-11.5966
shima	-11.597
grow	-11.5972
▁ayia	-11.5973
▁lent	-11.5973
▁bab	-11.5975
bdsm	-11.5985
▁illegal	-11.5992
▁immerse	-11.5992
chatting	-11.5992
▁granule	-11.5993
▁genius	-11.5994
ologie	-11.5994
▁pulley	-11.5996
sqm	-11.6003
▁swap	-11.6016
▁propriet	-11.6019
................	-11.6019
▁cheerleader	-11.6019
▁fleece	-11.6019
▁panasonic	-11.6019
▁collagen	-11.6019
▁relating	-11.6019
▁fillet	-11.6019
▁ticino	-11.602
▁governance	-11.6021
▁derby	-11.6025
▁chuck	-11.6026
▁pipeline	-11.6028
▁personalised	-11.6036
arium	-11.6036
▁masterpiece	-11.6046
▁antioxidant	-11.6047
▁chandelier	-11.6047
▁opposite	-11.6047
▁fatigue	-11.6047
▁friuli	-11.6048
▁timber	-11.6051
▁promoting	-11.6054
▁oscar	-11.6059
▁cliff	-11.6059
▁stall	-11.6064
▁tango	-11.6066
father	-11.6068
▁recognize	-11.6068
▁validity	-11.6071
▁marconi	-11.6075
▁demonstration	-11.6076
▁manicure	-11.6076
▁aerospace	-11.6076
▁scottish	-11.6077
▁luce	-11.6083
strict	-11.6089
electronic	-11.6098
▁margherita	-11.6104
▁wizard	-11.6104
▁resolve	-11.6104
▁creole	-11.6107
▁knit	-11.6108
reference	-11.611
astro	-11.6119
▁truss	-11.6122
▁fastest	-11.6126
october	-11.6126
american	-11.6126
filter	-11.6127
9,90	-11.613
▁turquoise	-11.6132
▁bosnia	-11.6133
▁irri	-11.6136
▁supervision	-11.6136
▁danger	-11.6137
▁fastening	-11.6138
▁emotion	-11.6153
ctn	-11.6157
▁advisory	-11.6157
borough	-11.616
▁arriving	-11.6161
▁participating	-11.6161
▁locanda	-11.6161
▁defender	-11.6165
1800	-11.6172
___	-11.6173
facilities	-11.6184
pharma	-11.6184
related	-11.6187
▁blossom	-11.6189
▁observation	-11.6189
▁therapeutic	-11.6189
▁tribe	-11.6191
2006	-11.6192
▁ashley	-11.6193
▁flori	-11.6195
0.000,00	-11.62
▁norman	-11.6202
▁moore	-11.6208
▁prospect	-11.6209
▁distinct	-11.6216
webcam	-11.6217
▁celebrities	-11.6218
▁anthony	-11.6218
▁shareholders	-11.6218
▁sweep	-11.6218
▁haze	-11.6219
▁characterized	-11.6224
september	-11.6241
▁kitty	-11.6243
▁autonomous	-11.6247
▁enthusiast	-11.6247
▁integrity	-11.6247
▁mauritius	-11.6247
▁conclude	-11.6247
▁beirut	-11.6247
through	-11.6252
▁singing	-11.6266
4.6	-11.6267
▁dvr	-11.627
▁bigger	-11.6271
▁headlight	-11.6272
▁rhythm	-11.6276
▁plenty	-11.6276
▁vendor	-11.6276
▁teresa	-11.6279
▁ramada	-11.628
▁fontana	-11.6287
▁olympia	-11.6304
▁pedestrian	-11.6304
▁mercury	-11.6304
▁zimmer	-11.6305
▁akvis	-11.6305
strong	-11.6309
florence	-11.6309
▁vila	-11.6314
▁multicolor	-11.6316
ossi	-11.6318
▁incoming	-11.6321
agri	-11.6323
▁hoodie	-11.6326
▁overhead	-11.6328
security	-11.6329
▁acknowledge	-11.6333
▁familiar	-11.6333
▁rugby	-11.6333
▁zagreb	-11.6333
▁jerking	-11.6333
▁apartament	-11.6333
▁emerge	-11.6335
▁ownership	-11.6336
▁capitol	-11.6337
▁herself	-11.6338
▁pesto	-11.6341
▁interval	-11.6351
▁careful	-11.6354
▁terri	-11.6358
▁earthquake	-11.6362
▁obstacle	-11.6362
▁recessed	-11.6362
▁hawaii	-11.6363
▁nourish	-11.6363
▁cummins	-11.6363
▁bruges	-11.6363
▁spinning	-11.6366
▁effectiveness	-11.6375
plug	-11.6375
▁stats	-11.6379
available	-11.6384
personal	-11.639
▁curriculum	-11.6392
▁laboratories	-11.6392
▁legitimate	-11.6392
▁illumination	-11.6392
▁cladding	-11.6392
▁comprises	-11.6392
▁sophie	-11.6392
▁babies	-11.6394
6.3	-11.6395
▁paddle	-11.6395
▁softcore	-11.6396
,000,000	-11.6399
▁workplace	-11.6402
include	-11.6416
children	-11.6417
customized	-11.642
▁antivirus	-11.6421
▁emerald	-11.6421
▁garibaldi	-11.6421
▁sardegna	-11.6421
▁mercure	-11.6421
dimensional	-11.643
3.7	-11.6438
section	-11.6444
international	-11.6447
▁consume	-11.6447
▁encryption	-11.645
▁sofitel	-11.645
▁inquiries	-11.645
▁caesar	-11.645
▁troops	-11.6454
▁imaging	-11.6454
▁peaceful	-11.6459
▁moderate	-11.6467
8.9	-11.6479
▁impressive	-11.648
▁wrestling	-11.648
▁analytical	-11.648
▁tirana	-11.648
▁sierra	-11.648
▁groped	-11.6481
derma	-11.6481
▁equity	-11.6482
8.3	-11.6483
▁guess	-11.6485
▁serum	-11.6497
▁yogurt	-11.6509
▁charcoal	-11.6509
▁ignition	-11.6509
▁liquor	-11.6509
9.6	-11.6515
▁drip	-11.6522
▁revision	-11.6526
▁fluor	-11.6538
▁immune	-11.6539
▁chrys	-11.654
supp	-11.6541
▁bodybuilding	-11.6542
▁serena	-11.6543
▁1,0	-11.6548
styl	-11.6551
official	-11.6565
▁dolomiti	-11.6568
▁guidance	-11.6568
▁cardigan	-11.6568
▁institutional	-11.6569
▁maremma	-11.6569
franc	-11.6573
▁debate	-11.6575
▁zante	-11.6588
▁pickup	-11.6589
intercontinental	-11.6598
▁hyundai	-11.6598
▁prepaid	-11.6598
▁honour	-11.6598
▁wisdom	-11.6598
▁routine	-11.6599
6.6	-11.6602
▁ongoing	-11.6603
▁differential	-11.6619
boobs	-11.6624
▁periodic	-11.6627
▁neighbor	-11.6628
▁alternator	-11.6628
▁sanremo	-11.6628
▁veronica	-11.6628
▁financing	-11.6629
▁whip	-11.6629
second	-11.663
▁clause	-11.6632
▁maritime	-11.6634
woman	-11.6634
▁agios	-11.6643
▁9.30	-11.6648
▁accent	-11.6649
▁jeff	-11.665
▁haitian	-11.6658
▁hull	-11.6669
8.7	-11.6681
▁introducing	-11.6688
▁2016/679	-11.6688
▁belgian	-11.6688
▁galleria	-11.6689
▁tutor	-11.669
9.8	-11.669
▁purification	-11.669
sheikh	-11.6691
▁exposed	-11.6693
▁cattle	-11.6694
ificio	-11.6697
refundable	-11.6697
???	-11.6703
▁decline	-11.6708
▁recall	-11.6709
▁harry	-11.6714
▁appetizer	-11.6718
▁federico	-11.6718
▁tallinn	-11.6718
▁iraq	-11.6718
▁madison	-11.6719
▁chateau	-11.6722
▁shrine	-11.6725
▁prada	-11.6725
button	-11.6725
pedia	-11.674
▁cemetery	-11.6748
science	-11.6749
▁handlebar	-11.676
▁gallon	-11.6762
plane	-11.6773
▁sick	-11.6775
private	-11.6777
6.4	-11.6777
▁acidity	-11.6778
▁juicy	-11.6779
▁kenya	-11.6779
▁paragraph	-11.6781
▁avail	-11.6805
▁inhabitants	-11.6809
▁stomach	-11.6809
▁gravel	-11.6814
▁equip	-11.6814
▁saturn	-11.6815
▁manuel	-11.6819
▁fortune	-11.6819
▁pantone	-11.682
▁hdporn	-11.6823
000000	-11.6826
7.9	-11.6827
▁melia	-11.6827
version	-11.6828
fruit	-11.6839
▁volkswagen	-11.6839
▁dhabi	-11.684
▁cinque	-11.684
▁geometric	-11.6841
▁fet	-11.6847
▁ferri	-11.6855
▁cruz	-11.6857
indian	-11.6864
western	-11.6869
ohmibod	-11.687
▁jennifer	-11.687
▁endurance	-11.687
▁ninja	-11.687
▁accompany	-11.6872
▁friction	-11.6872
▁mercy	-11.6877
▁proudly	-11.6893
txt	-11.6894
▁quantities	-11.6901
▁encoder	-11.6901
▁hangzhou	-11.6901
japan	-11.6909
▁spoke	-11.6914
▁paola	-11.6919
woven	-11.693
beauty	-11.693
vintage	-11.693
▁stabilizer	-11.6932
▁enzyme	-11.6932
wolf	-11.6936
▁wagon	-11.6936
▁napkin	-11.6938
5.3	-11.695
stress	-11.6957
▁volcano	-11.696
▁columbus	-11.6962
▁maldives	-11.6962
▁evolve	-11.6963
▁pilates	-11.6963
▁overseas	-11.6963
▁styling	-11.6963
7.1	-11.6968
▁query	-11.6972
▁dario	-11.698
▁exception	-11.6983
update	-11.6991
▁cultivation	-11.6993
▁scientist	-11.6993
▁flamingo	-11.6993
▁restricted	-11.6993
▁rugged	-11.6993
▁voyage	-11.6994
▁nicol	-11.6994
▁gloryhole	-11.6994
▁nigeria	-11.6994
▁kidney	-11.6995
transfer	-11.6995
▁gamma	-11.6997
▁ionian	-11.6998
▁biking	-11.701
technical	-11.7013
▁mobil	-11.7022
▁coaxial	-11.7024
▁remedies	-11.7024
▁islamic	-11.7025
▁rivet	-11.7029
milan	-11.7033
▁radial	-11.7034
value	-11.704
▁scout	-11.7045
movie	-11.7055
▁behaviour	-11.7056
▁cosplay	-11.7056
▁wavelength	-11.7056
▁suitcase	-11.7057
facebook	-11.7058
squirt	-11.7058
dict	-11.706
▁redazione	-11.7062
legal	-11.7064
▁shopify	-11.7065
tension	-11.7072
brook	-11.7079
▁lanka	-11.7084
match	-11.7087
▁rehabilitation	-11.7087
▁chloride	-11.7087
▁exploring	-11.7087
▁matthew	-11.7087
mainland	-11.7087
▁grappa	-11.7088
▁indonesia	-11.7089
▁sheath	-11.709
▁mosque	-11.7093
▁blackpool	-11.7097
▁postcard	-11.7099
▁curated	-11.7103
▁align	-11.7113
▁trevi	-11.7113
▁polycarbonate	-11.7118
▁prefabricated	-11.7118
▁preliminary	-11.7118
▁reinforcement	-11.7118
▁vittorio	-11.7118
▁spectrum	-11.7118
▁hobby	-11.7118
▁electromagnetic	-11.7118
▁balancing	-11.7119
▁aosta	-11.7121
▁veranda	-11.7122
metri	-11.7137
7.4	-11.714
money	-11.7143
▁claudia	-11.715
▁libraries	-11.715
▁thirty	-11.715
▁paradiso	-11.715
▁witness	-11.715
▁wrapped	-11.7151
▁opel	-11.7151
▁permitted	-11.7152
/08/2018	-11.7157
▁isabella	-11.7164
▁fifa	-11.7169
▁ourselves	-11.7181
▁peugeot	-11.7181
▁prohibited	-11.7181
▁regulated	-11.7181
▁assignment	-11.7181
▁joomla	-11.7181
▁hclips	-11.7181
industrial	-11.7182
▁terror	-11.7182
▁fingerprint	-11.7182
▁palette	-11.7188
leigh	-11.719
▁champ	-11.7191
▁realistic	-11.7195
▁customised	-11.7195
7.6	-11.7199
▁monza	-11.7201
▁sneaker	-11.7211
7,5	-11.7212
▁gimignano	-11.7213
▁consideration	-11.7213
luxury	-11.7213
▁citt	-11.723
▁minify	-11.7234
▁spike	-11.7242
▁mamma	-11.7244
1112131415	-11.7245
▁civitavecchia	-11.7245
▁determination	-11.7245
▁dinosaur	-11.7245
▁propionate	-11.7245
▁sauvignon	-11.7245
▁swarovski	-11.7245
iculie	-11.7245
▁inkjet	-11.7245
▁cradle	-11.7245
▁psychology	-11.7245
▁movable	-11.7251
▁breathtaking	-11.7276
▁miscellaneous	-11.7276
▁cavity	-11.7276
▁dawn	-11.7277
▁lipstick	-11.7277
suisse	-11.7278
▁gelato	-11.7281
▁radar	-11.7282
▁serge	-11.7282
ecchi	-11.7283
▁hottest	-11.729
owned	-11.7294
friend	-11.7298
▁capacitive	-11.7308
▁extruded	-11.7308
▁fascinating	-11.7308
▁peptide	-11.7308
▁lenght	-11.7308
▁upornia	-11.7308
▁cmyk	-11.7309
▁instance	-11.7309
▁athena	-11.7312
▁refract	-11.7312
▁inscription	-11.7312
display	-11.7314
ethyl	-11.7316
▁simultaneously	-11.7321
handjob	-11.7328
▁discipline	-11.734
▁filippo	-11.734
▁ristorante	-11.734
▁solidarity	-11.734
▁abrasion	-11.734
▁agritourism	-11.7341
▁giacomo	-11.7341
▁termination	-11.7342
▁taught	-11.7343
▁midnight	-11.7344
▁mauro	-11.7349
▁lithuania	-11.7355
▁simultaneous	-11.736
▁berth	-11.7364
1,5	-11.7365
▁craftsmanship	-11.7373
▁fluorescent	-11.7373
▁interrupt	-11.7373
▁bibione	-11.7373
+02:00	-11.7373
▁denis	-11.7374
▁melissa	-11.7374
▁mower	-11.7374
spanish	-11.7376
▁corset	-11.738
▁headquarter	-11.7381
european	-11.7386
▁tetra	-11.7391
▁rhinestone	-11.7405
▁liqueur	-11.7405
▁inclusion	-11.7405
▁jamaica	-11.7405
▁ottoman	-11.7405
▁injector	-11.7405
▁playstation	-11.7405
▁azure	-11.7407
5.7	-11.7407
▁curvy	-11.7408
▁uninstall	-11.741
▁advent	-11.7417
▁restart	-11.7419
▁urine	-11.7427
▁immersion	-11.7437
▁livorno	-11.7437
▁louboutin	-11.7437
▁malpensa	-11.7437
▁rectangle	-11.7437
▁hairdresser	-11.7437
▁scuba	-11.7437
▁enrico	-11.7437
▁50/60	-11.7438
▁informative	-11.7439
rough	-11.7441
▁cellular	-11.7443
▁harley	-11.7447
▁cisco	-11.7453
▁sultan	-11.7453
▁definitely	-11.747
▁fiumicino	-11.747
▁toulouse	-11.747
▁diversity	-11.747
▁cambridge	-11.7472
▁girona	-11.7473
▁sunflower	-11.7473
▁prostate	-11.7476
▁sushi	-11.7478
▁assemblies	-11.7502
▁pornoxo	-11.7502
▁mandarin	-11.7502
▁childhood	-11.7504
develop	-11.7505
finished	-11.7505
▁occurred	-11.7505
falco	-11.7509
▁lease	-11.7525
▁accademia	-11.7535
▁boulevard	-11.7535
▁philadelphia	-11.7535
▁pokémon	-11.7535
▁volleyball	-11.7535
▁accelerate	-11.7535
▁elderly	-11.7535
oire	-11.754
organic	-11.754
▁decorate	-11.7541
7.8	-11.755
▁buzz	-11.7552
2.50	-11.7556
▁accreditation	-11.7568
▁jacquard	-11.7568
▁zermatt	-11.7568
▁lisboa	-11.7568
▁reykjavik	-11.7568
▁stolen	-11.7569
▁jeep	-11.7571
court	-11.7572
▁siemens	-11.7601
▁gospel	-11.7601
▁habitat	-11.7603
painted	-11.7604
▁dialog	-11.7606
▁keylogger	-11.7634
▁python	-11.7634
▁refrigerant	-11.7634
▁whirlpool	-11.7634
▁pinterest	-11.7634
▁essay	-11.7634
▁ancona	-11.7636
width	-11.7636
component	-11.7637
▁conformity	-11.7637
region	-11.7642
program	-11.7644
6.9	-11.7653
keeping	-11.7655
8.6	-11.7656
▁corso	-11.7657
▁buffalo	-11.7667
▁cellulite	-11.7667
▁ensemble	-11.7667
▁reversible	-11.7667
▁halogen	-11.7667
▁orleans	-11.7667
▁salvatore	-11.7667
▁londra	-11.7667
▁mileage	-11.7667
▁leopard	-11.7667
▁alfred	-11.7667
▁bistro	-11.7668
▁ikea	-11.7668
▁violation	-11.7669
▁chalk	-11.767
coffee	-11.767
▁masseria	-11.7671
street	-11.7676
three	-11.7676
▁0,5	-11.7699
▁caterpillar	-11.77
▁meanwhile	-11.77
▁unexpected	-11.77
▁vicinity	-11.77
▁enemies	-11.77
▁hannover	-11.77
▁funeral	-11.77
▁fireproof	-11.7707
▁kevin	-11.7707
sphere	-11.7709
wife	-11.7711
metre	-11.7733
▁admiral	-11.7733
▁jurisdiction	-11.7733
▁huawei	-11.7733
▁trinity	-11.7733
▁typology	-11.7735
▁sergio	-11.7736
▁isolation	-11.7737
masturbation	-11.7739
setting	-11.7749
dvd	-11.7751
leather	-11.7755
▁harbor	-11.7763
▁cryptocurrency	-11.7767
▁responsive	-11.7767
▁unfortunately	-11.7767
▁shaved	-11.7767
▁expectations	-11.7768
laser	-11.7768
▁genesis	-11.7769
▁merlot	-11.7773
▁continent	-11.7788
rubbing	-11.7792
▁boldenone	-11.78
▁ethiopia	-11.78
▁fragment	-11.78
▁canopy	-11.7801
▁weigh	-11.7807
▁venture	-11.7808
finger	-11.7827
▁biennale	-11.7834
▁grocery	-11.7834
▁impressum	-11.7834
▁shepherd	-11.7834
▁violence	-11.7834
▁bollard	-11.7834
▁scholarship	-11.7834
▁bellagio	-11.7836
lombard	-11.7838
fetish	-11.7839
▁assume	-11.7842
6.7	-11.785
solid	-11.7852
▁carrara	-11.7868
solar	-11.787
▁footprint	-11.7873
perfect	-11.7876
fisting	-11.7876
except	-11.7879
9.7	-11.7888
7.30	-11.7895
▁diaphragm	-11.7902
▁viareggio	-11.7902
▁internship	-11.7902
▁harmonic	-11.7902
▁ethical	-11.7902
▁dvb	-11.7903
shield	-11.7907
▁monkey	-11.7907
▁contractual	-11.7908
▁loving	-11.7913
▁wilson	-11.7936
▁jasmine	-11.7936
▁medicinal	-11.7936
▁gallipoli	-11.7936
▁spezia	-11.7936
▁cavalli	-11.7938
▁sonata	-11.7944
▁anderson	-11.7945
shoes	-11.7967
▁mortar	-11.7968
▁bvlgari	-11.797
▁motivation	-11.797
▁poultry	-11.797
▁exploration	-11.797
▁sophia	-11.797
▁midget	-11.7973
▁worm	-11.7973
▁jammer	-11.7977
▁crimp	-11.798
shoot	-11.798
▁termini	-11.7987
▁detox	-11.7995
medic	-11.7997
sleep	-11.8001
▁democratic	-11.8004
▁analogue	-11.8006
▁attendance	-11.8009
collection	-11.801
▁everybody	-11.8012
▁salami	-11.8013
switch	-11.8013
urban	-11.8017
▁benedict	-11.8038
▁portofino	-11.8038
▁sliema	-11.8038
▁staircase	-11.8039
▁rotate	-11.8039
android	-11.804
▁absence	-11.8044
▁seduce	-11.8072
▁biodegradable	-11.8073
▁divorce	-11.8073
▁lebanon	-11.8073
▁vittoria	-11.8073
facesitting	-11.8073
▁stimulate	-11.8073
▁arthur	-11.8073
festival	-11.8079
phthal	-11.8083
spiele	-11.8107
▁allergic	-11.8107
▁occupancy	-11.8107
▁buddha	-11.8107
▁depression	-11.8107
▁collapse	-11.8108
▁vecchio	-11.811
▁nutri	-11.8111
▁pablo	-11.8113
friday	-11.8117
▁hopper	-11.8124
▁galli	-11.8125
▁convey	-11.8135
▁antwerp	-11.8142
▁admire	-11.8144
▁nokia	-11.8144
▁longines	-11.8146
▁ozone	-11.8158
▁recruit	-11.8175
▁enchanting	-11.8177
▁residue	-11.8177
▁submersible	-11.8177
▁optimum	-11.8177
▁lavender	-11.8177
▁parquet	-11.8177
▁allergy	-11.8177
▁yourlust	-11.8177
▁flirt	-11.8178
▁shipyard	-11.8178
▁dietary	-11.8184
▁mirage	-11.8195
▁viking	-11.8196
awg	-11.8205
▁engraved	-11.8212
▁riccardo	-11.8212
▁harmful	-11.8212
▁twelve	-11.8212
▁arbitration	-11.8214
nick	-11.8218
▁futur	-11.8221
ndez	-11.8222
weather	-11.8223
▁burger	-11.8237
ecanate	-11.8244
▁sieve	-11.8245
▁obvious	-11.8247
▁principe	-11.8247
▁vocation	-11.8247
▁varese	-11.825
▁whale	-11.8257
▁bournemouth	-11.8282
▁montepulciano	-11.8282
▁thessaloniki	-11.8282
▁dresden	-11.8282
▁cyclist	-11.8282
▁assess	-11.8282
▁purifier	-11.8283
▁bandwidth	-11.8284
▁taboo	-11.8287
scopic	-11.8289
▁udine	-11.8292
▁bosco	-11.8294
specific	-11.831
kitchen	-11.8315
▁catherine	-11.8318
▁moisturizing	-11.8318
▁stencil	-11.8318
▁apricot	-11.8318
▁injectable	-11.8318
▁austin	-11.8318
▁noodle	-11.8318
▁cowgirl	-11.8319
▁angry	-11.8319
▁rooftop	-11.8324
▁throne	-11.8324
▁besides	-11.8325
▁gianni	-11.8328
▁tripod	-11.8333
▁praise	-11.8344
▁maurizio	-11.8353
▁locarno	-11.8353
▁mermaid	-11.8353
▁penalty	-11.8353
▁belgrade	-11.8354
▁torture	-11.8355
▁glossary	-11.8357
▁compost	-11.8359
lapse	-11.836
structure	-11.836
▁creek	-11.836
▁pietra	-11.8361
▁lombardi	-11.8363
social	-11.8366
▁transceiver	-11.8389
▁encrypted	-11.8389
▁cabernet	-11.8389
▁piemonte	-11.8389
▁canoe	-11.8395
▁adaptation	-11.8409
original	-11.8411
▁maternity	-11.8424
▁mumbai	-11.8424
▁neither	-11.8424
▁invasion	-11.8424
▁numeric	-11.8426
minimum	-11.8433
shipping	-11.8441
▁synthesis	-11.846
▁sampling	-11.846
▁metropole	-11.8461
▁telegram	-11.8462
▁italien	-11.8463
▁possession	-11.8465
▁duties	-11.8468
▁hints	-11.8471
london	-11.8484
▁catamaran	-11.8496
▁chardonnay	-11.8496
▁observatory	-11.8496
▁upholstery	-11.8496
▁venezuela	-11.8496
▁tablespoon	-11.8496
▁awaken	-11.8496
▁breeze	-11.8496
▁syringe	-11.8496
▁aggregate	-11.8501
▁silva	-11.8502
▁cinnamon	-11.8532
▁gastronomic	-11.8532
▁opaque	-11.8532
▁cristian	-11.8533
▁blessed	-11.8533
▁jimmy	-11.8534
approx	-11.8542
▁medici	-11.8557
▁bathrobe	-11.8569
▁billiard	-11.8569
▁injuries	-11.8569
▁exploit	-11.8569
▁thrust	-11.8569
▁distribute	-11.857
▁sequin	-11.857
▁convertible	-11.8577
nbsp	-11.8577
hydraulic	-11.8578
▁abandoned	-11.8605
▁transponder	-11.8605
▁carbohydrate	-11.8605
▁dispatch	-11.8605
december	-11.8615
5.9	-11.8625
▁irregular	-11.8641
▁parmesan	-11.8641
▁attorney	-11.8641
▁vimeo	-11.8642
▁flesh	-11.8642
▁calorie	-11.8642
▁freelance	-11.8643
▁tulle	-11.8646
ventura	-11.8663
4.99	-11.8667
▁pagan	-11.8668
▁hersonissos	-11.8678
▁qingdao	-11.8678
▁eyebrow	-11.8678
▁domenico	-11.8679
distribu	-11.8679
russia	-11.8679
▁ascend	-11.868
museum	-11.8689
▁primarily	-11.8715
▁brewery	-11.8716
▁vespa	-11.8718
▁difficulties	-11.8719
▁provence	-11.8721
▁odds	-11.8721
▁clement	-11.8729
bourg	-11.8749
▁anastasia	-11.8752
▁kazakhstan	-11.8752
▁occupied	-11.8752
▁zucchini	-11.8752
▁retractable	-11.8752
▁isolated	-11.8752
▁wristband	-11.8752
▁kernel	-11.8758
adjustable	-11.8763
▁selva	-11.8772
▁gruppo	-11.8782
▁artichoke	-11.8789
▁buddhist	-11.8789
▁jamiroquai	-11.8789
▁washbasin	-11.8789
▁bespoke	-11.8789
▁shelving	-11.8789
▁behalf	-11.8789
▁disaster	-11.8789
▁messaggi	-11.8793
▁worn	-11.8793
▁cortina	-11.8794
▁turnkey	-11.8794
▁rinse	-11.8798
nutrient	-11.8806
▁avant	-11.8816
▁assembling	-11.8826
▁colosseum	-11.8826
▁gibraltar	-11.8826
▁manhattan	-11.8826
▁neighbour	-11.8826
▁nicholas	-11.8826
▁argument	-11.8826
phosphor	-11.8826
▁razor	-11.8826
▁velcro	-11.8827
7.7	-11.8829
▁guido	-11.8831
▁cancelled	-11.8834
▁stern	-11.8857
▁azerbaijan	-11.8863
▁giardini	-11.8863
▁arduino	-11.8863
▁alotporn	-11.8863
▁manifold	-11.8863
▁cesare	-11.8864
▁meteor	-11.8864
▁samuel	-11.8865
▁locator	-11.8866
9,99	-11.8872
▁eleven	-11.8872
female	-11.8875
defined	-11.8875
▁societ	-11.8887
▁asparagus	-11.8901
▁ceremonies	-11.8901
▁peanut	-11.8901
▁viscose	-11.8901
▁acrobat	-11.8901
▁minerva	-11.8901
▁imitation	-11.8901
▁recruitment	-11.8903
▁soundtrack	-11.8903
▁siege	-11.8905
▁erik	-11.8907
▁spinner	-11.891
deepthroat	-11.8913
which	-11.8913
register	-11.8914
▁ariel	-11.8932
▁deploy	-11.8935
▁kawasaki	-11.8938
▁reconstruction	-11.8938
▁rejuvenation	-11.8938
▁strasbourg	-11.8938
▁derived	-11.8938
▁couture	-11.8938
▁glacier	-11.8938
▁intention	-11.8939
▁conductivity	-11.8939
categories	-11.8951
november	-11.8951
9.9	-11.8955
ethanol	-11.8969
▁consecutive	-11.8976
▁imagination	-11.8976
▁merchandise	-11.8976
▁vincenzo	-11.8976
▁taipei	-11.8976
▁auckland	-11.8976
▁cassette	-11.8976
▁ensuring	-11.8976
▁renowned	-11.8976
▁carved	-11.8981
▁prenota	-11.8983
▁synerg	-11.8988
▁estonia	-11.8998
indica	-11.901
▁brindisi	-11.9014
▁offshore	-11.9014
▁chiffon	-11.9014
▁galileo	-11.9014
▁substrate	-11.9014
▁multiplayer	-11.9014
▁qatar	-11.9014
▁cristal	-11.9015
▁oppose	-11.9016
▁stopped	-11.9022
▁torrent	-11.9022
tourism	-11.9036
▁albufeira	-11.9052
▁guangdong	-11.9052
▁mongolia	-11.9052
▁slitting	-11.9052
▁embrace	-11.9053
▁gradient	-11.9053
▁thermoplastic	-11.9053
▁jews	-11.9054
▁competent	-11.9055
/12/2018	-11.9056
▁gagging	-11.9056
software	-11.9063
empty	-11.9071
▁apparent	-11.909
▁migrant	-11.9091
▁nickname	-11.9091
▁curious	-11.9093
▁nikki	-11.9094
corporate	-11.9103
accessories	-11.9104
▁camouflage	-11.9128
▁magnolia	-11.9128
▁provincial	-11.9128
▁samantha	-11.9128
▁insulating	-11.9128
▁disturb	-11.9128
▁franchise	-11.9128
▁navigate	-11.9129
▁entity	-11.9129
▁prefab	-11.9132
▁scoop	-11.9134
▁revolutionary	-11.9134
▁literary	-11.9136
aglio	-11.9147
▁explosive	-11.9167
▁striptease	-11.9167
▁veterinary	-11.9167
▁hebrew	-11.9167
▁oyster	-11.9167
▁tackle	-11.9167
▁pesaro	-11.9167
▁sponsorship	-11.9169
▁bailey	-11.917
▁staple	-11.9175
▁isabel	-11.9203
▁admitted	-11.9205
▁arizona	-11.9205
▁consumables	-11.9205
▁hindi	-11.9206
▁organizing	-11.9208
▁distinctive	-11.9209
▁depict	-11.9209
people	-11.922
▁sicilia	-11.9227
▁babysitting	-11.9244
▁hyaluronic	-11.9244
▁inauguration	-11.9244
▁innsbruck	-11.9244
▁aegean	-11.9244
▁ferretti	-11.9244
▁tumble	-11.9245
▁municipalities	-11.9246
▁spotify	-11.9247
▁spinach	-11.9249
▁evangeli	-11.925
truck	-11.9271
▁interchangeable	-11.9283
▁lincoln	-11.9283
▁residual	-11.9283
▁impedance	-11.9283
▁oracle	-11.9284
▁dissemination	-11.9284
▁duvet	-11.9285
▁colonial	-11.9286
▁deserve	-11.9287
catalog	-11.9299
jpeg	-11.9299
swiss	-11.9304
▁agrigento	-11.9322
▁birmingham	-11.9322
▁prestashop	-11.9322
▁cambodia	-11.9322
▁amendment	-11.9322
▁optimise	-11.9323
▁fossil	-11.9323
▁ricotta	-11.9323
▁xxxdan	-11.9325
▁factories	-11.933
▁outcome	-11.9337
0.10	-11.9337
phenol	-11.9346
martin	-11.9348
▁detachable	-11.9361
▁ralph	-11.9361
▁motif	-11.9362
▁cortona	-11.9362
▁bianchi	-11.9362
▁ragusa	-11.9362
▁geography	-11.9366
▁radical	-11.9384
▁consolidated	-11.9401
▁pesticide	-11.9401
▁nicotine	-11.9401
▁specimen	-11.9401
▁enclosed	-11.9401
▁urgent	-11.9401
▁pistol	-11.9401
▁poggio	-11.9401
▁pedro	-11.941
▁mystic	-11.9421
▁jonathan	-11.944
▁geometry	-11.9441
▁picasso	-11.9442
▁jaguar	-11.9448
▁fleur	-11.9453
ceramic	-11.9457
▁adjacent	-11.948
▁pistachio	-11.948
▁spherical	-11.948
▁elevation	-11.948
▁secretariat	-11.948
▁goddess	-11.948
[...]
