<pad>	0
<s>	0
</s>	0
<unk>	0
▁di	-3.66163
.	-3.75279
,	-3.79282
▁e	-4.26548
:	-4.37448
▁a	-4.55046
▁per	-4.64623
▁	-4.65954
▁-	-4.70911
▁in	-4.74452
▁il	-4.7885
▁la	-4.82933
'	-4.90899
s	-5.0493
▁del	-5.05305
▁(	-5.21913
)	-5.22005
▁con	-5.26017
▁i	-5.27884
-	-5.29793
▁da	-5.4275
▁un	-5.47284
▁l	-5.54527
re	-5.57972
▁della	-5.61434
▁è	-5.63477
▁le	-5.63753
a	-5.65984
to	-5.79796
▁hotel	-5.80812
/	-5.88302
▁al	-5.88702
▁_	-5.8992
ta	-5.91007
o	-5.98226
e	-5.98979
’	-6.01046
▁1	-6.05905
▁che	-6.09333
no	-6.10133
▁una	-6.10438
te	-6.12883
▁o	-6.14526
i	-6.1526
▁d	-6.16015
ti	-6.16081
▁2	-6.16937
▁dei	-6.18123
l	-6.18832
▁dell	-6.20581
?	-6.23243
▁3	-6.24998
▁su	-6.26728
▁si	-6.28293
▁–	-6.29296
d	-6.29393
▁/	-6.33807
r	-6.34822
c	-6.37602
m	-6.38919
t	-6.39032
▁non	-6.4033
▁>	-6.47466
n	-6.47913
▁nel	-6.51382
▁4	-6.52493
2	-6.52591
▁s	-6.54223
!	-6.54226
▁sono	-6.5529
x	-6.55788
b	-6.55971
▁come	-6.56344
le	-6.57899
▁5	-6.58457
▁più	-6.58466
▁prodotti	-6.58641
na	-6.59065
▁&	-6.65136
▁€	-6.6547
ri	-6.69359
v	-6.70576
▁fa	-6.71736
;	-6.71868
ni	-6.72594
li	-6.72959
g	-6.73941
p	-6.74754
▁delle	-6.75399
...	-6.77143
▁alla	-6.81844
▁10	-6.84342
▁ha	-6.87993
▁dal	-6.8881
f	-6.90648
▁all	-6.92656
▁se	-6.9337
▁gli	-6.93693
di	-6.93884
▁6	-6.94628
3	-6.94812
ne	-6.95333
la	-6.95526
com	-6.9568
"	-6.97484
▁ad	-6.97858
▁casa	-6.98605
▁:	-6.98981
▁b	-6.99006
1	-6.9979
ca	-7.00993
ma	-7.01865
w	-7.01974
▁sito	-7.02602
▁"	-7.02733
▁ma	-7.04701
y	-7.05382
in	-7.05415
zione	-7.05457
▁2019	-7.06324
k	-7.06696
▁tutti	-7.08882
co	-7.09513
▁ed	-7.09659
▁via	-7.09928
se	-7.11204
▁m	-7.11875
▁anni	-7.1189
▁c	-7.12091
ro	-7.12769
mm	-7.13001
4	-7.1365
ra	-7.13905
si	-7.14055
▁lo	-7.14363
▁ci	-7.15118
h	-7.17633
▁de	-7.18096
me	-7.18248
ci	-7.1962
▁2018	-7.20695
▁home	-7.21754
sa	-7.22129
▁12	-7.22632
vi	-7.2273
va	-7.23166
▁x	-7.23394
▁prezzo	-7.23459
nte	-7.25467
▁7	-7.25489
de	-7.26149
▁20	-7.26355
mi	-7.26808
mo	-7.26863
▁tra	-7.26962
▁p	-7.2726
▁sul	-7.27596
lo	-7.27848
▁19	-7.28131
er	-7.28891
da	-7.30619
▁mi	-7.30782
▁nella	-7.31286
▁8	-7.31331
▁15	-7.32118
▁alle	-7.32616
▁informazioni	-7.34245
▁ri	-7.35921
▁questo	-7.36482
it	-7.37151
▁18	-7.38104
ndo	-7.38135
▁san	-7.38217
▁prodotto	-7.40153
▁n	-7.40583
▁re	-7.41428
▁dati	-7.41592
▁essere	-7.41924
▁video	-7.41948
5	-7.42817
▁•	-7.43652
▁co	-7.43711
▁tuo	-7.44979
▁©	-7.45595
▁2017	-7.47739
ing	-7.48424
sta	-7.49761
u	-7.50224
▁24	-7.50806
▁qualità	-7.51878
▁italia	-7.52355
▁+	-7.52887
▁modello	-7.53073
▁dalla	-7.53294
▁ai	-7.53535
▁vi	-7.53936
▁30	-7.53967
_	-7.54691
ve	-7.54714
ce	-7.54737
6	-7.54792
▁online	-7.55003
▁9	-7.5583
8	-7.56189
tta	-7.56404
▁g	-7.56745
▁“	-7.56747
▁prima	-7.57243
▁sulla	-7.5725
do	-7.57427
”	-7.57516
▁degli	-7.57958
▁anche	-7.58207
ga	-7.59157
▁cina	-7.59336
▁16	-7.59747
▁»	-7.60053
z	-7.60418
▁servizio	-7.60556
▁0	-7.60791
▁ora	-7.61434
▁ti	-7.62187
so	-7.62978
▁senza	-7.63226
mento	-7.63309
▁web	-7.63889
nti	-7.65262
▁numero	-7.65324
▁*	-7.65464
▁alta	-7.65693
▁servizi	-7.65831
▁può	-7.65927
▁14	-7.66404
▁tempo	-7.6879
zioni	-7.69303
▁t	-7.69459
pa	-7.69876
▁sistema	-7.70017
▁auto	-7.70576
▁nuovo	-7.70841
▁centro	-7.71168
tore	-7.72045
al	-7.72223
▁camera	-7.72597
▁minuti	-7.72727
▁pro	-7.72922
▁11	-7.73786
▁fu	-7.73895
▁13	-7.74702
▁due	-7.7472
▁macchina	-7.7499
go	-7.75379
fi	-7.7545
&	-7.75601
▁chi	-7.75859
▁foto	-7.76345
▁25	-7.76748
▁villa	-7.76996
▁ore	-7.77302
▁qui	-7.77627
▁nostro	-7.77664
10	-7.77737
▁appartamenti	-7.77845
7	-7.78156
▁vendita	-7.78946
▁giorni	-7.79034
▁h	-7.79146
▁17	-7.79346
▁codice	-7.7949
▁grande	-7.79931
]	-7.80006
▁dall	-7.8039
▁v	-7.80749
▁ca	-7.80824
▁italy	-7.8114
▁colore	-7.81271
▁km	-7.81567
#	-7.82716
▁camere	-7.829
▁tutto	-7.82937
▁[	-7.8355
tori	-7.83569
mente	-7.83759
tti	-7.83767
▁pre	-7.84395
pe	-7.84556
▁disponibile	-7.84796
▁tua	-7.8525
30	-7.85292
che	-7.85413
▁ho	-7.8558
ge	-7.86091
▁2016	-7.86215
on	-7.86376
▁nostri	-7.86672
▁sa	-7.86681
▁solo	-7.86953
▁tipo	-7.86996
▁...	-7.87339
▁elenco	-7.87355
▁live	-7.87607
>	-7.88306
è	-7.88486
▁nome	-7.88562
▁ogni	-7.88679
9	-7.89056
en	-7.8914
tte	-7.89181
▁pagina	-7.8936
▁stato	-7.89541
▁milano	-7.89563
▁parte	-7.89598
▁fino	-7.89842
▁50	-7.89897
ba	-7.9009
ria	-7.90092
▁cosa	-7.91641
▁città	-7.92593
▁bed	-7.93774
▁lavoro	-7.93921
il	-7.94314
▁letto	-7.94534
(	-7.94845
▁spa	-7.95141
sti	-7.95569
▁stampa	-7.95804
▁f	-7.961
▁cm	-7.96371
▁giorno	-7.96947
▁stelle	-7.97061
▁(1	-7.97109
amo	-7.97192
▁li	-7.97299
▁mm	-7.97435
▁vita	-7.97462
▁privacy	-7.97491
▁roma	-7.97531
▁file	-7.97631
▁altri	-7.98219
▁r	-7.98748
▁nero	-7.98829
▁the	-7.99105
▁mondo	-7.99285
es	-7.99527
▁mare	-7.99776
▁bambini	-8.00213
hotel	-8.00325
▁nostra	-8.00384
▁breakfast	-8.00425
▁me	-8.00475
▁tutte	-8.0048
▁100	-8.0149
▁21	-8.01589
▁and	-8.01675
▁porta	-8.01821
▁no	-8.02251
▁questa	-8.02355
▁dopo	-8.02449
▁suo	-8.02623
▁pa	-8.02933
vo	-8.02958
°	-8.03053
▁22	-8.03194
j	-8.03427
▁te	-8.03658
▁mo	-8.03755
ch	-8.03905
gi	-8.04041
0	-8.04085
ia	-8.04387
▁tre	-8.04451
▁materiale	-8.04905
▁trova	-8.05025
▁ricerca	-8.05161
*	-8.05885
per	-8.06028
▁k	-8.06225
▁ce	-8.06922
▁design	-8.07332
▁base	-8.07382
st	-8.07561
zza	-8.07799
▁sicurezza	-8.07875
▁to	-8.08207
us	-8.08377
tto	-8.08412
▁ra	-8.08479
▁trattamento	-8.08502
▁clienti	-8.08958
▁telefono	-8.09186
▁1.	-8.09294
▁cucina	-8.09608
20	-8.09829
▁carta	-8.10118
@	-8.10285
tura	-8.10334
▁struttura	-8.10374
40	-8.10453
▁controllo	-8.10513
▁fare	-8.11114
▁uno	-8.11498
▁2015	-8.11589
▁2.	-8.11605
▁23	-8.11783
▁data	-8.11975
▁acciaio	-8.12025
▁nuova	-8.12088
▁$	-8.12128
▁bianco	-8.12222
19	-8.12408
bi	-8.12472
12	-8.12486
▁led	-8.1299
15	-8.13075
lla	-8.13242
chi	-8.13564
an	-8.13735
▁eventi	-8.13802
▁dove	-8.1385
▁#	-8.13851
▁anno	-8.13967
▁produzione	-8.13989
▁ro	-8.15303
11	-8.15486
▁scopri	-8.15789
pi	-8.16109
auto	-8.16183
▁persone	-8.16256
▁nell	-8.16592
▁settembre	-8.16834
▁gruppo	-8.17099
▁3.	-8.17125
fa	-8.17652
▁mappa	-8.17789
▁bar	-8.18559
ed	-8.18777
▁prezzi	-8.18972
▁mesi	-8.19067
▁giochi	-8.19209
th	-8.19271
aeroporto	-8.1954
▁sotto	-8.19737
▁dello	-8.19843
ck	-8.20414
bo	-8.20584
▁ottobre	-8.20632
18	-8.20872
▁fabbrica	-8.20915
▁linea	-8.21075
50	-8.21546
▁bo	-8.22089
▁dimensioni	-8.22136
▁maggio	-8.22688
po	-8.22849
ato	-8.22873
▁pi	-8.22988
▁noi	-8.2307
▁serie	-8.23078
▁2020	-8.23104
25	-8.23161
▁quando	-8.23263
▁accessori	-8.23331
▁u	-8.23548
▁dimensione	-8.23563
▁giugno	-8.24022
▁guida	-8.24026
▁pe	-8.24031
ka	-8.24078
▁diritti	-8.24591
▁cookie	-8.24739
24	-8.24912
▁mar	-8.24962
▁siamo	-8.25071
60	-8.25177
be	-8.25404
tra	-8.25443
ar	-8.25737
▁ufficiale	-8.25823
+	-8.259
▁car	-8.25976
▁primo	-8.26372
▁euro	-8.26392
▁richiesta	-8.26592
▁w	-8.2679
▁sua	-8.26998
▁possono	-8.27144
rio	-8.27309
▁40	-8.27573
llo	-8.27732
▁28	-8.27756
rsi	-8.27771
▁case	-8.27925
▁articoli	-8.28257
▁na	-8.28372
▁acqua	-8.28656
%	-8.28903
▁vacanze	-8.29169
▁copyright	-8.29695
▁produttore	-8.29903
▁26	-8.29963
▁aprile	-8.29988
▁descrizione	-8.30063
▁molto	-8.30143
bile	-8.30168
▁appartamento	-8.30464
sse	-8.30467
▁creampie	-8.30577
▁film	-8.30889
▁info	-8.3101
sh	-8.31419
▁nei	-8.3144
con	-8.31876
▁dicembre	-8.31893
▁4.	-8.31952
90	-8.32053
▁ta	-8.32527
▁bi	-8.32537
▁gennaio	-8.32728
▁fornitore	-8.3302
▁sui	-8.33154
▁po	-8.33217
▁forma	-8.33495
14	-8.33533
▁scarica	-8.33778
▁27	-8.34039
▁nelle	-8.34055
▁so	-8.3422
tà	-8.34624
▁2014	-8.34684
▁progetto	-8.34748
80	-8.34782
iva	-8.34958
▁produttori	-8.35139
17	-8.3515
▁luglio	-8.35443
▁circa	-8.35707
ng	-8.36151
▁60	-8.36272
16	-8.36272
▁supporto	-8.3632
▁bagno	-8.36603
▁gestione	-8.3672
mail	-8.36996
ry	-8.37249
▁by	-8.37439
▁febbraio	-8.37938
▁ospiti	-8.3838
▁fi	-8.38696
▁vista	-8.38861
io	-8.39061
▁modo	-8.39121
▁sesso	-8.39596
ru	-8.39831
▁anti	-8.40767
▁misura	-8.40861
▁2013	-8.40887
▁consegna	-8.4089
▁pelle	-8.40893
▁mio	-8.40932
▁tu	-8.4123
era	-8.4123
ter	-8.41232
▁italiano	-8.41287
du	-8.41558
is	-8.41729
▁storia	-8.41864
▁donna	-8.41922
▁migliori	-8.4203
▁blu	-8.42105
menti	-8.42237
fo	-8.42686
one	-8.42967
▁offerte	-8.43036
▁be	-8.43114
▁ba	-8.43232
€	-8.43372
lu	-8.43378
▁gioco	-8.43449
▁app	-8.43652
▁ne	-8.44147
▁dalle	-8.44423
▁legno	-8.44466
lli	-8.44494
▁attività	-8.44509
▁plastica	-8.44515
▁cui	-8.44533
cca	-8.44609
45	-8.44725
▁condizioni	-8.44948
00	-8.45235
▁totale	-8.45288
man	-8.45613
▁(2	-8.45913
ke	-8.46237
▁versione	-8.46303
▁prenota	-8.46388
35	-8.46614
▁programma	-8.46712
▁luce	-8.46754
bili	-8.46878
▁cavo	-8.46969
▁piace	-8.47091
01	-8.47367
un	-8.47423
▁val	-8.4796
▁hanno	-8.48171
ver	-8.48326
▁novembre	-8.48441
sco	-8.48696
▁29	-8.49007
q	-8.49143
▁for	-8.49146
ssa	-8.49269
▁standard	-8.49318
nza	-8.49426
36	-8.49461
fe	-8.49784
▁contattaci	-8.49897
▁disponibili	-8.49901
▁01	-8.49921
trice	-8.49923
▁venezia	-8.50296
▁marzo	-8.50331
▁loro	-8.50335
▁peso	-8.50409
▁sei	-8.50458
▁internazionale	-8.50512
▁alluminio	-8.50528
13	-8.50755
▁recensioni	-8.50792
▁sulle	-8.50922
▁stati	-8.51039
▁(3	-8.51205
▁srl	-8.51311
▁sport	-8.51316
ssi	-8.51391
21	-8.51451
▁ar	-8.5156
ie	-8.51796
▁perché	-8.52026
ere	-8.52158
▁motore	-8.52173
▁on	-8.52236
are	-8.52307
▁contatti	-8.52356
▁gangbang	-8.52625
▁go	-8.52634
▁parti	-8.52835
▁ristorante	-8.5287
▁of	-8.52915
▁riservati	-8.53114
▁prova	-8.53215
▁2012	-8.53258
▁altre	-8.53473
▁studio	-8.53523
▁protezione	-8.53524
at	-8.53833
cm	-8.53887
uso	-8.54094
▁do	-8.54105
99	-8.54533
▁gratis	-8.54631
▁uomo	-8.54905
▁posizione	-8.54917
▁piedi	-8.54989
▁software	-8.55043
▁immagini	-8.5513
▁visita	-8.55137
▁vostro	-8.55219
▁tour	-8.55551
▁sta	-8.5558
▁contatto	-8.55641
02	-8.56146
▁fra	-8.56161
▁velocità	-8.56275
▁secondo	-8.56285
acqua	-8.56417
▁www	-8.5651
▁31	-8.56538
▁doppia	-8.56624
22	-8.56625
▁sempre	-8.56752
▁corso	-8.56892
▁rosso	-8.56955
75	-8.56977
▁piano	-8.57017
▁porto	-8.57236
su	-8.57368
▁categoria	-8.57514
▁mini	-8.57894
▁monte	-8.57961
ale	-8.58068
▁giapponese	-8.58114
▁possibile	-8.58462
anno	-8.58494
▁vetro	-8.58538
▁stile	-8.59
▁noleggio	-8.59042
▁vicino	-8.59585
▁personali	-8.59659
▁risultati	-8.59984
32	-8.60086
▁tue	-8.6023
el	-8.60302
▁colori	-8.60366
▁persona	-8.60638
ò	-8.60673
▁mostra	-8.60707
▁tessuto	-8.60752
▁q	-8.60767
é	-8.60824
▁articolo	-8.61044
ko	-8.61053
▁famiglia	-8.61247
▁pagamento	-8.61264
▁accesso	-8.61266
▁carrello	-8.61405
▁metri	-8.61417
▁era	-8.61487
▁super	-8.61746
▁grazie	-8.61839
▁news	-8.61953
70	-8.62152
38	-8.62185
ll	-8.6221
oni	-8.62355
27	-8.62502
▁offre	-8.62626
®	-8.62777
▁capacità	-8.62836
▁verde	-8.63246
55	-8.63453
line	-8.63508
rà	-8.63953
ty	-8.63984
▁tuoi	-8.64023
▁firenze	-8.6405
▁durante	-8.64423
▁+39	-8.6448
zzi	-8.64506
▁temperatura	-8.6453
28	-8.64607
▁media	-8.64677
65	-8.64846
▁05	-8.64854
ly	-8.64893
ki	-8.649
ste	-8.64986
).	-8.65005
▁lunghezza	-8.65028
▁seguenti	-8.65029
▁altro	-8.65104
▁va	-8.65112
49	-8.65217
net	-8.6529
▁iva	-8.65336
26	-8.65364
▁mai	-8.65406
▁spedizione	-8.65604
▁viene	-8.65901
▁j	-8.65956
pro	-8.65977
▁set	-8.66066
▁terra	-8.66107
▁ka	-8.66245
▁02	-8.66344
gno	-8.66497
ali	-8.66531
▁cliente	-8.66604
▁fine	-8.66904
▁dettagli	-8.67051
▁presso	-8.67163
ero	-8.67236
son	-8.67273
▁nostre	-8.67455
▁area	-8.67561
▁tri	-8.67622
▁facile	-8.67817
um	-8.67825
▁hai	-8.67904
▁tv	-8.6793
95	-8.6803
29	-8.68153
▁uso	-8.68227
▁completa	-8.68404
▁resort	-8.68474
ggio	-8.68487
100	-8.68538
34	-8.68601
▁(4	-8.68648
▁dai	-8.68935
31	-8.68951
or	-8.68963
▁sistemi	-8.69007
tion	-8.69106
za	-8.69145
▁fornitori	-8.69265
lle	-8.69411
▁pubblicato	-8.69442
▁olio	-8.69468
tica	-8.69483
48	-8.69625
▁termini	-8.6983
▁art	-8.70304
der	-8.70344
33	-8.70363
▁quali	-8.70374
▁mano	-8.70533
▁top	-8.70667
▁mercato	-8.70963
▁z	-8.71187
▁viaggio	-8.71298
▁gratuito	-8.71303
▁notte	-8.7164
▁mia	-8.71726
▁nuovi	-8.71729
▁sia	-8.71925
▁speciale	-8.72016
▁palazzo	-8.72036
ster	-8.72282
▁200	-8.72303
▁new	-8.7254
▁riferimento	-8.72686
▁35	-8.72746
aria	-8.7292
▁caratteristiche	-8.7293
ss	-8.73025
▁oggi	-8.73117
▁club	-8.73415
cu	-8.73639
▁durata	-8.73722
▁blowjob	-8.73727
09	-8.73856
▁sala	-8.73904
39	-8.73909
:00	-8.73973
mp	-8.7398
44	-8.7409
▁100%	-8.74122
▁04	-8.74175
23	-8.74178
rie	-8.74178
▁bio	-8.74358
glia	-8.74393
▁oltre	-8.74489
et	-8.74539
▁5.	-8.7467
▁500	-8.75365
▁principale	-8.75486
▁ve	-8.75581
▁qualsiasi	-8.75596
▁06	-8.75668
37	-8.75736
▁spiaggia	-8.75928
land	-8.75936
▁migliore	-8.75957
▁indirizzo	-8.75982
▁parco	-8.75993
▁sconto	-8.76012
▁livello	-8.76102
ja	-8.76144
ad	-8.76246
▁volta	-8.7637
03	-8.76488
▁ecc	-8.76753
▁corpo	-8.76792
▁·	-8.7685
▁inglese	-8.76861
sca	-8.77008
▁—	-8.77096
▁alto	-8.77122
▁ga	-8.77123
▁rete	-8.77224
▁scarpe	-8.77368
▁tubo	-8.7744
▁campo	-8.7745
▁partire	-8.77466
tu	-8.77627
▁aria	-8.77947
▁punti	-8.7802
▁cura	-8.78102
▁or	-8.78258
69	-8.78343
▁80	-8.78578
que	-8.78755
▁rosa	-8.78848
▁posso	-8.78905
▁modulo	-8.78936
46	-8.79039
▁mu	-8.79153
▁ancora	-8.79162
▁ru	-8.79183
▁speciali	-8.79372
▁pacchetto	-8.79377
ano	-8.79468
64	-8.79669
▁stazione	-8.79722
66	-8.80144
▁anal	-8.80181
tro	-8.80323
eri	-8.80371
▁giardino	-8.80387
▁musica	-8.8044
▁categorie	-8.80474
05	-8.80477
▁agosto	-8.80611
▁polvere	-8.80799
▁soluzioni	-8.80853
▁it	-8.80895
▁marina	-8.80926
▁abbiamo	-8.81148
▁sole	-8.81164
://	-8.81248
67	-8.8125
ana	-8.8127
▁usa	-8.81322
▁società	-8.81352
▁wi	-8.81491
▁mese	-8.81527
▁man	-8.81696
▁punto	-8.81699
▁leggi	-8.81901
06	-8.81955
▁aggiornamento	-8.82032
ata	-8.82102
tivo	-8.82316
▁tag	-8.82485
▁prenotazione	-8.82512
ora	-8.8252
42	-8.82545
▁fiori	-8.8257
▁santa	-8.8302
▁newsletter	-8.83171
▁capelli	-8.83294
▁min	-8.83324
ha	-8.83353
▁catalogo	-8.8345
▁multi	-8.83504
▁oro	-8.83647
▁ni	-8.83922
▁grandi	-8.84043
zzo	-8.84107
▁vostra	-8.84125
▁download	-8.84182
▁sviluppo	-8.84255
zia	-8.84294
▁caso	-8.8447
▁batteria	-8.84488
85	-8.84525
▁03	-8.84601
▁sci	-8.84652
▁inter	-8.84666
▁sull	-8.84991
▁fe	-8.85014
▁beach	-8.85022
▁basso	-8.85135
▁post	-8.85221
▁azienda	-8.85311
▁rimini	-8.85451
▁pc	-8.85797
azione	-8.85964
▁acquista	-8.86035
▁soggiorno	-8.86044
acciaio	-8.8606
▁metallo	-8.86099
gna	-8.86122
▁email	-8.86147
▁lingua	-8.86332
08	-8.86457
▁informativa	-8.86603
▁ultimo	-8.86775
▁verona	-8.86805
▁clicca	-8.87054
43	-8.87089
▁assistenza	-8.87109
▁bu	-8.87274
▁materiali	-8.87369
mar	-8.87371
71	-8.87378
oro	-8.87435
07	-8.87588
ggi	-8.87726
stra	-8.8776
▁45	-8.8778
▁settimana	-8.87848
▁vacanza	-8.87884
ts	-8.8789
47	-8.87949
▁bella	-8.88132
▁notizie	-8.88162
▁(5	-8.88181
▁giovani	-8.88196
tico	-8.88205
54	-8.88237
▁ip	-8.88237
▁kit	-8.88423
▁massimo	-8.88709
▁donne	-8.88931
nia	-8.89124
▁gas	-8.89182
41	-8.89276
▁tecnologia	-8.89313
ur	-8.89499
▁progettazione	-8.8953
am	-8.89564
▁macchine	-8.89596
▁internet	-8.897
nta	-8.89735
▁eur	-8.89837
▁scatola	-8.89949
▁piscina	-8.90184
▁2011	-8.90227
88	-8.9028
▁scegli	-8.90343
:30	-8.90383
68	-8.90464
▁puoi	-8.90694
▁agli	-8.91037
ati	-8.91101
up	-8.91298
min	-8.91354
ns	-8.9136
▁progetti	-8.91406
▁gi	-8.91438
58	-8.9149
56	-8.91904
ya	-8.91922
▁altezza	-8.9202
0,00	-8.92123
86	-8.92196
▁mobile	-8.9237
▁piazza	-8.92386
▁quanto	-8.92432
▁potenza	-8.92596
▁90	-8.92625
sce	-8.92745
▁residence	-8.92804
▁naturale	-8.92833
▁hi	-8.92867
▁08	-8.92878
▁dolce	-8.9293
▁(1)	-8.93068
arte	-8.93133
▁immagine	-8.93195
▁taglio	-8.93252
▁aggiungi	-8.93253
▁utenti	-8.93286
59	-8.93354
▁hd	-8.93389
▁spazio	-8.93409
▁fo	-8.93448
61	-8.93457
▁collezione	-8.93539
▁domenica	-8.93585
▁trasporto	-8.93585
▁zona	-8.93592
▁guarda	-8.93664
▁proprietà	-8.93666
▁natura	-8.937
▁strumenti	-8.93889
▁test	-8.9403
fer	-8.94061
▁invia	-8.94095
mb	-8.9414
▁offerta	-8.94233
▁sarà	-8.94265
89	-8.94363
nt	-8.94642
▁ragazze	-8.94767
▁gran	-8.94831
▁italiana	-8.94942
▁profilo	-8.94991
▁cor	-8.95036
sci	-8.95039
glio	-8.95156
▁parcheggio	-8.95196
▁museo	-8.95215
lia	-8.95398
51	-8.95655
▁pressione	-8.95656
▁«	-8.95737
▁ben	-8.9575
ac	-8.95849
▁32	-8.95865
62	-8.95978
ndi	-8.95988
▁semplice	-8.9604
▁07	-8.96049
as	-8.96052
▁bologna	-8.9614
▁maria	-8.96253
▁lu	-8.96401
57	-8.96519
▁volte	-8.96583
▁vendite	-8.96583
000	-8.9678
▁6.	-8.9683
▁resistenza	-8.96879
▁cos	-8.96901
87	-8.9693
▁pezzi	-8.96949
ven	-8.9697
▁elettrico	-8.97169
▁scuola	-8.97173
▁vedere	-8.97199
▁ex	-8.97226
▁nessun	-8.97268
▁300	-8.97488
▁kg	-8.97508
▁costruzione	-8.97614
▁francese	-8.97661
▁grado	-8.97764
▁00	-8.97878
tri	-8.97897
▁strada	-8.97929
▁siti	-8.98022
▁contro	-8.98062
▁col	-8.98151
▁moto	-8.98228
96	-8.98282
▁am	-8.98373
▁alcuni	-8.98389
▁team	-8.98404
98	-8.98545
72	-8.98556
▁pan	-8.98672
▁y	-8.98739
▁voi	-8.9889
▁novità	-8.98903
▁max	-8.98943
▁bene	-8.99268
▁ordine	-8.99313
ten	-8.99397
▁<	-8.99418
63	-8.99531
bu	-8.9955
»	-8.99563
▁lago	-8.99572
97	-8.99598
tor	-8.99638
ct	-8.99702
▁formazione	-8.99725
▁luogo	-8.99732
▁laser	-8.99788
▁sud	-8.99834
ber	-9.00035
▁sede	-9.00075
▁ufficio	-9.00098
cchi	-9.00106
▁fatto	-9.00161
▁stagione	-9.00197
▁ottenere	-9.00233
▁250	-9.00277
▁vedi	-9.00331
▁settore	-9.00581
▁sabato	-9.00598
▁pu	-9.00639
▁maggiori	-9.00733
-1	-9.00777
ate	-9.00899
▁***	-9.01049
▁stata	-9.01081
ton	-9.01091
▁piccolo	-9.01149
▁scheda	-9.0117
gio	-9.01186
▁massima	-9.01214
▁testa	-9.0122
▁tipi	-9.01236
▁commerciale	-9.01326
▁09	-9.01329
▁sopra	-9.01366
78	-9.01405
▁policy	-9.0145
76	-9.01458
ghe	-9.01552
ente	-9.0163
▁crea	-9.01651
84	-9.01652
gra	-9.0168
ine	-9.01849
53	-9.01897
▁micro	-9.01902
▁nazionale	-9.01965
ture	-9.02086
▁così	-9.02091
▁lungo	-9.02129
italia	-9.02132
▁av	-9.0219
83	-9.02191
▁corsi	-9.02289
cc	-9.02388
▁cu	-9.02424
ina	-9.02466
▁gamma	-9.02552
▁cerca	-9.02783
▁borsa	-9.02906
▁blog	-9.02967
▁vino	-9.0311
▁buona	-9.03144
ml	-9.03306
sia	-9.03375
):	-9.03468
▁classico	-9.03496
▁nuove	-9.03506
▁70	-9.03528
74	-9.03625
▁cap	-9.03713
▁mamma	-9.03776
id	-9.03817
52	-9.04064
500	-9.04132
▁momento	-9.04177
▁150	-9.04205
▁visualizza	-9.0425
▁digitale	-9.04272
cco	-9.0459
os	-9.04708
nd	-9.04713
ff	-9.04782
▁principali	-9.04818
▁superficie	-9.04939
▁quattro	-9.04956
▁industriale	-9.05003
▁arte	-9.0507
▁windows	-9.05113
▁funzione	-9.05286
▁du	-9.0534
au	-9.05419
▁modelli	-9.05424
▁regno	-9.05429
sto	-9.05436
▁applicazioni	-9.05513
▁'	-9.05525
rti	-9.05552
79	-9.05588
▁automatico	-9.05772
▁diametro	-9.05816
▁festival	-9.06026
▁inossidabile	-9.06046
rono	-9.06133
ho	-9.06133
▁tecnica	-9.06166
▁registrazione	-9.06248
kg	-9.06264
▁colazione	-9.06268
▁at	-9.0641
▁uniti	-9.06437
▁seleziona	-9.06441
▁ac	-9.06448
▁garanzia	-9.06689
▁esperienza	-9.06691
▁diversi	-9.06816
▁schermo	-9.06881
▁manuale	-9.06969
▁negozio	-9.07068
▁link	-9.07085
▁bambino	-9.07096
▁scegliere	-9.07098
▁commenti	-9.07162
▁processo	-9.07225
▁2010	-9.07361
▁venerdì	-9.07437
▁us	-9.07455
▁house	-9.07478
▁diritto	-9.07493
▁pornstar	-9.07529
nda	-9.07556
▁cuore	-9.07557
gia	-9.07704
zi	-9.07805
zo	-9.07849
04	-9.08178
▁partner	-9.08251
▁=	-9.08325
fu	-9.08348
tre	-9.0857
94	-9.08596
▁pvc	-9.08604
▁gra	-9.08722
▁domande	-9.08723
▁aeroporto	-9.08826
ggia	-9.08957
▁napoli	-9.08962
82	-9.08972
via	-9.09094
▁buon	-9.09308
▁larghezza	-9.09331
ner	-9.09366
▁ver	-9.09438
▁business	-9.09452
▁generale	-9.09631
▁castello	-9.0964
tiva	-9.09668
93	-9.09694
▁valore	-9.09927
▁centrale	-9.10029
▁completo	-9.10089
▁meno	-9.10133
nu	-9.10144
▁utilizzare	-9.10239
▁en	-9.10407
▁lusso	-9.10545
▁vuoi	-9.106
▁miglior	-9.10732
▁tensione	-9.10951
▁bra	-9.1101
▁passo	-9.11178
▁ko	-9.11199
92	-9.11355
▁za	-9.11521
▁mac	-9.11667
73	-9.11694
▁formato	-9.11756
▁comune	-9.11838
▁avere	-9.1186
91	-9.11885
▁potere	-9.11993
▁ragazza	-9.1201
▁poi	-9.12034
ì	-9.1204
▁costa	-9.12042
▁bisogno	-9.12083
▁cam	-9.12106
▁carico	-9.12125
▁tramite	-9.1222
cci	-9.12261
▁funziona	-9.12261
▁animali	-9.12268
77	-9.12312
uti	-9.12314
im	-9.12353
▁android	-9.12435
pre	-9.12442
▁posto	-9.12519
81	-9.12568
▁soluzione	-9.12668
▁unito	-9.12689
▁continua	-9.12697
ul	-9.127
▁36	-9.12954
gli	-9.13037
▁soli	-9.13085
▁fuori	-9.13143
gu	-9.13227
▁uomini	-9.13267
▁note	-9.13277
▁privato	-9.13381
▁torre	-9.13412
▁utilizzo	-9.13432
▁galleria	-9.13459
▁suoi	-9.13482
▁applicazione	-9.13488
200	-9.13659
poli	-9.13863
▁punta	-9.13888
▁poli	-9.13956
▁questi	-9.13988
▁pubblico	-9.14051
org	-9.14058
▁personale	-9.14085
▁gomma	-9.14234
▁bianca	-9.14385
▁lista	-9.14422
▁°	-9.14478
▁chiave	-9.14482
▁professionale	-9.14554
interno	-9.14603
▁grand	-9.14659
▁costo	-9.14747
dia	-9.14782
▁distanza	-9.1511
▁taglia	-9.15188
▁nu	-9.1519
app	-9.15202
▁sp	-9.15213
▁pannello	-9.15213
▁dispositivo	-9.15251
▁tel	-9.15379
▁florence	-9.15457
▁black	-9.1554
nde	-9.15546
▁adulti	-9.15724
▁caffè	-9.15737
▁st	-9.15744
▁usb	-9.161
▁albergo	-9.16267
▁termine	-9.16314
▁~	-9.16423
▁moda	-9.16448
▁modalità	-9.16483
▁capo	-9.16948
▁paese	-9.16993
▁gu	-9.17025
ps	-9.17191
ghi	-9.17328
▁gratuita	-9.1734
zio	-9.17481
▁iso	-9.17513
ze	-9.17543
▁tor	-9.17746
▁chat	-9.17755
▁lega	-9.17824
▁natale	-9.17877
stro	-9.17991
qui	-9.18037
▁boutique	-9.1805
▁scelta	-9.1805
▁periodo	-9.181
▁pompa	-9.18208
▁doccia	-9.18216
▁fibra	-9.18312
▁europa	-9.18438
tt	-9.18451
▁cotone	-9.18534
▁superiore	-9.18564
▁doppio	-9.18582
▁account	-9.18607
cia	-9.18617
▁posti	-9.1867
mer	-9.18712
trici	-9.18827
▁nord	-9.19077
▁unità	-9.19214
▁7.	-9.19361
ny	-9.19403
▁comunicazione	-9.19663
car	-9.19882
$	-9.19999
▁usare	-9.20033
▁precedente	-9.20149
▁free	-9.20197
▁attraverso	-9.20236
les	-9.20293
▁elettrica	-9.20299
▁password	-9.20309
▁forte	-9.20371
▁ricevere	-9.2049
▁far	-9.20509
wi	-9.20698
▁pulizia	-9.20756
▁modifica	-9.20911
▁deposito	-9.21123
▁parete	-9.2125
ante	-9.21335
▁opera	-9.21344
ser	-9.21436
▁audio	-9.21447
▁impianti	-9.21455
ol	-9.21473
sp	-9.21509
▁analisi	-9.21554
▁valutazione	-9.21596
▁ki	-9.21637
op	-9.2171
".	-9.21713
▁bus	-9.2194
stica	-9.22082
▁seconda	-9.22122
▁visualizzazioni	-9.22123
hi	-9.22396
▁para	-9.22408
▁tutta	-9.22504
▁computer	-9.2264
▁jo	-9.22652
▁33	-9.2272
▁pdf	-9.22723
ms	-9.22757
▁quello	-9.2293
▁insieme	-9.23136
▁amatoriale	-9.23179
▁120	-9.23221
▁1000	-9.23224
▁bel	-9.2332
▁forza	-9.23343
▁(6	-9.23594
▁semi	-9.23653
▁mobili	-9.23741
▁park	-9.23853
▁air	-9.23981
▁interno	-9.23989
▁2009	-9.2401
▁visite	-9.24017
zze	-9.24157
▁verso	-9.24494
▁veloce	-9.24541
-10	-9.24548
▁strutture	-9.24586
▁libero	-9.24601
▁lunedì	-9.24788
▁stesso	-9.24947
▁iscriviti	-9.25115
pu	-9.25209
▁cartone	-9.25288
▁componenti	-9.25351
he	-9.2538
▁48	-9.25381
ers	-9.25408
▁sale	-9.25425
▁suite	-9.25428
▁energia	-9.25555
▁inizia	-9.25656
▁ulteriori	-9.25813
tz	-9.25853
▁amici	-9.25886
▁coppia	-9.25919
bra	-9.2593
▁com	-9.26022
▁giovanni	-9.26038
▁locale	-9.26084
▁aperto	-9.2611
▁vivo	-9.2618
▁grigio	-9.26223
▁corrente	-9.26375
▁radio	-9.26409
▁eco	-9.2647
wa	-9.26498
▁scaricare	-9.26508
ut	-9.26546
▁successo	-9.26595
▁spessore	-9.26669
▁vantaggi	-9.26696
▁sca	-9.2682
ccio	-9.26951
▁filtro	-9.27008
▁sezione	-9.27126
ccia	-9.27232
aperto	-9.27257
▁reale	-9.27264
▁ml	-9.27268
▁caldo	-9.27298
mina	-9.27314
▁disponibilità	-9.27329
▁sco	-9.27386
▁mani	-9.27518
▁my	-9.27534
▁inoltre	-9.27594
▁usd	-9.27715
ita	-9.27773
▁paesi	-9.27853
▁unico	-9.2789
▁ecco	-9.28098
nto	-9.28099
▁tavolo	-9.28106
▁hotels	-9.28112
▁imballaggio	-9.28116
▁spagna	-9.28117
▁quindi	-9.28184
▁torino	-9.28218
▁cro	-9.28239
▁wa	-9.28249
tivi	-9.28252
▁raggiungere	-9.2831
▁server	-9.28378
rlo	-9.28435
▁giallo	-9.28461
iamo	-9.2855
tive	-9.28554
▁(18+)	-9.28871
▁vini	-9.2899
▁trovare	-9.29153
▁logo	-9.29214
▁quantità	-9.29281
ini	-9.2938
▁fiera	-9.29384
▁chiesa	-9.29517
nze	-9.2957
▁an	-9.29683
▁alimentazione	-9.29785
▁marco	-9.29789
▁http	-9.29866
▁classe	-9.2998
▁carte	-9.29991
▁opzioni	-9.29994
▁utente	-9.30015
▁38	-9.30076
▁cas	-9.30195
ico	-9.30343
▁op	-9.30365
▁seguito	-9.30371
▁city	-9.30481
▁regalo	-9.3049
▁matura	-9.30498
▁svizzera	-9.30517
▁uscita	-9.30531
▁inclusa	-9.30545
sk	-9.30591
▁possibilità	-9.30609
▁salute	-9.30633
▁negli	-9.31101
enza	-9.31174
▁filo	-9.31274
rs	-9.31347
▁politica	-9.31357
▁extra	-9.31393
▁teen	-9.31511
ino	-9.3157
nce	-9.3162
ura	-9.31777
▁messaggio	-9.31827
▁creare	-9.31945
bar	-9.32001
▁lesbica	-9.32012
▁carlo	-9.32063
=	-9.32197
art	-9.32219
▁sex	-9.323
▁piattaforma	-9.32302
sso	-9.32387
▁diventa	-9.32521
▁tro	-9.32543
▁io	-9.32549
▁piccola	-9.32563
▁costi	-9.32602
▁mono	-9.32617
5,00	-9.32727
▁marketing	-9.32756
anti	-9.32848
▁allo	-9.32869
ft	-9.33091
▁argento	-9.33113
▁google	-9.33327
▁risposta	-9.33417
▁vecchi	-9.33519
▁pollici	-9.33557
ello	-9.33692
▁bassa	-9.33695
▁2008	-9.33808
▁direttamente	-9.33918
▁sì	-9.33967
www	-9.34104
▁qual	-9.34115
▁ltd	-9.34194
▁website	-9.34216
stri	-9.34262
▁prenotazioni	-9.34284
▁flessibile	-9.34315
▁motori	-9.34331
tici	-9.34389
▁lampada	-9.34457
▁minimo	-9.34464
den	-9.34526
0.00	-9.34591
ex	-9.34625
▁locali	-9.34716
▁benvenuti	-9.34768
▁edizione	-9.34784
▁ge	-9.34785
▁venice	-9.34805
▁negozi	-9.34884
▁quale	-9.35008
▁premi	-9.35047
▁400	-9.3523
▁rome	-9.35236
▁benessere	-9.35312
▁pornhub	-9.35395
ler	-9.35442
▁bri	-9.35486
ori	-9.35504
-3	-9.35518
-2	-9.35562
▁subito	-9.35573
▁palermo	-9.35595
▁box	-9.35662
menta	-9.3568
▁(2)	-9.35691
lin	-9.35738
▁massaggio	-9.35747
▁8.	-9.35757
="	-9.35774
▁55	-9.35806
▁ingresso	-9.35812
▁milan	-9.35845
ment	-9.35956
▁automatica	-9.35969
▁finale	-9.35978
▁spe	-9.36037
est	-9.36117
▁notti	-9.36151
▁diverse	-9.36178
▁lesbiche	-9.36238
lan	-9.36248
▁vostri	-9.36292
▁****	-9.36343
▁dispositivi	-9.36371
▁già	-9.36384
colo	-9.36504
▁trasferimento	-9.36529
▁ja	-9.36645
▁par	-9.36728
▁porte	-9.36769
▁selezione	-9.36893
▁festa	-9.36925
▁presente	-9.37076
▁75	-9.37102
▁esterno	-9.37231
▁londra	-9.37263
▁isola	-9.37319
▁group	-9.3732
▁lei	-9.37419
▁vol	-9.37429
▁vengono	-9.37508
▁elementi	-9.376
▁proprio	-9.37698
mini	-9.37734
▁deve	-9.37751
▁marchio	-9.37761
ari	-9.37838
spe	-9.37851
▁visitatori	-9.37858
for	-9.37866
▁aziende	-9.38088
▁bordo	-9.38268
▁partenza	-9.38268
▁precisione	-9.38384
▁can	-9.38385
▁sicuro	-9.38412
▁tubi	-9.38418
▁lavora	-9.38424
▁::	-9.38456
▁apertura	-9.38598
dio	-9.38659
▁testo	-9.38744
▁manutenzione	-9.38883
ani	-9.3892
ion	-9.38958
▁@	-9.38969
the	-9.38988
▁ii	-9.38995
▁el	-9.39174
totale	-9.39245
▁ideale	-9.39262
▁borse	-9.39293
ola	-9.393
▁queste	-9.39344
▁originale	-9.39421
ica	-9.39462
▁aggiornamenti	-9.3948
▁34	-9.39486
▁germania	-9.39493
▁bellezza	-9.39496
à	-9.39527
▁meglio	-9.3959
▁fai	-9.39602
-12	-9.39638
▁pietra	-9.39709
▁bal	-9.39729
▁gr	-9.3976
▁comp	-9.39876
▁sociale	-9.4002
▁metodo	-9.40023
▁singolo	-9.40074
▁situato	-9.40074
▁ven	-9.40228
▁menu	-9.40232
▁gruppi	-9.40256
▁ultima	-9.40261
▁geo	-9.40288
▁pisa	-9.4036
azienda	-9.40373
▁hu	-9.40498
▁ste	-9.40538
▁aver	-9.40548
▁eccellente	-9.40571
▁iphone	-9.40678
▁disco	-9.40754
▁cultura	-9.40823
ute	-9.40921
utente	-9.4093
▁4*	-9.41039
-20	-9.41178
▁cinese	-9.41189
▁calore	-9.41246
▁chiusura	-9.4141
area	-9.41418
▁contenuto	-9.4146
▁giu	-9.41558
▁fer	-9.41558
▁breve	-9.41617
qua	-9.41619
oli	-9.41809
▁contenuti	-9.41856
▁2000	-9.41948
jo	-9.42072
▁settimane	-9.421
ula	-9.42289
▁he	-9.42363
▁mal	-9.42367
tina	-9.42443
á	-9.42449
▁archivi	-9.42653
▁necessario	-9.42662
▁entro	-9.42813
rci	-9.42994
▁hot	-9.43031
rt	-9.43112
▁generali	-9.43145
▁singola	-9.43145
▁vai	-9.4319
▁39	-9.43257
▁passi	-9.43279
▁consigli	-9.43333
▁estate	-9.43359
0.000	-9.43482
▁sha	-9.43671
▁titolo	-9.43703
gni	-9.43767
zzazione	-9.43823
▁effetti	-9.43923
▁check	-9.43943
▁42	-9.44005
▁carica	-9.44109
we	-9.4412
▁one	-9.44145
▁gioca	-9.44156
▁meteo	-9.44178
smo	-9.4418
▁canale	-9.44302
▁orari	-9.44308
▁attrezzature	-9.44325
cce	-9.44342
▁37	-9.4443
▁domanda	-9.44482
▁stra	-9.44519
▁calda	-9.44613
/10	-9.44709
▁**	-9.44759
-5	-9.44801
▁luci	-9.44825
▁lunga	-9.44884
▁cha	-9.45005
non	-9.45046
▁smart	-9.45052
-4	-9.45063
▁campi	-9.45191
▁ag	-9.45234
▁tecniche	-9.45392
▁pp	-9.454
▁toscana	-9.45423
ble	-9.45465
▁(19	-9.45505
▁commerciali	-9.45521
ran	-9.45573
▁installazione	-9.45593
▁page	-9.45618
▁star	-9.45655
▁red	-9.4568
▁età	-9.45738
▁recensione	-9.45834
▁escursioni	-9.45933
▁molti	-9.45963
▁benvenuto	-9.46056
italiano	-9.46091
▁>>	-9.46195
▁esempio	-9.46196
▁im	-9.46201
▁cal	-9.46202
▁commento	-9.46225
▁pat	-9.46283
▁vecchio	-9.46308
▁guerra	-9.46343
ling	-9.46359
▁solare	-9.46444
~	-9.46448
cal	-9.46449
▁we	-9.46478
▁pagine	-9.4655
▁bottiglia	-9.46601
▁bianche	-9.46664
out	-9.4668
▁regione	-9.46686
▁tele	-9.4674
ger	-9.46741
mpi	-9.46873
▁moglie	-9.46949
▁valvola	-9.46961
–	-9.4703
▁marca	-9.47179
▁shop	-9.47192
▁piatti	-9.47369
▁parigi	-9.4737
▁ke	-9.47392
▁scala	-9.47409
rd	-9.47415
▁calcio	-9.47428
▁brand	-9.47464
▁terme	-9.47502
▁golf	-9.47503
▁portatile	-9.47595
pcs	-9.47653
▁alberghi	-9.47691
▁sue	-9.47763
▁mag	-9.47792
▁acquistare	-9.47846
▁strumento	-9.47961
▁certificato	-9.47982
▁specifiche	-9.48014
▁ordina	-9.4809
▁inox	-9.48111
▁presenta	-9.48226
▁usato	-9.48239
▁lascia	-9.48241
▁gar	-9.48439
▁ama	-9.48477
▁teatro	-9.48523
▁utilizza	-9.4861
▁mon	-9.48646
▁hardcore	-9.48683
▁aggiornato	-9.48725
cri	-9.48792
▁piatto	-9.48949
stre	-9.48961
▁garda	-9.48998
▁alcune	-9.49019
▁martedì	-9.49024
▁xhamster	-9.49057
▁pri	-9.4916
▁archivio	-9.49161
ue	-9.49187
▁affitto	-9.4935
▁torna	-9.49435
▁ponte	-9.49505
▁premio	-9.49592
▁international	-9.49611
▁nota	-9.49647
▁rivestimento	-9.49648
▁elettronica	-9.49662
▁800	-9.49672
cio	-9.49702
▁pranzo	-9.49747
od	-9.49808
ap	-9.49841
▁cuckold	-9.49846
▁possiamo	-9.49846
400	-9.49968
▁giovane	-9.50044
▁ultime	-9.50046
300	-9.50074
▁stanza	-9.50119
▁carbonio	-9.50186
▁›	-9.5029
ang	-9.50514
▁vari	-9.50563
ku	-9.50733
▁mercoledì	-9.50736
▁matrimoniale	-9.50747
▁%	-9.50802
▁disposizione	-9.50811
▁pin	-9.50851
▁scritto	-9.50854
ron	-9.50947
▁latte	-9.50968
▁→	-9.50969
▁orologi	-9.51009
pp	-9.51226
▁campione	-9.51233
mu	-9.5124
je	-9.51285
▁ciò	-9.51511
▁mer	-9.51528
▁personalizzato	-9.51531
par	-9.51534
▁cavi	-9.51624
▁maggiore	-9.5165
▁legale	-9.51679
▁illuminazione	-9.51701
▁venne	-9.51704
▁frutta	-9.51767
▁	-9.51768
▁abbigliamento	-9.51832
▁bre	-9.51835
▁giro	-9.5191
bilità	-9.5193
ppa	-9.51944
▁cambio	-9.51985
▁65	-9.52016
▁agriturismo	-9.52075
▁sal	-9.52128
rvi	-9.52196
▁credito	-9.52388
nico	-9.52416
▁600	-9.5244
▁problemi	-9.52454
▁biglietti	-9.52556
▁oggetti	-9.52556
▁sexy	-9.52593
▁tecnico	-9.52829
enti	-9.52938
▁medico	-9.52942
▁legge	-9.52962
▁viaggi	-9.53004
▁letti	-9.5301
▁naturali	-9.53089
▁clic	-9.53125
val	-9.53165
▁facebook	-9.53267
▁cinema	-9.53286
▁ber	-9.53289
▁cookies	-9.5337
▁istruzioni	-9.53373
▁elettro	-9.53458
▁frequenza	-9.53544
▁mp	-9.53568
tiche	-9.53611
▁registrati	-9.53707
▁pen	-9.53738
▁bor	-9.53805
▁2007	-9.53857
▁tempi	-9.53896
▁pesca	-9.53989
▁terrazza	-9.53995
▁fase	-9.54036
▁medio	-9.54062
▁rose	-9.54083
glie	-9.54109
amento	-9.54114
▁show	-9.54152
▁arrivo	-9.54368
ir	-9.54432
▁ch	-9.54496
▁aggiunto	-9.54577
▁orgasmo	-9.54612
lio	-9.54614
nato	-9.54656
▁ferro	-9.54729
▁francia	-9.54838
pie	-9.54955
▁libro	-9.54995
▁interna	-9.55044
▁storico	-9.55208
▁card	-9.5523
rina	-9.55247
ley	-9.55357
my	-9.55391
▁sposa	-9.55789
shi	-9.55812
ire	-9.55839
bro	-9.56094
▁book	-9.56105
▁richiedi	-9.56217
by	-9.5629
▁gio	-9.56377
▁completamente	-9.56383
▁por	-9.56406
gen	-9.56433
(1	-9.56448
contattaci	-9.56468
▁44	-9.56479
ordine	-9.56588
uri	-9.5674
vol	-9.56775
▁nera	-9.56782
▁alloggi	-9.56812
▁orario	-9.56814
▁amore	-9.56883
ranno	-9.56884
▁relax	-9.56996
▁listino	-9.56998
▁tedesco	-9.57084
▁percorso	-9.57087
▁cena	-9.57097
▁comfort	-9.57178
cola	-9.57328
▁mg	-9.5743
▁ambiente	-9.5744
-6	-9.57518
▁cibo	-9.57523
▁giornata	-9.57599
▁corte	-9.57599
▁ze	-9.57655
▁(7	-9.5769
▁maglia	-9.57789
▁residenza	-9.5792
set	-9.57942
▁prestazioni	-9.58005
▁sant	-9.58059
-8	-9.58109
▁inserisci	-9.58135
▁linee	-9.58147
▁resistente	-9.58264
▁risorse	-9.58387
▁tasse	-9.58397
▁trading	-9.58451
ris	-9.58453
ario	-9.58505
isola	-9.58582
▁prime	-9.58587
▁rispetto	-9.58604
▁provincia	-9.58699
600	-9.58705
▁adatta	-9.58706
ucci	-9.58726
▁9.	-9.58728
▁bonus	-9.58741
▁lingue	-9.58921
▁riscaldamento	-9.58966
▁partita	-9.58978
▁ordini	-9.59008
▁pasta	-9.59026
▁ultimi	-9.59181
▁cnc	-9.592
▁futuro	-9.59253
▁francesco	-9.59297
▁giovedì	-9.59326
▁funzionamento	-9.59331
▁studi	-9.5939
▁parla	-9.59451
▁posta	-9.5946
stru	-9.59565
▁problema	-9.59689
▁autobus	-9.59728
tech	-9.59801
▁webcam	-9.5986
▁tecnici	-9.59872
▁paolo	-9.59921
eu	-9.59943
▁stand	-9.59958
▁pol	-9.59965
▁consulenza	-9.59981
▁primavera	-9.59998
▁volume	-9.60206
▁rossa	-9.60339
▁ten	-9.60405
kw	-9.60419
▁panoramica	-9.60435
ld	-9.60461
▁cre	-9.60485
▁piccoli	-9.60509
▁cinque	-9.60533
▁mt	-9.6055
▁crema	-9.60581
vano	-9.60729
nica	-9.6084
bus	-9.60844
▁certificazione	-9.60898
▁valle	-9.60905
bor	-9.6104
age	-9.61052
▁mb	-9.61059
▁millimetri	-9.61068
ngo	-9.61071
▁siena	-9.61092
▁social	-9.61127
▁angolo	-9.61141
▁causa	-9.61167
ttu	-9.61339
bb	-9.6139
▁(20	-9.61452
▁potete	-9.61492
▁blue	-9.61565
lina	-9.61587
osi	-9.61786
▁poliestere	-9.61787
▁luoghi	-9.61787
▁occhiali	-9.61954
▁2006	-9.62024
cha	-9.62112
▁cat	-9.62121
▁gradi	-9.62165
mon	-9.62208
▁documenti	-9.62347
▁presentazione	-9.62371
▁ultra	-9.62381
▁laboratorio	-9.62425
nne	-9.62443
rre	-9.62511
▁orologio	-9.62546
gg	-9.6262
▁accetta	-9.6263
▁anna	-9.62658
▁je	-9.62677
atore	-9.62687
can	-9.6277
gne	-9.62857
uta	-9.62965
▁turismo	-9.62991
▁creazione	-9.63009
ite	-9.63063
▁legali	-9.63113
▁adatto	-9.63222
▁primi	-9.63273
▁vo	-9.63353
▁dominio	-9.63392
▁prega	-9.63504
ting	-9.63521
▁gusto	-9.63539
ot	-9.63691
mbo	-9.63706
▁cd	-9.63709
▁fili	-9.63714
▁richieste	-9.63778
▁gri	-9.63798
▁passa	-9.63803
▁evento	-9.63822
▁cala	-9.64057
uto	-9.64182
hu	-9.64186
▁master	-9.64227
▁isole	-9.6423
▁specifica	-9.64305
sha	-9.6431
▁display	-9.64318
▁sicilia	-9.64318
▁repubblica	-9.64387
▁ristoranti	-9.64425
▁open	-9.64463
tter	-9.64554
ppe	-9.64556
ore	-9.64566
etto	-9.64573
×	-9.64664
TM	-9.64731
-19	-9.64826
olio	-9.64863
▁aree	-9.64888
ö	-9.64923
▁tariffe	-9.64923
▁centrali	-9.64939
▁stella	-9.6498
▁supporta	-9.65022
▁copertura	-9.65115
fra	-9.65154
way	-9.65192
▁borgo	-9.65299
▁up	-9.65301
▁mod	-9.65322
▁accedi	-9.65425
▁retro	-9.65498
▁nastro	-9.65544
▁raggiunto	-9.65578
fica	-9.6559
▁utili	-9.65804
▁comuni	-9.65807
▁lavorazione	-9.65846
letto	-9.65873
▁magazzino	-9.65887
▁lui	-9.65936
om	-9.65971
▁pochi	-9.65982
▁gay	-9.66045
star	-9.66105
▁fotografia	-9.66135
▁best	-9.66151
ssimo	-9.66173
▁corsa	-9.66219
ph	-9.66254
▁colla	-9.66315
▁cri	-9.66333
▁messaggi	-9.66347
▁entra	-9.6649
rmi	-9.66499
▁miei	-9.66545
▁43	-9.6662
▁occhi	-9.66623
tur	-9.66626
▁inizio	-9.667
nova	-9.66717
▁penetrazione	-9.66729
nge	-9.66811
hz	-9.66849
▁cer	-9.66948
cam	-9.66958
▁visitare	-9.67158
▁rappresenta	-9.67182
▁consumo	-9.67254
▁parole	-9.67282
▁andrea	-9.67282
▁presenti	-9.67343
del	-9.67377
▁bon	-9.67399
▁capitale	-9.67467
▁disegno	-9.67495
▁pet	-9.67528
▁vero	-9.67572
ppo	-9.67715
▁raccolta	-9.67725
▁cla	-9.67773
san	-9.67854
▁funzioni	-9.67869
▁controlla	-9.6787
▁montaggio	-9.67904
▁utilizzato	-9.67916
▁verifica	-9.6794
▁impermeabile	-9.67962
rra	-9.67998
ic	-9.68032
▁libera	-9.68046
nese	-9.68107
▁fuoco	-9.68122
▁esigenze	-9.6816
▁leggere	-9.68169
ingrosso	-9.68186
▁mondiale	-9.68203
▁poco	-9.68367
▁locanda	-9.68401
▁fla	-9.68435
▁attiva	-9.68467
▁aiuta	-9.68503
nk	-9.68566
▁saranno	-9.68581
gan	-9.68645
▁navigazione	-9.6867
▁connessione	-9.68718
alta	-9.68727
▁album	-9.68771
▁th	-9.6891
ppi	-9.68939
▁cc	-9.69021
▁interesse	-9.69079
▁attrezzatura	-9.69109
van	-9.69116
▁conto	-9.69202
gre	-9.6921
▁vintage	-9.69228
bre	-9.69353
box	-9.69357
schi	-9.69361
lica	-9.69426
▁rapporto	-9.69518
▁ville	-9.69647
xi	-9.69732
gr	-9.69766
▁browser	-9.69799
▁europea	-9.69839
km	-9.69876
▁island	-9.69898
▁capi	-9.69945
mba	-9.69968
▁alloggio	-9.70013
▁oppure	-9.70043
▁visualizzazione	-9.70129
rò	-9.70224
▁monta	-9.70239
▁industriali	-9.70257
tec	-9.70275
forma	-9.70298
▁uni	-9.70319
▁effetto	-9.70345
versa	-9.70384
▁cellulare	-9.70408
▁studenti	-9.70408
ud	-9.70492
▁york	-9.70529
▁università	-9.70567
);	-9.70742
▁anello	-9.70907
▁pieno	-9.70953
▁luna	-9.70961
▁visto	-9.71006
▁light	-9.7101
▁spi	-9.71049
zer	-9.71055
▁52	-9.71064
tv	-9.71246
▁made	-9.71255
▁numeri	-9.7139
▁mq	-9.71397
bri	-9.71766
▁ruote	-9.71836
▁big	-9.71854
ller	-9.71905
▁antica	-9.71966
coli	-9.71984
cor	-9.72013
zz	-9.72018
▁hosting	-9.7219
▁madre	-9.72293
▁fumatori	-9.7233
▁capri	-9.72385
▁squadra	-9.72399
▁movimento	-9.72414
▁110	-9.72432
▁green	-9.72479
▁permette	-9.72485
▁salone	-9.72504
▁41	-9.72562
▁catena	-9.72605
▁47	-9.72613
▁nessuna	-9.72616
▁reg	-9.72618
▁finestra	-9.72619
▁idee	-9.72647
▁avete	-9.72685
▁loco	-9.72712
let	-9.72786
▁sar	-9.7286
tten	-9.72971
▁ris	-9.73017
▁replica	-9.73078
▁fondo	-9.73094
▁valuta	-9.73107
mg	-9.7312
▁sor	-9.73126
▁46	-9.73168
ambiente	-9.73169
▁palace	-9.73247
▁maggior	-9.73286
bs	-9.73292
▁(3)	-9.73338
▁seguente	-9.73359
▁abito	-9.73393
▁contenitore	-9.73493
▁giappone	-9.73515
▁luca	-9.73541
▁viale	-9.73606
▁buono	-9.73615
▁ottimo	-9.73621
▁pra	-9.73623
▁pubblicità	-9.73633
visualizza	-9.73635
▁ceramica	-9.7367
▁gia	-9.7367
▁?	-9.73704
▁vostre	-9.73712
lino	-9.73752
▁pla	-9.7377
▁bike	-9.7379
▁sensore	-9.73848
ffe	-9.73947
▁distribuzione	-9.73951
▁store	-9.73967
tazione	-9.73982
▁64	-9.73995
▁industria	-9.74159
▁fin	-9.74166
▁esterna	-9.74175
▁collegamento	-9.74362
▁trans	-9.74388
▁conferma	-9.74425
C	-9.7446
▁valori	-9.74461
▁spagnolo	-9.74502
▁membri	-9.74511
▁3*,	-9.74523
▁responsabile	-9.74576
▁risoluzione	-9.74592
▁requisiti	-9.74713
▁campagna	-9.74714
▁gioielli	-9.74798
▁fiore	-9.74942
▁salva	-9.74989
▁stai	-9.7506
▁saldatura	-9.75069
▁importante	-9.75083
port	-9.75144
▁conta	-9.75208
▁centri	-9.75217
-7	-9.75298
▁commercio	-9.75315
etta	-9.75361
▁direzione	-9.75367
and	-9.75368
ls	-9.75373
▁internazionali	-9.75396
▁interni	-9.75462
▁contatta	-9.75463
ide	-9.75505
▁barca	-9.75509
immagine	-9.75559
▁!	-9.75619
▁start	-9.75627
▁chiuso	-9.75667
▁digital	-9.75674
▁oggetto	-9.75689
▁antico	-9.75691
▁stu	-9.75691
vita	-9.75781
▁tipologia	-9.758
▁voce	-9.75807
col	-9.75813
▁apartments	-9.75836
▁men	-9.75998
▁(10	-9.76065
▁fax	-9.76083
▁sub	-9.76109
gua	-9.76167
▁cose	-9.76216
▁000	-9.76288
▁world	-9.76312
▁(0)	-9.76346
▁calendario	-9.76366
▁tema	-9.76511
▁54	-9.76554
▁formula	-9.76559
▁piani	-9.76563
ance	-9.76679
▁perfetto	-9.76682
▁ricambi	-9.76688
▁monaco	-9.7676
sioni	-9.769
▁realizzato	-9.7694
▁diretta	-9.76968
olo	-9.77012
alto	-9.77049
▁forno	-9.77086
▁azione	-9.77091
▁pensione	-9.77098
▁clip	-9.77106
lini	-9.77218
lità	-9.77246
▁lcd	-9.77255
▁pulsante	-9.77373
▁ciclo	-9.77405
nella	-9.77411
▁rico	-9.7742
▁bru	-9.77447
▁prossimo	-9.77465
▁rea	-9.77623
▁tube	-9.77633
▁copia	-9.77654
tel	-9.7771
▁selezionare	-9.77757
ji	-9.778
▁)	-9.7781
▁creato	-9.7781
▁imprese	-9.77838
▁recupero	-9.77896
sc	-9.77935
▁arti	-9.77973
cer	-9.78026
▁dr	-9.78067
▁pubblica	-9.78067
▁apri	-9.78069
▁traduzione	-9.78087
▁sera	-9.78123
bio	-9.78172
▁vite	-9.78208
800	-9.78271
▁acquisto	-9.78358
▁dvd	-9.78362
▁canali	-9.78382
ü	-9.78415
▁fondazione	-9.78424
▁località	-9.78547
5%	-9.78598
▁more	-9.78618
▁sc	-9.7862
▁marino	-9.78631
ant	-9.7872
▁cod	-9.78744
▁mentre	-9.78748
▁street	-9.7887
info	-9.78902
▁tavola	-9.7892
▁mc	-9.78924
mpa	-9.78993
lato	-9.79065
fini	-9.79074
▁power	-9.79087
▁misure	-9.79104
▁condizionata	-9.79205
▁inc	-9.7924
fr	-9.79268
▁line	-9.79346
150	-9.79349
▁etichetta	-9.79352
inter	-9.79363
pc	-9.79417
gar	-9.79529
lt	-9.79597
▁opere	-9.79618
▁compilatie	-9.7966
▁fri	-9.79681
▁perdita	-9.79704
spa	-9.79717
▁touch	-9.7973
▁lavori	-9.79772
▁unica	-9.79813
▁varie	-9.7995
gue	-9.80006
▁id	-9.80102
▁volo	-9.80131
▁pezzo	-9.80223
▁gre	-9.80291
▁riva	-9.80307
▁mezzo	-9.80329
2018	-9.80346
▁220	-9.80362
▁driver	-9.80366
esperienza	-9.80366
dis	-9.80375
▁aziendale	-9.80516
▁dettaglio	-9.80644
▁tasso	-9.80721
▁crescita	-9.80822
remo	-9.8087
less	-9.80884
usa	-9.80965
▁bionda	-9.81013
▁180	-9.81025
ther	-9.81037
▁programmi	-9.81052
▁bici	-9.81084
shop	-9.81091
▁matrimonio	-9.81111
▁3*	-9.8113
▁rame	-9.81155
esi	-9.81202
retti	-9.81224
▁wifi	-9.81256
▁esposizione	-9.81272
▁villaggio	-9.81288
▁uv	-9.81289
▁monitoraggio	-9.81323
rai	-9.81346
pt	-9.81442
▁lido	-9.81461
ah	-9.81489
▁efficienza	-9.81512
▁pm	-9.81595
▁migliorare	-9.81693
lie	-9.81701
gono	-9.8171
▁nello	-9.81727
all	-9.8174
▁privata	-9.81772
tine	-9.81789
▁49	-9.81853
▁realizzazione	-9.81853
spi	-9.81859
▁cassa	-9.81893
osa	-9.81899
/12	-9.81901
▁posteriore	-9.81953
▁vin	-9.8202
vio	-9.82026
rn	-9.82035
pen	-9.82058
▁sw	-9.82065
dy	-9.82072
rne	-9.82101
yo	-9.82106
▁bello	-9.82125
ker	-9.82177
▁leggero	-9.82199
▁color	-9.82225
ese	-9.82273
▁facilmente	-9.82273
▁bro	-9.82384
▁ago	-9.82391
▁ritorno	-9.8241
▁riso	-9.82416
nzi	-9.82481
▁tenuta	-9.82486
▁fornire	-9.82646
▁confezione	-9.82687
una	-9.82693
vis	-9.8273
▁barcellona	-9.82822
▁regolabile	-9.82886
▁off	-9.82887
▁convertire	-9.82919
▁autore	-9.82968
▁(8	-9.82973
▁giocare	-9.83015
▁tratta	-9.83028
▁gal	-9.83111
nelli	-9.83146
▁network	-9.83194
nc	-9.83265
▁importanti	-9.8327
▁scena	-9.83318
rino	-9.83386
pm	-9.83437
▁memoria	-9.83605
▁saperne	-9.83606
otti	-9.83634
▁grecia	-9.83663
tch	-9.83725
ren	-9.8374
▁85	-9.83782
/2019	-9.83832
▁esp	-9.83849
▁restaurant	-9.83869
▁veicoli	-9.83883
▁anima	-9.83958
aggio	-9.84028
001	-9.84057
▁libri	-9.84152
▁trasparente	-9.84162
▁sol	-9.84168
▁inn	-9.84179
cro	-9.84216
▁rapido	-9.84227
▁casino	-9.84313
▁amatoriali	-9.84367
▁amatrice	-9.84428
▁dc	-9.8448
▁viso	-9.84485
nder	-9.84647
▁scoprire	-9.84696
▁rossi	-9.84702
▁gua	-9.84709
▁funzionalità	-9.84739
▁fre	-9.84749
▁divertimento	-9.84785
▁scor	-9.8479
mica	-9.84848
cle	-9.84851
▁gara	-9.84866
▁diretto	-9.84918
▁pietro	-9.84967
nie	-9.85031
▁sardegna	-9.8505
▁prendere	-9.85132
▁trasmissione	-9.85144
▁marmo	-9.85186
▁350	-9.85207
▁pal	-9.85243
▁vivere	-9.85293
industria	-9.85326
etti	-9.85362
res	-9.85395
▁silicone	-9.85426
▁territorio	-9.85446
▁is	-9.8545
▁treno	-9.85488
▁registrato	-9.85522
▁bag	-9.85533
ago	-9.8554
▁guide	-9.85569
▁gel	-9.85602
▁promozione	-9.85618
-01	-9.8563
▁demo	-9.85667
mbi	-9.85677
▁include	-9.8571
ent	-9.85731
▁pannelli	-9.85769
▁sun	-9.85781
ds	-9.85804
▁apartment	-9.85822
2017	-9.85826
▁mail	-9.86001
▁musei	-9.86044
ici	-9.86063
▁portata	-9.86088
isce	-9.86116
▁pesce	-9.86206
rale	-9.8623
ologia	-9.86314
▁mezza	-9.8639
▁asiatico	-9.86477
uro	-9.86486
ag	-9.86493
▁paga	-9.86531
anna	-9.86543
▁faccia	-9.86573
▁vuoto	-9.86659
▁voti	-9.86659
▁2005	-9.86664
utilizzo	-9.86827
▁consiglio	-9.86864
▁gallery	-9.86972
▁disabili	-9.87008
em	-9.87024
▁presto	-9.8703
pin	-9.87049
▁economico	-9.87089
▁normale	-9.87118
▁os	-9.87137
▁tè	-9.87146
▁fila	-9.87231
▁ph	-9.87279
elli	-9.87298
▁ju	-9.8737
▁ur	-9.87377
men	-9.87435
▁spesso	-9.87456
9,00	-9.87519
▁figlio	-9.87575
tic	-9.87649
-15	-9.87676
▁successivo	-9.87711
▁annunci	-9.87767
rgi	-9.87776
▁staff	-9.87799
▁massa	-9.87803
▁her	-9.87833
rico	-9.87871
-11	-9.87885
▁fronte	-9.87896
uli	-9.87903
▁nylon	-9.87909
▁aggiungere	-9.87937
▁decorazione	-9.87963
▁cana	-9.87973
▁ab	-9.88007
▁fini	-9.88009
cato	-9.88024
▁promozioni	-9.88031
▁tradizione	-9.88053
▁fan	-9.88063
▁mor	-9.88092
▁▪	-9.88104
max	-9.88124
▁stars	-9.88151
▁bur	-9.88174
▁termo	-9.88214
porn	-9.88224
▁dur	-9.88275
ene	-9.88316
í	-9.88326
▁detto	-9.8837
▁contratto	-9.88419
▁globale	-9.88501
▁admin	-9.88503
▁tela	-9.8851
▁dintorni	-9.88536
▁rende	-9.88551
ec	-9.88591
▁ruota	-9.88685
▁cad	-9.88695
▁nave	-9.88817
▁mille	-9.88843
ele	-9.8888
rro	-9.88881
▁impianto	-9.88912
▁ricarica	-9.88923
▁resi	-9.88926
ction	-9.88952
▁real	-9.88975
▁padre	-9.88999
▁sapere	-9.89045
nna	-9.89069
▁chf	-9.89103
▁state	-9.89105
rone	-9.89116
▁utilizzando	-9.89119
▁belle	-9.89178
ju	-9.8922
bel	-9.89221
▁coppie	-9.89221
▁collezioni	-9.89309
▁date	-9.89419
▁mercati	-9.89419
vel	-9.89466
▁passione	-9.89469
▁plus	-9.89488
▁arriva	-9.89527
odo	-9.896
▁photo	-9.89673
▁mas	-9.89718
▁pop	-9.89725
ama	-9.89767
▁ss	-9.89822
▁adesso	-9.89825
▁sti	-9.89837
▁direttore	-9.89866
voli	-9.89892
▁elettrici	-9.89983
▁cioccolato	-9.90055
ena	-9.9011
▁white	-9.90145
▁pavimento	-9.90155
▁pacchetti	-9.90163
▁devi	-9.90173
end	-9.90201
▁spese	-9.90214
▁significa	-9.90243
▁lancia	-9.90255
ham	-9.90261
-18	-9.90263
▁pratica	-9.90273
▁castel	-9.90313
▁livelli	-9.90376
▁giuseppe	-9.90401
chia	-9.90404
▁love	-9.90443
▁oli	-9.90452
opera	-9.9048
pr	-9.90488
▁forum	-9.90545
▁antonio	-9.90584
sche	-9.90631
▁58	-9.90648
pri	-9.90706
▁basato	-9.90744
▁99	-9.90765
▁affittacamere	-9.90798
▁aiuto	-9.90801
▁royal	-9.90807
sione	-9.90845
▁10%	-9.9087
▁56	-9.90904
ara	-9.90991
▁interracial	-9.91002
▁form	-9.91002
▁italien	-9.91037
▁realtà	-9.91071
▁africa	-9.91131
gge	-9.91173
▁tecnologie	-9.91196
▁italian	-9.91221
▁chiudi	-9.91224
▁riserva	-9.91246
▁£	-9.91277
▁viola	-9.91317
▁incontri	-9.91346
▁impostazioni	-9.91375
ito	-9.91421
▁blocco	-9.91426
▁contiene	-9.91447
ring	-9.91474
▁(4)	-9.91489
ab	-9.91495
▁famiglie	-9.91496
▁stanze	-9.91538
des	-9.91574
[	-9.916
▁play	-9.91616
▁australia	-9.91673
nale	-9.91691
commerce	-9.91695
▁compila	-9.91718
▁mari	-9.91739
sch	-9.91749
▁furono	-9.91751
▁ostelli	-9.91752
▁gps	-9.91896
▁secondi	-9.91898
▁mediterraneo	-9.91947
▁(9	-9.92009
▁attualmente	-9.92048
▁comprende	-9.92049
▁prenotare	-9.92054
atura	-9.92104
▁bagni	-9.92115
(2	-9.92149
▁invece	-9.92154
▁raffreddamento	-9.92158
▁giocattoli	-9.9217
sy	-9.92197
▁oem	-9.92214
▁iniziale	-9.92279
tal	-9.92299
▁medicina	-9.9233
▁mr	-9.92345
▁fonte	-9.92361
▁vento	-9.92384
▁flusso	-9.92462
▁banca	-9.92476
▁cane	-9.92496
/06	-9.92539
onda	-9.92542
amore	-9.92608
▁connettore	-9.92757
▁compilation	-9.92776
▁pizza	-9.92782
pol	-9.92835
rini	-9.92835
rla	-9.92892
cl	-9.92963
▁iscrizione	-9.92971
▁freddo	-9.9298
air	-9.92998
▁pittura	-9.93111
ski	-9.93113
ffa	-9.93115
pan	-9.93146
ä	-9.93162
▁imp	-9.93179
▁strato	-9.93182
▁360	-9.93185
250	-9.93227
nl	-9.93227
rm	-9.93288
▁ricambio	-9.93363
▁sf	-9.93368
▁center	-9.93419
▁presidente	-9.9351
">	-9.93599
▁applica	-9.9365
▁idea	-9.93783
▁001	-9.94044
mpo	-9.94048
▁licenza	-9.94083
▁secolo	-9.94109
▁migliora	-9.94161
▁cl	-9.94184
pdf	-9.94217
lly	-9.94229
▁mosca	-9.94257
▁marchi	-9.94325
mia	-9.94346
▁gira	-9.94371
ak	-9.94387
uk	-9.94395
▁modi	-9.94411
▁erano	-9.94439
▁casi	-9.94466
▁suites	-9.94481
▁https	-9.94545
zzato	-9.94569
▁rapida	-9.94584
▁mira	-9.94586
▁road	-9.9459
▁contattarci	-9.94659
▁schi	-9.94686
▁maschera	-9.94753
▁metro	-9.94755
▁des	-9.94841
▁desideri	-9.94914
ù	-9.95175
▁chiaro	-9.95189
▁xxx	-9.95263
▁gen	-9.95279
gb	-9.9528
▁morte	-9.95326
▁scelte	-9.95375
▁vera	-9.95393
▁metal	-9.95401
▁risultato	-9.9547
▁flo	-9.95499
rato	-9.95502
shirt	-9.95588
▁spazi	-9.95592
▁fissa	-9.95685
▁stoccaggio	-9.95688
▁elegante	-9.95688
cho	-9.95744
▁popolare	-9.9585
▁gambe	-9.95879
▁agenzia	-9.95881
▁america	-9.95883
ace	-9.95933
▁piu	-9.95996
▁benefici	-9.96011
▁tessuti	-9.96106
▁fatti	-9.96121
sen	-9.96124
▁lavorare	-9.96148
▁shopping	-9.96165
ismo	-9.96197
▁popolari	-9.9624
tc	-9.96263
▁parola	-9.96273
▁annulla	-9.96316
rica	-9.96331
▁terre	-9.96338
▁with	-9.96349
▁community	-9.96369
▁titolare	-9.9637
rate	-9.96414
▁rock	-9.96467
▁scar	-9.96483
▁comunità	-9.96514
▁monitor	-9.96544
▁machine	-9.96557
applicazione	-9.96593
razione	-9.96629
▁palla	-9.96719
▁visione	-9.96761
ok	-9.96772
lmente	-9.96791
lf	-9.96817
▁attivo	-9.96835
▁tabella	-9.96864
uni	-9.96868
▁marche	-9.9689
▁ku	-9.96899
▁particolare	-9.96907
▁sedia	-9.96958
▁qualche	-9.96969
▁john	-9.96993
▁gratuiti	-9.97001
king	-9.9701
lon	-9.97014
▁biglietto	-9.97054
▁russia	-9.97071
▁cristallo	-9.9716
▁riservata	-9.97183
book	-9.97208
▁personalizzati	-9.97258
▁ischia	-9.97281
▁genere	-9.97301
gri	-9.97321
▁prese	-9.97366
▁metodi	-9.97429
▁aveva	-9.97436
▁associazione	-9.97439
▁europeo	-9.97505
▁almeno	-9.97532
▁ottieni	-9.97585
▁port	-9.97631
▁partecipa	-9.97634
▁azioni	-9.9764
▁richiesto	-9.97656
off	-9.97676
▁piante	-9.97683
▁professionali	-9.97699
▁andare	-9.97759
▁muschi	-9.97841
ifica	-9.97863
▁57	-9.97922
ella	-9.97935
▁2004	-9.97948
▁baia	-9.97948
altra	-9.98009
▁now	-9.98037
dro	-9.98088
nga	-9.98096
▁organi	-9.98098
▁report	-9.98109
▁cloud	-9.9811
▁manager	-9.98114
assi	-9.9837
▁ragazzi	-9.98386
▁veicolo	-9.98386
▁inverno	-9.98394
▁norma	-9.98422
ek	-9.98426
▁collaborazione	-9.98444
onia	-9.98474
▁chiama	-9.98544
▁compra	-9.9856
▁time	-9.98611
▁ruolo	-9.98627
▁bassi	-9.98713
anda	-9.98756
▁poker	-9.98809
▁balcone	-9.98819
gon	-9.98826
▁contattare	-9.98866
▁bit	-9.98888
▁fotografica	-9.98946
▁cani	-9.99065
▁configurazione	-9.99072
▁dura	-9.99136
▁guest	-9.99158
indirizzo	-9.99165
rp	-9.99207
▁ram	-9.99217
imballaggio	-9.9922
▁finitura	-9.99228
▁kw	-9.99253
▁estratto	-9.99281
▁system	-9.99301
feri	-9.9935
ai	-9.9937
▁verticale	-9.99381
▁segui	-9.99427
▁austria	-9.99434
ef	-9.99484
▁chiara	-9.99512
▁dolomiti	-9.99519
▁india	-9.99549
▁concorso	-9.99551
▁piccole	-9.9956
mor	-9.99565
▁dagli	-9.9959
▁asse	-9.99609
▁pala	-9.9961
▁camping	-9.9961
▁scarico	-9.99634
ure	-9.9964
▁war	-9.99656
▁favore	-9.99687
posto	-9.99687
▁classic	-9.99806
▁informazione	-9.99825
▁sap	-9.99857
▁utensili	-9.99906
▁artisti	-9.99911
▁robot	-9.99958
▁gold	-10.0007
▁soldi	-10.0008
ple	-10.0016
120	-10.0018
▁ciao	-10.0026
▁installare	-10.0028
▁feticismo	-10.0028
▁shi	-10.0029
▁ya	-10.003
▁giorgio	-10.0031
▁audi	-10.0032
offerta	-10.0035
▁tar	-10.0036
▁caccia	-10.004
▁hostel	-10.0043
▁inviare	-10.0045
▁anali	-10.0048
­	-10.005
ight	-10.0052
▁sch	-10.0053
▁polizia	-10.0054
▁quella	-10.0054
▁filtri	-10.0066
nz	-10.0067
▁69	-10.0067
pia	-10.007
▁effettua	-10.007
▁corre	-10.008
mber	-10.0082
▁singoli	-10.0088
▁van	-10.0089
▁attenzione	-10.0091
▁53	-10.0094
▁pl	-10.0095
america	-10.0095
▁intelligente	-10.0099
ise	-10.0102
▁premium	-10.0103
dina	-10.0103
▁zone	-10.0104
▁milfs	-10.0105
▁cari	-10.011
▁diesel	-10.0118
▁spin	-10.0118
▁cambia	-10.0119
▁72	-10.0123
0%	-10.0127
▁tariffa	-10.0138
▁est	-10.0143
▁ter	-10.0144
▁membro	-10.0149
ov	-10.0152
▁riparazione	-10.0153
▁2003	-10.0153
700	-10.0155
▁bobina	-10.0156
▁vie	-10.016
ncia	-10.0169
▁minima	-10.0171
die	-10.018
▁holiday	-10.0182
ux	-10.0183
hotels	-10.0184
▁125	-10.0189
▁senti	-10.0196
▁cur	-10.0198
▁bisex	-10.02
▁colle	-10.023
▁compatibile	-10.023
av	-10.0232
età	-10.0232
▁zi	-10.0236
estate	-10.0238
▁milioni	-10.0238
imento	-10.024
▁telaio	-10.0241
▁51	-10.0242
▁cancella	-10.0248
▁tur	-10.025
▁dec	-10.0251
ssima	-10.0256
▁medica	-10.026
endo	-10.0265
▁carne	-10.0268
▁●	-10.0273
▁bari	-10.0275
▁preventivo	-10.0277
▁potrebbe	-10.028
▁au	-10.0281
▁forni	-10.0287
▁saint	-10.0287
▁liquido	-10.0288
▁processi	-10.0289
▁×	-10.0293
▁vorrei	-10.0294
2019	-10.0299
berg	-10.0299
ky	-10.0305
▁messa	-10.0313
tru	-10.0313
▁fornito	-10.0314
▁riduzione	-10.0314
▁reception	-10.0316
▁don	-10.0318
▁montagna	-10.0318
▁russo	-10.0325
▁59	-10.0326
▁vasca	-10.0329
▁collo	-10.033
zu	-10.0331
▁stefano	-10.0334
▁aperta	-10.0335
▁prove	-10.0339
▁lettera	-10.0341
▁perfetta	-10.0345
▁batterie	-10.0354
sor	-10.0356
mt	-10.0356
sol	-10.0365
tutti	-10.0366
▁she	-10.037
▁biciclette	-10.0379
han	-10.0384
▁pompe	-10.0388
▁acque	-10.0389
▁tetto	-10.0392
sio	-10.0394
iti	-10.0395
▁aprire	-10.0396
ice	-10.0404
▁principe	-10.0405
▁dildo	-10.0407
cina	-10.041
▁amico	-10.041
▁aspetta	-10.0412
1000	-10.0414
▁sensi	-10.0421
▁vittoria	-10.0424
▁prende	-10.0435
▁moderno	-10.0435
",	-10.044
▁sogno	-10.0445
▁(18	-10.0446
▁trovato	-10.0447
▁tennis	-10.0449
▁2.0	-10.045
▁gratuitamente	-10.045
▁out	-10.0453
▁sconti	-10.0458
opzione	-10.0458
▁accetto	-10.0459
accesso	-10.0476
▁generatore	-10.0482
metro	-10.0486
▁idro	-10.0488
▁dedicato	-10.0493
▁incontra	-10.0495
▁caricamento	-10.0496
▁barra	-10.0497
▁dispone	-10.0498
br	-10.0501
video	-10.0502
▁divano	-10.0504
о	-10.0505
▁alimentare	-10.0514
▁fede	-10.0518
▁propria	-10.0524
▁preparazione	-10.0526
▁casinò	-10.0533
▁quota	-10.0534
▁croce	-10.0535
▁neve	-10.0543
▁molte	-10.055
▁arrivare	-10.0554
▁service	-10.0558
light	-10.0568
pon	-10.0569
▁tradizionale	-10.0573
▁quest	-10.0574
▁genova	-10.0574
nes	-10.0576
tr	-10.0576
▁ospite	-10.0577
▁comprare	-10.0579
▁incluso	-10.0585
▁160	-10.0587
▁66	-10.0588
▁inferiore	-10.059
inizio	-10.0591
▁trovate	-10.0593
▁pace	-10.0596
0°	-10.0601
▁140	-10.0605
care	-10.0605
▁room	-10.0606
▁inserire	-10.0608
▁gestire	-10.0609
show	-10.0618
▁indica	-10.0618
sport	-10.0623
▁wo	-10.0624
▁king	-10.0626
▁day	-10.0628
▁ger	-10.0629
▁finalità	-10.0632
dal	-10.0634
/3	-10.0636
▁ricette	-10.0637
nello	-10.0637
▁11.	-10.064
и	-10.064
mc	-10.064
▁siete	-10.0645
▁aero	-10.0648
▁cuscinetto	-10.0648
▁sostegno	-10.0649
▁nike	-10.0653
▁hp	-10.0655
▁indiano	-10.0656
her	-10.0656
▁rotolo	-10.066
▁registro	-10.0668
▁anteriore	-10.0672
ultimo	-10.0673
▁giocatori	-10.0678
▁regina	-10.0679
▁sorrento	-10.0683
altro	-10.0688
▁interfaccia	-10.0688
▁caro	-10.0693
ug	-10.0696
hot	-10.0697
bia	-10.0697
essi	-10.0698
ultima	-10.0699
▁yoga	-10.0711
▁idraulico	-10.0712
▁cara	-10.0715
mine	-10.0717
▁accedere	-10.0725
cra	-10.0725
▁immobiliare	-10.0726
len	-10.0727
▁avviso	-10.073
eur	-10.0733
▁serra	-10.075
▁aumenta	-10.0754
senza	-10.0755
kin	-10.0755
▁governo	-10.0759
▁composizione	-10.076
▁apk	-10.0767
▁canada	-10.0775
▁from	-10.0777
ó	-10.0782
▁certificati	-10.0783
iano	-10.0785
▁high	-10.0786
▁vapore	-10.0795
cla	-10.0802
▁alba	-10.0802
▁terreno	-10.0802
ira	-10.0803
▁flash	-10.0804
▁stessa	-10.0805
▁motor	-10.0805
▁griglia	-10.0809
epoca	-10.0813
tone	-10.0813
2016	-10.0814
installazione	-10.0814
don	-10.0814
/5	-10.0821
▁cru	-10.0821
▁kb	-10.0822
▁croazia	-10.0824
ys	-10.0825
mico	-10.0828
zionale	-10.083
rli	-10.0836
▁materia	-10.0843
▁giardini	-10.0848
uma	-10.0851
▁food	-10.0855
uo	-10.086
▁leader	-10.086
▁backup	-10.0861
▁gru	-10.0865
▁moduli	-10.0867
dra	-10.0869
▁ferma	-10.0869
/8	-10.0871
▁quasi	-10.0872
evento	-10.0876
▁vs	-10.0878
▁classifica	-10.0885
▁95	-10.0887
of	-10.0891
▁mura	-10.0893
ville	-10.0895
▁papa	-10.0896
▁presa	-10.0904
▁youtube	-10.0909
nata	-10.0918
▁desidera	-10.0921
ung	-10.0929
ix	-10.0929
▁traccia	-10.0931
▁paradiso	-10.0937
ossi	-10.0938
▁origine	-10.0939
▁regolamento	-10.0942
▁ø	-10.0947
▁cra	-10.0954
▁recenti	-10.0961
▁codici	-10.0962
▁serve	-10.097
▁pad	-10.0977
▁berlino	-10.0982
vin	-10.0982
▁gonfiabile	-10.0986
▁integrato	-10.0989
▁caldi	-10.0991
▁moncler	-10.0991
ità	-10.1001
uomo	-10.1007
rosa	-10.1011
articolo	-10.1012
-2019	-10.1017
▁recente	-10.1018
▁marrone	-10.1019
ette	-10.1019
/19	-10.1023
/03	-10.1028
nger	-10.1032
attività	-10.1034
▁tenda	-10.1038
▁wireless	-10.1046
▁domestici	-10.1052
010	-10.1055
▁innovazione	-10.1058
▁bracciale	-10.106
▁trattamenti	-10.1067
▁acido	-10.1068
▁collection	-10.107
▁iii	-10.1072
▁medici	-10.1074
amp	-10.1076
moni	-10.1078
▁fresco	-10.1079
guard	-10.1079
▁sin	-10.108
-9	-10.1083
▁zo	-10.1085
▁ob	-10.1087
estero	-10.1088
▁63	-10.1089
-03	-10.1092
▁condividi	-10.1094
▁rub	-10.1097
▁ferrari	-10.1102
▁bay	-10.1105
▁uffici	-10.1107
▁professionisti	-10.1109
▁passaggio	-10.1114
▁login	-10.1117
asse	-10.1118
▁cottura	-10.1119
-30	-10.1119
900	-10.112
▁mont	-10.1127
▁taxi	-10.1129
▁rota	-10.113
▁concerto	-10.1131
▁ricevi	-10.114
▁suggerimenti	-10.1143
/4	-10.1145
▁registra	-10.1148
▁occupa	-10.1151
▁utilizzati	-10.1153
▁viti	-10.1154
▁estensione	-10.1154
▁asiatica	-10.1157
▁santo	-10.1162
▁380	-10.1164
umi	-10.1166
ista	-10.1169
▁mil	-10.1172
▁risparmio	-10.1174
ves	-10.1175
rello	-10.1178
oso	-10.1182
nea	-10.1184
▁rocco	-10.1186
▁luigi	-10.1186
low	-10.1187
▁win	-10.1192
▁meta	-10.1195
▁devo	-10.1202
italy	-10.1205
▁alessandro	-10.1207
▁abiti	-10.1207
▁veneto	-10.1208
▁slot	-10.1209
▁regole	-10.1211
▁96	-10.1212
stico	-10.1214
our	-10.1215
▁(5)	-10.1217
▁espresso	-10.1223
▁piacere	-10.1228
\	-10.1234
▁map	-10.1234
▁efficace	-10.1235
▁vela	-10.1238
ade	-10.1241
solo	-10.1241
relli	-10.1244
▁abilità	-10.1256
▁pixel	-10.1257
web	-10.1257
`	-10.126
▁firma	-10.1262
▁militare	-10.1266
▁50%	-10.1266
▁tru	-10.127
pl	-10.127
▁aziendali	-10.1273
vie	-10.1273
atori	-10.1276
▁8,	-10.1282
▁acc	-10.1282
▁garden	-10.1286
▁mature	-10.1288
а	-10.129
▁sara	-10.1293
▁music	-10.1297
▁iniezione	-10.1302
▁esterni	-10.1304
nzia	-10.1305
fran	-10.1308
▁ingredienti	-10.1309
zie	-10.1311
▁storie	-10.1315
▁pianta	-10.1319
bit	-10.1321
▁sacchetto	-10.1329
▁pronto	-10.1333
▁umidità	-10.1334
▁sky	-10.1335
▁jesolo	-10.1341
▁terzo	-10.1342
▁convertitore	-10.1344
▁full	-10.1346
db	-10.1351
nci	-10.1351
▁figli	-10.1352
lm	-10.1356
▁7,	-10.1356
▁sto	-10.1357
▁har	-10.1366
▁ms	-10.1367
▁digitali	-10.1368
▁long	-10.1368
▁campeggio	-10.1373
▁spedizioni	-10.1375
▁pie	-10.1379
▁integra	-10.1381
▁giacca	-10.1381
▁pass	-10.1382
▁barche	-10.1382
appartamento	-10.1383
stin	-10.1383
▁scuole	-10.1391
▁regola	-10.1391
otto	-10.1395
▁rimozione	-10.1397
▁ski	-10.1402
scia	-10.1406
▁smartphone	-10.141
▁moderna	-10.1412
▁vale	-10.1414
xxx	-10.1416
▁formati	-10.1419
▁1)	-10.1419
ig	-10.1422
▁eva	-10.1426
▁gro	-10.1428
▁spiagge	-10.1428
ee	-10.143
mici	-10.143
-02	-10.1434
▁cammino	-10.1435
▁fitness	-10.1441
▁tom	-10.1441
▁vicinanze	-10.1447
▁fr	-10.145
▁68	-10.1451
▁menù	-10.146
▁gb	-10.1463
▁profondità	-10.1466
▁preferiti	-10.1466
cy	-10.1476
▁(12	-10.1479
if	-10.148
/2	-10.1481
▁reti	-10.1482
ep	-10.1484
▁accompagna	-10.1485
logi	-10.1489
▁serbatoio	-10.1495
side	-10.1497
▁ragazzo	-10.1497
▁screen	-10.1498
▁soft	-10.15
ui	-10.15
▁ascensore	-10.1503
▁conserva	-10.1504
▁dolci	-10.1511
▁consente	-10.1518
tò	-10.1521
bag	-10.1522
parti	-10.1523
100%	-10.1523
▁lettura	-10.153
▁aff	-10.1536
▁resta	-10.154
▁destra	-10.1541
▁installa	-10.1545
▁asiaticas	-10.1548
▁cho	-10.1549
▁parametri	-10.1551
▁listato	-10.1552
▁esplora	-10.156
▁bagagli	-10.1561
▁offriamo	-10.1563
▁jun	-10.1563
▁‘	-10.1565
▁signore	-10.1567
▁sabbia	-10.157
▁camion	-10.1572
▁portale	-10.1573
▁richiede	-10.1574
▁musicale	-10.1574
▁censura	-10.158
▁etichette	-10.158
elle	-10.1583
▁testi	-10.159
▁bevande	-10.1599
▁back	-10.16
▁ottica	-10.1603
▁comando	-10.1607
letti	-10.1607
visi	-10.1608
▁assi	-10.1611
▁naples	-10.1612
▁lezioni	-10.1612
▁2)	-10.1614
dente	-10.1632
gal	-10.1632
▁male	-10.1634
▁manda	-10.1638
▁economici	-10.1638
▁responsabilità	-10.1639
▁sfera	-10.1641
dri	-10.1641
▁elevata	-10.1646
hd	-10.1652
▁organizzazione	-10.1656
5.00	-10.1656
ning	-10.1657
sal	-10.1657
tus	-10.1665
▁appena	-10.1667
▁iniziare	-10.1674
vr	-10.1677
▁62	-10.1682
dd	-10.1686
telli	-10.1688
▁village	-10.1693
▁bionde	-10.1694
▁italiani	-10.1696
▁valvole	-10.1697
▁femminile	-10.1702
▁bottes	-10.1703
sole	-10.1718
▁rischio	-10.1718
▁tutorial	-10.1725
▁fiume	-10.173
▁tale	-10.1733
▁cr	-10.1733
▁danni	-10.1737
▁conoscere	-10.1739
dici	-10.1739
▁conoscenza	-10.1742
lc	-10.1752
vent	-10.1754
▁band	-10.1755
▁verrà	-10.1772
▁you	-10.1781
▁manca	-10.1781
day	-10.1781
pet	-10.179
110	-10.1794
/09	-10.1796
ida	-10.1799
▁ambientale	-10.18
asso	-10.18
toria	-10.1803
metri	-10.1806
▁inclusi	-10.1807
ken	-10.1811
▁cuoio	-10.1813
▁utile	-10.1813
▁catania	-10.1814
/1	-10.1818
nio	-10.1821
pra	-10.1822
▁circuito	-10.1826
▁colonna	-10.1826
▁bocca	-10.1829
▁emilia	-10.1829
▁campioni	-10.183
▁ass	-10.183
▁stampato	-10.1831
▁10:00	-10.1833
terra	-10.1833
▁porti	-10.1839
▁densità	-10.1839
▁alte	-10.184
▁regolazione	-10.1841
▁meeting	-10.1845
▁giapponesi	-10.1847
▁schede	-10.1855
▁devono	-10.1856
▁visualizzati	-10.1859
acquisto	-10.1862
▁br	-10.1864
▁polo	-10.1864
link	-10.1866
▁meccanica	-10.1869
fit	-10.1875
▁bianchi	-10.1878
▁ps	-10.1879
▁varietà	-10.1883
▁location	-10.1885
▁700	-10.1889
▁taglie	-10.1891
▁indipendente	-10.1892
rc	-10.1895
▁privati	-10.1898
▁́	-10.1899
▁documento	-10.1905
▁barre	-10.1906
▁bottiglie	-10.191
▁pov	-10.1911
▁spina	-10.1912
▁intervista	-10.1917
rata	-10.1921
▁guanti	-10.1922
vesti	-10.1922
▁forme	-10.1923
е	-10.1925
▁baby	-10.1929
▁mostrando	-10.1935
▁xi	-10.1935
▁tante	-10.1935
▁impa	-10.1938
▁controllare	-10.1941
▁grafica	-10.1947
▁pagamenti	-10.1947
zzare	-10.195
▁bicicletta	-10.1951
▁(6)	-10.1953
▁verdi	-10.1954
▁indicazioni	-10.1956
gnano	-10.1965
burg	-10.1969
▁dentro	-10.1972
▁visualizzare	-10.1978
▁expo	-10.1982
▁lava	-10.1983
▁opportunità	-10.1984
rna	-10.1984
lice	-10.1991
▁conservazione	-10.1993
▁differenza	-10.2004
oem	-10.2008
▁metropolitana	-10.202
cchio	-10.2023
▁riviera	-10.2024
▁dra	-10.2025
ray	-10.2025
▁wine	-10.2026
▁life	-10.2034
▁yacht	-10.2038
mmo	-10.2042
▁durevole	-10.2044
ation	-10.2046
▁davvero	-10.2057
▁consenso	-10.2058
▁conferenza	-10.206
▁modella	-10.2064
▁bol	-10.2064
eria	-10.2072
▁importa	-10.2072
▁76	-10.2083
▁tech	-10.2089
lab	-10.209
▁universale	-10.2091
▁incluse	-10.2098
lare	-10.2104
▁clima	-10.2106
▁piega	-10.2106
cr	-10.2107
▁studente	-10.2107
▁tuttavia	-10.2107
▁gt	-10.211
▁lesbo	-10.2113
▁quelle	-10.2117
▁elettronico	-10.2119
▁compa	-10.212
▁pallet	-10.2126
nm	-10.2127
▁spettacolo	-10.2138
▁pantaloni	-10.2139
▁130	-10.2155
▁vaticano	-10.2157
ude	-10.216
▁strapon	-10.2161
sion	-10.2167
▁porn	-10.2167
▁grasso	-10.2169
▁spo	-10.217
▁roberto	-10.2171
▁consulta	-10.2174
▁ap	-10.2179
▁seta	-10.2181
▁transfer	-10.2183
rk	-10.2184
lati	-10.2185
tato	-10.2188
▁avanti	-10.2191
▁lettore	-10.2194
▁esperti	-10.2199
▁luxury	-10.2206
▁obiettivi	-10.2213
more	-10.2214
▁fiat	-10.2218
time	-10.2219
oc	-10.2221
▁fiere	-10.2228
ea	-10.2232
▁conversione	-10.2236
▁trovi	-10.2236
▁(11	-10.2239
▁organizza	-10.2241
dut	-10.2244
▁michele	-10.2245
cs	-10.2248
▁sea	-10.2248
ted	-10.2249
▁mario	-10.2251
▁tags	-10.2255
▁qualcosa	-10.2261
europa	-10.2263
▁sinistra	-10.2267
▁pot	-10.227
▁rica	-10.2273
tá	-10.2275
▁personalizzata	-10.2276
▁quadri	-10.2277
ao	-10.2278
▁padova	-10.2281
▁inserimento	-10.2284
miche	-10.2288
▁francesca	-10.2289
▁bla	-10.2291
ardo	-10.2292
▁et	-10.2293
-0	-10.2293
▁porcellana	-10.2294
▁esso	-10.2298
▁tira	-10.2299
tare	-10.23
▁cera	-10.2301
▁lampade	-10.2301
▁stampante	-10.2302
anni	-10.2305
▁sm	-10.2305
▁fornitura	-10.2305
▁char	-10.2307
▁effettuare	-10.2307
missione	-10.2314
dom	-10.2318
▁specchio	-10.232
▁30%	-10.2321
▁escort	-10.2322
▁modifiche	-10.2329
▁faq	-10.2329
▁(15	-10.2331
gh	-10.2332
retto	-10.2337
▁ir	-10.2339
▁figlia	-10.234
▁terze	-10.2345
▁apr	-10.2346
cher	-10.2347
pla	-10.2347
giu	-10.2349
▁240	-10.235
▁yu	-10.235
azioni	-10.2351
!!	-10.2353
▁informa	-10.2354
9001	-10.2356
▁mus	-10.2357
▁braccio	-10.236
▁ammessi	-10.2363
ks	-10.2366
▁cup	-10.237
▁cavalli	-10.2371
▁albero	-10.2371
sex	-10.2372
▁poter	-10.2387
▁ul	-10.2388
dini	-10.239
▁private	-10.2391
:01	-10.2394
▁ios	-10.24
▁pista	-10.2402
▁foro	-10.2405
▁schiuma	-10.2405
▁ferroviaria	-10.2407
▁risposte	-10.2412
▁vip	-10.242
▁vive	-10.2421
bol	-10.2425
▁esperienze	-10.2426
▁pubblici	-10.2426
▁scatole	-10.2426
▁segnale	-10.2427
▁felice	-10.2427
▁pubblicazione	-10.2432
▁inviato	-10.2434
▁leggera	-10.2436
ane	-10.2452
▁birra	-10.2457
▁pagare	-10.2463
une	-10.2464
▁risparmia	-10.2466
use	-10.2467
▁intorno	-10.2468
▁bergamo	-10.2476
▁dietro	-10.2481
▁dona	-10.2482
idi	-10.2487
”.	-10.2488
▁sali	-10.2488
ctor	-10.249
▁adige	-10.249
lar	-10.2495
▁->	-10.2495
▁latina	-10.2495
ip	-10.25
ave	-10.2502
▁sola	-10.2508
▁tassa	-10.2511
▁giulia	-10.2511
▁pur	-10.2515
▁paris	-10.2518
unica	-10.2518
nel	-10.252
▁é	-10.2523
▁vinci	-10.2524
0000	-10.2524
▁ampio	-10.2527
▁immobili	-10.2527
▁record	-10.2528
▁agricola	-10.2531
▁mangiare	-10.2536
-05	-10.2539
field	-10.2539
▁vecchia	-10.2545
▁workshop	-10.2545
este	-10.2548
roni	-10.2554
▁pio	-10.2559
:15	-10.2561
▁seguire	-10.2561
rete	-10.2564
unità	-10.2565
▁trasforma	-10.2568
▁collega	-10.2568
▁ricevuto	-10.2573
▁view	-10.2577
▁dov	-10.2577
▁chip	-10.2578
▁67	-10.2584
▁manica	-10.2589
▁zero	-10.2593
vision	-10.2594
▁88	-10.2598
cini	-10.26
▁madrid	-10.2601
▁versa	-10.2616
▁progettato	-10.2618
ou	-10.2618
▁sam	-10.262
▁definizione	-10.2622
▁trasporti	-10.2622
▁nazionali	-10.2624
▁nominale	-10.2624
gel	-10.2625
▁ped	-10.2626
live	-10.2631
win	-10.2632
▁compilazione	-10.2634
tube	-10.2636
▁dormire	-10.2638
▁98	-10.2638
▁massaggi	-10.2642
arma	-10.2647
▁semplici	-10.2648
/08	-10.2649
▁maschio	-10.265
▁press	-10.2652
▁messico	-10.2654
nny	-10.2655
ska	-10.2656
▁taormina	-10.2658
natura	-10.266
▁nascita	-10.2661
ins	-10.2662
tan	-10.2664
▁glo	-10.2666
/2018	-10.2667
dor	-10.267
▁distributore	-10.2675
▁feste	-10.2676
▁emergenza	-10.2677
▁metalli	-10.2678
▁relazione	-10.2684
▁strategia	-10.2686
▁compagnia	-10.2686
▁autunno	-10.2688
persona	-10.2689
ua	-10.27
▁beni	-10.2701
▁rai	-10.2704
cula	-10.2705
▁secco	-10.2712
▁dovrebbe	-10.2714
▁sembra	-10.2715
▁vestiti	-10.2717
▁david	-10.2718
bal	-10.2718
▁sim	-10.2722
▁profili	-10.2724
fl	-10.2725
125	-10.2725
ole	-10.2725
-16	-10.274
nici	-10.2742
lea	-10.2743
▁sai	-10.2745
▁denaro	-10.2747
▁ue	-10.2753
eli	-10.2757
letta	-10.276
▁pari	-10.2762
▁freno	-10.2764
▁camp	-10.2769
▁partecipanti	-10.2771
pal	-10.2771
▁termico	-10.2773
▁3000	-10.2773
ros	-10.2775
ard	-10.2775
▁fornisce	-10.2781
wo	-10.2787
-07	-10.2787
stiche	-10.2787
▁calze	-10.2789
š	-10.2794
ile	-10.2803
abile	-10.2808
gata	-10.2809
-04	-10.281
▁manuali	-10.2811
▁rullo	-10.2812
▁samsung	-10.2815
▁milf	-10.2817
▁errore	-10.2817
▁97	-10.2821
stici	-10.2821
porta	-10.2821
α	-10.2822
▁450	-10.2825
▁2002	-10.2833
cente	-10.2833
top	-10.2834
▁sovra	-10.284
▁intera	-10.2841
▁caratteristica	-10.2845
idea	-10.2848
tella	-10.2851
ada	-10.2852
gy	-10.2854
cine	-10.2854
▁84	-10.2856
▁partecipazione	-10.2856
▁mette	-10.2857
▁gene	-10.2868
▁deluxe	-10.2873
▁percorsi	-10.2874
▁zip	-10.2874
▁pcb	-10.2875
▁1.5	-10.2877
▁thai	-10.2878
▁url	-10.2879
met	-10.2881
▁telefoni	-10.2885
â	-10.2888
▁rifornimento	-10.2888
▁buffet	-10.2888
▁genera	-10.2888
form	-10.2893
mare	-10.2893
121	-10.2899
fc	-10.2908
▁divertente	-10.291
▁rom	-10.2912
come	-10.2915
gp	-10.2916
▁introduzione	-10.2917
▁1,5	-10.292
▁diventare	-10.2921
-09	-10.2923
▁fashion	-10.2924
▁motivi	-10.2926
▁ordinazione	-10.2929
▁aspetto	-10.293
▁wellness	-10.2931
▁pornostar	-10.2932
scono	-10.2939
▁asiatiche	-10.2939
▁qualifica	-10.2941
▁carburante	-10.2946
▁rin	-10.2947
▁angelo	-10.2949
▁biancheria	-10.2949
erà	-10.2955
▁west	-10.2958
▁cambiare	-10.2961
▁richiedere	-10.2961
▁pia	-10.2962
▁statistiche	-10.2963
▁architettura	-10.2963
▁evitare	-10.2963
▁xx	-10.2964
roma	-10.2965
università	-10.2969
▁zucchero	-10.2969
logia	-10.297
tano	-10.2972
▁fur	-10.2972
-17	-10.2973
▁olive	-10.2973
▁nizza	-10.2975
▁attrazioni	-10.2978
ian	-10.298
▁performance	-10.2983
▁vienna	-10.2987
apri	-10.2987
▁insegnante	-10.2987
zzati	-10.2987
enze	-10.299
test	-10.2993
▁finestre	-10.2994
▁nutri	-10.3002
lone	-10.3002
rdi	-10.3005
▁tan	-10.3007
py	-10.3008
▁61	-10.3009
▁steroidi	-10.3012
▁night	-10.3014
ufficio	-10.3014
▁adattatore	-10.3016
▁cantina	-10.3022
▁incontro	-10.3024
▁ana	-10.3024
segui	-10.3025
▁converti	-10.3026
▁cielo	-10.3027
tribu	-10.303
▁may	-10.3031
▁cognome	-10.3034
▁alimentari	-10.3034
▁quel	-10.3038
cata	-10.3041
dica	-10.3045
▁game	-10.3045
▁versioni	-10.3053
▁scrivi	-10.3053
▁stazioni	-10.3056
▁ghi	-10.3056
anza	-10.3056
▁nasce	-10.3061
▁classica	-10.3066
▁atti	-10.3068
▁valida	-10.3074
autore	-10.3074
▁stabili	-10.3075
▁$1	-10.3076
▁sessione	-10.3078
-2018	-10.308
▁servi	-10.3082
▁principi	-10.3082
▁americano	-10.3087
▁abba	-10.3096
yer	-10.3096
vento	-10.3097
▁sedie	-10.3097
lico	-10.3101
▁bronzo	-10.3109
fal	-10.3111
▁mezzi	-10.3112
▁metà	-10.3114
▁termica	-10.3117
▁caratteri	-10.3117
▁kar	-10.3118
▁ottone	-10.312
esso	-10.3123
▁hôtel	-10.3123
▁usando	-10.3125
hr	-10.3125
ature	-10.3127
▁fondi	-10.3129
▁western	-10.3131
▁turchia	-10.3131
▁(14	-10.3131
automobile	-10.3134
▁consultare	-10.3135
▁selva	-10.3136
ney	-10.3138
▁energetico	-10.3138
tex	-10.3138
▁rip	-10.3139
rus	-10.3147
▁annuale	-10.3153
č	-10.3154
ving	-10.3157
nni	-10.3162
▁bluetooth	-10.3175
▁reali	-10.3177
▁gui	-10.3187
▁assicura	-10.3189
▁regali	-10.3194
cus	-10.3194
▁sig	-10.3197
▁carriera	-10.32
▁automaticamente	-10.3201
▁rulli	-10.3203
2000	-10.3204
design	-10.3204
▁virtuale	-10.3218
▁travel	-10.3222
▁generazione	-10.3222
▁office	-10.3223
▁apple	-10.3224
ges	-10.3225
▁fun	-10.3225
▁designer	-10.3226
tevi	-10.323
▁clo	-10.323
▁ottima	-10.323
linea	-10.3231
▁key	-10.3233
▁modificare	-10.3237
▁ton	-10.3239
▁banda	-10.324
▁20%	-10.3242
ban	-10.3245
▁rotondo	-10.3251
cap	-10.3255
▁sd	-10.3256
▁(13	-10.326
▁giusto	-10.3262
▁vuole	-10.3262
▁terzi	-10.3264
▁pane	-10.3267
▁quanti	-10.3268
uscita	-10.3277
informativa	-10.3277
quo	-10.3278
▁indietro	-10.3296
▁prof	-10.3297
lis	-10.3298
▁900	-10.3303
▁ginecologo	-10.3304
▁sospensione	-10.3304
▁diamante	-10.3304
▁celebra	-10.3311
▁fetish	-10.3311
▁italiane	-10.3312
torio	-10.3316
ffer	-10.3323
▁crediti	-10.3326
▁presenza	-10.3335
▁nov	-10.3346
home	-10.3348
▁paul	-10.3351
▁≤	-10.3352
▁sugli	-10.3356
▁vantaggio	-10.336
▁carbon	-10.3361
▁previsioni	-10.3364
▁dollaro	-10.3364
▁rif	-10.3365
▁disegni	-10.3365
▁corto	-10.3366
colore	-10.3367
caricato	-10.3373
▁affari	-10.3374
pic	-10.3376
▁nato	-10.3376
▁filmati	-10.3379
▁perchè	-10.338
eva	-10.3382
▁fabbricazione	-10.3383
▁rivista	-10.3384
▁mix	-10.3385
▁battaglia	-10.3387
▁strati	-10.3389
ense	-10.3393
▁tiro	-10.3393
▁nova	-10.3399
▁pasqua	-10.3399
done	-10.3402
▁destinazione	-10.3403
▁0,00	-10.3403
able	-10.3412
▁cata	-10.3412
▁totali	-10.3413
▁merci	-10.3414
▁propri	-10.3424
ult	-10.3425
▁78	-10.3427
▁water	-10.343
ala	-10.3432
▁allora	-10.3434
bl	-10.3436
ping	-10.3436
▁cerchi	-10.3442
▁lato	-10.3444
blo	-10.3445
▁parchi	-10.3447
▁puglia	-10.3448
▁riga	-10.345
▁stock	-10.3452
porto	-10.3454
ava	-10.3456
-06	-10.3456
▁succo	-10.3463
▁cilindro	-10.3464
▁aumentare	-10.3467
▁project	-10.3471
▁chimica	-10.3471
rum	-10.3474
▁iv	-10.3487
▁spazzola	-10.3487
▁salda	-10.3488
160	-10.349
bella	-10.3493
cchia	-10.3493
▁comodo	-10.3494
▁doc	-10.3495
-25	-10.3502
cent	-10.3503
▁ok	-10.3505
▁puro	-10.3508
▁franco	-10.3513
▁wall	-10.3515
▁aereo	-10.3515
▁norme	-10.3516
▁±	-10.3517
2015	-10.3517
▁rosse	-10.3518
▁dmca	-10.3519
▁pon	-10.3523
▁aqua	-10.3523
▁lavorativi	-10.3528
▁73	-10.3529
▁vivi	-10.3532
▁angeli	-10.3537
▁scuro	-10.3544
▁ji	-10.3548
▁operazioni	-10.3548
▁relais	-10.3549
▁corona	-10.3551
mann	-10.3553
-13	-10.3555
▁mantenere	-10.3557
▁profumo	-10.3557
▁(16	-10.3562
argento	-10.3562
sten	-10.3564
▁vestito	-10.3573
▁mos	-10.3575
bike	-10.3583
▁ser	-10.3584
mone	-10.3586
▁sette	-10.3586
ume	-10.3589
▁cle	-10.3594
▁ridurre	-10.3597
▁pale	-10.36
▁contact	-10.3602
gas	-10.3604
▁lavaggio	-10.3606
▁gp	-10.3616
▁viva	-10.3617
mano	-10.362
gine	-10.3622
▁conte	-10.3626
▁sce	-10.3627
▁difficile	-10.3627
220	-10.3634
▁forex	-10.3634
energia	-10.3635
▁trio	-10.3635
▁considera	-10.3637
▁appuntamento	-10.3638
▁itinerari	-10.3639
▁regolare	-10.3643
ibile	-10.3643
▁arma	-10.3644
▁costruire	-10.3646
▁tokyo	-10.3651
▁titanio	-10.3652
▁750	-10.3656
iana	-10.3658
▁soffitto	-10.3659
▁paypal	-10.3659
▁idraulica	-10.3667
▁miele	-10.3669
▁rileva	-10.367
▁rendere	-10.367
▁pr	-10.3673
▁asia	-10.3673
▁laterale	-10.3675
▁imposta	-10.3678
:59	-10.3678
▁scopo	-10.3679
▁college	-10.3681
▁settori	-10.3683
▁egli	-10.3685
▁3)	-10.3686
alle	-10.3689
▁muro	-10.3693
▁elemento	-10.3694
▁navi	-10.3696
▁cavallo	-10.3697
▁danza	-10.3697
▁elaborazione	-10.3698
mas	-10.3702
▁74	-10.3704
▁scoperta	-10.3706
▁86	-10.3707
▁carro	-10.3708
.04	-10.371
▁materie	-10.3714
cker	-10.3714
▁1200	-10.3715
▁xl	-10.3716
▁frigo	-10.3716
lock	-10.3716
bru	-10.3721
▁perdere	-10.3721
▁differenti	-10.3722
▁guardare	-10.3722
▁junior	-10.3725
▁ghiaccio	-10.373
▁campionato	-10.373
tino	-10.3735
▁orto	-10.3737
-08	-10.3742
bie	-10.3753
centi	-10.3753
▁1/2	-10.3754
tha	-10.3755
▁fanno	-10.3758
▁blocca	-10.376
▁2*	-10.3764
▁alfa	-10.3769
▁acquisti	-10.3772
▁dor	-10.3773
cella	-10.3776
▁conveniente	-10.3777
▁affidabile	-10.3779
▁composto	-10.3779
house	-10.3779
▁dolore	-10.378
▁gian	-10.378
esposizione	-10.378
▁fiscale	-10.3785
▁grafico	-10.3786
▁english	-10.3786
▁turistico	-10.3788
▁neri	-10.3789
▁roll	-10.379
▁rinnova	-10.3792
onica	-10.3802
▁originali	-10.3802
▁temp	-10.3803
▁sostitu	-10.3805
▁como	-10.381
38)	-10.3811
▁rimuovere	-10.3812
▁tal	-10.3812
▁tazza	-10.3812
▁sensori	-10.3813
▁89	-10.3813
▁denti	-10.3814
▁frequenti	-10.3817
tera	-10.3817
chiara	-10.3819
denti	-10.382
▁mattina	-10.382
▁collana	-10.3821
▁maniglia	-10.3822
string	-10.3823
-14	-10.3826
ware	-10.3828
gro	-10.3829
▁duca	-10.383
▁collabora	-10.3832
36)	-10.3836
▁ampia	-10.3838
▁michael	-10.3841
▁miramare	-10.3842
▁consiglia	-10.3842
▁troppo	-10.3843
▁nomi	-10.3846
▁sauna	-10.3848
▁capitolo	-10.3849
▁mensile	-10.3849
▁dom	-10.385
gie	-10.3852
▁step	-10.3852
▁mie	-10.3857
▁arabi	-10.3871
▁colpi	-10.3876
ndere	-10.3876
▁deriva	-10.3876
▁trattati	-10.3879
▁tablet	-10.3879
:10	-10.388
▁hard	-10.3881
sing	-10.3881
▁otto	-10.3886
▁amministrazione	-10.3887
nic	-10.3903
▁hall	-10.3904
▁1°	-10.3904
▁brochure	-10.3905
▁valido	-10.3907
▁attacco	-10.3908
▁2001	-10.3913
▁79	-10.3914
▁scrive	-10.3915
▁promo	-10.3915
▁buoni	-10.3917
▁personalizzate	-10.392
▁acrilico	-10.3921
▁valutazioni	-10.3922
▁contra	-10.3929
▁rf	-10.3935
▁attivi	-10.3942
tions	-10.3944
udi	-10.3945
▁rim	-10.3946
:45	-10.3947
gui	-10.3949
▁(7)	-10.3952
▁ros	-10.3953
▁13,	-10.3956
▁vani	-10.3962
▁condotto	-10.3967
▁ticket	-10.397
rin	-10.3971
dono	-10.3975
8,00	-10.3977
▁filippina	-10.3978
▁pure	-10.3979
▁segnala	-10.3985
▁custodia	-10.3987
▁tende	-10.3992
room	-10.3992
▁pensa	-10.3993
▁pack	-10.3994
▁rs	-10.3997
cast	-10.3998
▁opzione	-10.4002
▁cv	-10.4006
▁proposte	-10.4014
▁pul	-10.4014
▁calcolato	-10.4016
▁nr	-10.4019
43)	-10.4019
back	-10.4028
▁praga	-10.4037
mag	-10.4041
45)	-10.4042
vid	-10.4044
123	-10.4046
▁easy	-10.4048
▁guidelines	-10.4051
rella	-10.4059
▁palma	-10.406
af	-10.4063
▁ye	-10.4066
▁terza	-10.4071
/07	-10.4075
▁fru	-10.4075
▁norvegese	-10.4076
▁camicia	-10.4076
occo	-10.4077
ingresso	-10.408
▁copri	-10.4081
▁code	-10.4083
▁postale	-10.4084
▁traffico	-10.4084
/2016	-10.4085
zion	-10.4086
▁chiamaci	-10.4087
▁cancellazione	-10.4089
▁venti	-10.4092
media	-10.4099
▁getto	-10.4105
view	-10.4107
ity	-10.4108
▁pneumatici	-10.4109
▁1500	-10.4113
▁scrivere	-10.4117
▁calcola	-10.4124
▁documentazione	-10.4129
bil	-10.413
▁eseguire	-10.4132
00€	-10.4132
almente	-10.4132
▁care	-10.4135
▁database	-10.4136
▁posa	-10.4139
▁ft	-10.4139
▁pietroburgo	-10.4142
▁chiamata	-10.4142
▁sapori	-10.4143
41)	-10.4146
▁divenne	-10.4147
▁71	-10.4149
▁turistica	-10.4153
▁procedura	-10.4158
▁med	-10.4159
▁garage	-10.416
▁bavaro	-10.4167
chu	-10.4169
▁scia	-10.417
▁scu	-10.4171
jpg	-10.4171
▁regolatore	-10.4173
▁comm	-10.4174
messa	-10.4176
▁fonda	-10.4177
▁assicurazione	-10.4179
▁sec	-10.418
-24	-10.4182
▁pasti	-10.4182
▁racconta	-10.4183
▁comincia	-10.4183
▁party	-10.4186
ben	-10.4187
40)	-10.4187
▁riporta	-10.4191
nali	-10.4192
▁duomo	-10.4192
▁arabo	-10.4192
▁piastra	-10.4193
▁dipende	-10.4194
▁pillole	-10.42
▁ibiza	-10.42
occhi	-10.42
logo	-10.4201
▁81	-10.4201
▁frutti	-10.4204
fla	-10.4206
▁site	-10.4207
▁partite	-10.4207
▁mission	-10.4212
▁congressi	-10.4213
cd	-10.4214
▁seduzione	-10.4216
ando	-10.4218
▁unici	-10.4219
/04/20	-10.4219
tello	-10.4221
▁culturale	-10.4221
fici	-10.4222
▁costante	-10.4222
▁simili	-10.4225
/02/20	-10.4232
▁jeans	-10.4234
dol	-10.4241
▁palestra	-10.4243
▁(17	-10.4246
inc	-10.4247
▁medi	-10.4249
▁piattaforme	-10.425
▁condividere	-10.4251
▁riempi	-10.4253
▁includono	-10.4258
▁94	-10.4259
▁penna	-10.426
▁periodi	-10.4264
cali	-10.4266
geni	-10.4266
▁barba	-10.4269
▁domestico	-10.4275
▁contenitori	-10.4275
▁sb	-10.4276
“	-10.428
corre	-10.4282
1-	-10.4283
ye	-10.4284
▁ponti	-10.4285
▁ambienti	-10.4289
▁superiori	-10.4291
▁malattie	-10.4291
▁bitcoin	-10.4292
▁babe	-10.4292
▁rassegna	-10.4292
▁scene	-10.4294
vale	-10.4298
▁compilaçao	-10.43
▁sigilla	-10.43
▁bas	-10.4302
▁vpn	-10.4303
rati	-10.4304
▁mega	-10.4308
▁var	-10.4309
erba	-10.4311
uda	-10.4314
122	-10.4318
▁ottimizza	-10.4326
ics	-10.4326
▁resina	-10.433
▁over	-10.4335
led	-10.4336
▁umani	-10.4338
yl	-10.434
vendita	-10.4349
geno	-10.4349
▁ref	-10.435
▁rumore	-10.4354
▁sacco	-10.4354
2,00	-10.4356
annu	-10.4357
▁london	-10.436
uff	-10.4366
39)	-10.4367
▁stabile	-10.4368
nner	-10.4369
▁adolescente	-10.4374
▁230	-10.4376
▁domina	-10.4377
ona	-10.4378
▁veloci	-10.4382
lor	-10.4382
▁dubai	-10.4384
▁mela	-10.4385
sino	-10.4386
▁ipad	-10.4387
▁foresta	-10.4392
▁greco	-10.4392
▁dimora	-10.4393
▁*****	-10.4393
rri	-10.4396
▁ricetta	-10.4409
▁lunghi	-10.4412
volo	-10.4413
monta	-10.4413
▁laurea	-10.4414
▁logistica	-10.4418
pass	-10.4418
▁uk	-10.442
(3	-10.4422
stan	-10.4422
▁continuo	-10.4426
red	-10.4426
▁stivali	-10.4427
▁mercedes	-10.4427
▁atene	-10.4427
ach	-10.4429
▁marine	-10.4433
ence	-10.4433
▁last	-10.4434
▁morbido	-10.4435
▁profonda	-10.4435
▁individuale	-10.4436
mont	-10.4436
ward	-10.4436
▁torri	-10.4438
▁1.0	-10.4438
▁cappuccio	-10.4443
▁offerti	-10.4443
▁rfid	-10.4445
▁mostre	-10.4445
▁connettori	-10.4452
▁salsa	-10.4456
▁ron	-10.446
▁sangue	-10.4464
cole	-10.4468
▁desktop	-10.4469
▁istanbul	-10.4469
▁country	-10.4469
▁basa	-10.447
▁fasi	-10.447
▁matt	-10.4475
▁degustazione	-10.4477
ificazione	-10.4477
kt	-10.448
lp	-10.4486
▁punteggio	-10.4488
peri	-10.4494
▁figura	-10.4495
vola	-10.4495
▁entrambi	-10.4495
▁raggi	-10.4499
9.00	-10.45
▁corse	-10.4504
▁plan	-10.4505
mes	-10.4505
▁riscalda	-10.4505
▁interpreta	-10.4514
37)	-10.4516
lata	-10.4519
▁sy	-10.4528
▁sostituzione	-10.4529
life	-10.453
scu	-10.4532
▁matteo	-10.4533
▁//	-10.4536
▁dedicata	-10.4545
!!!	-10.4546
▁riguarda	-10.4558
▁senso	-10.4561
▁complesso	-10.4563
▁istruzione	-10.4563
▁produttività	-10.4563
fil	-10.4564
▁pun	-10.4568
▁pizzo	-10.4569
▁pare	-10.4573
▁aiutare	-10.4576
pub	-10.4583
ful	-10.4584
host	-10.4586
▁sur	-10.4589
▁limone	-10.4593
▁autori	-10.4593
▁stadio	-10.4595
▁equi	-10.4596
▁spray	-10.4599
▁prestigio	-10.4606
▁fisica	-10.4606
▁particolari	-10.4607
▁1.2	-10.461
▁lucida	-10.4612
▁management	-10.4615
▁tai	-10.4616
cino	-10.4619
arrivo	-10.4624
ness	-10.4629
47)	-10.463
▁abita	-10.4631
▁malattia	-10.4632
▁vergine	-10.4633
▁riceve	-10.4634
46)	-10.4638
▁soltanto	-10.4641
▁wordpress	-10.4641
▁quadrato	-10.4641
▁attuale	-10.4642
▁---	-10.4643
/01/20	-10.4643
cess	-10.4644
▁cristalli	-10.4644
▁metallica	-10.4644
▁special	-10.4646
▁[1	-10.4649
▁coppa	-10.465
arco	-10.465
л	-10.4653
▁express	-10.4654
▁officina	-10.4654
▁170	-10.4655
▁soci	-10.4657
dr	-10.4659
▁maniche	-10.4661
▁lenti	-10.4662
thi	-10.4666
▁arco	-10.4667
▁vene	-10.467
101	-10.467
vet	-10.4671
▁integrazione	-10.4674
▁dice	-10.4674
zzata	-10.4677
▁passato	-10.4677
▁basi	-10.4681
▁elevato	-10.4683
▁carattere	-10.4684
▁russa	-10.4687
isti	-10.4687
▁9,	-10.4688
▁aumento	-10.4693
▁partito	-10.4693
▁trovano	-10.4694
▁orale	-10.4695
atti	-10.4695
▁pubblicitari	-10.4698
▁lt	-10.4699
▁ken	-10.47
▁spiaca	-10.4701
▁libertà	-10.4702
▁mountain	-10.471
▁laminato	-10.4714
▁monti	-10.4716
▁77	-10.4716
tar	-10.4717
▁disegna	-10.4723
▁farmaci	-10.4725
▁log	-10.4725
▁poe	-10.4726
180	-10.4733
▁lorenzo	-10.4736
villa	-10.4737
▁divisione	-10.4738
tsu	-10.4739
▁sviluppa	-10.474
▁quelli	-10.4745
▁margherita	-10.4745
▁cover	-10.4749
▁masturbazione	-10.4754
stu	-10.4755
attrezzatura	-10.4756
elenco	-10.4756
ibi	-10.4761
▁hardware	-10.4762
▁vince	-10.4763
▁cs	-10.4763
▁hand	-10.4763
▁litio	-10.4764
▁viste	-10.4764
▁^	-10.4766
ione	-10.4773
▁2.5	-10.4777
▁capsule	-10.478
▁orecchini	-10.4782
0.0	-10.4783
▁missione	-10.4784
▁prossima	-10.4787
▁voglio	-10.4787
▁cilindri	-10.4789
▁distretto	-10.4789
▁palo	-10.479
▁noto	-10.4791
▁pz	-10.4793
▁son	-10.4794
▁silver	-10.4799
▁fattoria	-10.4799
▁fly	-10.4799
nero	-10.4803
▁ocean	-10.4808
▁resto	-10.4813
ule	-10.4815
▁alex	-10.4815
▁dare	-10.4819
▁zu	-10.4819
▁piena	-10.4824
▁obiettivo	-10.4825
▁yo	-10.4825
dan	-10.4829
▁ky	-10.483
▁lenght	-10.4833
▁elimina	-10.4836
▁neo	-10.4839
▁net	-10.4841
▁necessità	-10.4842
▁scelto	-10.4842
ball	-10.4844
104	-10.4845
▁masturba	-10.4847
board	-10.485
▁compressore	-10.4851
▁elettriche	-10.4851
▁piemonte	-10.4851
▁cercando	-10.4853
▁lavatrice	-10.4854
▁martin	-10.4855
ré	-10.4857
▁jan	-10.4858
▁candela	-10.4863
work	-10.4865
т	-10.4867
▁ispira	-10.4869
▁piede	-10.4874
sky	-10.4877
▁alcun	-10.4878
▁microsoft	-10.4879
▁sarebbe	-10.488
44)	-10.4883
▁rocca	-10.4884
в	-10.4895
▁budapest	-10.4904
▁radi	-10.4908
asia	-10.4909
▁que	-10.491
▁5*	-10.4924
▁stampaggio	-10.4925
club	-10.4926
▁offrire	-10.4929
▁foglio	-10.4932
nari	-10.4933
late	-10.4936
turi	-10.4936
rali	-10.4938
▁amp	-10.4939
▁#1	-10.494
isci	-10.4941
▁92	-10.4942
▁genitori	-10.4944
▁cuscinetti	-10.4949
data	-10.4949
▁esercizio	-10.4952
ral	-10.4958
▁partecipare	-10.4958
chio	-10.4959
▁0,0	-10.4961
▁cross	-10.4966
▁difesa	-10.4968
▁cemento	-10.4969
▁voli	-10.4972
notte	-10.4972
fino	-10.4975
▁pasto	-10.4977
▁litri	-10.4982
▁tea	-10.4983
▁annuncia	-10.499
▁imparare	-10.4992
▁tipologie	-10.4993
▁rec	-10.4996
▁erbe	-10.4999
▁popolazione	-10.5002
▁canzone	-10.5003
▁alimenti	-10.5007
posti	-10.5009
▁ricorda	-10.501
▁tanti	-10.5011
vere	-10.5016
play	-10.502
cn	-10.502
▁garantire	-10.5021
▁dipartimento	-10.5021
cking	-10.5023
▁spedi	-10.5024
▁lana	-10.5024
▁chic	-10.5025
gente	-10.5035
▁controlli	-10.5038
2014	-10.5038
▁pieghevole	-10.5038
▁coupon	-10.5038
▁esclusivo	-10.5038
▁barriere	-10.5039
▁vendere	-10.5046
▁corda	-10.5048
▁sla	-10.5048
▁elettronici	-10.5048
▁portare	-10.5054
▁isolamento	-10.5054
▁sk	-10.5055
▁spirito	-10.5056
▁turco	-10.5059
ttori	-10.5059
▁colli	-10.5061
▁segue	-10.5061
▁chiavi	-10.5066
get	-10.507
▁ly	-10.5074
fetti	-10.5075
▁ospedale	-10.5075
▁potente	-10.5076
▁invita	-10.5079
uf	-10.5082
graph	-10.5083
▁fortuna	-10.5084
▁outlet	-10.5085
▁work	-10.5086
▁intero	-10.5086
▁programmazione	-10.5087
▁←	-10.5093
▁87	-10.5096
▁host	-10.5099
▁allarme	-10.5099
▁tocco	-10.5104
▁suono	-10.5104
sina	-10.5105
cate	-10.5106
/2017	-10.5107
▁deco	-10.5109
▁company	-10.5111
▁manico	-10.5113
sive	-10.5114
▁fatta	-10.5116
1.5	-10.5117
▁cy	-10.5118
102	-10.5118
ding	-10.5118
▁batti	-10.5121
card	-10.5122
stone	-10.5122
▁nozze	-10.5123
▁lucca	-10.5129
▁cattolica	-10.5129
▁los	-10.5131
girl	-10.5132
▁105	-10.5133
▁\	-10.5133
▁[...]	-10.5138
tp	-10.514
▁mat	-10.514
▁superfici	-10.5141
▁pas	-10.5143
pack	-10.5146
▁pizzeria	-10.5149
conta	-10.515
56)	-10.5151
▁mark	-10.5151
▁videos	-10.5157
▁danno	-10.5157
▁gesti	-10.516
▁mel	-10.5162
zionali	-10.5165
lici	-10.5165
▁pioggia	-10.5167
▁sega	-10.5167
▁flu	-10.5168
vero	-10.517
anta	-10.517
▁(8)	-10.5171
▁tasca	-10.5173
▁supplementare	-10.5175
▁brasile	-10.5175
▁treni	-10.5178
angelo	-10.5181
ford	-10.5182
▁asso	-10.5182
▁proposito	-10.5184
▁dimostra	-10.5188
fre	-10.5189
▁api	-10.519
colare	-10.519
soft	-10.5191
▁mori	-10.5192
▁custom	-10.5194
▁duro	-10.5196
sul	-10.5204
▁specialità	-10.5207
mbra	-10.5212
▁educa	-10.5217
▁finali	-10.5217
▁buone	-10.522
▁raccolti	-10.5221
▁passeggiata	-10.5224
▁follower	-10.5225
▁leonardo	-10.5225
2%	-10.5228
▁cagliari	-10.523
-22	-10.5231
▁bib	-10.5238
fine	-10.5238
▁read	-10.5242
pelle	-10.5243
▁progetta	-10.5245
▁rod	-10.5246
gger	-10.5246
uc	-10.5247
▁vendi	-10.5248
▁bosco	-10.5249
▁ceca	-10.5251
▁scienza	-10.5253
▁malta	-10.5254
▁prestazione	-10.5254
▁nano	-10.5255
▁(9)	-10.526
▁istituto	-10.5264
▁misurazione	-10.5264
▁82	-10.5267
▁strade	-10.5269
▁83	-10.5272
▁robert	-10.5274
▁lavanderia	-10.5276
▁benzina	-10.5276
▁airport	-10.5279
▁posizioni	-10.5285
▁sollevamento	-10.5288
▁anelli	-10.5289
▁orizzontale	-10.5294
▁ingegneria	-10.5295
▁confronta	-10.5295
ous	-10.5298
rbo	-10.5298
▁colpo	-10.5299
▁soddisfare	-10.53
▁relative	-10.5304
▁interrazziale	-10.5306
▁trovati	-10.5306
:20	-10.5307
▁trieste	-10.5309
▁3.0	-10.531
più	-10.531
▁north	-10.5312
ñ	-10.5313
▁adesivi	-10.5313
▁arm	-10.5313
▁giù	-10.5315
▁gode	-10.5316
▁collegamenti	-10.5316
▁0.0	-10.5318
colle	-10.5322
mato	-10.5323
▁farmaco	-10.5326
▁adesivo	-10.5327
flu	-10.5327
▁inserito	-10.5331
▁vice	-10.5332
52)	-10.5334
iani	-10.5334
▁fiorista	-10.5335
▁week	-10.5339
sel	-10.534
49)	-10.5342
▁tavoli	-10.5342
por	-10.5343
vole	-10.5351
▁esempi	-10.5353
vic	-10.5359
48)	-10.5361
4,00	-10.5363
▁batte	-10.5368
▁formaggio	-10.5368
▁efficiente	-10.5369
▁maxi	-10.5369
▁contemporanea	-10.5369
▁fol	-10.5369
▁watch	-10.537
▁automobili	-10.5371
▁offrono	-10.5371
.....	-10.5374
▁microonde	-10.5378
350	-10.5382
zar	-10.5384
▁quartiere	-10.5388
rice	-10.539
▁vanta	-10.5393
▁limite	-10.5393
▁coperta	-10.5397
rbi	-10.5399
▁economia	-10.54
▁nicola	-10.5403
vedi	-10.5406
▁diamanti	-10.5407
tn	-10.5407
hp	-10.5408
▁distribu	-10.5409
▁mettere	-10.541
▁pulito	-10.5411
▁click	-10.5412
/6	-10.5413
020	-10.5414
▁tonnellate	-10.5415
▁verdure	-10.5415
▁ali	-10.5416
▁basilica	-10.5416
ordina	-10.5416
▁drive	-10.5419
▁umano	-10.5421
▁wc	-10.5423
ardi	-10.5425
celli	-10.5425
/20	-10.5426
▁dipendenti	-10.543
▁storici	-10.5436
▁miglia	-10.544
▁vede	-10.544
▁lux	-10.544
▁ray	-10.5442
▁tutela	-10.5444
105	-10.5446
gina	-10.5447
▁91	-10.5449
ssimi	-10.5449
sale	-10.5452
12)	-10.5453
▁operazione	-10.5453
wer	-10.5455
pot	-10.5458
▁fusione	-10.5458
▁revisione	-10.5462
▁surf	-10.5463
▁commissione	-10.5464
42)	-10.5465
mus	-10.5468
key	-10.5471
▁instagram	-10.5472
press	-10.5473
▁banco	-10.5475
▁stre	-10.5479
▁giocatore	-10.5479
▁dottore	-10.5481
▁strategie	-10.5481
▁solido	-10.5484
ido	-10.5489
▁riguardo	-10.5491
▁jack	-10.5491
▁terapia	-10.5492
mani	-10.5492
ncy	-10.5493
▁remo	-10.5501
▁rispondere	-10.5502
55)	-10.5504
▁ridotto	-10.5504
ii	-10.5504
sone	-10.5507
▁chianti	-10.5507
▁esegui	-10.551
▁dominazione	-10.551
▁specie	-10.5511
bc	-10.5514
edizione	-10.5518
loni	-10.5519
▁sfoglia	-10.5519
54)	-10.552
well	-10.5522
hai	-10.5525
bot	-10.5532
leva	-10.5533
▁scadenza	-10.5536
▁giovanissima	-10.554
▁south	-10.5541
▁quadro	-10.5542
▁kat	-10.5549
▁hy	-10.5549
▁epi	-10.5555
▁amsterdam	-10.5557
▁svedese	-10.5557
inverno	-10.5557
▁morì	-10.5559
▁vac	-10.5562
▁beauty	-10.5563
▁conformità	-10.5567
▁esecuzione	-10.5568
visa	-10.557
var	-10.5574
▁rimborso	-10.5576
▁vittorio	-10.5576
18)	-10.5577
▁stro	-10.5578
▁cannes	-10.5578
▁fratello	-10.5578
002	-10.5579
▁cum	-10.5579
▁alti	-10.558
▁family	-10.5585
▁luminosità	-10.5586
archi	-10.5588
mal	-10.5589
}	-10.5594
▁situata	-10.5595
▁affi	-10.5601
▁informati	-10.5602
▁polacco	-10.5606
mil	-10.5609
▁facciamo	-10.5613
▁cristo	-10.5613
▁dichiarazione	-10.5614
▁spiega	-10.5615
▁tanto	-10.5617
▁ricerche	-10.5624
▁ostello	-10.5625
▁nessuno	-10.5627
51)	-10.5627
med	-10.5628
▁proteggere	-10.5634
▁sociali	-10.5636
ride	-10.5636
140	-10.5638
color	-10.5646
-00	-10.5647
▁patrimonio	-10.5648
▁technology	-10.5652
▁rapporti	-10.5652
▁gala	-10.5657
▁archi	-10.5659
130	-10.5659
mah	-10.5664
▁calcolo	-10.5665
▁prepara	-10.5667
▁lasciare	-10.5668
▁0.1	-10.5672
▁streaming	-10.5672
▁relazioni	-10.5672
lux	-10.5672
▁avanzata	-10.5673
▁bere	-10.5673
▁pietre	-10.5674
▁operativo	-10.5677
▁varia	-10.5678
▁ott	-10.5678
mat	-10.5682
▁vernice	-10.5682
ming	-10.5682
64)	-10.5684
▁esiste	-10.5685
▁minuto	-10.5685
▁gatti	-10.569
▁nata	-10.5692
mper	-10.5692
▁filtra	-10.5694
gor	-10.5695
▁interessato	-10.5696
▁disc	-10.5698
poni	-10.5699
▁torneo	-10.5702
72)	-10.5704
ografia	-10.5706
▁tenere	-10.5707
▁combina	-10.5708
▁ty	-10.5708
▁magazine	-10.571
▁fissaggio	-10.5713
2020	-10.5713
63)	-10.5715
vina	-10.5716
▁impegno	-10.5718
▁fisso	-10.5718
▁sicura	-10.572
▁frigorifero	-10.572
ass	-10.5721
▁solari	-10.5722
▁2,5	-10.5727
▁temi	-10.5727
57)	-10.5727
▁biblioteca	-10.5729
▁avventura	-10.573
▁(10)	-10.5732
▁sorella	-10.5734
▁dj	-10.5734
62)	-10.5735
▁tr	-10.5737
2010	-10.5738
▁certificazioni	-10.5739
▁sfida	-10.574
▁abs	-10.5741
▁cartella	-10.5744
▁laura	-10.5746
▁merce	-10.5746
▁realizzare	-10.5746
gione	-10.5749
▁grano	-10.575
ier	-10.5755
▁carbone	-10.5757
▁ungherese	-10.5758
▁compleanno	-10.5758
▁scooter	-10.5758
▁fascia	-10.576
▁minute	-10.5764
▁miscela	-10.5765
ik	-10.5765
▁style	-10.5768
dc	-10.5769
soli	-10.5771
ston	-10.5777
▁pazienti	-10.5778
▁chiang	-10.5781
8%	-10.5783
▁puli	-10.5786
▁protetto	-10.5788
▁concerti	-10.5788
▁civile	-10.5798
▁pos	-10.5801
304	-10.5801
65)	-10.5802
sie	-10.581
▁parma	-10.5812
▁facili	-10.5813
▁cocktail	-10.5817
hen	-10.5817
nghi	-10.5818
▁alberi	-10.5819
tron	-10.5819
casa	-10.5819
▁fotocamera	-10.582
▁avuto	-10.582
▁farina	-10.5828
genti	-10.583
17)	-10.5832
▁nudo	-10.5833
▁possibili	-10.5834
▁fonti	-10.5835
▁shanghai	-10.5836
▁gatto	-10.5842
ntino	-10.5844
▁posted	-10.5845
neo	-10.5846
▁zinco	-10.5847
▁comunicati	-10.5847
▁basta	-10.5848
tm	-10.5848
▁costitui	-10.5848
▁danese	-10.5849
▁usati	-10.585
59)	-10.5852
prezzo	-10.5854
61)	-10.5855
▁supplemento	-10.5856
3%	-10.5856
▁tocca	-10.5858
▁spar	-10.5858
bla	-10.5859
▁costume	-10.5866
▁accanto	-10.5866
ttivi	-10.5869
mel	-10.5871
▁alpi	-10.5872
▁orient	-10.5876
▁moderni	-10.5878
▁miss	-10.5878
uali	-10.5879
▁next	-10.5881
▁210	-10.5882
▁alimenta	-10.5885
▁double	-10.5885
ties	-10.5889
lumin	-10.5889
▁accu	-10.5897
imp	-10.5901
▁global	-10.5902
▁girl	-10.5903
ons	-10.5903
zy	-10.5909
▁1999	-10.591
▁riduce	-10.5915
0.5	-10.5917
▁tastiera	-10.5917
affi	-10.5923
▁rischi	-10.5923
▁wood	-10.5923
▁rive	-10.5924
▁sportivo	-10.5926
anello	-10.5927
▁sintomi	-10.5935
:16	-10.5935
▁pepe	-10.5936
71)	-10.5936
master	-10.5944
pul	-10.5944
▁twitter	-10.5944
▁trekking	-10.5944
▁costrui	-10.5946
▁stili	-10.5948
▁ferra	-10.5954
▁cocco	-10.5955
▁turistiche	-10.5956
▁august	-10.5956
▁edizioni	-10.5957
67)	-10.5958
wood	-10.5959
▁compi	-10.5959
store	-10.5961
м	-10.5964
▁cuffie	-10.5964
▁face	-10.5966
▁sottile	-10.5974
▁impara	-10.5976
niche	-10.5977
▁beat	-10.5979
▁oliva	-10.5982
53)	-10.5983
▁familiari	-10.5984
▁(11)	-10.5984
ille	-10.5984
▁gare	-10.5986
▁clinica	-10.5987
▁coperchio	-10.5991
:05	-10.5991
73)	-10.5993
▁mode	-10.5994
▁comunicazioni	-10.5997
▁avvia	-10.5999
▁core	-10.6
mate	-10.6001
/11	-10.6002
58)	-10.6002
▁adolescenti	-10.6004
▁lun	-10.6012
old	-10.6013
▁mappe	-10.6017
batt	-10.6018
▁segna	-10.6019
meri	-10.6022
▁generi	-10.6024
▁navetta	-10.6026
к	-10.6029
▁cast	-10.6031
serie	-10.6033
▁look	-10.6033
▁zen	-10.6036
mino	-10.6039
▁forti	-10.6045
14)	-10.6045
▁cabina	-10.6047
▁school	-10.6049
▁nere	-10.605
angolo	-10.6051
▁sof	-10.6051
2.5	-10.6051
108	-10.6054
103	-10.6055
▁kn	-10.6056
xx	-10.6056
▁coin	-10.6059
▁cattura	-10.6062
nomi	-10.6063
▁brescia	-10.6065
▁str	-10.6065
▁determina	-10.6067
pad	-10.6069
▁scan	-10.607
▁ospitato	-10.6073
▁conosci	-10.6073
▁gardena	-10.6074
15)	-10.6076
▁tempio	-10.608
▁costruzioni	-10.6084
▁panorama	-10.6084
▁ispezione	-10.6084
nesi	-10.6085
▁spia	-10.609
▁illumina	-10.6092
▁parlare	-10.6099
:03	-10.6102
▁scarpa	-10.6103
19)	-10.6104
▁quadrati	-10.6104
▁bmw	-10.6104
▁guardia	-10.6106
▁madonna	-10.6109
▁xp	-10.6115
▁fontana	-10.6116
▁riccione	-10.6125
▁bul	-10.6127
▁quar	-10.6128
iscono	-10.6129
▁musicali	-10.6129
netti	-10.6134
▁sms	-10.6135
▁sedi	-10.6137
:02	-10.6139
▁architetto	-10.6142
▁combinazione	-10.6143
▁dà	-10.6145
▁adotta	-10.6146
vac	-10.6146
▁ebbe	-10.6147
7%	-10.6147
▁à	-10.6152
▁fiducia	-10.6154
▁motel	-10.6156
ç	-10.6164
▁shenzhen	-10.6164
▁museum	-10.6165
60)	-10.6168
kov	-10.617
▁bl	-10.6171
79)	-10.6171
▁gallerie	-10.6174
▁linux	-10.6174
▁temperature	-10.6175
riche	-10.6175
▁ballo	-10.6184
▁190	-10.6191
▁1998	-10.6193
▁compreso	-10.6194
dino	-10.6197
▁farm	-10.62
▁gem	-10.6204
▁magneti	-10.6204
▁casting	-10.6204
▁zaino	-10.6209
▁bimbo	-10.6211
prodotti	-10.6212
▁osserva	-10.6213
dine	-10.6213
▁fantasia	-10.6215
▁omega	-10.6215
▁pic	-10.6217
▁termina	-10.6218
▁head	-10.6222
▁fabio	-10.6224
▁proprie	-10.6224
monte	-10.6224
▁segno	-10.6224
lazione	-10.6224
▁raggio	-10.6229
▁rapidamente	-10.6233
▁relativi	-10.6235
▁sportivi	-10.6235
▁aparthotel	-10.6237
▁edifici	-10.624
lega	-10.6244
ndra	-10.6245
▁france	-10.6246
▁boot	-10.6247
▁esclusiva	-10.6251
▁brown	-10.6256
▁peter	-10.6256
▁pilota	-10.6256
▁pericolo	-10.6257
gano	-10.6259
▁canta	-10.6264
▁cambiamento	-10.6265
24)	-10.6266
▁romana	-10.6271
▁supporti	-10.6273
▁millimetro	-10.6273
sur	-10.6274
▁permanente	-10.6276
▁outdoor	-10.6276
ez	-10.6277
▁trucco	-10.6278
▁ospita	-10.6279
▁ceco	-10.6282
▁indice	-10.6283
▁lineare	-10.6285
:18	-10.6285
74)	-10.6286
▁siffredi	-10.6286
▁tipici	-10.6287
▁orientale	-10.6288
-2017	-10.6291
6,00	-10.6293
str	-10.6294
▁ital	-10.6295
▁confronto	-10.6296
▁semplicemente	-10.6297
anima	-10.6298
▁raff	-10.6301
▁gelato	-10.6305
▁sapore	-10.6308
▁scale	-10.6309
▁soste	-10.6316
vert	-10.6316
å	-10.6317
news	-10.6318
16)	-10.632
hl	-10.6321
▁anime	-10.6321
iii	-10.6325
▁chiamate	-10.6328
evo	-10.633
▁vr	-10.633
▁cava	-10.633
boli	-10.633
▁booking	-10.6333
▁vesti	-10.6333
▁vota	-10.6336
iso	-10.6336
▁portoghese	-10.6337
▁cuscino	-10.6337
▁ombre	-10.6338
▁promozionale	-10.6338
▁93	-10.6341
▁paesaggio	-10.6345
▁faccio	-10.635
▁fermata	-10.6353
▁animale	-10.6355
▁tripla	-10.6358
▁familiare	-10.6358
▁sab	-10.6359
▁brunette	-10.636
▁liquidi	-10.636
cert	-10.636
▁facendo	-10.6361
▁cercare	-10.6362
none	-10.6363
▁rolex	-10.6368
:55	-10.6373
▁europe	-10.6373
acce	-10.6375
▁gmbh	-10.6378
▁390	-10.6379
▁rotazione	-10.638
mati	-10.6382
dimension	-10.6382
/18	-10.6386
▁segnali	-10.6386
▁calo	-10.6387
▁errori	-10.6389
▁sportive	-10.6399
▁vieni	-10.64
▁pomodoro	-10.6409
:12	-10.6415
▁netto	-10.6418
fina	-10.6418
▁stabilità	-10.6419
▁get	-10.6422
▁belgio	-10.6424
alimentazione	-10.6425
▁reso	-10.6426
phi	-10.6426
▁loc	-10.6427
124	-10.6427
▁salvare	-10.6429
nn	-10.6429
▁valentina	-10.643
attiva	-10.6432
▁kr	-10.6435
▁rit	-10.6437
you	-10.644
▁statunitense	-10.644
▁fit	-10.6442
▁biologico	-10.6443
atto	-10.6446
▁ban	-10.6448
▁db	-10.6449
▁cent	-10.6449
▁baci	-10.645
▁4.0	-10.645
▁rilascio	-10.6451
▁luminosa	-10.6451
pha	-10.6453
▁casale	-10.6458
num	-10.6459
▁lama	-10.6459
3.00	-10.6463
usi	-10.6464
8.00	-10.6464
▁side	-10.6466
ã	-10.6466
unione	-10.6469
▁naviga	-10.6471
terapia	-10.6471
▁striscia	-10.6472
fond	-10.6477
ffo	-10.6479
▁years	-10.648
▁5000	-10.648
grafica	-10.648
▁apre	-10.648
prese	-10.6481
▁lotta	-10.6484
▁urban	-10.649
66)	-10.6492
380	-10.6492
crea	-10.6492
album	-10.6493
▁curva	-10.6499
▁abbia	-10.65
right	-10.6501
chino	-10.6501
▁trasferi	-10.6502
▁economica	-10.6503
▁model	-10.6504
▁giri	-10.6505
▁corea	-10.6508
▁0.5	-10.6513
▁sesternica	-10.6513
▁rooms	-10.6515
▁dieci	-10.6515
spira	-10.6518
▁attacca	-10.6518
iere	-10.6521
int	-10.6521
sini	-10.6521
95)	-10.6523
▁operatori	-10.6527
▁aperte	-10.6527
▁quad	-10.6528
13)	-10.6531
▁azzurro	-10.6534
▁lucia	-10.6535
sin	-10.6536
zen	-10.6538
aldo	-10.6546
▁fotografie	-10.6546
▁voto	-10.655
-21	-10.6551
030	-10.6552
▁phone	-10.6555
▁amateur	-10.6555
▁maestro	-10.6555
▁mala	-10.6556
▁fro	-10.6556
▁filippiner	-10.6557
▁sogni	-10.656
▁rifiuti	-10.6566
sperma	-10.6567
▁cartoni	-10.6568
▁nulla	-10.6569
scher	-10.6572
▁citta	-10.6572
▁bambola	-10.6576
▁broker	-10.6578
▁segretaria	-10.6578
▁studios	-10.6578
▁vasta	-10.6582
▁ts	-10.6582
▁filosofia	-10.6582
innovazione	-10.6586
log	-10.6588
tini	-10.659
trans	-10.659
▁turbo	-10.6591
▁accordo	-10.6592
cht	-10.6593
▁bancario	-10.6593
▁(22	-10.6595
▁matrimoni	-10.6596
chat	-10.6603
cello	-10.6605
leggi	-10.6607
▁luminoso	-10.6608
▁ricamo	-10.6609
▁alberto	-10.6609
▁nor	-10.6613
inglese	-10.6614
enne	-10.6614
ist	-10.6617
llini	-10.6617
ologica	-10.6619
▁cima	-10.6624
80)	-10.6628
und	-10.6629
▁essi	-10.663
nati	-10.663
▁trentino	-10.6633
▁dicono	-10.6633
tek	-10.6635
▁(12)	-10.6638
zzatore	-10.6641
89)	-10.6641
▁provare	-10.6642
▁fattura	-10.6642
▁320	-10.6643
▁fresca	-10.6643
:25	-10.6646
▁prego	-10.6649
▁sostenibile	-10.665
▁pavimenti	-10.665
▁scambio	-10.6655
az	-10.6661
68)	-10.6664
ugh	-10.6665
ish	-10.6665
▁amazon	-10.6666
▁hol	-10.6669
▁series	-10.6671
▁sh	-10.6671
▁illustra	-10.6672
▁patch	-10.6673
▁cul	-10.6673
▁your	-10.6674
77)	-10.6675
78)	-10.6676
icona	-10.6678
▁flessibili	-10.668
▁cuci	-10.668
▁rotonda	-10.6682
▁coperto	-10.6683
▁agenti	-10.6685
aggi	-10.6686
▁italie	-10.6687
rle	-10.6687
▁china	-10.6688
▁von	-10.6691
▁304	-10.6692
yn	-10.6698
▁wh	-10.6698
modell	-10.6698
messo	-10.6699
▁romano	-10.67
▁positano	-10.6703
▁telecamera	-10.6704
▁serratura	-10.6709
▁ricca	-10.671
▁cattedrale	-10.6714
▁stampi	-10.6715
▁crede	-10.6715
▁integrata	-10.6718
ami	-10.6719
▁aroma	-10.6726
▁lecce	-10.6731
▁saremo	-10.6735
giorno	-10.6738
count	-10.6738
98)	-10.6739
▁reserved	-10.6741
gus	-10.6742
▁automatici	-10.6742
▁1.1	-10.6742
▁torta	-10.6745
▁tester	-10.6746
▁edition	-10.675
84)	-10.6753
▁market	-10.6754
128	-10.6755
▁illimitato	-10.6757
▁romeo	-10.6757
▁target	-10.6757
bet	-10.6762
▁101	-10.6763
▁rio	-10.6763
▁prevenzione	-10.6767
▁invernale	-10.6767
▁racing	-10.6768
gate	-10.6768
▁rights	-10.6768
▁grassi	-10.6769
▁550	-10.6769
▁ball	-10.677
:04	-10.6771
▁115	-10.6776
▁danneggia	-10.6778
▁zh	-10.6778
▁occasione	-10.6779
1%	-10.6781
▁bai	-10.6785
23)	-10.6793
game	-10.6793
▁necessari	-10.6798
▁jordan	-10.68
▁dollari	-10.68
▁appare	-10.6801
los	-10.6805
▁pelo	-10.681
▁esclusa	-10.6811
▁limitata	-10.6814
▁prov	-10.6815
6%	-10.6819
01)	-10.682
▁esperto	-10.6822
▁costumi	-10.6822
▁cf	-10.6822
▁scr	-10.6823
▁gabbia	-10.6823
ram	-10.6825
87)	-10.6825
▁pianificazione	-10.6828
▁bis	-10.6828
▁vaso	-10.6829
75)	-10.6831
▁bud	-10.6838
▁monete	-10.6844
▁bdsm	-10.6851
▁jazz	-10.6852
▁eventuali	-10.6854
▁confortevole	-10.6854
▁esporta	-10.6856
bin	-10.6857
▁rimane	-10.6863
▁quarzo	-10.6866
94)	-10.6867
▁arena	-10.6868
zzate	-10.6868
▁colorato	-10.6871
▁belli	-10.6873
▁recuperare	-10.6874
▁javascript	-10.6875
▁330	-10.6879
▁modena	-10.6886
▁fl	-10.6886
▁requisito	-10.6886
86)	-10.6887
▁veri	-10.6888
associazione	-10.6889
▁mobilia	-10.689
21)	-10.6891
▁gla	-10.6892
00)	-10.6894
▁destinazioni	-10.6897
▁watt	-10.6898
▁erba	-10.6901
/11/20	-10.6901
▁agente	-10.6901
▁annuali	-10.6903
▁panno	-10.6904
▁here	-10.6907
▁ah	-10.6908
▁qualunque	-10.6908
▁capodanno	-10.6908
▁alghero	-10.6908
▁trapani	-10.6908
:06	-10.6916
▁4)	-10.6917
▁08:00	-10.6917
▁ricezione	-10.6919
▁compressione	-10.692
▁classificati	-10.692
▁fel	-10.6926
▁femmina	-10.693
▁costruito	-10.693
▁passaggi	-10.6931
▁lancio	-10.6931
park	-10.6935
bul	-10.6936
▁pian	-10.694
▁sostenibilità	-10.694
▁svolge	-10.6941
▁simile	-10.6942
▁bruna	-10.6945
▁pubblicazioni	-10.6952
▁aggiunta	-10.6953
▁fc	-10.6954
▁tab	-10.6954
stor	-10.6956
tting	-10.6957
1.00	-10.696
-60	-10.6961
▁james	-10.6961
0,000	-10.6967
rose	-10.6971
▁animazione	-10.6972
▁asciuga	-10.6974
7.5	-10.6976
orologio	-10.6977
▁0,5	-10.6978
lette	-10.6979
▁superior	-10.6982
▁propone	-10.6984
▁professionista	-10.6985
arti	-10.6986
▁tecno	-10.6989
▁automazione	-10.6991
22)	-10.6992
cell	-10.6993
lite	-10.6995
▁hong	-10.6995
▁usi	-10.6999
▁socio	-10.7002
:50	-10.7003
foto	-10.7004
▁forniti	-10.7008
▁possa	-10.701
/05/20	-10.701
▁astm	-10.7016
site	-10.7017
▁15%	-10.7023
▁sullo	-10.7025
▁raccomanda	-10.7026
▁soggiorni	-10.7028
▁apparecchiature	-10.7028
▁mescola	-10.7032
▁agricoltura	-10.7034
▁5%	-10.7034
sano	-10.7038
▁guarnizione	-10.7039
▁limiti	-10.704
ob	-10.704
acco	-10.7043
92)	-10.7045
uge	-10.7045
▁verificare	-10.7045
▁dream	-10.7045
▁cene	-10.7048
10)	-10.705
▁conferenze	-10.705
▁follando	-10.7052
▁ave	-10.7055
▁michel	-10.7056
▁barriera	-10.7061
▁valentino	-10.7062
ose	-10.7071
nco	-10.7072
▁ricco	-10.7074
:57	-10.7076
▁≥	-10.7077
strutt	-10.7077
▁rc	-10.7078
▁respira	-10.7079
▁lake	-10.708
▁cosmetici	-10.7083
tour	-10.709
▁ricicla	-10.709
▁(20)	-10.709
grafia	-10.7093
▁energetica	-10.7094
▁portogallo	-10.7094
69)	-10.7095
▁cause	-10.7097
té	-10.7097
intera	-10.7098
hol	-10.7101
▁complessi	-10.7102
90)	-10.7102
▁impatto	-10.7103
point	-10.7104
▁compresse	-10.7106
▁comitato	-10.7106
▁liberi	-10.7106
▁maturo	-10.7106
▁sacchetti	-10.7108
▁caffe	-10.7108
bby	-10.7113
▁wp	-10.7113
▁glass	-10.7114
▁venduto	-10.7117
▁modelle	-10.7117
rosso	-10.7121
▁prendi	-10.7125
82)	-10.7126
▁ripeti	-10.7128
76)	-10.713
sivo	-10.7131
erie	-10.7135
gola	-10.7138
▁18:00	-10.7141
▁stradale	-10.7141
▁single	-10.7142
▁10.00	-10.7143
▁1.6	-10.7144
▁redazione	-10.7144
170	-10.7145
▁agri	-10.7149
mic	-10.7151
▁qua	-10.7151
▁bank	-10.7152
▁carri	-10.7152
▁intra	-10.7153
▁luc	-10.7154
gramma	-10.7161
▁corrosione	-10.7161
▁4+	-10.7162
list	-10.7165
emme	-10.7168
hy	-10.7168
▁magic	-10.717
▁ottenuto	-10.7172
▁competenze	-10.7173
▁consigliati	-10.7173
▁lettere	-10.7176
106	-10.7177
▁..	-10.7178
▁allenamento	-10.7179
eco	-10.7182
eg	-10.7183
▁troverete	-10.7183
▁asciugamani	-10.7184
▁molle	-10.7184
▁fia	-10.7184
▁ucraina	-10.7189
▁sl	-10.7189
▁finanziari	-10.7191
▁impostare	-10.7193
▁meccanico	-10.7195
▁sposta	-10.7195
2.00	-10.72
ssione	-10.72
▁vision	-10.7207
ede	-10.7207
▁cassetta	-10.7209
▁call	-10.7216
rei	-10.7216
tional	-10.722
▁dog	-10.7221
▁den	-10.7224
▁niente	-10.7226
:14	-10.7228
▁erotico	-10.7229
milano	-10.723
▁rivela	-10.7231
▁arche	-10.7232
▁corti	-10.7237
▁leva	-10.7238
grafiche	-10.7238
▁investimento	-10.7239
▁anticipo	-10.724
▁specifico	-10.724
30)	-10.7244
stein	-10.725
chie	-10.7251
▁blonde	-10.7252
:07	-10.7253
▁pratiche	-10.7253
kk	-10.7255
netto	-10.726
gl	-10.7261
▁frontale	-10.7264
▁miglioramento	-10.7265
▁spoglia	-10.7266
▁fort	-10.7275
uno	-10.7275
▁elabora	-10.7276
:11	-10.7279
build	-10.728
▁spezia	-10.728
della	-10.7281
veri	-10.7282
▁cataloghi	-10.7285
mari	-10.7285
▁culturali	-10.7288
▁variabile	-10.7289
organizzazione	-10.7292
▁front	-10.7293
▁marito	-10.7294
▁transvestiti	-10.7296
zone	-10.7297
▁giornaliero	-10.7297
▁bale	-10.73
▁fibre	-10.7303
/100	-10.7304
▁txxx	-10.7304
▁dieta	-10.7308
▁allogger	-10.7309
bon	-10.7311
sign	-10.7313
colari	-10.7316
88)	-10.7317
kar	-10.7319
ong	-10.7323
▁artificiale	-10.733
▁spagnola	-10.733
240	-10.733
▁lamiera	-10.7331
carica	-10.7331
chen	-10.7334
▁remoto	-10.7334
tua	-10.7336
▁lucido	-10.7338
▁dora	-10.7346
logiche	-10.7346
zhou	-10.7349
▁nonna	-10.7349
kh	-10.735
ivo	-10.7351
:17	-10.7351
venti	-10.7352
▁rilassa	-10.7354
▁muffa	-10.7356
▁(19)	-10.7363
▁rivenditori	-10.7364
▁esclusivi	-10.7364
▁trasferimenti	-10.7366
:21	-10.7367
▁steel	-10.7367
terna	-10.7369
▁dato	-10.737
▁corretto	-10.7371
apertura	-10.7372
/2015	-10.7372
over	-10.7372
▁arredamento	-10.7375
▁petro	-10.7379
▁lunghe	-10.7384
▁ang	-10.7385
▁precedenti	-10.7387
▁situazione	-10.7387
▁dotazioni	-10.7387
▁chicago	-10.7388
▁faro	-10.7388
▁nomina	-10.7388
alba	-10.7389
▁products	-10.7389
▁brucia	-10.7394
▁portafoglio	-10.7398
▁risolvere	-10.7398
posta	-10.74
▁feb	-10.7402
▁numerosi	-10.7404
▁golden	-10.7405
▁proprietario	-10.7409
▁realizzati	-10.741
vino	-10.741
83)	-10.7411
▁tali	-10.7414
bbia	-10.7415
▁terminale	-10.7416
▁geni	-10.7417
▁fosse	-10.7423
▁trento	-10.7425
▁maison	-10.7425
▁kor	-10.7427
▁queen	-10.7428
▁swiss	-10.743
▁finito	-10.743
▁tappa	-10.7431
▁edificio	-10.7431
vera	-10.7432
curi	-10.7433
▁tasti	-10.7434
ggeri	-10.7434
▁tracce	-10.7436
▁meri	-10.7438
▁attra	-10.7439
▁cart	-10.7439
gsm	-10.744
▁motivo	-10.7444
fen	-10.7444
▁chef	-10.7446
▁vetrina	-10.7446
core	-10.7446
▁lugano	-10.7447
sito	-10.7447
▁lesbian	-10.7448
-50	-10.7449
▁angel	-10.7453
▁ristruttura	-10.7453
34)	-10.7453
▁ct	-10.7461
▁adrian	-10.7464
97)	-10.7465
mara	-10.7465
▁vor	-10.7467
mbe	-10.7468
▁signora	-10.7469
▁aspettiamo	-10.747
matica	-10.7471
▁chimici	-10.7475
vari	-10.7478
▁libreria	-10.7478
▁soggetti	-10.7478
▁gola	-10.7479
▁select	-10.7482
:56	-10.7482
cento	-10.7483
70)	-10.7488
▁regionale	-10.749
mac	-10.7491
▁acqui	-10.7492
▁dotato	-10.7494
poste	-10.7497
orario	-10.7498
▁interruttore	-10.7498
▁gesù	-10.7502
26)	-10.7504
▁gente	-10.7507
▁smd	-10.7507
▁ordinare	-10.7509
▁point	-10.751
har	-10.751
111	-10.7511
ë	-10.7513
▁ovunque	-10.7513
▁anteprima	-10.7513
pola	-10.7515
dos	-10.7517
tale	-10.7519
ο	-10.7524
▁salvatore	-10.7525
▁piacevole	-10.7527
cati	-10.7527
▁usate	-10.753
▁(21	-10.7533
▁chimico	-10.7533
▁html	-10.7535
rome	-10.7535
▁investimenti	-10.7536
▁add	-10.7538
▁comunicato	-10.7538
▁elena	-10.7541
9]	-10.7546
▁seduç	-10.7548
▁seguici	-10.7552
▁tardi	-10.7555
р	-10.7555
▁jean	-10.7557
▁autonoleggio	-10.7559
▁automatizza	-10.7559
9%	-10.7562
:08	-10.7569
▁sperimenta	-10.7571
▁configura	-10.7578
▁canton	-10.7581
▁abbastanza	-10.7583
para	-10.7584
iche	-10.7584
▁purezza	-10.7587
bian	-10.759
bz	-10.759
▁bang	-10.7592
▁stan	-10.7592
μ	-10.7593
▁bot	-10.7593
▁umbria	-10.7594
▁william	-10.7594
▁cinghia	-10.7594
▁gancio	-10.7595
▁flex	-10.7598
▁obbligatori	-10.7605
▁tradizionali	-10.7606
▁uniforme	-10.7606
dar	-10.7608
-100	-10.7608
▁entrata	-10.7611
▁bruno	-10.7612
▁gioia	-10.7613
27)	-10.7613
▁entrare	-10.7614
▁camper	-10.7614
▁centre	-10.7616
93)	-10.7619
32)	-10.7619
▁chiese	-10.7619
▁stampo	-10.7622
▁rep	-10.7622
▁review	-10.7627
albergo	-10.7628
▁gh	-10.7635
▁interamente	-10.7636
▁$2	-10.7636
▁pay	-10.7638
▁poly	-10.7639
occhiata	-10.7639
▁editor	-10.7641
ê	-10.7641
▁iscrizioni	-10.7641
▁circo	-10.7644
dice	-10.7644
▁body	-10.7647
▁12:00	-10.7651
▁comunque	-10.7653
▁traduzioni	-10.7653
▁memorizza	-10.7653
▁powered	-10.7653
▁spot	-10.7653
▁colonne	-10.7654
hof	-10.7654
▁(24	-10.766
yu	-10.7665
sola	-10.7666
▁dilettante	-10.767
▁banche	-10.7671
<	-10.7671
▁orgia	-10.7673
▁dublino	-10.7676
print	-10.7677
▁fall	-10.7678
free	-10.7678
uale	-10.7683
▁(18)	-10.7683
▁oh	-10.7685
▁mostrare	-10.7686
▁berlin	-10.7687
:13	-10.7687
▁enrico	-10.7691
fun	-10.7694
bina	-10.7697
135	-10.7697
interessato	-10.7699
etichetta	-10.7699
▁gin	-10.7699
▁fodera	-10.77
base	-10.7702
ossido	-10.7702
▁certi	-10.7703
▁iniziato	-10.7704
2012	-10.7707
▁composito	-10.7712
albero	-10.7713
▁►	-10.7714
▁spring	-10.7715
▁pira	-10.7717
11)	-10.772
02)	-10.7721
matic	-10.7722
▁soc	-10.7722
▁sho	-10.7723
▁difficoltà	-10.7723
▁accelera	-10.7723
▁condivisione	-10.7724
glo	-10.7726
▁risparmi	-10.7726
▁indicato	-10.7727
▁apparecchi	-10.773
▁ant	-10.7732
vista	-10.7732
▁limita	-10.7733
▁kong	-10.7734
▁ottiene	-10.7735
oz	-10.7736
81)	-10.774
▁invio	-10.7746
▁zurigo	-10.7747
▁university	-10.7747
03)	-10.7749
▁certo	-10.7749
▁correttamente	-10.7749
pos	-10.775
▁goji	-10.7752
▁caricatore	-10.7753
mul	-10.7755
:22	-10.7758
▁gallo	-10.7761
▁godere	-10.7761
▁hel	-10.7762
▁installato	-10.7765
▁pneumatico	-10.7771
▁promozionali	-10.7771
▁316	-10.7771
▁fratelli	-10.7774
▁der	-10.7778
▁tasche	-10.7778
▁rgb	-10.7779
▁cintura	-10.7783
▁silenzio	-10.7785
▁pronti	-10.7789
/7	-10.7789
bur	-10.7792
▁momenti	-10.7793
99)	-10.7796
▁situati	-10.7797
▁verità	-10.78
:09	-10.7802
▁chan	-10.7803
▁aspetti	-10.7803
▁mosaico	-10.7803
▁class	-10.7806
▁elenca	-10.781
▁davide	-10.7812
▁decor	-10.7813
▁(21)	-10.7818
gare	-10.782
ies	-10.782
▁paper	-10.782
gari	-10.7823
▁tappeti	-10.7823
▁canna	-10.7824
ltd	-10.7825
▁place	-10.7825
91)	-10.7831
▁identifica	-10.7831
sana	-10.7832
▁insegna	-10.7838
25)	-10.7841
")	-10.7841
:37	-10.7841
ρ	-10.7842
▁industrie	-10.7842
▁ligure	-10.7842
▁escursione	-10.7842
vy	-10.7843
▁vicenza	-10.7845
▁pollo	-10.7847
▁sofia	-10.785
20)	-10.7852
▁voyeur	-10.7854
▁profitto	-10.7854
▁lady	-10.7857
▁posizionamento	-10.7857
▁4000	-10.7859
▁cicli	-10.7863
▁domini	-10.7863
▁sportiva	-10.7865
▁bacca	-10.7868
(4	-10.7869
▁weekend	-10.787
▁armi	-10.7871
prima	-10.7873
126	-10.7874
venu	-10.7875
▁garantito	-10.7878
▁wild	-10.7878
▁cammina	-10.7883
anche	-10.7884
33)	-10.7887
▁grammi	-10.7889
▁offri	-10.7889
▁esterne	-10.7891
analisi	-10.7891
▁vat	-10.7895
▁macina	-10.7901
▁giacche	-10.7902
▁650	-10.7903
gran	-10.7903
▁stessi	-10.7904
▁patate	-10.7908
▁calza	-10.7908
▁135	-10.7913
kit	-10.7914
▁mur	-10.7915
uovo	-10.7915
▁pura	-10.7919
210	-10.7921
5.000	-10.7923
ington	-10.7925
▁idromassaggio	-10.7926
▁proviene	-10.7926
750	-10.7927
▁united	-10.7928
▁preso	-10.793
▁macchinari	-10.7931
ssime	-10.7931
nb	-10.7933
▁nazioni	-10.7936
▁piscine	-10.7938
tum	-10.7939
masturba	-10.794
230	-10.7942
:58	-10.7946
retta	-10.7947
▁propor	-10.795
▁succede	-10.795
▁pig	-10.795
▁successivamente	-10.7954
blu	-10.7954
▁affitti	-10.7955
:40	-10.7961
▁calabria	-10.7962
▁bandiera	-10.7963
interfaccia	-10.7964
▁eu	-10.7967
▁games	-10.7974
▁sfondo	-10.7974
85)	-10.798
▁salta	-10.7982
▁finlandese	-10.7986
▁criteri	-10.7987
▁passare	-10.799
:23	-10.7995
▁siano	-10.7996
▁ambito	-10.7996
▁torcia	-10.7997
▁interessa	-10.7997
▁daniele	-10.7998
▁tedesca	-10.7998
▁lunedi	-10.7998
ieri	-10.7999
▁diploma	-10.7999
▁riusci	-10.7999
▁mediante	-10.8
▁cappello	-10.8001
09)	-10.8002
▁rendimento	-10.8002
▁indiana	-10.8006
▁scoprite	-10.8006
06)	-10.8007
presso	-10.8009
▁olandese	-10.801
▁casco	-10.8012
:26	-10.8015
▁federazione	-10.8016
▁rigenera	-10.8016
▁fitte	-10.8019
▁infine	-10.8021
▁imballa	-10.8021
:43	-10.8022
fila	-10.8023
▁incinta	-10.8023
▁nick	-10.8024
▁vetri	-10.8027
▁formaggi	-10.803
▁organizzare	-10.803
▁chiamato	-10.8031
liquid	-10.8031
▁(+	-10.8032
sun	-10.8032
▁coltiva	-10.8033
▁pelli	-10.8036
▁fondata	-10.8038
▁dallo	-10.8039
:51	-10.804
▁movie	-10.8042
▁thi	-10.8046
▁ricaricabile	-10.8053
▁organizzato	-10.8054
tario	-10.8055
▁atleti	-10.8056
▁leone	-10.8056
▁gravi	-10.8058
▁giusta	-10.8058
plus	-10.8058
▁spettacoli	-10.8059
▁lingerie	-10.8059
flex	-10.806
▁[3	-10.8061
▁eliminare	-10.8062
▁individua	-10.8063
▁blanc	-10.8071
ō	-10.8071
▁piste	-10.8072
tana	-10.8076
án	-10.8076
▁chiedi	-10.8078
▁funghi	-10.8079
bianco	-10.8079
▁honda	-10.8079
▁zan	-10.808
▁hill	-10.8081
▁seo	-10.8084
▁santi	-10.8085
:31	-10.8086
08)	-10.8086
:28	-10.8087
35)	-10.8088
▁under	-10.8089
pg	-10.8091
new	-10.8092
▁antenna	-10.8092
▁cris	-10.8094
▁infermiera	-10.8096
▁marrakesh	-10.8096
▁packaging	-10.8096
▁pernottamento	-10.8096
▁rigido	-10.8096
▁credits	-10.8096
7,00	-10.8098
▁denta	-10.8098
cavo	-10.8099
ibili	-10.8102
▁128	-10.8103
▁riempimento	-10.8103
▁residenziale	-10.8108
▁chitarra	-10.8108
▁fuck	-10.8113
▁plaza	-10.8114
▁miami	-10.8114
▁archives	-10.8114
+1	-10.8115
:53	-10.8116
96)	-10.8117
▁fair	-10.8118
▁(25	-10.8119
▁vegan	-10.8119
/16	-10.8119
▁bug	-10.812
▁impresa	-10.8122
impianto	-10.8124
▁polonia	-10.8125
cida	-10.8126
iz	-10.8128
▁diverso	-10.8128
▁turin	-10.8128
▁stri	-10.8129
▁canzoni	-10.8133
▁antichi	-10.8133
▁pulire	-10.8134
usura	-10.8137
ntini	-10.8137
bert	-10.8138
▁central	-10.8139
▁ottimizzazione	-10.814
▁affidabilità	-10.8141
ā	-10.8145
▁paziente	-10.8145
▁indossa	-10.8145
▁gets	-10.8148
▁oasi	-10.8149
▁usufruire	-10.8149
cloud	-10.815
▁utilizzata	-10.815
▁operativa	-10.8151
▁produce	-10.8156
wear	-10.8156
▁pensi	-10.8156
▁ascolta	-10.8157
485	-10.8157
▁passeggeri	-10.8157
▁biscotti	-10.8157
▁mensili	-10.8157
▁flessibilità	-10.816
с	-10.8161
pio	-10.8163
129	-10.8164
28)	-10.8167
▁short	-10.8172
▁immediatamente	-10.8172
0.1	-10.8173
ound	-10.8174
vini	-10.8175
▁um	-10.8181
▁indirizzi	-10.8182
▁caterina	-10.8182
▁arrivi	-10.8182
▁ciclismo	-10.8183
▁virus	-10.8187
stina	-10.8189
▁però	-10.819
▁marmi	-10.8191
urs	-10.8191
▁vinto	-10.8193
▁offerto	-10.8195
▁coda	-10.8197
▁coreano	-10.8198
tempo	-10.8199
▁muscolo	-10.82
sens	-10.8201
fort	-10.8203
▁poltrona	-10.8207
▁svezia	-10.8207
stampa	-10.8208
▁lezione	-10.8212
▁pesante	-10.8213
:29	-10.8213
occhio	-10.8215
1,00	-10.8215
▁volontari	-10.8219
▁dotata	-10.822
lic	-10.8223
29)	-10.8225
▁voci	-10.8236
▁prato	-10.8236
▁interne	-10.8237
▁collant	-10.8238
:54	-10.8239
-23	-10.8242
▁splendida	-10.8244
▁preferito	-10.8244
▁opaco	-10.8244
▁concetto	-10.8245
▁davanti	-10.8245
▁fumo	-10.8248
▁alimentatore	-10.8248
▁trazione	-10.8249
piano	-10.825
▁vicina	-10.8253
▁protegge	-10.8255
▁cappelli	-10.8257
▁land	-10.8258
▁casella	-10.8262
▁sorgente	-10.8262
▁fred	-10.8266
▁anton	-10.8268
▁boy	-10.8269
▁specifici	-10.8269
▁stima	-10.827
▁storica	-10.8271
:35	-10.8271
▁pacco	-10.8272
goni	-10.8273
esse	-10.8275
▁dischi	-10.8278
sil	-10.8278
▁artigianale	-10.8281
graf	-10.8282
5.5	-10.8282
▁applicare	-10.8286
▁town	-10.8286
flow	-10.8288
▁fori	-10.829
▁sicuri	-10.829
▁raso	-10.8293
▁profondo	-10.8294
▁cellule	-10.8294
▁slim	-10.8296
altezza	-10.8299
cur	-10.8302
▁scultura	-10.8305
▁fonde	-10.8305
▁aug	-10.8305
▁minori	-10.8306
▁bell	-10.8307
▁viaggiare	-10.8312
▁gamba	-10.8312
studio	-10.8314
pel	-10.8316
▁rispetta	-10.8319
pur	-10.832
▁self	-10.8322
▁aperti	-10.8325
▁sistemazione	-10.8328
▁rivenditore	-10.8331
▁silvia	-10.8332
▁about	-10.8334
▁segni	-10.8334
▁homepage	-10.8337
▁vicini	-10.8341
▁visit	-10.8342
ι	-10.8344
▁produrre	-10.8345
lgs	-10.8345
▁cornice	-10.8346
▁sviluppato	-10.8349
31)	-10.835
▁catalano	-10.8356
▁trasformazione	-10.8359
sonalizzazione	-10.8362
▁avanzato	-10.8363
▁tacchi	-10.8368
▁sep	-10.8369
▁vende	-10.8372
:32	-10.8372
▁bau	-10.8375
▁tp	-10.8376
rici	-10.8377
▁laboratori	-10.838
▁uova	-10.8382
fone	-10.839
▁chirurgia	-10.8394
▁shampoo	-10.8394
▁bikini	-10.8394
▁onorario	-10.8396
group	-10.8403
▁corri	-10.8406
▁yamaha	-10.8407
▁scrivici	-10.8407
▁potrai	-10.8408
▁ufficiali	-10.8411
-40	-10.8414
0.2	-10.8415
▁relativa	-10.8416
▁magnetico	-10.8417
bbio	-10.842
▁correlati	-10.842
360	-10.8421
intero	-10.8424
▁pod	-10.8424
:34	-10.8426
▁classi	-10.8428
▁altamente	-10.8428
▁1996	-10.8431
▁castelli	-10.8433
▁fish	-10.8434
clo	-10.8435
▁bill	-10.8435
▁old	-10.8445
email	-10.845
▁client	-10.845
vali	-10.8451
world	-10.8452
pressione	-10.8454
enna	-10.8454
*1	-10.8455
▁puzzle	-10.8457
▁nascosta	-10.8457
▁progressi	-10.8458
▁volete	-10.8458
▁ring	-10.8458
vv	-10.846
▁pom	-10.8462
▁moneta	-10.8463
▁colline	-10.8469
▁procedure	-10.847
▁whatsapp	-10.847
▁brillante	-10.847
▁adulto	-10.847
▁intenso	-10.8471
▁bellissima	-10.8471
▁part	-10.8472
▁usata	-10.8472
-2020	-10.8473
450	-10.8477
volu	-10.8479
▁guidata	-10.8483
▁(14)	-10.8484
▁]	-10.849
▁stretto	-10.849
280	-10.8491
izzazione	-10.8493
fred	-10.8494
50)	-10.8497
mania	-10.8498
07)	-10.8498
▁stiamo	-10.8498
▁spalla	-10.8499
love	-10.8508
▁comments	-10.8511
▁grill	-10.8514
05)	-10.8516
▁golfo	-10.8519
▁1997	-10.852
▁molla	-10.8521
▁padiglione	-10.8521
:46	-10.8522
ctive	-10.8523
▁cesare	-10.8523
▁mora	-10.8525
003	-10.8527
▁lotto	-10.8527
rebbe	-10.8529
▁assist	-10.8532
▁scrittura	-10.8534
▁telefona	-10.8534
▁threesome	-10.8534
▁award	-10.8537
cari	-10.8539
▁ripara	-10.8544
▁associati	-10.8545
4%	-10.8549
▁coltello	-10.8549
▁dolo	-10.855
3,00	-10.8553
▁mona	-10.8553
matico	-10.8556
▁nichel	-10.8556
205	-10.8558
▁forze	-10.8558
▁list	-10.8561
▁verranno	-10.8564
▁necessaria	-10.8565
▁immobile	-10.8566
ela	-10.8572
▁escluse	-10.8573
▁recupera	-10.8573
▁cabine	-10.8575
▁bottone	-10.8578
▁principio	-10.8578
▁union	-10.8578
▁bilancia	-10.858
-28	-10.858
▁1.4	-10.8581
▁0.2	-10.8581
▁consigliato	-10.8581
▁né	-10.8583
▁70%	-10.8583
▁nazione	-10.8584
▁riunioni	-10.8586
▁foglie	-10.8589
▁corta	-10.8592
cò	-10.8593
▁rack	-10.8596
▁lavastoviglie	-10.8598
▁chrome	-10.8599
▁1.3	-10.8604
1.2	-10.8607
▁mobilità	-10.861
▁gratuite	-10.8611
▁thailandia	-10.8611
▁successiva	-10.8611
▁ieri	-10.8611
▁0,2	-10.8615
▁felpa	-10.8617
▁fece	-10.8619
▁presta	-10.8621
▁meccaniche	-10.8624
haus	-10.8626
▁bir	-10.8628
▁tc	-10.8628
▁creta	-10.8628
178	-10.863
glione	-10.863
▁caratterizza	-10.8632
▁pareti	-10.8632
▁grotta	-10.8635
ship	-10.8637
▁telecomando	-10.8637
▁official	-10.8637
aggiungi	-10.8638
▁19:00	-10.8644
▁86-	-10.8645
▁3.5	-10.8646
text	-10.8646
fp	-10.8649
▁simone	-10.8649
▁qualcuno	-10.865
▁proteine	-10.865
▁parcheggi	-10.865
▁diffusione	-10.8651
▁pellicola	-10.8651
▁daniel	-10.8651
▁sviluppare	-10.8654
▁posizionato	-10.8658
bello	-10.866
107	-10.866
▁visualizzando	-10.8664
▁creatività	-10.8665
▁metallico	-10.8666
1.1	-10.8666
▁cliccare	-10.867
▁bat	-10.867
usd	-10.867
1.0	-10.8671
▁vincitore	-10.8671
▁plugin	-10.8672
▁stop	-10.8672
▁realizzata	-10.8676
hn	-10.8678
▁dose	-10.8681
▁misto	-10.8686
scopi	-10.8689
▁trend	-10.8692
segue	-10.8695
▁soprattutto	-10.8702
▁polveri	-10.8703
wan	-10.8704
▁vario	-10.8707
▁arredo	-10.8708
cura	-10.8711
▁punte	-10.8716
▁rilascia	-10.8724
nzio	-10.8724
▁riproduzione	-10.8725
:52	-10.8726
abba	-10.8731
▁(22)	-10.8733
▁aggiuntivi	-10.8734
iscrizione	-10.8737
▁pressa	-10.8739
▁medie	-10.874
▁sand	-10.8741
▁bulgaro	-10.8741
▁celebrità	-10.8742
▁make	-10.8743
▁mid	-10.8746
▁europei	-10.8748
▁sound	-10.8749
112	-10.8752
134	-10.8752
▁inchiostro	-10.8754
▁sella	-10.8755
▁jet	-10.8757
sec	-10.8758
▁switch	-10.876
▁concentra	-10.8763
mette	-10.8764
▁filato	-10.8767
▁romania	-10.8767
▁disattiva	-10.8769
▁accoglie	-10.8771
nice	-10.8771
▁esclusivamente	-10.8772
▁qualita	-10.8775
wel	-10.8776
▁duo	-10.8777
tutto	-10.8779
▁barbecue	-10.878
▁estensioni	-10.878
▁fm	-10.8781
▁restauro	-10.8781
▁emozioni	-10.8782
▁pupa	-10.8785
▁pali	-10.8786
▁beta	-10.8789
▁2.4	-10.879
rotto	-10.879
▁contest	-10.879
pica	-10.879
▁flat	-10.8791
invecchiamento	-10.8794
▁price	-10.8796
ndy	-10.8804
▁giacomo	-10.8806
▁1995	-10.8808
▁condizione	-10.8809
▁hack	-10.881
▁martino	-10.8815
▁guidate	-10.8816
999	-10.8817
▁selezionato	-10.882
▁controller	-10.8825
dire	-10.8827
▁(13)	-10.8829
▁17:00	-10.8829
berry	-10.883
scio	-10.8831
▁george	-10.8833
▁fogli	-10.8838
2008	-10.8839
:27	-10.8845
▁main	-10.8846
▁serata	-10.8846
▁tendenze	-10.8847
▁favori	-10.8848
:41	-10.8848
▁cut	-10.8855
▁(15)	-10.8855
▁pomeriggio	-10.8859
▁galvanizzato	-10.8859
▁attesa	-10.8861
▁influenza	-10.8862
▁altra	-10.8862
cciola	-10.8864
▁fast	-10.8867
porre	-10.8868
:48	-10.8868
cad	-10.8869
:47	-10.8871
▁occidentale	-10.8872
▁cerimonia	-10.8872
▁mediterranea	-10.8872
▁itunes	-10.8872
▁ritorna	-10.8872
▁conquista	-10.8873
▁ottico	-10.8875
idra	-10.888
zh	-10.888
▁scaricato	-10.8885
▁raggiunge	-10.8886
▁summer	-10.8888
▁esame	-10.8888
▁bad	-10.8888
▁(24)	-10.8889
▁americana	-10.8891
▁lino	-10.8892
carlo	-10.8899
▁circolare	-10.8899
04)	-10.89
camera	-10.8901
▁zoo	-10.8902
▁schiena	-10.8902
▁brunetta	-10.8902
▁dragon	-10.8909
▁bb	-10.891
▁somma	-10.891
esecuzione	-10.891
verde	-10.8912
▁competitivo	-10.8912
▁romagna	-10.8913
scrive	-10.8914
▁sé	-10.8914
film	-10.8915
▁nove	-10.8917
232	-10.8918
cera	-10.8918
▁rimanere	-10.8918
▁suona	-10.8919
▁310	-10.8921
▁zelanda	-10.8925
▁ritiro	-10.8926
▁personaggi	-10.8927
▁forse	-10.8938
▁custodi	-10.8938
▁ventilatore	-10.8939
▁evidenza	-10.8939
▁rifugio	-10.8939
▁vietnamita	-10.894
▁(0	-10.894
▁metti	-10.8942
▁distributori	-10.8944
grandi	-10.8948
▁recinzione	-10.8952
▁dosaggio	-10.8952
▁ammo	-10.8953
▁calzature	-10.8953
▁pianoforte	-10.8954
kv	-10.8955
▁280	-10.8957
ttini	-10.8958
▁down	-10.8962
▁personalizza	-10.8967
dur	-10.8968
▁testosterone	-10.8968
▁cromo	-10.897
▁contanti	-10.8971
▁ottimale	-10.8977
▁anniversario	-10.8979
▁inglesi	-10.8979
▁chiamare	-10.8979
▁ovest	-10.8985
rona	-10.8985
dico	-10.8986
:44	-10.8987
pd	-10.8989
▁satellitare	-10.8992
▁galaxy	-10.8992
▁proposta	-10.8997
▁trip	-10.8999
▁congresso	-10.9003
▁square	-10.9006
▁romantica	-10.9006
▁quarto	-10.9007
320	-10.9008
▁bollitore	-10.9008
204	-10.9009
camere	-10.9009
▁fotografico	-10.901
:42	-10.9015
▁spara	-10.9016
▁sonno	-10.9017
zzano	-10.9018
macchina	-10.9019
у	-10.9019
▁gravidanza	-10.9019
▁unita	-10.902
▁tappeto	-10.902
▁rodi	-10.9022
▁cervo	-10.9031
▁fattori	-10.9031
▁bruxelles	-10.9032
▁corallo	-10.9033
▁completi	-10.9033
▁tazze	-10.9033
▁stone	-10.9033
▁maglie	-10.9036
▁brutto	-10.9038
▁mad	-10.9039
▁sweet	-10.9045
▁rohs	-10.9047
▁tatuaggio	-10.9048
▁(23	-10.905
▁viaggia	-10.9051
▁viaggiatori	-10.9052
:49	-10.9052
▁size	-10.906
▁cerchio	-10.9061
▁vent	-10.9061
▁123	-10.9062
coin	-10.9062
:39	-10.9072
д	-10.9073
uv	-10.9077
▁morto	-10.9077
▁ice	-10.908
tuber	-10.9081
▁ups	-10.9082
▁egitto	-10.9084
grafico	-10.9084
din	-10.9084
▁latino	-10.9086
▁semplifica	-10.9086
▁claudio	-10.9087
mhz	-10.909
lum	-10.9091
▁leggenda	-10.9092
xl	-10.9092
▁esami	-10.9092
00,00	-10.9093
▁ebano	-10.9095
▁canto	-10.9099
▁pubbliche	-10.91
▁stress	-10.9101
pillola	-10.9102
▁esser	-10.9103
▁saldi	-10.9104
▁stare	-10.9106
▁clean	-10.9107
▁deca	-10.9108
▁marcia	-10.911
ombra	-10.9113
▁reddito	-10.9114
▁type	-10.9114
▁professional	-10.9114
ammi	-10.9117
▁finiture	-10.9117
▁(23)	-10.9117
▁babes	-10.9124
http	-10.9128
▁national	-10.913
▁arancio	-10.9131
online	-10.9136
235	-10.9136
109	-10.914
▁meccanici	-10.9141
js	-10.9143
▁chiede	-10.9145
▁pier	-10.9145
▁annuncio	-10.9145
▁penetra	-10.9146
watch	-10.9146
▁9:00	-10.9147
▁stampe	-10.9147
▁domus	-10.9149
▁ducati	-10.9151
▁diverti	-10.9153
▁stage	-10.9154
▁plasma	-10.9155
▁filippo	-10.9157
▁beige	-10.9157
▁rh	-10.9157
▁armadi	-10.9162
▁opinioni	-10.9168
▁giocattolo	-10.9168
▁solutions	-10.9168
▁piombo	-10.9169
▁0,1	-10.9173
▁perforazione	-10.9175
131	-10.9181
▁raccordi	-10.9181
▁agenzie	-10.9181
▁stereo	-10.9182
▁salotto	-10.9186
▁principessa	-10.9186
▁match	-10.9187
▁armato	-10.9188
mettere	-10.9196
▁christian	-10.9198
▁prossimi	-10.9199
▁speed	-10.9201
▁irlanda	-10.9204
versi	-10.9204
ndosi	-10.9207
▁approfond	-10.9209
▁california	-10.9209
▁invernali	-10.9209
oggetto	-10.9209
▁composta	-10.921
▁cristina	-10.9211
▁comunica	-10.9211
▁colata	-10.9218
▁brevi	-10.922
▁rivestito	-10.9223
▁rettifica	-10.9223
▁domani	-10.9227
▁def	-10.9227
style	-10.9229
▁russe	-10.9231
▁mangia	-10.9234
▁essenziale	-10.9236
▁stagioni	-10.9236
▁politiche	-10.9241
▁magia	-10.9242
mie	-10.9242
2009	-10.9247
logy	-10.9249
▁thomas	-10.925
▁cerniera	-10.925
gastronomic	-10.925
▁laminazione	-10.925
▁petrolio	-10.9251
:33	-10.9252
craft	-10.9252
▁dott	-10.9254
▁combat	-10.9255
:38	-10.9261
enso	-10.9263
▁moli	-10.9267
▁limited	-10.927
istico	-10.9271
▁fredda	-10.9271
▁burro	-10.9274
foni	-10.9276
▁feticcio	-10.9278
▁cantiere	-10.9278
2.0	-10.9278
stato	-10.9282
roga	-10.9287
▁solleva	-10.9287
▁marittima	-10.9291
▁lontano	-10.9291
nette	-10.9292
±	-10.9293
▁american	-10.9294
2011	-10.9294
eng	-10.9294
tratta	-10.9297
▁cucine	-10.9299
▁snc	-10.93
▁german	-10.93
ell	-10.9302
imposta	-10.9303
▁capaci	-10.9305
▁mara	-10.931
▁compatto	-10.9313
cono	-10.9316
▁bilancio	-10.9316
plast	-10.932
▁carino	-10.932
aldi	-10.9324
ging	-10.9325
cf	-10.9326
▁universitari	-10.933
▁durezza	-10.9333
▁paio	-10.9333
jan	-10.9336
mio	-10.9336
▁ras	-10.9338
▁cb	-10.934
▁nice	-10.9344
▁impre	-10.9345
▁candele	-10.9345
▁<!-[	-10.9347
▁lounge	-10.9347
650	-10.9348
zero	-10.9348
▁minore	-10.9351
▁colonia	-10.9351
▁casual	-10.9354
▁(16)	-10.9355
▁abbonamento	-10.9357
▁accademia	-10.936
▁wedding	-10.9361
mobili	-10.9364
▁batteri	-10.9364
-26	-10.9365
▁basata	-10.9366
050	-10.9367
epi	-10.937
▁legna	-10.9371
2.1	-10.9374
▁titoli	-10.9376
▁mill	-10.9377
▁calde	-10.9378
▁unitario	-10.9378
▁102	-10.9379
▁approccio	-10.9381
▁omaggio	-10.9382
▁doppie	-10.9383
▁rou	-10.9383
▁vassoio	-10.9384
liche	-10.9386
п	-10.9388
▁segreti	-10.9388
▁ghisa	-10.939
enzo	-10.9391
->	-10.9391
▁victoria	-10.9392
▁stagno	-10.9394
▁equilibrio	-10.94
▁3,5	-10.94
▁venduti	-10.9402
▁hentai	-10.9402
oxy	-10.9403
139	-10.9404
▁cambi	-10.9407
head	-10.9407
▁mtb	-10.9408
▁mouse	-10.9409
ificio	-10.9412
▁magnetica	-10.9415
▁notturna	-10.9416
▁rinforza	-10.9416
▁segreto	-10.9416
▁gentile	-10.9417
▁classici	-10.9422
credit	-10.9422
▁rapi	-10.9423
rium	-10.9425
ú	-10.9428
▁concord	-10.9429
zzu	-10.9429
▁gourmet	-10.943
▁militari	-10.943
▁decorazioni	-10.9431
▁glutine	-10.9431
▁felici	-10.9431
0.000,00	-10.9432
264	-10.9434
▁componente	-10.9434
▁odm	-10.9437
▁vogliono	-10.9438
gram	-10.944
190	-10.9441
▁papà	-10.9444
▁cappotto	-10.9444
▁perugia	-10.9445
▁mah	-10.9445
▁soggetto	-10.9446
▁crociera	-10.9446
▁pechino	-10.9448
▁angeles	-10.945
code	-10.945
▁abilita	-10.9453
▁individuali	-10.9453
▁cool	-10.9457
▁experience	-10.9458
▁belvedere	-10.9459
▁stradali	-10.946
▁ricordi	-10.946
▁gil	-10.9465
▁vincitori	-10.9466
137	-10.9471
▁tramonto	-10.9472
▁federico	-10.9474
▁bet	-10.9476
ambito	-10.9477
▁0.00	-10.9479
mark	-10.9483
▁svizzero	-10.9486
▁training	-10.9487
▁bolzano	-10.9487
▁servo	-10.9489
(5	-10.949
privacy	-10.949
▁forgia	-10.949
▁kan	-10.9495
fm	-10.9498
▁rap	-10.9501
▁(50	-10.9502
▁scienze	-10.9503
▁sponsor	-10.9504
▁realizza	-10.9505
senti	-10.9512
rich	-10.9514
▁spruzzo	-10.9515
▁lombardia	-10.9516
▁hr	-10.952
132	-10.9522
▁comunicare	-10.9527
7,5	-10.9527
▁sincronizza	-10.9528
▁aeroporti	-10.9529
▁informatica	-10.9532
▁lumi	-10.9533
▁dogana	-10.9534
verse	-10.9536
sty	-10.9537
motion	-10.9538
terni	-10.9539
▁sodio	-10.9541
▁attrezzi	-10.9543
▁05:00	-10.9545
▁riconoscimento	-10.9546
▁directory	-10.9547
▁hub	-10.9549
▁aggiunge	-10.9554
▁fle	-10.9557
▁pt	-10.9558
▁ann	-10.9558
▁estremamente	-10.9559
▁simbolo	-10.9559
▁diamond	-10.9561
▁messo	-10.9563
cat	-10.9565
india	-10.9566
▁chu	-10.9567
▁reggio	-10.9567
▁arancione	-10.9568
▁pipe	-10.9569
▁cappella	-10.9571
▁uccelli	-10.9571
▁sku	-10.9572
posizione	-10.9572
▁1990	-10.9573
▁aerei	-10.9574
▁rilasciato	-10.9576
▁tasto	-10.9578
▁vennero	-10.9578
▁jul	-10.9582
▁stanno	-10.9583
▁amministra	-10.9584
▁rivestimenti	-10.9585
dent	-10.9586
pareja	-10.9588
▁solarium	-10.9588
‘	-10.959
▁tempest	-10.9594
▁nominato	-10.9596
138	-10.9597
▁fiamma	-10.9599
▁majestic	-10.96
î	-10.96
▁competenza	-10.96
▁pandora	-10.9601
▁paola	-10.9602
naro	-10.9608
119	-10.9608
▁ferrovia	-10.9611
essere	-10.9613
▁alcuna	-10.9613
▁tipica	-10.9614
▁cinturino	-10.9614
▁garantisce	-10.9614
▁amichevole	-10.9614
unico	-10.9615
▁lettini	-10.9618
▁vinile	-10.9619
▁mulino	-10.962
▁mov	-10.9621
▁analizza	-10.9622
▁badia	-10.9624
▁vernici	-10.9625
▁nega	-10.9628
▁fascino	-10.9629
▁strisce	-10.9631
▁mary	-10.9637
▁canne	-10.9638
▁dark	-10.9641
▁seduta	-10.9643
▁chalet	-10.9645
china	-10.9646
▁conosce	-10.9646
▁approvato	-10.9647
ø	-10.9648
▁carni	-10.9651
eve	-10.9651
▁pelosa	-10.9653
▁raggiungerci	-10.9658
▁ioni	-10.9661
oliva	-10.9668
arreda	-10.9668
genera	-10.967
▁produ	-10.9672
▁messe	-10.9673
▁analog	-10.9677
▁370	-10.9677
▁tool	-10.9681
▁tappo	-10.9681
▁artista	-10.9682
▁rapidi	-10.9683
115	-10.9684
▁antiche	-10.9685
food	-10.969
▁dress	-10.9691
▁moq	-10.9695
enni	-10.9697
zan	-10.9697
oncino	-10.9698
▁livigno	-10.97
▁feedback	-10.97
▁wal	-10.97
133	-10.9701
osso	-10.9701
▁grey	-10.9702
▁108	-10.9702
bbe	-10.9703
andro	-10.9703
▁resistenti	-10.9703
▁ferri	-10.9704
accia	-10.9706
▁0.3	-10.9707
▁spesa	-10.971
▁stru	-10.9713
▁bungalow	-10.9714
▁sfrutta	-10.9714
izzato	-10.9715
▁louis	-10.9717
dora	-10.9719
▁anne	-10.9722
▁effettuato	-10.9722
▁copertina	-10.9724
▁gor	-10.9725
▁bbw	-10.9725
▁tours	-10.9726
▁baviera	-10.9729
▁pink	-10.973
▁registrare	-10.9732
essa	-10.9735
▁esistono	-10.9743
▁enorme	-10.9743
▁laguna	-10.9744
sistema	-10.9747
▁matita	-10.9748
inchiesta	-10.9749
▁1994	-10.9749
impresa	-10.975
maggio	-10.975
6.5	-10.975
▁iper	-10.9751
dale	-10.9753
▁pausa	-10.9754
▁comporta	-10.9755
▁4.5	-10.9755
▁3/4	-10.9756
▁caorle	-10.9758
▁mente	-10.9762
▁assemblaggio	-10.9765
▁good	-10.9765
3.5	-10.9766
▁pianifica	-10.9766
▁roblox	-10.9772
▁facilità	-10.9776
▁coloro	-10.9777
▁iscritti	-10.9779
λ	-10.9786
khz	-10.9788
super	-10.9788
▁accessibile	-10.9788
▁mens	-10.9792
▁potrebbero	-10.9793
▁lavorazioni	-10.9794
▁lignano	-10.9794
▁riad	-10.9795
▁abbina	-10.9797
▁artistico	-10.9798
▁recensisc	-10.9801
▁ciliegi	-10.9802
▁trovarci	-10.9802
▁accoppia	-10.9802
▁tavole	-10.9807
▁cost	-10.9808
▁kha	-10.9814
▁contattateci	-10.9816
▁siviglia	-10.9816
corso	-10.982
▁turistici	-10.982
▁iscritto	-10.9821
▁visual	-10.9822
map	-10.9823
tipo	-10.9823
▁forniamo	-10.9825
▁settimanale	-10.9828
▁diffusore	-10.9829
stati	-10.9829
camp	-10.983
▁preghiamo	-10.983
▁nico	-10.9833
▁caricare	-10.9833
bis	-10.9834
effetto	-10.9837
▁morta	-10.9838
▁potenzia	-10.9841
▁selezionati	-10.9843
▁480	-10.9844
▁halloween	-10.9845
▁ministero	-10.9845
▁famoso	-10.9845
phy	-10.9845
aggiornamento	-10.9852
▁bolla	-10.9854
▁interior	-10.9857
fiche	-10.9858
parte	-10.9858
▁budget	-10.986
▁interessanti	-10.9865
316	-10.9866
▁take	-10.9866
esterno	-10.9867
▁risparmiare	-10.9868
uga	-10.9869
▁ker	-10.9872
▁vasi	-10.9872
sure	-10.9873
▁scorrevole	-10.9874
▁complete	-10.9874
second	-10.9875
▁pineta	-10.9875
▁intel	-10.9875
▁sac	-10.9876
▁cau	-10.9877
145	-10.9877
▁treviso	-10.9878
operazione	-10.9886
▁analytics	-10.9888
▁playlist	-10.9889
▁integrale	-10.9892
▁specificazione	-10.9893
phone	-10.9895
▁®	-10.9897
cetti	-10.9899
quest	-10.99
▁regia	-10.99
roso	-10.9902
▁bonifico	-10.9903
▁unisciti	-10.9903
▁accettare	-10.9904
▁valencia	-10.9904
▁onda	-10.9904
ord	-10.9906
▁dop	-10.9908
▁cambiamenti	-10.9909
case	-10.991
▁dimentica	-10.9912
▁support	-10.9913
▁20:00	-10.9913
▁automobile	-10.9917
▁scommesse	-10.9918
▁purifica	-10.9923
-27	-10.9924
▁pussy	-10.9925
▁1.8	-10.9925
▁soddisfa	-10.9926
▁pv	-10.9927
▁noce	-10.993
metria	-10.9931
▁fs	-10.9932
▁pasticceria	-10.9933
▁electric	-10.9933
kan	-10.9933
▁dimenticato	-10.9934
▁stufa	-10.9934
▁2.2	-10.9938
dotto	-10.9939
▁contratti	-10.994
▁services	-10.9941
alluminio	-10.9941
scritti	-10.9944
▁impe	-10.9945
▁maschile	-10.9946
▁gite	-10.9947
▁risponde	-10.9947
▁certificata	-10.9947
▁quadrante	-10.9947
▁vibra	-10.9948
esplosi	-10.9956
▁adegua	-10.9958
▁ut	-10.9958
▁low	-10.9959
▁{	-10.9959
▁kids	-10.9962
ε	-10.9962
▁campagne	-10.9962
′′	-10.9962
lecken	-10.9962
▁consiste	-10.9963
▁radiatore	-10.9963
estrusione	-10.9964
040	-10.9967
▁insegnanti	-10.9968
▁francesi	-10.9968
▁sneakers	-10.9976
▁liguria	-10.9977
contatti	-10.9977
▁commutatore	-10.9978
▁comodità	-10.9978
▁pesci	-10.9979
▁compatibilità	-10.9979
▁cuba	-10.9979
▁partners	-10.9982
▁sanitari	-10.9982
▁incl	-10.9984
▁cipro	-10.9984
▁lavorato	-10.9985
▁sosta	-10.9993
▁proprietari	-10.9994
▁attivazione	-10.9994
▁bottega	-10.9996
▁ragione	-10.9996
▁(17)	-10.9997
▁rovere	-10.9997
italian	-10.9999
hel	-11.0005
▁vietnam	-11.0005
▁shuttle	-11.0006
▁bomba	-11.0007
acido	-11.0012
miglia	-11.0012
mola	-11.0014
▁poche	-11.0014
156	-11.0016
▁greca	-11.0019
▁essenziali	-11.0021
▁profumi	-11.0022
▁telecamere	-11.0022
▁notizia	-11.0023
▁contributo	-11.0023
▁14:00	-11.0023
▁caduta	-11.0024
▁lungomare	-11.0024
▁lieti	-11.0024
▁sensibilità	-11.0025
▁oriente	-11.0026
▁vitamina	-11.0026
▁catalog	-11.0029
154	-11.003
0,00€	-11.003
▁chiusa	-11.0036
▁league	-11.0037
▁regioni	-11.0037
2013	-11.0037
▁bou	-11.0042
▁foglia	-11.0043
▁contea	-11.0044
serv	-11.005
▁hs	-11.0051
▁jersey	-11.0051
▁comandi	-11.0051
rick	-11.0051
▁bibione	-11.0051
lamp	-11.0062
▁fabbricante	-11.0063
▁quotidiano	-11.0066
▁esercita	-11.0066
nts	-11.0069
llino	-11.0072
▁classificazione	-11.0073
▁laterali	-11.0082
8.5	-11.0085
heim	-11.0085
▁iniziative	-11.0086
ndola	-11.0088
ssen	-11.009
▁tipico	-11.009
benz	-11.0095
▁espositori	-11.0096
▁wind	-11.0109
▁artigianato	-11.0109
▁bisessuale	-11.0111
▁cavalieri	-11.0111
▁blocchi	-11.0111
▁promuovere	-11.0113
▁router	-11.0113
▁vegetale	-11.0118
▁bolle	-11.0118
▁bimbi	-11.0119
▁visualizzato	-11.012
dura	-11.0123
▁avanzate	-11.0125
▁urbano	-11.0126
▁nubile	-11.0127
ary	-11.0131
▁ambra	-11.0131
▁neu	-11.0135
▁print	-11.0135
▁generato	-11.0135
▁cento	-11.0135
▁consuma	-11.0137
▁sguardo	-11.0141
▁intervento	-11.0142
▁festeggia	-11.0143
versione	-11.0144
▁biologica	-11.0144
▁compilare	-11.0149
▁molecolare	-11.0156
▁cartier	-11.0165
mila	-11.0166
▁fuso	-11.0167
▁boscolo	-11.0167
▁coffee	-11.0171
▁sottostante	-11.0171
▁funzionale	-11.0174
universo	-11.0174
▁grappa	-11.0176
▁kra	-11.018
importanza	-11.018
▁resa	-11.018
cool	-11.0182
maker	-11.0184
▁garantita	-11.0186
▁previsto	-11.0186
▁estetica	-11.0186
▁antonella	-11.0187
pari	-11.0187
▁scansione	-11.0187
llina	-11.0188
thy	-11.019
▁barcelona	-11.0191
▁solida	-11.0191
▁tavolino	-11.0192
▁rei	-11.0193
▁chiari	-11.0194
▁aggiornata	-11.0196
plan	-11.0199
▁armadio	-11.0201
▁vincenzo	-11.0201
▁appart	-11.0202
▁lodge	-11.0202
▁trade	-11.0202
▁estrazione	-11.0204
▁concept	-11.0205
▁volumi	-11.0207
▁145	-11.0212
▁lisbona	-11.0212
▁compatta	-11.0213
▁cartuccia	-11.0216
▁eccezionale	-11.0216
▁ambientali	-11.0217
▁bridge	-11.0218
nik	-11.022
polo	-11.0223
▁grazia	-11.0227
▁player	-11.0231
▁discussione	-11.0231
ika	-11.0231
▁partnership	-11.0233
116	-11.024
▁ny	-11.0243
▁frank	-11.0244
▁oz	-11.0246
▁corriere	-11.0248
▁salento	-11.0252
▁orchestra	-11.0255
chetta	-11.0255
▁elastico	-11.0262
▁1993	-11.0265
-2016	-11.0266
▁stimola	-11.0266
(6	-11.0269
accordo	-11.027
onore	-11.0272
▁solito	-11.0272
▁otel	-11.0273
▁indicati	-11.0276
▁garibaldi	-11.0277
▁eye	-11.028
▁limitato	-11.028
▁address	-11.0283
▁sedile	-11.0284
▁soddisfazione	-11.0286
yama	-11.0286
▁fior	-11.0287
▁bull	-11.0291
005	-11.0292
▁flotta	-11.0292
▁pwb	-11.0293
tui	-11.0293
▁sintesi	-11.0293
▁permesso	-11.0293
▁pesa	-11.0294
▁approva	-11.0294
▁montagne	-11.0295
▁sg	-11.0296
▁awards	-11.0297
donna	-11.0297
▁braccialetto	-11.03
▁106	-11.0303
origine	-11.0306
▁pila	-11.0307
▁rendi	-11.0311
▁matera	-11.0313
▁applicabile	-11.0315
▁specialisti	-11.0317
888	-11.0321
dex	-11.0322
▁attacchi	-11.0323
▁incorpora	-11.0323
▁potrete	-11.0324
▁muta	-11.0324
▁alessia	-11.0324
▁differenzia	-11.0325
▁end	-11.0327
▁1,2	-11.033
▁stabilimento	-11.0333
▁estivo	-11.0333
▁ringrazia	-11.0333
ulo	-11.0334
▁tuscany	-11.0338
▁riccardo	-11.0338
▁bevanda	-11.0338
▁taiwan	-11.0338
▁galli	-11.034
▁φ	-11.0341
▁modulare	-11.0343
gliano	-11.0344
trade	-11.0347
▁schema	-11.0348
ign	-11.035
service	-11.0352
made	-11.0353
▁righe	-11.0353
▁residenziali	-11.0353
▁420	-11.0354
▁notifica	-11.0354
▁accende	-11.0355
▁sales	-11.0356
▁serbatoi	-11.0358
▁maschi	-11.0363
▁poggio	-11.0364
▁utilizzate	-11.0365
▁vasche	-11.0369
▁adidas	-11.0369
lyn	-11.037
▁immersione	-11.037
premi	-11.0373
▁pozzo	-11.0373
▁factory	-11.0374
▁(25)	-11.0375
locali	-11.0375
▁pec	-11.0375
▁amanti	-11.0376
▁opzionale	-11.038
roll	-11.0383
grafo	-11.0383
▁terrazzo	-11.0384
▁lievi	-11.0387
▁cellulari	-11.0389
ghetto	-11.0392
▁farlo	-11.0394
grad	-11.0394
404	-11.0394
▁1080	-11.0395
004	-11.0395
▁eleganza	-11.0395
▁cosmo	-11.0397
tty	-11.0397
153	-11.0399
▁assicurati	-11.04
▁just	-11.0402
fest	-11.0403
zin	-11.0404
▁chiedere	-11.0404
gara	-11.0411
▁busty	-11.0412
hua	-11.0413
▁marrakech	-11.0415
escavatore	-11.0415
/2013	-11.0415
▁board	-11.0417
▁+33	-11.0419
▁nudisti	-11.0419
▁regala	-11.0419
▁trasporta	-11.042
▁elite	-11.0421
job	-11.0424
dotti	-11.0425
luce	-11.0425
▁responsabili	-11.0428
▁pharma	-11.0431
▁esportazione	-11.0431
▁carnevale	-11.0431
▁crescere	-11.0432
▁slide	-11.0432
stella	-11.0434
▁monica	-11.0434
▁cantine	-11.0434
▁amplia	-11.0435
▁indicatore	-11.044
▁muscolose	-11.0441
▁portato	-11.0441
▁alice	-11.0446
ν	-11.0446
own	-11.0446
▁figure	-11.0446
cz	-11.0448
▁tenta	-11.045
▁tracolla	-11.0451
belli	-11.0457
night	-11.0457
260	-11.0458
▁nh	-11.0458
▁buy	-11.0459
▁toni	-11.0461
▁amalfi	-11.0461
ω	-11.0461
rosi	-11.0462
▁cp	-11.0462
▁women	-11.0463
lé	-11.0467
▁cella	-11.0469
▁ride	-11.0469
days	-11.0471
▁creatura	-11.0471
▁sento	-11.0472
▁fantastico	-11.0477
▁pru	-11.0477
▁kraft	-11.0478
▁niko	-11.048
▁largo	-11.0481
▁identità	-11.0482
▁piana	-11.0482
nuovo	-11.0482
▁argentina	-11.0484
▁scal	-11.0485
verso	-11.0489
artista	-11.0491
assistenza	-11.0491
▁circolazione	-11.0493
▁infatti	-11.0493
meno	-11.0494
▁paesaggi	-11.0496
▁wei	-11.0496
▁aspirazione	-11.0499
▁cliccando	-11.0503
qu	-11.0505
960	-11.0506
▁(26)	-11.0507
▁norvegia	-11.0508
▁squadre	-11.0508
▁venedig	-11.0508
▁sfide	-11.051
▁mattino	-11.0513
▁twin	-11.0516
▁sviluppatore	-11.0516
▁abitanti	-11.0517
▁joy	-11.0518
ground	-11.0519
▁oct	-11.052
▁css	-11.0521
▁facciale	-11.0522
▁adam	-11.0523
▁sceglie	-11.0523
▁danimarca	-11.0524
▁pantalone	-11.0524
▁gdpr	-11.0524
▁uniformi	-11.0524
▁bellissimo	-11.0525
▁secca	-11.0527
▁vanno	-11.0529
▁perfettamente	-11.0535
fy	-11.0535
vecchio	-11.0538
appartamenti	-11.0538
▁nar	-11.0539
▁franchi	-11.054
▁copie	-11.0548
gini	-11.0549
▁inviate	-11.0552
metal	-11.0552
▁fire	-11.0553
▁widget	-11.0555
kva	-11.0556
▁significato	-11.0557
▁identificazione	-11.0559
▁poster	-11.056
gle	-11.0561
▁charme	-11.0562
▁vito	-11.0565
▁zoom	-11.0566
▁vincere	-11.0566
punta	-11.0566
▁rum	-11.0568
▁gesto	-11.057
mond	-11.057
▁insetti	-11.0571
▁trattoria	-11.0575
strada	-11.0576
uccio	-11.0578
sterne	-11.0581
▁lettino	-11.0583
▁month	-11.0583
▁immobiliari	-11.0583
▁culla	-11.0583
▁bangkok	-11.0586
▁ginevra	-11.0586
▁argomenti	-11.0586
▁maschere	-11.0586
▁sezioni	-11.0588
long	-11.0592
▁paint	-11.0592
account	-11.0598
▁indonesiano	-11.0601
▁latitudine	-11.0602
▁sessuale	-11.0602
▁verniciatura	-11.0603
▁4.5+	-11.0605
▁oil	-11.0605
▁marte	-11.0607
▁ritira	-11.0609
admin	-11.061
uz	-11.0612
istruzione	-11.0613
▁run	-11.0617
▁particolarmente	-11.0618
▁ciondolo	-11.0618
▁divertenti	-11.0618
▁chilometri	-11.0618
▁dotate	-11.0619
esimo	-11.062
▁interventi	-11.062
▁ptfe	-11.062
▁3.5+	-11.0621
▁basic	-11.0628
▁mauro	-11.0632
▁ultrasuoni	-11.0633
▁sostanze	-11.0634
▁redtube	-11.0635
▁space	-11.0638
▁plastic	-11.0639
▁strip	-11.0642
▁continuare	-11.0642
table	-11.0645
▁droga	-11.0645
▁canon	-11.0646
coltura	-11.0652
▁coltelli	-11.0653
ficio	-11.0653
550	-11.0655
▁share	-11.0656
▁sacra	-11.0656
▁plug	-11.0656
▁velocemente	-11.0658
▁alternativa	-11.0659
▁11:00	-11.0664
rossa	-11.0665
▁comunale	-11.0665
▁convegno	-11.0665
114	-11.0666
▁equitazione	-11.0666
mbri	-11.067
▁sentiero	-11.067
▁(*)	-11.0672
▁anta	-11.0672
▁sapone	-11.0672
forni	-11.0674
door	-11.0677
▁alcol	-11.0677
▁corn	-11.0678
▁varsavia	-11.0681
▁motocicli	-11.0682
ciclo	-11.0682
▁aiutarti	-11.0686
grande	-11.0687
▁restitu	-11.0688
▁pag	-11.0689
▁minor	-11.069
▁autorità	-11.0692
fan	-11.0695
▁bob	-11.0695
part	-11.0695
▁preparare	-11.0696
▁maurizio	-11.0697
▁ristorazione	-11.0697
▁coro	-11.0697
▁sfondi	-11.0697
▁ceramiche	-11.0698
▁delega	-11.0698
▁utilizziamo	-11.0699
▁ritratto	-11.0701
420	-11.0704
▁barbie	-11.0706
▁dinamica	-11.0706
▁genoa	-11.0707
▁[4	-11.0709
city	-11.0711
▁riflessi	-11.0711
▁fig	-11.0711
▁coperture	-11.0713
▁specchi	-11.0723
▁shell	-11.0726
▁riprodu	-11.0727
▁palm	-11.0728
▁bicchiere	-11.0729
▁polipropilene	-11.0729
▁washington	-11.0729
▁emanuele	-11.0729
▁compresa	-11.0729
▁uscite	-11.0729
▁anziani	-11.0729
▁pav	-11.073
▁accade	-11.073
but	-11.0733
rità	-11.0733
0.3	-11.0735
▁eccellenza	-11.0737
ón	-11.0737
▁preferenze	-11.0745
▁tartufo	-11.0745
▁portachiavi	-11.0745
lingua	-11.0746
▁mantova	-11.0746
▁manifestazione	-11.0748
jet	-11.0749
▁apart	-11.0758
▁salvataggio	-11.0761
▁filter	-11.0761
▁cucchiai	-11.0767
▁elettricità	-11.0768
▁rilevamento	-11.077
bell	-11.0776
▁ripristino	-11.0777
▁(+39)	-11.0777
▁drink	-11.0777
▁gianni	-11.0778
▁sasso	-11.0781
▁collegato	-11.0781
▁104	-11.0783
yan	-11.0783
▁impiega	-11.0788
▁capire	-11.0788
▁6000	-11.0789
mondo	-11.079
▁academy	-11.0793
▁premere	-11.0794
▁ecologico	-11.0794
▁youporn	-11.0794
ttica	-11.0795
▁trasferire	-11.0797
265	-11.0797
▁guy	-11.0798
▁118	-11.0799
▁grafici	-11.08
▁living	-11.08
▁excel	-11.0803
\'	-11.0804
▁records	-11.0805
molo	-11.0807
uzzi	-11.0808
▁marcatura	-11.0808
▁prosciutto	-11.0809
▁richiesti	-11.0809
}}	-11.0809
▁facilita	-11.0812
▁fotografo	-11.0813
confezion	-11.0813
▁107	-11.0818
best	-11.0819
270	-11.0821
▁affida	-11.0823
orto	-11.0823
▁barbara	-11.0824
▁jizzbunker	-11.0825
▁neoprene	-11.0825
▁quotidiana	-11.0825
▁rafforza	-11.0825
▁zincato	-11.0825
▁termale	-11.0825
pay	-11.0826
hor	-11.083
▁butt	-11.0833
▁lazio	-11.0835
▁avviare	-11.0838
▁ferrara	-11.0838
127	-11.0839
▁singapore	-11.0841
▁bagna	-11.0841
▁alassio	-11.0841
power	-11.0842
▁pacific	-11.0844
shire	-11.0847
▁270	-11.0847
▁veli	-11.0849
▁adatti	-11.0851
▁flori	-11.0854
▁piastre	-11.0854
▁md	-11.0855
quali	-11.0855
▁kos	-11.0856
▁safari	-11.0857
▁insalata	-11.0857
vor	-11.0859
060	-11.086
▁normativa	-11.086
▁dual	-11.0861
▁nastri	-11.0862
▁feed	-11.0866
very	-11.0868
▁tassi	-11.087
▁macchia	-11.0872
▁confezioni	-11.0874
▁mun	-11.0874
▁portatili	-11.0874
▁dipinto	-11.0876
▁trasportatore	-11.0878
▁gloria	-11.0882
▁noci	-11.0883
anal	-11.0884
▁mk	-11.0884
▁interessati	-11.0885
lizzazione	-11.0885
▁magico	-11.0887
▁assegna	-11.0888
▁medaglia	-11.0889
▁cairo	-11.0891
html	-11.0892
pat	-11.0897
▁espansione	-11.0898
udo	-11.0901
▁attuali	-11.0903
▁acconsento	-11.0906
illuminazione	-11.0908
petto	-11.0908
archivio	-11.0909
▁sistemazioni	-11.0911
▁armani	-11.0911
▁assemblea	-11.0912
novo	-11.0918
▁(27)	-11.092
▁maniera	-11.092
▁consorzio	-11.0922
▁visibilità	-11.0923
▁links	-11.0924
{	-11.0924
▁1991	-11.0926
invio	-11.0926
▁2.1	-11.0928
▁lordo	-11.0928
char	-11.0928
vdc	-11.0932
▁stampanti	-11.0934
gene	-11.0935
▁girevole	-11.0938
▁gotico	-11.0941
▁scott	-11.0944
▁15:00	-11.0945
▁playa	-11.0945
▁mele	-11.0945
▁associa	-11.0954
▁comprendono	-11.0954
▁novi	-11.0955
▁abb	-11.0959
1,5	-11.0962
▁fuga	-11.0962
▁cave	-11.097
▁stabilizza	-11.097
▁campanile	-11.0971
▁lampadina	-11.0971
▁personalizzare	-11.0972
▁decide	-11.0973
▁spirale	-11.0973
4.5	-11.0973
▁product	-11.0974
▁tettona	-11.0977
▁sfere	-11.0979
▁station	-11.098
▁valute	-11.0982
▁gialla	-11.0983
▁hdmi	-11.0983
mese	-11.0984
copia	-11.0984
▁sunporno	-11.0987
▁maestri	-11.0988
▁accoglienza	-11.0993
▁way	-11.0994
▁straordinari	-11.1001
▁tolleranza	-11.1004
affari	-11.1004
▁muscoli	-11.1005
▁simboli	-11.1005
▁bellaria	-11.1007
venta	-11.1011
▁balla	-11.1012
▁blowjobs	-11.1015
▁costruita	-11.1016
▁conservare	-11.1019
▁televisione	-11.102
▁compressa	-11.102
cum	-11.1021
▁000€	-11.1022
—	-11.1023
▁aerea	-11.1027
▁quinta	-11.1028
▁fluo	-11.1031
matura	-11.1032
▁1/4	-11.1035
▁tessile	-11.1036
▁piastrelle	-11.1038
▁collina	-11.1038
▁prolunga	-11.1039
▁diego	-11.104
▁toy	-11.1041
▁inaugura	-11.1044
▁escl	-11.1045
▁seminario	-11.1046
▁organizzazioni	-11.1047
esclusi	-11.1048
▁giocato	-11.1049
835	-11.105
▁appuntamenti	-11.1053
▁soccorso	-11.1053
▁(28	-11.1053
▁aggiunti	-11.1053
▁aggiorna	-11.1056
▁aggiornare	-11.1057
▁popolo	-11.1058
▁voglia	-11.1059
edificio	-11.106
messe	-11.106
▁common	-11.1066
▁east	-11.1067
▁allactionhost	-11.1069
▁romantico	-11.107
fico	-11.1071
exe	-11.1071
▁kim	-11.1072
▁divani	-11.1073
▁pesanti	-11.1074
118	-11.1076
▁saldato	-11.1076
psi	-11.1077
208	-11.1078
▁risulta	-11.1084
▁integrati	-11.1085
τ	-11.1086
▁bicchieri	-11.1086
▁tradizioni	-11.1086
▁lesbi	-11.1086
▁unghie	-11.1087
ddy	-11.1088
▁assolutamente	-11.1088
__	-11.1091
▁psico	-11.1092
▁scambia	-11.1093
▁marocco	-11.1099
▁educazione	-11.11
censi	-11.1101
▁sblocca	-11.1102
▁riservatezza	-11.1102
▁agency	-11.1102
titola	-11.1102
▁contrasto	-11.1105
▁action	-11.1105
millimetro	-11.1107
136	-11.1107
lick	-11.1108
▁teo	-11.111
▁inghilterra	-11.1113
▁stretta	-11.1114
▁collaterali	-11.1119
▁morbida	-11.1119
▁romantici	-11.1119
▁societari	-11.1123
▁1992	-11.1125
▁obbligatorio	-11.1125
3000	-11.113
▁longitudine	-11.1135
▁minerale	-11.1135
▁young	-11.114
incl	-11.1141
▁parati	-11.1142
▁pronta	-11.1143
▁split	-11.1143
▁guadagna	-11.1147
▁protetti	-11.1149
▁cesenatico	-11.1152
▁olbia	-11.1152
▁ricci	-11.1153
▁cres	-11.1156
▁raccordo	-11.1156
▁marie	-11.1158
mera	-11.1159
186	-11.116
black	-11.1162
title	-11.1163
lier	-11.1164
▁pub	-11.1166
▁sgs	-11.1167
▁story	-11.1167
▁cafe	-11.1168
▁domestica	-11.1168
117	-11.117
ür	-11.1171
▁sergio	-11.1172
▁umana	-11.1172
▁quinte	-11.1172
▁fox	-11.1175
▁creativo	-11.1183
euro	-11.1184
▁sorpresa	-11.1185
▁steroide	-11.1185
▁toilette	-11.1185
▁eleganti	-11.1185
▁tunnel	-11.1185
▁goditi	-11.1186
▁aggiuntivo	-11.1188
016	-11.119
▁andata	-11.1193
▁christ	-11.1196
rent	-11.1197
▁flora	-11.1199
▁autentica	-11.1202
▁scaffale	-11.1202
▁azzurra	-11.1202
volta	-11.1203
africa	-11.1207
3.2	-11.1209
nò	-11.121
fusione	-11.121
meter	-11.1211
▁bona	-11.1212
▁mesh	-11.1213
▁race	-11.1214
blog	-11.1218
class	-11.1218
▁protocollo	-11.1219
▁francisco	-11.1219
▁acustico	-11.1219
▁masseria	-11.1219
5,5	-11.122
▁vedo	-11.1221
▁μ	-11.1221
▁cancro	-11.1222
olfo	-11.1224
agenzia	-11.1227
▁fidanzata	-11.1232
/2014	-11.1234
direct	-11.1235
▁drop	-11.1235
▁tamburo	-11.1235
▁massimi	-11.1237
▁tang	-11.1239
eremo	-11.1244
▁destro	-11.1247
▁savoia	-11.1252
▁guesthouse	-11.1253
▁estiva	-11.1253
post	-11.1256
▁neuro	-11.1257
▁palazzi	-11.1258
▁cooperazione	-11.126
▁2500	-11.1261
▁perfora	-11.1261
abs	-11.1262
▁operatore	-11.1264
▁font	-11.1265
▁servita	-11.1266
▁skype	-11.1268
▁mykonos	-11.1269
▁pistola	-11.1269
zip	-11.127
▁auguri	-11.127
4.00	-11.1271
▁pensiero	-11.1271
▁vegas	-11.1273
▁manzo	-11.1273
▁interessante	-11.1279
▁prevede	-11.128
stream	-11.1281
▁basket	-11.1286
▁destinatari	-11.1286
▁biondo	-11.1287
▁presentato	-11.1287
196	-11.1289
▁river	-11.1289
▁gsm	-11.129
enziale	-11.1292
▁sanremo	-11.1294
she	-11.1295
365	-11.1297
cchetti	-11.13
013	-11.13
ndolo	-11.1304
▁evita	-11.1309
▁esercizi	-11.1311
▁suolo	-11.1312
9,99	-11.1312
4.2	-11.1313
▁fx	-11.1317
▁consultato	-11.1318
cciolo	-11.132
▁schermi	-11.132
▁visti	-11.1321
friendly	-11.1321
3.0	-11.1323
▁views	-11.1325
riduzione	-11.1326
file	-11.133
1200	-11.1333
▁allegro	-11.1334
▁prosecco	-11.1336
▁colombo	-11.1336
▁estone	-11.1339
▁vibratore	-11.1342
▁pratico	-11.1342
143	-11.1344
12.20	-11.1345
impero	-11.1345
▁supportati	-11.1346
▁utc	-11.1349
▁salvi	-11.1351
▁champagne	-11.1353
▁toyota	-11.1353
▁sperma	-11.1356
▁circonda	-11.1356
▁range	-11.1357
▁banner	-11.136
▁collegare	-11.136
▁biografia	-11.136
▁enzo	-11.1363
▁vigneti	-11.1367
▁pick	-11.1368
▁word	-11.1368
setti	-11.1368
▁1970	-11.1368
▁ucraino	-11.137
▁digita	-11.1379
dildo	-11.1379
bach	-11.138
▁affitta	-11.138
▁175	-11.138
tecnica	-11.1381
▁cn	-11.1381
▁polari	-11.1386
▁+1	-11.1387
▁armonia	-11.1388
▁riceverai	-11.1388
▁cambiato	-11.1392
▁scanner	-11.1392
down	-11.1395
146	-11.1397
big	-11.1397
▁organico	-11.1398
trico	-11.1401
▁opinione	-11.1404
▁richard	-11.1404
▁assume	-11.1406
▁personaggio	-11.1407
▁seminari	-11.1408
▁dorato	-11.1408
horn	-11.1409
▁18.00	-11.1409
celle	-11.1411
+2	-11.1413
▁separata	-11.1414
▁vibrazione	-11.1414
▁fix	-11.1414
gres	-11.1417
155	-11.1417
▁sony	-11.1418
▁530	-11.1421
▁multifunzione	-11.1421
▁gol	-11.1422
▁spiace	-11.1422
due	-11.1422
▁skin	-11.1425
aiuto	-11.1426
▁comportamento	-11.1427
▁cali	-11.1428
hardcore	-11.1429
accessori	-11.143
▁spec	-11.1433
▁veste	-11.1437
▁grave	-11.144
infezione	-11.1443
▁farmacia	-11.1443
▁40%	-11.1445
▁pino	-11.1448
▁block	-11.1448
▁control	-11.1448
▁charm	-11.1448
▁energy	-11.1451
ntu	-11.1452
▁costiera	-11.1453
cultura	-11.1454
▁principalmente	-11.1456
▁domenico	-11.1456
▁membrana	-11.1456
▁differente	-11.1456
▁consolida	-11.1456
▁entrambe	-11.1457
▁giornaliera	-11.1458
abbi	-11.1458
▁electronic	-11.1462
eccellenza	-11.1464
▁ospitalità	-11.1468
▁quick	-11.1468
inch	-11.1468
word	-11.1469
▁terminali	-11.1472
▁ospedali	-11.1473
▁amatore	-11.1473
▁snack	-11.1473
▁template	-11.1473
▁caldaia	-11.1474
lotto	-11.1474
taglia	-11.1476
▁console	-11.1477
▁lì	-11.148
cone	-11.148
zona	-11.1482
▁legato	-11.1485
▁nuovamente	-11.1486
▁drago	-11.1487
▁operativi	-11.1489
page	-11.1492
▁nudi	-11.1494
152	-11.1495
▁sogna	-11.1497
issa	-11.15
scrivi	-11.1501
▁compro	-11.1503
▁moon	-11.1505
▁conforme	-11.1506
▁approfitta	-11.1507
▁combustibile	-11.1507
▁925	-11.1508
oceano	-11.151
▁lattice	-11.1511
▁etc	-11.1517
▁imperiale	-11.1517
▁valutato	-11.1518
cord	-11.152
▁coast	-11.1521
▁syn	-11.1521
▁moro	-11.1522
▁qr	-11.1523
▁hei	-11.1523
▁pomodori	-11.1524
▁alternative	-11.1525
▁drtuber	-11.1525
giochi	-11.1526
▁debito	-11.1528
▁trattare	-11.1529
2,5	-11.1532
mission	-11.1533
▁incolla	-11.1534
▁europee	-11.1534
2006	-11.1536
▁toner	-11.1537
7.00	-11.1539
▁hen	-11.154
▁aziona	-11.1541
▁asciutto	-11.1542
▁preciso	-11.1542
▁generico	-11.1542
▁tesoro	-11.1542
9,90	-11.1542
trad	-11.1543
▁cuciture	-11.1544
▁roccia	-11.1544
▁cassetti	-11.1546
▁9.00	-11.1548
▁corrisponde	-11.155
▁09:00	-11.1556
▁preoccupa	-11.1559
▁rivoluzione	-11.1559
▁esclusive	-11.1559
▁pelliccia	-11.156
▁conteggio	-11.1564
1]	-11.1566
mq	-11.1566
▁colloca	-11.1566
6,5	-11.157
▁fumare	-11.1571
▁155	-11.1571
audio	-11.1572
▁accor	-11.1575
▁giornate	-11.1576
sæd	-11.1576
▁silicio	-11.1577
▁freschi	-11.1579
mount	-11.158
▁caval	-11.1582
▁volt	-11.1588
▁spam	-11.1589
▁raccogliere	-11.159
▁gear	-11.1593
▁cashmere	-11.1594
(7	-11.1596
▁semplicità	-11.16
▁itinerario	-11.1602
▁260	-11.1605
▁accettato	-11.1606
▁applicato	-11.1606
integrazione	-11.1606
▁scalda	-11.1607
480	-11.1609
▁percentuale	-11.1611
▁disabilitati	-11.1611
▁adult	-11.1612
▁giornaliere	-11.1613
▁finalmente	-11.1616
▁sat	-11.1617
uch	-11.162
▁collaboratori	-11.1621
▁wave	-11.1621
▁turno	-11.1621
▁minh	-11.1623
▁secchi	-11.1624
203	-11.1625
▁116	-11.1625
▁calzini	-11.1629
▁claudia	-11.1629
▁consulente	-11.1629
▁(29	-11.163
than	-11.1632
clip	-11.1633
▁ford	-11.1633
▁larga	-11.1634
▁cile	-11.1636
▁arc	-11.164
▁fen	-11.1643
▁dance	-11.1645
390	-11.1646
▁articola	-11.1647
▁potranno	-11.1648
225	-11.165
▁impegna	-11.1652
▁grani	-11.1653
▁archiviazione	-11.1654
▁(31)	-11.1656
esercito	-11.1656
assemblea	-11.1656
›	-11.1656
▁cancellare	-11.1659
▁„	-11.1659
▁10,00	-11.166
▁artistica	-11.1662
▁ambasciatori	-11.1663
▁depilazione	-11.1663
▁battuto	-11.1664
▁visibile	-11.1664
▁sche	-11.1667
antica	-11.1667
▁(30)	-11.1668
forte	-11.1669
▁365	-11.1671
dell	-11.1672
▁gbp	-11.1681
▁ragioni	-11.1681
▁saldo	-11.1681
▁nude	-11.1683
▁rotante	-11.1684
▁apprezza	-11.1687
▁mole	-11.1688
vità	-11.1689
sheet	-11.1692
▁nuda	-11.1693
▁360°	-11.1696
▁commenta	-11.1697
▁chilogrammi	-11.1699
▁edimburgo	-11.1699
850	-11.1699
▁retail	-11.1699
▁calibra	-11.17
▁logica	-11.1702
029	-11.1705
/24	-11.1705
▁separa	-11.1709
017	-11.171
▁documenta	-11.1711
aosta	-11.1711
▁850	-11.1713
▁rilievo	-11.1716
▁storiche	-11.1717
▁paura	-11.172
▁visitate	-11.172
▁tower	-11.1723
▁azionamento	-11.1725
▁quarti	-11.1726
▁manuel	-11.1727
9.5	-11.1728
rolo	-11.1729
▁inclusive	-11.1731
▁cbd	-11.1732
▁meccanismo	-11.1734
▁fianco	-11.1734
▁avvio	-11.1735
▁prevenire	-11.1737
▁lavoratori	-11.1737
▁glu	-11.1747
▁veramente	-11.1747
2.2	-11.1748
ambu	-11.1749
▁sporco	-11.1751
▁recinto	-11.1751
▁capsula	-11.1752
▁showroom	-11.1753
▁telefonica	-11.1756
▁provi	-11.1757
▁god	-11.1757
▁kris	-11.1758
fatto	-11.1759
410	-11.1763
ché	-11.1765
▁vigna	-11.1767
440	-11.1768
span	-11.1769
▁grassa	-11.1769
▁ventilazione	-11.177
▁riposo	-11.177
▁graffi	-11.1771
▁1800	-11.1773
▁114	-11.1773
175	-11.1774
▁matrice	-11.1774
▁serena	-11.1778
▁brava	-11.1779
▁candida	-11.178
▁tagliatrice	-11.1784
▁ammortizza	-11.1787
▁cassaforte	-11.1787
▁aggiornati	-11.1792
▁lug	-11.1795
▁pulita	-11.1798
economia	-11.1799
orso	-11.1802
▁esplorare	-11.1803
ovest	-11.1804
▁caricabatterie	-11.1804
▁poliuretano	-11.1804
н	-11.1804
▁finanziaria	-11.1807
310	-11.1807
▁associazioni	-11.1809
chiaro	-11.1814
space	-11.1815
▁(28)	-11.1821
▁esitate	-11.1822
▁ungheria	-11.1822
▁sorge	-11.1824
▁pensieri	-11.1824
▁compatibili	-11.1825
▁temperato	-11.1826
▁perdite	-11.1828
▁dirige	-11.183
▁terreni	-11.1832
architettura	-11.1834
▁creative	-11.1835
▁liscia	-11.1836
▁track	-11.1836
▁commissioni	-11.184
007	-11.1843
▁410	-11.1843
servizi	-11.1843
▁impiego	-11.1847
▁tornei	-11.1858
▁nuoto	-11.1858
▁prigione	-11.1859
▁tagliare	-11.1863
173	-11.1863
▁cock	-11.1865
2.3	-11.1867
▁palle	-11.1874
▁esposizioni	-11.1876
▁stranieri	-11.1876
▁uniche	-11.1878
▁0,3	-11.1878
▁assorbimento	-11.1884
▁placcato	-11.1885
forme	-11.1888
simo	-11.1892
▁messi	-11.1893
▁raccolto	-11.1894
▁notifiche	-11.1894
▁agro	-11.1895
▁rilevazione	-11.1895
▁torte	-11.1896
▁ssl	-11.1896
▁charles	-11.1898
fili	-11.19
uru	-11.1901
144	-11.1903
carton	-11.1904
▁regolabili	-11.1905
▁targa	-11.1907
▁beau	-11.191
▁microfibra	-11.1911
▁building	-11.1912
▁inverter	-11.1912
nauti	-11.1913
▁bobine	-11.1913
▁cop	-11.1914
▁industrial	-11.1914
▁winter	-11.1916
elba	-11.1917
▁woman	-11.1921
▁facoltativo	-11.1922
mostra	-11.1923
/2020	-11.1923
efficienza	-11.1924
▁solar	-11.1925
460	-11.1927
▁comoda	-11.1928
▁fascio	-11.1929
▁immagina	-11.1929
▁indimenticabile	-11.1929
▁trasparenza	-11.1929
▁diagnosi	-11.1929
▁microfono	-11.1929
▁fisico	-11.193
support	-11.1931
▁scopi	-11.1931
wall	-11.1936
team	-11.1938
▁sonda	-11.1941
propri	-11.1942
steria	-11.1943
filo	-11.1946
▁trail	-11.1947
▁ravenna	-11.1947
▁fattore	-11.1948
▁tentacoli	-11.1948
▁bernard	-11.1951
▁macro	-11.1952
▁magica	-11.1957
▁rt	-11.1959
music	-11.1962
▁calci	-11.1964
▁trama	-11.1965
abruzzo	-11.1968
▁wu	-11.197
▁chiude	-11.1972
▁103	-11.1973
/05	-11.1973
▁rag	-11.1974
▁venditore	-11.1974
ssero	-11.1983
avanguardia	-11.1983
▁incredibile	-11.1983
▁probabilmente	-11.1983
▁innovativo	-11.1984
▁round	-11.1985
▁pd	-11.1986
▁cavour	-11.1987
amplificatore	-11.1987
▁piece	-11.1988
esportazione	-11.1997
blue	-11.1999
▁dettagliate	-11.2
▁martini	-11.2001
▁maiorca	-11.2002
▁normalmente	-11.2003
antico	-11.2003
▁telefonico	-11.2004
▁sano	-11.2004
bianca	-11.2005
▁statua	-11.2006
▁chris	-11.2006
▁venire	-11.2011
▁noleggiare	-11.2013
▁pool	-11.2014
▁indicatori	-11.2015
333	-11.2016
▁marti	-11.2016
carta	-11.2016
▁virtual	-11.2017
▁lettori	-11.2018
▁ethernet	-11.202
▁residenze	-11.202
▁aurora	-11.202
▁gonfiabili	-11.2021
▁ragusa	-11.2021
▁dialogo	-11.2022
▁bacche	-11.2022
▁shu	-11.2024
▁hz	-11.2027
▁spre	-11.2027
▁pagato	-11.2028
▁franc	-11.203
▁smalto	-11.204
▁pellet	-11.2041
ía	-11.2046
▁eroi	-11.2048
▁psi	-11.205
157	-11.2055
▁julia	-11.2055
▁attraversa	-11.2057
▁ciascuno	-11.2057
▁spada	-11.2059
▁classificato	-11.2062
▁tornare	-11.2065
▁partecipato	-11.2066
%).	-11.2066
▁accogliente	-11.2066
▁unione	-11.2066
▁governa	-11.207
▁monastero	-11.2074
▁arredi	-11.2075
▁attivare	-11.2084
ggy	-11.2085
▁basse	-11.2088
▁future	-11.209
▁barber	-11.209
▁libert	-11.2091
▁(32)	-11.2091
▁inserti	-11.2092
ampia	-11.2092
▁crystal	-11.2092
▁gabbana	-11.2092
7]	-11.2093
▁moderne	-11.2094
▁bagnato	-11.2099
emia	-11.21
▁esteri	-11.2102
▁90%	-11.2103
▁pressi	-11.2103
▁boss	-11.2103
▁gale	-11.2103
▁posiziona	-11.2104
▁angela	-11.2108
▁territori	-11.2109
▁israele	-11.2111
▁gigante	-11.2111
▁salerno	-11.2111
▁fontane	-11.2113
▁jin	-11.2119
▁condensa	-11.2121
▁amare	-11.2126
▁amministratore	-11.2126
▁grana	-11.2127
▁multifunzionale	-11.2129
▁ritrova	-11.2129
ormone	-11.2137
enda	-11.2138
▁posizionata	-11.2138
▁25%	-11.2139
▁localizzazione	-11.214
187	-11.2145
▁farfalla	-11.2147
▁taggati	-11.2148
▁1.7	-11.2149
▁alza	-11.2154
▁heat	-11.2155
▁shin	-11.2157
▁presentare	-11.2158
▁trader	-11.216
▁ricevitore	-11.2161
▁user	-11.2162
▁great	-11.2162
▁numerose	-11.2164
▁vendemmia	-11.2166
▁proiezione	-11.2166
▁sostenere	-11.2166
▁bottoni	-11.2166
hour	-11.2166
▁focus	-11.2169
▁avvisi	-11.217
icità	-11.217
▁sentire	-11.217
▁giudizio	-11.217
▁stor	-11.2171
▁security	-11.2171
▁gonna	-11.2174
▁natalizi	-11.2178
hong	-11.2181
▁filtrazione	-11.2182
▁crisi	-11.2182
▁dedicati	-11.2183
▁capital	-11.2184
▁collegati	-11.2184
▁pulsanti	-11.2184
disciplina	-11.2184
▁parametro	-11.2187
▁giulio	-11.2189
▁pianeta	-11.2192
▁brut	-11.2192
▁fondatore	-11.2194
▁riservato	-11.2195
pelli	-11.2196
▁pompei	-11.2199
▁festivi	-11.22
evole	-11.22
▁script	-11.2201
5]	-11.2201
▁innovative	-11.2203
▁circuiti	-11.2203
▁monumenti	-11.2203
▁reparto	-11.2203
▁teresa	-11.2204
▁dinamico	-11.2204
▁1989	-11.2205
▁table	-11.2205
▁incasso	-11.2205
▁frutto	-11.221
▁carrelli	-11.2211
culo	-11.2212
▁1100	-11.2216
215	-11.2218
▁input	-11.2219
▁martina	-11.2219
cchetto	-11.2219
▁iniziò	-11.2223
▁gmt	-11.2223
ologico	-11.2226
▁950	-11.2227
▁verticali	-11.2229
▁connect	-11.223
▁macchinario	-11.2232
grado	-11.2232
3.1	-11.2235
insegna	-11.2235
▁emoziona	-11.224
▁first	-11.224
▁21:00	-11.2244
▁gab	-11.225
3.3	-11.2252
158	-11.2253
hard	-11.2253
▁cortile	-11.2256
gru	-11.2256
▁curiosità	-11.2258
▁emirati	-11.2258
▁accetti	-11.2259
▁credo	-11.226
▁notevole	-11.226
micro	-11.226
▁japan	-11.2261
▁165	-11.2268
▁merano	-11.2269
▁element	-11.2269
▁mul	-11.227
▁126	-11.2271
▁compilazioni	-11.2275
▁pubblicati	-11.2276
▁asciugacapelli	-11.2277
▁guarnizioni	-11.2277
▁segreteria	-11.2277
▁floreale	-11.2277
▁spaghetti	-11.2277
▁teenager	-11.2277
▁desidero	-11.2277
1⁄2	-11.2278
▁nicole	-11.2281
▁720	-11.2284
▁engineering	-11.2295
scatola	-11.2296
▁10000	-11.2298
▁interessi	-11.23
▁16:00	-11.2302
▁contatore	-11.2303
▁lite	-11.2306
▁espressi	-11.2309
turismo	-11.231
logico	-11.2312
rocco	-11.2312
▁controllata	-11.2312
obiettivo	-11.2313
ospedale	-11.2313
▁1,0	-11.2313
▁nascosto	-11.2314
▁rm	-11.2315
band	-11.2315
▁regista	-11.2316
isolamento	-11.2319
europe	-11.232
▁arianna	-11.2321
open	-11.2322
▁resiste	-11.2325
▁intimo	-11.2326
tronic	-11.2327
▁rss	-11.2327
▁arca	-11.2329
▁calcestruzzo	-11.2333
▁protagonista	-11.2333
▁svuota	-11.2333
▁1-2	-11.2333
▁materasso	-11.2334
▁avrebbe	-11.2335
▁manifestazioni	-11.2335
▁intima	-11.2336
▁medical	-11.2341
▁esistenti	-11.2342
▁intervallo	-11.2343
▁romani	-11.2344
▁visa	-11.2347
▁indici	-11.2347
▁noti	-11.2349
▁cade	-11.2349
▁profuma	-11.2349
▁petto	-11.2351
▁clinic	-11.2351
▁nautica	-11.2352
▁berg	-11.2355
▁morti	-11.236
coppia	-11.2361
eventi	-11.2363
▁separatore	-11.2367
▁duplex	-11.237
▁autostrada	-11.2371
metti	-11.2378
▁cell	-11.2382
▁riunione	-11.2384
occasione	-11.2388
▁portfolio	-11.2389
345	-11.239
▁113	-11.2391
wheel	-11.2394
▁cresce	-11.2397
centro	-11.2399
▁hair	-11.2404
▁spirit	-11.2404
▁britannico	-11.2408
▁occasioni	-11.2408
▁cifre	-11.2408
▁conduttore	-11.2408
▁unisex	-11.241
chette	-11.2411
audi	-11.2412
▁5.0	-11.2416
▁8:00	-11.2416
▁palme	-11.2416
▁opel	-11.2418
enzi	-11.242
▁jam	-11.2421
▁lauren	-11.2421
▁arancia	-11.2422
▁corporation	-11.2427
▁scritta	-11.2427
apparecchiatura	-11.2427
▁who	-11.2427
▁kur	-11.2429
▁atlantico	-11.2431
▁sondaggi	-11.2433
invia	-11.2436
▁fatte	-11.2436
igea	-11.2438
▁vediamo	-11.2441
▁immediata	-11.2442
▁penne	-11.2445
▁valley	-11.2446
▁piuttosto	-11.2446
▁aperitivo	-11.2446
▁compresi	-11.2446
▁rimani	-11.2447
pill	-11.2451
▁cook	-11.246
kel	-11.2465
incontro	-11.2469
▁asp	-11.2473
▁1988	-11.2473
▁slip	-11.2473
▁villaggi	-11.2474
chy	-11.2474
▁tratto	-11.2478
▁squi	-11.2482
▁competizione	-11.2484
▁gadget	-11.2484
▁francoforte	-11.2484
▁dramma	-11.2488
▁casse	-11.249
▁bordi	-11.249
▁lock	-11.2491
▁pile	-11.2492
▁naturalmente	-11.2492
▁chiusi	-11.2493
▁whi	-11.2495
▁trasformatore	-11.2496
maria	-11.2499
▁catene	-11.2503
▁biennale	-11.2503
▁guadagno	-11.2503
▁★	-11.2503
▁cittadini	-11.2503
izzata	-11.2504
▁rigo	-11.2506
▁vitello	-11.2508
▁like	-11.2509
nding	-11.252
▁marconi	-11.2521
▁fb	-11.2521
cookie	-11.2522
gmail	-11.2524
yard	-11.2526
▁maniglie	-11.2527
▁applicata	-11.2528
kon	-11.2528
▁banchi	-11.2533
taglio	-11.2534
udine	-11.2536
▁leggeri	-11.2537
market	-11.2539
▁alexander	-11.2541
▁precisa	-11.2541
▁singole	-11.2541
accademia	-11.2541
▁cablaggio	-11.2542
▁signori	-11.2543
470	-11.2544
▁offrendo	-11.2545
▁dipinti	-11.2546
▁rude	-11.2546
▁codifica	-11.2546
2.8	-11.2546
town	-11.2546
▁compara	-11.2547
▁0.01	-11.2549
▁tt	-11.255
indagine	-11.2551
face	-11.2555
▁corretta	-11.2557
▁calciatore	-11.2561
▁conosciuto	-11.2561
▁tropical	-11.2564
avana	-11.2564
▁frame	-11.2571
▁144	-11.2573
▁anticipa	-11.2575
▁19.00	-11.2576
▁fondato	-11.2576
▁nautico	-11.2579
▁automatiche	-11.258
▁forniture	-11.2583
bilmente	-11.2584
▁motiva	-11.2589
cams	-11.259
▁granito	-11.259
eller	-11.2591
▁jen	-11.2591
▁cori	-11.2592
▁stampati	-11.2596
▁soggiorna	-11.2599
▁minerali	-11.2599
ual	-11.2599
▁santorini	-11.26
▁cyber	-11.26
▁sandali	-11.2602
▁implementa	-11.2604
▁equipaggi	-11.2604
bene	-11.2605
▁ticino	-11.2613
▁impermeabili	-11.2615
chan	-11.2616
▁gioielleria	-11.2617
▁anonimo	-11.2617
▁globali	-11.2618
how	-11.262
▁preserva	-11.2621
▁cape	-11.2622
▁kon	-11.2625
720	-11.2628
▁apprendimento	-11.2634
▁assembla	-11.2635
▁affascina	-11.2637
▁splendido	-11.2637
▁bambina	-11.2637
▁sorriso	-11.2637
▁cpu	-11.2637
▁palmanova	-11.2638
perdita	-11.2639
226	-11.264
tool	-11.2647
▁ministro	-11.2652
▁philip	-11.2653
▁origini	-11.2654
▁preghiera	-11.2656
▁spruzza	-11.2656
▁smith	-11.2656
▁soffia	-11.2657
impronta	-11.2657
▁rd	-11.2663
circa	-11.2663
▁edilizia	-11.2663
006	-11.2663
regola	-11.2666
▁two	-11.2666
009	-11.2666
▁0.4	-11.2671
▁desiderio	-11.2673
tologia	-11.2675
▁referenze	-11.2675
▁canadese	-11.2675
▁leggermente	-11.2675
2.7	-11.2676
▁sudafrica	-11.2677
▁nava	-11.2679
▁discover	-11.2683
ocche	-11.2683
▁guido	-11.2685
▁simula	-11.2686
▁correzione	-11.2687
▁fatturazione	-11.2691
207	-11.2694
▁velluto	-11.2695
▁magnete	-11.2695
▁santiago	-11.2696
▁cialis	-11.2696
▁aggiuntive	-11.2701
▁dottor	-11.2703
▁coperti	-11.2704
▁wire	-11.2709
163	-11.2711
▁girls	-11.2712
▁intrattenimento	-11.2713
▁scherma	-11.2714
▁siracusa	-11.2714
▁riconosce	-11.2714
▁enterprise	-11.2715
▁layout	-11.2715
▁paste	-11.2719
▁premier	-11.2719
▁acquisizione	-11.272
▁strap	-11.272
▁simulazione	-11.2723
▁ampiamente	-11.2724
▁donazione	-11.2724
▁token	-11.2725
▁indoor	-11.2725
libri	-11.2729
▁attrezzata	-11.2734
▁esattamente	-11.2734
▁rettangolare	-11.2734
▁riferimenti	-11.2734
▁positivo	-11.2734
▁appartement	-11.2734
▁finanza	-11.2735
-2015	-11.2737
cover	-11.2738
▁turn	-11.2752
▁linguaggio	-11.2753
▁tb	-11.2753
▁gilet	-11.2753
▁idraulici	-11.2753
atmosfera	-11.2756
▁fassa	-11.2757
▁teoria	-11.2758
▁affrontare	-11.2762
▁fida	-11.2764
road	-11.2771
luci	-11.2772
▁infrarossi	-11.2773
▁vetroresina	-11.2773
▁deutsch	-11.2773
179	-11.2773
▁skipass	-11.2774
▁indossare	-11.2774
▁afferma	-11.2774
▁image	-11.2775
google	-11.2776
▁servire	-11.2776
▁events	-11.2776
570	-11.2776
195	-11.2777
▁verniciato	-11.278
giovanissime	-11.2787
▁fisse	-11.2789
▁fresa	-11.2791
▁foot	-11.2794
▁discesa	-11.2794
▁episodio	-11.2799
sala	-11.28
▁bulgaria	-11.2801
drive	-11.2805
▁ubriaco	-11.2812
ubicazione	-11.2812
▁verdura	-11.2813
▁liquida	-11.2813
▁diffuso	-11.2814
385	-11.2815
vetta	-11.2819
▁cassetto	-11.282
▁inclina	-11.282
grammi	-11.2822
▁decade	-11.2822
1.6	-11.2824
▁navigare	-11.2825
edu	-11.2829
▁rare	-11.283
177	-11.2831
▁category	-11.2831
▁santuario	-11.2831
▁giustizia	-11.2833
185	-11.2834
▁iscr	-11.2834
umidità	-11.2835
registra	-11.2835
▁protettivo	-11.2835
▁generalmente	-11.2837
▁dhl	-11.2837
▁venite	-11.2837
▁fp	-11.284
osità	-11.2841
▁riconosci	-11.2843
▁cree	-11.2844
▁freni	-11.2846
smart	-11.2847
▁340	-11.2847
▁potenziale	-11.2851
▁padrona	-11.2852
front	-11.2854
▁hua	-11.286
▁name	-11.2861
▁bbc	-11.2864
▁goccia	-11.2866
ometro	-11.287
▁rottura	-11.2871
▁immersioni	-11.2872
▁picture	-11.2873
scopio	-11.2874
▁engine	-11.2875
▁pension	-11.2877
▁anch	-11.2878
appoggio	-11.2883
▁bambù	-11.2891
▁mandrino	-11.2891
▁circ	-11.2893
dona	-11.2894
▁contabilità	-11.2895
▁collocato	-11.2895
▁chiudere	-11.2898
▁15.00	-11.2898
congela	-11.2903
▁brano	-11.2905
▁manga	-11.2905
▁nordic	-11.2907
▁+86	-11.2909
firm	-11.2915
▁viagra	-11.2916
▁produzioni	-11.2917
url	-11.2918
▁sanitaria	-11.2918
▁udine	-11.2919
▁critica	-11.292
▁carichi	-11.2921
andri	-11.2922
war	-11.2927
370	-11.2929
▁conferimento	-11.293
▁merito	-11.2931
▁mondiali	-11.2932
▁cascina	-11.2934
▁leviga	-11.2937
organi	-11.2937
aspetto	-11.2938
301	-11.2943
ologici	-11.2944
6]	-11.2944
▁sunny	-11.2948
lou	-11.2949
▁walk	-11.295
▁contemporaneo	-11.295
▁confezionamento	-11.295
▁amburgo	-11.2951
▁rimase	-11.2953
▁estremo	-11.2954
▁know	-11.2954
ragazza	-11.2955
147	-11.2955
▁manu	-11.2957
▁vogliamo	-11.2959
▁ospitare	-11.2964
▁preparato	-11.2965
▁psicologi	-11.2969
▁giornale	-11.297
▁muscolare	-11.2971
▁consumi	-11.2972
234	-11.2972
▁principianti	-11.2973
▁asian	-11.2978
▁omni	-11.2979
▁riduttore	-11.299
▁laptop	-11.299
▁guerri	-11.299
▁occhio	-11.2991
9.99	-11.2991
▁escluso	-11.2992
213	-11.2993
▁vicinanza	-11.2993
milf	-11.2997
▁attivita	-11.3
▁montato	-11.3001
▁metalliche	-11.3002
scape	-11.3006
▁carmen	-11.3008
▁health	-11.301
chang	-11.3019
▁1986	-11.302
▁evoluzione	-11.3023
▁1980	-11.3023
174	-11.3024
▁(29)	-11.3024
▁ridur	-11.3025
ciano	-11.3027
▁supermercato	-11.303
▁accredita	-11.303
▁kara	-11.3032
▁diagnostica	-11.3033
070	-11.3034
▁specializzata	-11.3034
3.6	-11.304
try	-11.3041
290	-11.3043
▁cinesi	-11.3047
▁giuridica	-11.305
▁sydney	-11.305
▁pattaya	-11.305
▁agricole	-11.3051
▁109	-11.3052
▁dettagliata	-11.3052
▁emerge	-11.3053
▁gestisci	-11.3053
colla	-11.3055
305	-11.3057
▁professore	-11.3059
▁efficaci	-11.3064
▁general	-11.3065
▁lavare	-11.3069
▁days	-11.3069
▁12.00	-11.307
▁coordinamento	-11.307
▁monolocale	-11.3071
▁fiscali	-11.3071
▁impostazione	-11.3072
▁active	-11.3078
▁well	-11.308
vello	-11.3081
▁stick	-11.3083
▁marini	-11.3086
▁gelati	-11.3088
▁triple	-11.3095
mobile	-11.3107
lombard	-11.3109
</	-11.3109
▁frizione	-11.311
▁mdf	-11.311
▁decorativo	-11.3111
▁tessera	-11.3111
zano	-11.3113
▁little	-11.3114
▁tenuto	-11.3115
6.0	-11.3115
5000	-11.3117
istituto	-11.3117
▁monza	-11.3118
▁hyper	-11.3121
▁colorati	-11.3123
place	-11.3125
▁aspira	-11.3127
▁coordinate	-11.3131
169	-11.3131
▁container	-11.3131
▁avenue	-11.3132
228	-11.3132
▁riciclaggio	-11.3134
▁funzionali	-11.3135
▁disney	-11.3135
▁tendenza	-11.3136
legge	-11.3138
▁assisi	-11.3138
▁nido	-11.3138
carico	-11.3142
▁rimorchio	-11.3143
▁bosch	-11.3143
▁127	-11.3147
▁refriger	-11.3148
quin	-11.3149
6.00	-11.3149
▁soggiornare	-11.315
▁parts	-11.315
▁scrivania	-11.3151
▁differenze	-11.3151
▁bretagna	-11.3151
▁infiniti	-11.3152
▁giovedi	-11.3153
2.6	-11.3154
▁arezzo	-11.3156
▁kir	-11.3164
206	-11.3165
▁cfd	-11.3167
▁filippine	-11.3169
size	-11.3169
mura	-11.3169
▁affiliazione	-11.3171
▁mutandine	-11.3171
▁scientifico	-11.3171
▁allevamento	-11.3172
▁simona	-11.3175
▁natural	-11.3175
polvere	-11.318
formi	-11.3181
▁gf	-11.3181
▁cure	-11.3182
▁giornali	-11.3183
▁coppe	-11.3184
▁atlantic	-11.3188
▁atmosfera	-11.3189
▁ibis	-11.3191
▁eccellenti	-11.3192
▁tranquilla	-11.3192
▁disturbi	-11.3192
375	-11.3193
▁sostituire	-11.3194
▁fuji	-11.3195
159	-11.3205
▁ricrea	-11.3205
▁filetto	-11.3211
▁casalinghe	-11.3212
▁affidabili	-11.3213
▁normali	-11.3213
2.4	-11.3217
▁necessarie	-11.322
▁vola	-11.3222
▁nail	-11.3225
ohm	-11.3227
405	-11.3228
▁facoltà	-11.3233
▁bucarest	-11.3233
▁intreccia	-11.3233
▁tecnologico	-11.3233
orienta	-11.3234
▁tg	-11.3237
▁gestito	-11.3239
166	-11.3239
config	-11.324
▁comodi	-11.324
▁1600	-11.325
▁crudo	-11.3251
▁esigenza	-11.3253
▁+41	-11.3256
▁solidi	-11.3258
esistenza	-11.3262
islam	-11.3265
cara	-11.3266
▁trattato	-11.3267
610	-11.3268
▁phil	-11.3269
▁cicciolina	-11.3274
▁extravergine	-11.3274
▁obblighi	-11.3274
▁religione	-11.3274
▁conducente	-11.3274
▁naxos	-11.3274
▁georgia	-11.3274
▁archeologico	-11.3274
▁uscire	-11.3274
▁michelangelo	-11.3274
▁snap	-11.3274
▁trucchi	-11.3278
▁giusti	-11.3281
▁terminal	-11.3281
▁visitatore	-11.3286
▁rent	-11.3287
porti	-11.3288
198	-11.3288
▁quante	-11.3291
▁rifiuta	-11.3294
▁pullman	-11.3294
▁1.9	-11.3295
▁estesa	-11.3296
165	-11.3297
▁mhz	-11.3297
▁quartet	-11.3299
abbigliamento	-11.3303
▁organizzati	-11.3303
▁gate	-11.3305
▁spy	-11.3305
▁cantante	-11.3309
▁istantanea	-11.3315
▁colombia	-11.3315
▁snowboard	-11.3315
▁castle	-11.3317
analizzatore	-11.3317
▁podere	-11.3319
▁contributi	-11.3319
▁terri	-11.3321
original	-11.3324
▁importo	-11.3324
***	-11.3325
▁alpina	-11.3325
▁sesto	-11.3326
▁cosi	-11.3328
▁splendide	-11.3336
▁gomito	-11.3336
▁calibro	-11.3337
▁delicato	-11.3338
▁culture	-11.3338
▁venise	-11.3339
-2013	-11.3341
▁estivi	-11.3346
▁classiche	-11.3346
▁ossigeno	-11.3347
blocco	-11.3349
intelligenza	-11.3356
▁rinforzo	-11.3356
▁rubinetto	-11.3356
▁abbandona	-11.3356
▁relè	-11.3357
▁medievale	-11.3357
▁meditazione	-11.3358
▁falso	-11.3359
▁trevi	-11.336
▁acquistato	-11.3365
▁reimposta	-11.3366
▁professionalità	-11.3366
▁separazione	-11.3367
▁public	-11.3367
▁aceto	-11.337
▁ausiliari	-11.3375
▁assiste	-11.3375
▁welcome	-11.3377
idro	-11.3379
330	-11.3381
▁fortezza	-11.3383
cycle	-11.3383
efficacia	-11.3383
▁1985	-11.3386
▁schemi	-11.3386
-390	-11.3388
▁tec	-11.3391
▁430	-11.3393
▁gift	-11.3397
▁bagaglio	-11.3397
▁avviene	-11.3398
▁testimonianze	-11.3398
▁gioiello	-11.3398
▁giulietta	-11.3398
▁orgoglio	-11.3398
▁parziale	-11.3398
▁speranza	-11.3398
▁movimenti	-11.3398
▁adorabile	-11.3398
▁giuliano	-11.3403
▁comment	-11.3403
▁cervia	-11.3404
▁multipla	-11.3411
▁shoes	-11.3416
▁provenienti	-11.3419
▁campionati	-11.3419
▁centimetri	-11.3419
▁protezioni	-11.3419
▁quote	-11.3419
▁obbligatoria	-11.342
▁tm	-11.342
▁associato	-11.3422
giano	-11.3422
▁!!!	-11.3423
**	-11.3428
▁barocco	-11.3428
520	-11.3431
▁cortina	-11.3434
classic	-11.3436
▁07:00	-11.3437
ppy	-11.3437
edit	-11.3439
▁alien	-11.3439
▁artigianali	-11.344
▁cuscini	-11.344
▁storage	-11.344
▁pinze	-11.3448
▁lisa	-11.3449
pure	-11.3449
168	-11.345
▁altoparlante	-11.3451
▁vitamine	-11.3452
▁kib	-11.3453
▁monouso	-11.3454
▁=>	-11.3455
▁divide	-11.3457
attivo	-11.3459
▁arrampicata	-11.346
▁nonostante	-11.346
▁trasmettitore	-11.346
▁benedetto	-11.3462
▁fune	-11.3462
▁scambisti	-11.3464
mide	-11.3467
▁mamme	-11.3469
▁aggr	-11.3473
biz	-11.3477
▁states	-11.3478
dove	-11.348
▁spugna	-11.3481
▁texas	-11.3482
▁antincendio	-11.3482
▁cash	-11.3484
belle	-11.3485
▁0.8	-11.3491
adesivo	-11.3493
▁suoni	-11.3493
▁titan	-11.3494
velli	-11.3496
▁camino	-11.35
▁output	-11.3501
nium	-11.3502
▁consumatori	-11.3508
4.8	-11.3508
▁comi	-11.351
▁rj	-11.3511
▁boat	-11.3516
▁lettone	-11.3519
▁1920	-11.352
141	-11.3523
▁britannica	-11.3523
▁lituano	-11.3524
▁oxford	-11.3524
chilowatt	-11.3524
hara	-11.3524
▁stretch	-11.3525
infanzia	-11.3525
▁superficiale	-11.3528
▁zucca	-11.3529
▁potrà	-11.3529
▁cortesia	-11.3531
▁panoramico	-11.3531
prime	-11.3532
9.0	-11.3534
▁generatori	-11.3534
agricoltura	-11.3534
▁verificato	-11.3536
lui	-11.3539
dolo	-11.3544
▁hilton	-11.3545
▁senior	-11.3545
▁pavimentazione	-11.3548
▁60%	-11.3556
▁march	-11.3558
estratto	-11.356
tenuta	-11.356
insegnamento	-11.3561
▁curriculum	-11.3566
▁update	-11.3566
▁bilocale	-11.3567
cross	-11.3569
▁balance	-11.357
entrata	-11.3573
▁florida	-11.3575
▁sarai	-11.3581
▁saloni	-11.3582
630	-11.3583
▁xiaomi	-11.3587
▁vocale	-11.3587
▁famosi	-11.3588
▁connessioni	-11.3588
▁sensibili	-11.3588
▁riconoscimenti	-11.3589
attrice	-11.359
8.1	-11.359
▁corporate	-11.3593
▁tara	-11.3594
▁inaugurazione	-11.3597
▁ovale	-11.3602
▁seat	-11.3605
▁(34)	-11.3607
▁mediterranee	-11.3608
▁ingressi	-11.3608
▁legati	-11.3609
▁definire	-11.3609
▁uccide	-11.3609
▁ammira	-11.361
▁angoli	-11.3611
▁bandi	-11.3612
modern	-11.3616
attenzione	-11.362
friend	-11.362
▁final	-11.3621
tendono	-11.3627
▁urbani	-11.3628
▁donato	-11.3629
moda	-11.363
▁truffa	-11.3631
some	-11.3636
grass	-11.3637
▁suola	-11.3637
elettro	-11.3641
index	-11.3642
metraggi	-11.3642
50€	-11.3644
▁limitazione	-11.3645
▁radice	-11.3648
▁svolta	-11.3649
▁ulteriore	-11.3651
▁camicie	-11.3651
▁emissioni	-11.3651
▁progettare	-11.3653
▁denim	-11.3655
ristrutturazione	-11.3656
▁brune	-11.3658
▁albert	-11.3659
esame	-11.366
▁lipo	-11.3663
▁juan	-11.3665
▁1984	-11.3666
▁dizionario	-11.3672
squirt	-11.3672
▁bravotube	-11.3672
▁amalfitana	-11.3672
▁questione	-11.3672
▁ritardo	-11.3673
▁metallici	-11.3675
▁pendente	-11.3675
▁prossimità	-11.3676
▁petit	-11.368
metrica	-11.3685
▁1987	-11.3685
▁elisa	-11.3685
importo	-11.3688
(8	-11.3688
▁(33)	-11.3688
▁koh	-11.3689
▁ič	-11.369
▁ruba	-11.3691
▁indipendenti	-11.3694
▁solitamente	-11.3694
▁falesia	-11.3694
▁celle	-11.3694
stop	-11.3695
▁priorità	-11.3695
▁ferie	-11.3696
▁specializzato	-11.37
▁charter	-11.3701
alloggio	-11.3706
▁compagnie	-11.371
▁considerato	-11.3712
▁content	-11.3713
▁gerusalemme	-11.3715
▁scientifica	-11.3715
▁bondage	-11.3715
▁cancello	-11.3717
▁fresatura	-11.3718
▁impulso	-11.3719
▁gastronomia	-11.3719
▁copre	-11.3719
▁magi	-11.3725
▁riprese	-11.3729
▁accordi	-11.3733
prof	-11.3734
▁nucleo	-11.3737
▁brasiliano	-11.3737
▁romanzo	-11.3737
▁talk	-11.3739
8]	-11.3746
▁icone	-11.3746
▁185	-11.375
limit	-11.3751
▁april	-11.3752
▁castella	-11.3756
▁95%	-11.3756
660	-11.3757
▁ricoperto	-11.3758
▁riviste	-11.3758
▁sveglia	-11.3758
▁converter	-11.3758
▁estratti	-11.376
▁pollice	-11.376
▁contesto	-11.3764
▁esper	-11.3766
377	-11.377
olone	-11.3771
pping	-11.3772
▁sanitario	-11.3774
▁reazione	-11.3775
▁snow	-11.3775
▁mozzarella	-11.378
▁sufficiente	-11.378
▁pakistan	-11.378
▁pola	-11.378
▁florenz	-11.378
▁wiki	-11.378
cosa	-11.378
▁finanziario	-11.3785
189	-11.3787
▁malaga	-11.3791
▁letteratura	-11.3791
^	-11.3793
radio	-11.3797
▁rappresentante	-11.3797
▁87.90(	-11.3801
▁corfù	-11.3801
▁atelier	-11.3802
▁force	-11.3803
▁panerai	-11.3803
▁sacchi	-11.3805
▁rubino	-11.3805
▁studentessa	-11.3808
▁aaa	-11.3809
▁pensare	-11.3815
png	-11.3817
008	-11.3818
▁campeggi	-11.3818
8,5	-11.3819
▁jacuzzi	-11.3823
▁rispondi	-11.3823
▁possesso	-11.3823
▁sorveglianza	-11.3825
▁cromato	-11.3826
▁с	-11.3834
▁mostri	-11.3834
▁variazioni	-11.3836
informazione	-11.3837
1.4	-11.3839
▁raccomandato	-11.3839
apos	-11.3844
▁livorno	-11.3845
risto	-11.3845
▁elettroniche	-11.3846
kha	-11.385
▁potenziali	-11.3851
▁miscelatore	-11.3855
1500	-11.3856
sella	-11.3856
▁0.6	-11.3857
▁job	-11.3857
tessuto	-11.3859
onale	-11.3861
▁total	-11.3862
foglio	-11.3863
▁source	-11.3865
▁magnesio	-11.3867
▁sinistro	-11.3867
kka	-11.3867
▁collaudo	-11.3867
▁dovuto	-11.3869
▁nutrizione	-11.387
▁pubblicata	-11.3871
▁naso	-11.3872
▁sostanza	-11.3872
scritto	-11.3873
▁monitorare	-11.3875
▁fabbri	-11.3876
▁commerci	-11.388
importazione	-11.3883
▁accessi	-11.3883
fiore	-11.3884
▁autorizzazione	-11.3886
arcobaleno	-11.3888
▁1,4	-11.3888
▁risolto	-11.3889
▁isolato	-11.389
▁rotoli	-11.389
1.8	-11.3893
▁radica	-11.3893
▁sedili	-11.3893
▁deep	-11.3896
▁wr	-11.3897
▁igiene	-11.3898
▁spero	-11.3902
temporaneamente	-11.3903
richiesto	-11.3903
▁vicine	-11.3905
edge	-11.3906
▁13:00	-11.3908
▁item	-11.3909
assaggio	-11.391
▁meraviglioso	-11.391
▁trattore	-11.3912
▁php	-11.3912
▁soia	-11.3914
bay	-11.3915
vpn	-11.3916
(9	-11.3916
▁bracciali	-11.3918
▁fermo	-11.3918
▁tocchi	-11.3921
176	-11.3921
vecchia	-11.3921
cchini	-11.3923
identità	-11.3925
elemento	-11.3928
▁tiffany	-11.3932
▁trapano	-11.3933
▁refrigerazione	-11.3934
andrea	-11.3935
▁adattatori	-11.3935
▁selezionate	-11.3937
▁giunto	-11.3939
▁maglietta	-11.3941
▁presentazioni	-11.3941
shan	-11.3942
▁intende	-11.3944
ottobre	-11.3951
ín	-11.3952
load	-11.3953
▁esibizioni	-11.3954
▁adriatico	-11.3954
▁assorbe	-11.3954
▁didattica	-11.3954
▁deciso	-11.3955
▁federica	-11.3956
▁polso	-11.3959
▁preparati	-11.3962
340	-11.3962
quadra	-11.3963
▁radici	-11.3966
stanza	-11.3966
50,00	-11.3967
039	-11.3968
▁compli	-11.3971
▁creativa	-11.3973
▁bei	-11.3975
▁competitivi	-11.3976
▁fantasy	-11.3976
▁traghetti	-11.3976
▁pneumatica	-11.3976
▁ridotta	-11.3976
▁mattonelle	-11.3977
▁taglierina	-11.3979
▁biologici	-11.3979
▁twist	-11.398
▁cornici	-11.3981
▁spostare	-11.3984
▁3.7	-11.3985
▁baglioni	-11.3986
▁assistente	-11.3986
▁trailer	-11.399
grafici	-11.3992
▁1978	-11.3992
▁americani	-11.3993
▁botti	-11.3993
▁risponderemo	-11.3993
suite	-11.3994
▁joe	-11.3995
▁placca	-11.3995
canto	-11.3998
▁altitudine	-11.3998
▁farmaceutico	-11.3998
▁assoluto	-11.3998
▁previous	-11.3998
▁fantastica	-11.3998
▁spandex	-11.3998
▁delicata	-11.4
▁asiatici	-11.4001
onico	-11.4001
▁configurare	-11.4004
▁rental	-11.4006
▁conformi	-11.4011
impatto	-11.4015
fuck	-11.4018
▁costituzione	-11.402
▁cronologia	-11.402
▁patrizia	-11.402
▁tagli	-11.4021
bank	-11.4022
▁orso	-11.4023
▁tondo	-11.4026
worth	-11.4027
▁boston	-11.4027
▁pistone	-11.4027
▁massage	-11.4035
▁integratori	-11.4036
▁compensato	-11.4043
▁professione	-11.4043
▁licenze	-11.4043
▁yobt	-11.4043
▁validità	-11.4044
uffici	-11.4047
▁litro	-11.4049
▁2-3	-11.405
▁franca	-11.4051
▁schermata	-11.4051
▁80%	-11.4055
▁challenge	-11.4065
▁sicily	-11.4065
▁acetato	-11.4065
▁brevetto	-11.4065
▁attraente	-11.4067
iniziativa	-11.4068
sider	-11.4087
▁agrigento	-11.4087
▁migrazione	-11.4087
8.0	-11.4092
▁sentieri	-11.4093
▁carina	-11.4096
▁ingegneri	-11.4097
autunno	-11.4104
▁messina	-11.4106
ucce	-11.4106
▁olivi	-11.4108
office	-11.4108
▁calle	-11.4108
▁99%	-11.4109
▁sott	-11.4109
▁proiettore	-11.4109
▁preferite	-11.4109
▁ottime	-11.411
▁rimedi	-11.4113
▁lind	-11.4114
▁grossi	-11.412
▁granada	-11.4122
▁bird	-11.4123
uva	-11.4124
▁tatuaggi	-11.4129
0,5	-11.4131
▁bordeaux	-11.4132
▁outlook	-11.4132
▁predefinito	-11.4132
▁detector	-11.4132
▁aires	-11.4134
▁walter	-11.4135
▁arrivato	-11.4136
▁johnson	-11.4139
▁acidi	-11.414
né	-11.4144
▁minimizza	-11.4146
venire	-11.4147
▁strass	-11.415
▁fda	-11.415
▁rating	-11.4151
▁plc	-11.4152
▁acquario	-11.4152
▁antipasti	-11.4154
▁cacao	-11.4155
▁corde	-11.4159
▁ingranaggi	-11.416
lago	-11.4161
▁rurale	-11.4162
▁turche	-11.4163
▁heart	-11.4164
777	-11.4167
▁salto	-11.4169
what	-11.4169
▁oak	-11.4174
▁tnt	-11.4177
▁innovativi	-11.4177
▁kiev	-11.4177
▁multipli	-11.4177
▁famosa	-11.4177
▁appassiona	-11.4178
zzante	-11.4179
▁specialista	-11.4189
▁servono	-11.419
▁imperial	-11.4191
▁spalle	-11.4196
▁push	-11.4197
▁lampadine	-11.4199
▁architetti	-11.4199
▁satellite	-11.4199
▁cannabis	-11.42
▁transazioni	-11.4201
▁croci	-11.4204
▁umane	-11.4204
▁save	-11.421
▁piero	-11.4211
▁stefania	-11.4212
©	-11.4217
▁2/3	-11.422
▁avrà	-11.4221
▁explorer	-11.4222
▁sessuali	-11.4222
▁decorativi	-11.4222
▁sloveno	-11.4222
▁asset	-11.4223
▁uva	-11.4224
▁salita	-11.4228
▁multiple	-11.4228
▁tratti	-11.4228
ciò	-11.4233
▁information	-11.4235
870	-11.4238
▁giudizi	-11.4239
elaborazione	-11.424
gestione	-11.4241
sauri	-11.4241
addestramento	-11.4241
▁clan	-11.4244
▁firmware	-11.4244
▁suzuki	-11.4244
ingegnere	-11.4244
▁bahia	-11.4244
▁conversazione	-11.4245
▁cottage	-11.4245
▁micron	-11.4247
▁matrimoniali	-11.4248
▁successi	-11.4248
▁stringa	-11.4249
▁panorami	-11.425
▁17.00	-11.4251
▁volanti	-11.4252
▁virtuali	-11.4252
▁intensità	-11.4253
▁search	-11.4254
▁spostamento	-11.4254
dello	-11.4255
▁small	-11.4255
▁seguendo	-11.426
990	-11.4261
▁varianti	-11.4262
▁ricevimento	-11.4262
▁invito	-11.4262
▁ciotola	-11.4267
▁bisogna	-11.4267
▁consegne	-11.4267
▁recesso	-11.4268
▁definiti	-11.4269
passo	-11.4271
▁our	-11.4272
▁neutra	-11.4272
▁ottimi	-11.4276
▁bun	-11.4278
▁corsica	-11.4279
multi	-11.4279
▁cavalca	-11.428
▁francobolli	-11.429
▁rivolge	-11.429
▁insiemi	-11.429
▁residenti	-11.4291
▁interattivo	-11.4291
201	-11.4293
▁lord	-11.4295
▁inizi	-11.4299
▁umidi	-11.43
▁kart	-11.4302
▁rally	-11.4304
▁punteggi	-11.4306
▁elba	-11.4308
screen	-11.4309
▁nettuno	-11.4313
▁proteggi	-11.4313
▁viptube	-11.4314
▁friuli	-11.4315
▁felicità	-11.4317
▁canarie	-11.432
▁martello	-11.4324
▁maiale	-11.4324
accetta	-11.4324
pieces	-11.4327
▁granny	-11.4329
english	-11.4332
▁tungsteno	-11.4335
▁suggerimento	-11.4335
▁roulette	-11.4336
0.8	-11.4337
learning	-11.4338
▁personalità	-11.434
2005	-11.434
▁twink	-11.4343
oncini	-11.4343
▁noleggia	-11.4344
▁idrata	-11.4345
▁incontrare	-11.4349
980	-11.4349
▁luciano	-11.4353
▁velo	-11.4354
finanzia	-11.4354
▁sandwich	-11.4358
inquinamento	-11.4359
▁sitemap	-11.4359
▁cameriera	-11.436
▁vulcano	-11.4361
pedia	-11.4362
▁specializzati	-11.4363
▁java	-11.4365
▁inchiesta	-11.4371
campi	-11.4372
▁volante	-11.4375
▁zuccheri	-11.4377
▁concentrato	-11.4378
▁confermare	-11.438
▁sculture	-11.4381
▁umberto	-11.4381
▁pittore	-11.4382
-240	-11.4383
stadt	-11.4384
2007	-11.4389
▁editore	-11.4394
▁0.7	-11.4395
▁recita	-11.4398
.000.000	-11.4401
▁studia	-11.4402
▁magazzini	-11.4404
▁tnaflix	-11.4404
▁pipì	-11.4404
▁attorno	-11.4404
▁rigida	-11.4404
domina	-11.4404
autorità	-11.4406
▁gabriele	-11.4406
▁jr	-11.4407
▁deposita	-11.4407
▁article	-11.4408
▁production	-11.4409
feld	-11.441
▁poteva	-11.441
▁access	-11.4412
▁migliaia	-11.4412
▁cube	-11.442
▁abitudine	-11.442
▁cubi	-11.4423
950	-11.4424
▁rifinit	-11.4425
▁fondamentali	-11.4427
▁fabrizio	-11.4427
▁prodotta	-11.4427
▁investitori	-11.4427
▁avvolge	-11.4427
▁bookingsuite	-11.4427
▁ottiche	-11.4429
▁panna	-11.4432
▁liscio	-11.4434
+39	-11.4435
▁elezioni	-11.4436
▁esercito	-11.4437
▁solamente	-11.444
▁terrazze	-11.4443
1/2	-11.4444
▁pitti	-11.4445
▁stivale	-11.4449
▁steve	-11.4449
valvola	-11.445
infrastruttura	-11.445
▁consentito	-11.4451
▁innamora	-11.4451
▁investire	-11.4452
▁bormio	-11.4452
▁dovrebbero	-11.4453
▁cardio	-11.4455
▁artist	-11.4458
▁tits	-11.4458
▁bancari	-11.4464
0.6	-11.4467
▁june	-11.4468
4.7	-11.4469
▁murano	-11.4472
▁dubrovnik	-11.4473
▁elisabetta	-11.4473
▁lussemburgo	-11.4473
▁antivirus	-11.4473
▁sessioni	-11.4474
▁vaniglia	-11.4478
▁gradua	-11.4479
▁informativo	-11.4486
▁gocce	-11.4489
▁yan	-11.4496
▁liberamente	-11.4497
▁adventure	-11.4497
sostenibili	-11.4497
▁dovrei	-11.4498
▁autorizzato	-11.4498
guida	-11.4502
▁successivi	-11.4504
vella	-11.4505
▁qu	-11.4505
3.4	-11.4507
▁spie	-11.4511
▁1,6	-11.4511
▁1,8	-11.4512
▁paglia	-11.4512
implementazione	-11.4513
▁raw	-11.4514
▁detergente	-11.452
▁sardinia	-11.452
▁assicurare	-11.4521
▁cereali	-11.4521
▁1,3	-11.4527
▁politico	-11.4534
read	-11.4536
▁tools	-11.4537
▁meli	-11.4541
▁colosseo	-11.4543
▁farmaceutica	-11.4543
▁spettro	-11.4543
▁ovvero	-11.4543
▁succhiare	-11.4543
▁benz	-11.4545
▁segnalazione	-11.4545
▁potenti	-11.4546
▁rotola	-11.4548
▁guadagnare	-11.4549
aquila	-11.455
▁profilazione	-11.4551
▁year	-11.4552
▁kin	-11.4555
▁lime	-11.4556
▁riguardanti	-11.4556
cure	-11.4557
▁cream	-11.4557
▁sharm	-11.4565
▁september	-11.4567
▁imprenditori	-11.4567
▁tenerife	-11.4567
▁gotporn	-11.4567
▁morsetto	-11.4567
167	-11.4567
▁contenere	-11.4567
ogni	-11.4567
▁segretario	-11.4569
▁llc	-11.4569
▁trasferisci	-11.457
▁civili	-11.457
personalizzabile	-11.4574
▁lasciato	-11.4576
/2012	-11.458
▁24/7	-11.4585
▁bolli	-11.4587
▁ceramico	-11.4587
▁pizze	-11.4589
▁sabbiadoro	-11.459
▁orlando	-11.459
▁rendono	-11.4591
▁large	-11.4592
▁pressofusione	-11.4592
▁nuvid	-11.4593
▁help	-11.4594
spot	-11.4595
▁intensi	-11.4595
▁postato	-11.4595
plastica	-11.4596
▁morgan	-11.4607
1.7	-11.4613
▁racconti	-11.4613
▁sintetico	-11.4614
cappucci	-11.4615
▁uve	-11.4615
▁quality	-11.4621
680	-11.4626
agosto	-11.4627
▁gusti	-11.4627
nziali	-11.4633
▁incisione	-11.4635
avventura	-11.4648
round	-11.4653
▁piatta	-11.4654
▁4,5	-11.4656
1.3	-11.4657
▁avorio	-11.4659
lunga	-11.466
▁ispirazione	-11.466
▁privilegi	-11.4661
▁automotive	-11.4661
▁sposò	-11.4661
▁straordinaria	-11.4664
▁totalmente	-11.4665
▁volto	-11.4667
▁aeree	-11.4668
▁bando	-11.4669
▁spider	-11.4671
▁(35)	-11.4677
▁nappi	-11.4677
▁melone	-11.4678
▁lavoriamo	-11.4679
▁origin	-11.468
▁spalato	-11.4681
▁scambi	-11.4681
▁ideali	-11.4681
▁customer	-11.4682
▁mitsubishi	-11.4684
▁vesuvio	-11.4684
▁sindrome	-11.4684
▁nacque	-11.4684
▁osaka	-11.4685
▁gemelli	-11.4685
prenota	-11.469
▁14.00	-11.4694
scopri	-11.4696
▁bande	-11.4699
▁coltivazione	-11.4701
▁giglio	-11.4701
▁tacco	-11.4702
▁avanza	-11.4702
▁mike	-11.4707
▁canapa	-11.4707
▁equipment	-11.4708
▁ricordo	-11.4708
▁catering	-11.4708
pool	-11.4708
308	-11.4708
▁loft	-11.4711
yuan	-11.4712
▁intelligenti	-11.4713
▁creola	-11.4714
▁liste	-11.4716
▁orange	-11.4717
▁avviamento	-11.472
ción	-11.4722
ttle	-11.4725
5.0	-11.4726
▁firmato	-11.4729
▁local	-11.4731
▁houston	-11.4732
▁football	-11.4732
▁sandalo	-11.4732
▁statue	-11.4732
▁orientamento	-11.4734
▁sou	-11.4734
ardini	-11.4736
▁navy	-11.4737
modul	-11.4739
▁approvazione	-11.4739
277	-11.4739
▁maturi	-11.4739
▁copy	-11.474
buon	-11.4753
▁fornite	-11.4754
▁lupo	-11.4755
imerovigli	-11.4755
▁bardolino	-11.4755
▁casalinga	-11.4756
doppia	-11.4757
▁1300	-11.4759
▁poesia	-11.4759
▁ciascun	-11.4767
lett	-11.4768
505	-11.4775
arab	-11.4776
▁rimborsa	-11.4777
▁episodi	-11.4778
▁tripadvisor	-11.4779
•	-11.478
▁labbra	-11.4781
▁agricolo	-11.4781
system	-11.4782
▁interattiva	-11.4783
▁banana	-11.4784
▁studiare	-11.4785
▁minimi	-11.4785
▁confort	-11.4788
▁1982	-11.4791
installa	-11.4796
▁argomento	-11.4802
▁avvicina	-11.4803
▁industry	-11.4803
▁monofase	-11.4803
aprile	-11.4804
▁pulizie	-11.4804
▁provoca	-11.4804
▁girasole	-11.4805
cardi	-11.4806
▁simulatore	-11.4809
▁court	-11.481
▁sensuale	-11.4813
▁ciascuna	-11.4814
▁ottimizzare	-11.4815
▁mazzo	-11.4816
▁sacro	-11.4816
▁abilitare	-11.482
▁will	-11.4821
valle	-11.4826
▁sbaglia	-11.4827
▁ascoltare	-11.4829
abita	-11.4829
▁hydro	-11.4829
interesse	-11.483
source	-11.483
▁locazione	-11.4831
fiamma	-11.4832
▁accettazione	-11.4834
▁panama	-11.4834
▁offline	-11.4837
▁muore	-11.4839
indicazione	-11.484
▁creati	-11.484
▁realizzate	-11.4841
tratto	-11.4842
▁atomi	-11.4845
▁clear	-11.4846
▁cardinal	-11.4847
▁ondulato	-11.4851
▁cosmetico	-11.4851
▁haitiana	-11.4851
▁fusibile	-11.4851
▁tranquillità	-11.4852
▁coordinato	-11.4853
▁salve	-11.4854
▁etna	-11.4854
▁utensile	-11.4855
▁drone	-11.4855
▁dentale	-11.4856
▁maya	-11.4862
5.6	-11.4863
▁cartelle	-11.4867
▁alpha	-11.4869
▁pump	-11.4872
▁yogurt	-11.4875
▁decorativa	-11.4875
▁cosmetica	-11.4875
▁trifase	-11.4875
▁dessert	-11.4875
▁lubrificazione	-11.4875
▁dunque	-11.4875
▁bancomat	-11.4876
▁scatta	-11.4877
▁salmone	-11.4878
▁tieni	-11.4879
▁maremma	-11.488
▁marcello	-11.4882
▁brevetti	-11.4883
▁picco	-11.4885
▁break	-11.4885
▁muse	-11.489
▁concentrazione	-11.4891
yang	-11.4895
espresso	-11.4896
nelle	-11.4896
386	-11.4897
▁combattimento	-11.49
▁carrara	-11.49
▁incidente	-11.49
▁1983	-11.4901
▁statale	-11.4901
▁running	-11.4902
▁spread	-11.4903
▁kay	-11.4904
▁fotografici	-11.4904
▁1/1	-11.4905
▁coralli	-11.4906
▁montana	-11.4907
2003	-11.4909
guide	-11.4917
2.9	-11.4917
▁attore	-11.492
▁utilizzano	-11.4922
▁nonché	-11.4922
▁close	-11.4922
▁mondi	-11.4923
▁alessandra	-11.4924
▁fondamentale	-11.4924
▁vaginale	-11.4924
▁conference	-11.4924
▁conclusione	-11.4926
▁indonesia	-11.4926
▁difetto	-11.4927
▁tank	-11.4928
▁osteria	-11.4929
▁galvani	-11.493
green	-11.4936
▁separato	-11.4943
▁fide	-11.4947
▁interviste	-11.4948
▁adriatica	-11.4948
▁garantiti	-11.4948
▁settimanali	-11.4948
▁schiavo	-11.4948
▁procedi	-11.4948
▁rinnovo	-11.4949
▁daniela	-11.4949
jpeg	-11.4952
▁triangolo	-11.4952
polare	-11.4953
▁avrai	-11.4956
▁colorata	-11.4957
▁oleo	-11.4964
276	-11.4965
▁modulari	-11.4969
3.9	-11.4969
metrico	-11.497
▁1.000	-11.497
▁evidenzia	-11.4972
▁avvocati	-11.4972
▁manufactur	-11.4972
▁zombie	-11.4972
▁robusto	-11.4972
▁imballaggi	-11.4974
▁lasciate	-11.4975
jack	-11.4979
▁aromi	-11.4981
▁passata	-11.4983
▁federa	-11.4985
▁indicare	-11.4986
▁blond	-11.4988
▁paro	-11.4989
▁casuale	-11.4994
▁combinato	-11.4996
▁istituzioni	-11.4997
▁movimentazione	-11.4997
▁conseguenze	-11.4997
▁scorrimento	-11.4997
▁sensazione	-11.4997
▁scontato	-11.4997
▁accessibili	-11.4997
770	-11.5
▁tappi	-11.5013
▁semina	-11.5016
città	-11.5021
▁possiede	-11.5021
▁finanziamento	-11.5021
▁savona	-11.5021
sincronizzazione	-11.5022
▁piloti	-11.5024
settimana	-11.5025
▁riflettente	-11.5027
zel	-11.5028
▁restaura	-11.5029
▁candy	-11.5034
▁violino	-11.5038
ottone	-11.5041
▁cerco	-11.5045
▁italië	-11.5046
▁lenzuola	-11.5046
obbligo	-11.5046
▁sforzo	-11.5046
▁iceporn	-11.5047
▁vul	-11.5049
▁>>>	-11.505
▁gif	-11.5054
▁intl	-11.506
880	-11.5062
serva	-11.5065
▁turisti	-11.5068
▁chiodo	-11.5068
▁quan	-11.507
▁dominioname	-11.507
▁godetevi	-11.5071
▁shr	-11.5071
pompino	-11.5072
▁mestre	-11.5072
▁fasce	-11.5075
▁medium	-11.5076
▁videocamera	-11.5081
wei	-11.5084
▁arresto	-11.5085
▁piane	-11.5086
▁levante	-11.5089
▁berna	-11.5091
▁botte	-11.5092
▁ipod	-11.5094
▁rifugi	-11.5095
▁ortisei	-11.5095
▁solenoide	-11.5095
▁campania	-11.5095
▁lifestyle	-11.5096
▁elevate	-11.5096
borg	-11.5096
▁buste	-11.5096
▁polacca	-11.5098
▁tinto	-11.5098
▁identificare	-11.5099
▁tribunale	-11.5101
7.0	-11.5103
erhof	-11.5106
▁brani	-11.511
phon	-11.5113
188	-11.5115
▁folli	-11.5116
numero	-11.5119
▁continue	-11.512
▁relativo	-11.512
▁toronto	-11.512
▁profila	-11.5125
▁ripristinare	-11.5127
▁veronica	-11.5128
equipaggiamento	-11.5129
▁alpino	-11.5129
attore	-11.5131
▁superare	-11.5134
▁fette	-11.5135
▁aumentata	-11.5135
ioni	-11.5138
▁autonomia	-11.5144
▁cabrio	-11.5145
▁vigneto	-11.5147
▁capitano	-11.5147
wick	-11.5148
esercizio	-11.5149
▁rotta	-11.5151
▁cache	-11.5152
▁diviso	-11.5152
▁prevista	-11.5153
marina	-11.5155
▁pensato	-11.5156
▁robin	-11.5156
▁secondaria	-11.5157
editor	-11.5158
▁sym	-11.516
▁pinza	-11.5165
autobus	-11.5169
▁municipal	-11.5169
▁avventure	-11.5169
▁comprensione	-11.5169
▁finlandia	-11.5169
▁ciglia	-11.5169
imperatore	-11.517
▁mancanza	-11.5177
▁lucidatura	-11.5178
▁tony	-11.5179
3.8	-11.518
▁altoparlanti	-11.5194
▁ginnastica	-11.5194
▁author	-11.5194
▁automobilistico	-11.5195
aaa	-11.5195
▁culinari	-11.5196
equilibrio	-11.52
razzi	-11.52
detto	-11.5201
▁passeggiate	-11.5202
▁secchio	-11.5203
▁cucchiaio	-11.5208
▁metropolitan	-11.5209
▁shan	-11.5209
▁pazzo	-11.5217
elettrodomestici	-11.5219
▁stoccolma	-11.5219
▁tecnologica	-11.5219
▁approfondimenti	-11.5219
▁immediato	-11.5219
▁cinghie	-11.5219
▁dong	-11.5219
▁regionali	-11.5219
▁french	-11.5221
▁pulci	-11.5223
iniezione	-11.5223
▁calvi	-11.5223
giappone	-11.5225
▁nature	-11.5225
▁victor	-11.5226
▁estende	-11.5229
cuba	-11.5234
▁rilassante	-11.5235
▁estremità	-11.5235
▁registrazioni	-11.5238
▁legend	-11.5243
▁gabinetto	-11.5244
▁raccolte	-11.5244
▁centrifuga	-11.5244
▁produttiva	-11.5244
▁pluri	-11.5248
fur	-11.525
▁rientra	-11.5252
pagina	-11.5253
▁vespa	-11.5254
▁mediche	-11.5257
▁universal	-11.5259
▁variabili	-11.5265
▁kai	-11.5267
▁dovresti	-11.5269
▁{{	-11.5269
▁church	-11.5269
▁liceo	-11.5272
expo	-11.5279
▁money	-11.5281
▁happy	-11.5282
▁nobile	-11.5282
▁russi	-11.5283
▁neon	-11.5289
tività	-11.5291
▁giunti	-11.5292
▁degustazioni	-11.5294
▁infrastrutture	-11.5294
▁limousine	-11.5294
▁traduttore	-11.5294
▁preventivi	-11.5294
▁carburo	-11.5294
▁ecologica	-11.5295
▁<<	-11.5297
▁festività	-11.5297
▁spezie	-11.5298
▁jacket	-11.5299
3,5	-11.5299
agriturismo	-11.53
356	-11.5307
▁getta	-11.5309
▁filtrante	-11.5313
▁assegnato	-11.5316
▁tempera	-11.5319
▁istantaneo	-11.5319
▁syracuse	-11.5319
▁trasparenti	-11.5319
▁renault	-11.5319
▁canyon	-11.532
▁grotte	-11.532
▁leather	-11.532
▁poiché	-11.5321
▁22:00	-11.5324
▁transazione	-11.5328
▁desiderate	-11.5338
▁spedire	-11.5338
▁determinare	-11.5339
▁tinta	-11.5342
▁officine	-11.5345
▁province	-11.5346
▁passaporto	-11.5347
▁pertanto	-11.5348
▁ricordare	-11.5349
▁tiene	-11.535
▁prince	-11.5351
12345	-11.5354
▁silicon	-11.5354
▁presse	-11.5363
▁grosso	-11.5363
▁doppi	-11.5368
▁ganci	-11.5368
▁0.9	-11.5369
▁scaffali	-11.537
▁versatile	-11.537
▁combattere	-11.537
▁previsti	-11.537
▁umiliazione	-11.5371
▁mixer	-11.5371
▁revoca	-11.5371
▁varese	-11.5372
▁cuneo	-11.5373
▁polimeri	-11.5375
▁fissi	-11.5377
tubo	-11.5379
347	-11.538
arrow	-11.5382
▁descrive	-11.5385
servizio	-11.539
▁contrada	-11.5392
▁melbourne	-11.5395
▁distingue	-11.5395
▁sottili	-11.5396
▁tabacco	-11.5396
▁tabelle	-11.54
▁venere	-11.54
▁avvolgi	-11.5401
▁pratici	-11.5403
▁curve	-11.5405
▁truck	-11.541
▁tau	-11.5411
▁scudo	-11.5412
▁[1]	-11.5413
456	-11.5415
thing	-11.5416
php	-11.5421
▁foundation	-11.5421
▁jessica	-11.5421
▁botanico	-11.5421
▁cavaliere	-11.5421
▁fluido	-11.5422
▁motociclo	-11.5423
▁corrispondenza	-11.5424
download	-11.5428
▁parlamento	-11.5429
▁forio	-11.543
▁silva	-11.5436
▁raffredda	-11.5437
▁plastico	-11.5445
▁1950	-11.5446
▁196/2003	-11.5446
▁gimignano	-11.5446
▁meravigliosa	-11.5446
▁meridionale	-11.5446
▁firefox	-11.5446
▁agevola	-11.5446
▁rigidi	-11.5447
▁rumeno	-11.5449
grafie	-11.545
▁raffreddato	-11.5451
▁teatri	-11.5451
▁gabriella	-11.5455
▁emma	-11.5456
▁1979	-11.5461
0]	-11.5464
[...]
