<pad>	0
<s>	0
</s>	0
<unk>	0
▁di	-3.65223
.	-3.73652
,	-3.77357
▁e	-4.22506
:	-4.36278
▁a	-4.51065
▁per	-4.64307
▁	-4.67924
▁in	-4.72399
▁-	-4.76195
▁il	-4.76785
▁la	-4.78437
'	-4.88199
s	-4.96508
▁del	-5.0259
▁con	-5.21023
▁(	-5.23008
▁i	-5.24556
)	-5.26277
re	-5.31056
-	-5.31428
▁da	-5.40422
▁un	-5.43745
▁della	-5.56373
a	-5.56858
▁è	-5.58871
▁l	-5.59588
to	-5.60269
▁le	-5.6049
ta	-5.78572
e	-5.83912
o	-5.84626
▁al	-5.85798
▁hotel	-5.87962
/	-5.90308
▁_	-5.93871
no	-5.94365
te	-5.96525
ti	-5.97869
▁1	-5.98121
▁che	-6.01503
i	-6.03823
▁una	-6.04954
▁o	-6.05987
l	-6.07389
d	-6.1574
▁dei	-6.17167
▁2	-6.18335
r	-6.20192
▁si	-6.21079
▁dell	-6.2199
▁d	-6.23301
t	-6.2447
n	-6.25757
▁su	-6.27187
?	-6.27942
▁3	-6.28448
m	-6.29637
c	-6.29889
le	-6.34201
▁non	-6.37342
▁/	-6.38051
na	-6.39721
▁>	-6.43448
▁nel	-6.45831
▁s	-6.49857
ni	-6.51841
▁4	-6.52491
▁sono	-6.52558
b	-6.52935
ri	-6.5365
▁come	-6.55572
x	-6.56066
▁più	-6.57007
li	-6.57193
!	-6.5886
▁prodotti	-6.60035
▁5	-6.60136
p	-6.60975
g	-6.61057
ne	-6.61941
2	-6.63965
v	-6.64706
▁&	-6.7127
▁delle	-6.71899
▁fa	-6.71907
la	-6.74936
;	-6.75029
f	-6.75571
▁alla	-6.76788
ma	-6.77988
▁ha	-6.81607
di	-6.82331
ca	-6.83354
▁10	-6.83668
ro	-6.84673
▁se	-6.85574
▁dal	-6.85693
zione	-6.86586
"	-6.87442
ra	-6.87626
co	-6.88361
▁gli	-6.89844
si	-6.90314
y	-6.9137
se	-6.91469
w	-6.9223
▁ma	-6.92707
▁ad	-6.92969
1	-6.9349
3	-6.95089
▁all	-6.98976
▁b	-6.99335
▁6	-6.99589
in	-6.99935
de	-7.00176
▁casa	-7.00714
com	-7.00781
▁:	-7.00926
mi	-7.01478
▁c	-7.02051
▁lo	-7.02531
▁"	-7.02623
sa	-7.0357
...	-7.04501
me	-7.04678
va	-7.05324
nte	-7.05821
ci	-7.06341
k	-7.06369
▁ed	-7.06544
▁sito	-7.06827
vi	-7.07272
▁de	-7.07768
h	-7.08236
▁19	-7.08471
4	-7.08771
▁tutti	-7.10454
▁ci	-7.10491
▁tra	-7.11053
▁ri	-7.11439
▁via	-7.11885
da	-7.1218
mo	-7.12229
▁2019	-7.12475
lo	-7.12678
▁m	-7.12762
mm	-7.14577
▁anni	-7.16103
▁7	-7.21041
▁p	-7.22025
ndo	-7.23772
▁home	-7.24179
▁mi	-7.24487
▁nella	-7.24774
▁12	-7.24826
▁8	-7.25612
▁re	-7.25618
▁sul	-7.2596
▁alle	-7.25968
ce	-7.26662
▁2018	-7.26749
do	-7.26885
▁co	-7.27
▁x	-7.28321
▁prezzo	-7.2859
ve	-7.29985
so	-7.29996
sta	-7.30238
▁20	-7.30289
u	-7.31012
▁vi	-7.31129
tta	-7.3262
▁15	-7.3289
▁questo	-7.33008
er	-7.34011
▁informazioni	-7.36326
▁san	-7.36455
▁essere	-7.36524
z	-7.36712
it	-7.36937
▁18	-7.37524
▁n	-7.40457
5	-7.4122
▁dati	-7.42423
ga	-7.42517
▁prodotto	-7.43263
ing	-7.44749
▁video	-7.44961
▁tuo	-7.46764
mento	-7.47229
zioni	-7.47275
8	-7.47326
▁dalla	-7.48319
nti	-7.49808
6	-7.49874
tore	-7.49935
▁ti	-7.49978
▁qualità	-7.51552
▁9	-7.51763
▁anche	-7.52415
▁2017	-7.5267
▁g	-7.53305
▁ai	-7.53583
▁+	-7.54494
▁degli	-7.54845
▁24	-7.55794
▁prima	-7.56336
_	-7.56438
▁sulla	-7.56494
▁t	-7.56996
▁italia	-7.57481
fi	-7.57717
▁30	-7.5878
▁16	-7.58854
▁modello	-7.5899
▁online	-7.59243
go	-7.60247
tte	-7.6039
▁pro	-7.60705
pa	-7.60867
▁può	-7.61089
▁servizio	-7.61105
▁sa	-7.61742
▁fu	-7.61777
pe	-7.62259
▁senza	-7.63417
tto	-7.63454
30	-7.63517
tori	-7.63842
]	-7.63888
▁0	-7.64226
▁cina	-7.64908
ba	-7.64969
▁alta	-7.65437
tti	-7.65804
ge	-7.6652
▁web	-7.6654
7	-7.66564
che	-7.66807
▁ora	-7.66855
ria	-7.67163
▁ca	-7.67444
mente	-7.68261
▁servizi	-7.68484
▁14	-7.68608
▁pre	-7.68631
▁numero	-7.68684
▁*	-7.69358
▁centro	-7.69383
al	-7.69831
▁minuti	-7.69951
▁tempo	-7.70023
▁sistema	-7.70048
▁13	-7.71058
vo	-7.71228
▁auto	-7.71785
▁h	-7.71836
▁ra	-7.71989
▁pa	-7.72076
▁chi	-7.72257
10	-7.72567
▁grande	-7.73074
▁due	-7.7343
▁macchina	-7.73596
▁[	-7.74251
▁11	-7.74549
▁nuovo	-7.74557
▁camera	-7.76265
▁nostro	-7.76749
▁li	-7.77102
▁km	-7.77251
▁17	-7.77828
▁mo	-7.79193
▁v	-7.7958
▁dall	-7.8007
▁qui	-7.80145
20	-7.804
9	-7.80902
▁25	-7.8111
▁f	-7.81695
▁foto	-7.81853
▁villa	-7.81941
&	-7.82252
▁vendita	-7.82445
▁parte	-7.82476
▁ore	-7.82597
▁giorni	-7.82619
sti	-7.83044
▁spa	-7.83528
▁elenco	-7.83707
▁tutto	-7.84049
▁colore	-7.84157
▁codice	-7.84281
on	-7.84292
▁italy	-7.8462
▁ogni	-7.84741
▁appartamenti	-7.8499
>	-7.85294
▁stato	-7.85538
▁ho	-7.85919
▁camere	-7.86032
▁pi	-7.86044
▁solo	-7.86081
pi	-7.86366
▁nostri	-7.86694
▁tua	-7.87612
zza	-7.88185
▁me	-7.88344
en	-7.88605
▁fino	-7.88608
0	-7.88778
bi	-7.88831
#	-7.89029
il	-7.89034
▁letto	-7.89715
▁disponibile	-7.90052
▁tipo	-7.90131
50	-7.90326
▁pagina	-7.90412
▁2016	-7.90735
▁nome	-7.9103
(	-7.91125
es	-7.91126
▁città	-7.91277
▁te	-7.92099
▁no	-7.92563
▁stampa	-7.92595
▁ro	-7.93634
▁50	-7.93713
▁file	-7.9372
ng	-7.93741
▁milano	-7.93831
*	-7.94007
▁suo	-7.94042
▁the	-7.94578
▁lavoro	-7.95244
fa	-7.95535
▁live	-7.9586
40	-7.95926
gi	-7.96077
▁cosa	-7.96439
▁altri	-7.96567
bo	-7.96866
▁fi	-7.97137
▁bo	-7.97276
ck	-7.97336
▁questa	-7.97378
▁porta	-7.97607
▁to	-7.97737
▁roma	-7.97982
▁vita	-7.98187
▁dopo	-7.98302
bile	-7.98603
▁tutte	-7.98641
tura	-7.98733
▁bed	-7.99104
tra	-7.99349
▁giorno	-7.99588
▁trova	-7.99816
ar	-8.00028
▁nostra	-8.00075
▁privacy	-8.0021
▁and	-8.00235
▁r	-8.00378
j	-8.00503
▁mondo	-8.00595
per	-8.00621
12	-8.0089
18	-8.01152
st	-8.01213
rio	-8.01223
▁(1	-8.0129
▁tre	-8.01696
▁mar	-8.01777
▁bi	-8.02211
▁stelle	-8.02282
amo	-8.02412
▁...	-8.02851
us	-8.03158
ch	-8.0318
▁100	-8.03348
▁mm	-8.03405
▁pe	-8.03706
▁struttura	-8.03757
▁cm	-8.03791
▁nero	-8.03985
▁base	-8.04319
▁bambini	-8.04384
▁22	-8.04598
▁mare	-8.05001
▁ce	-8.05198
▁uno	-8.05269
th	-8.05533
▁breakfast	-8.05555
be	-8.05611
19	-8.05626
sse	-8.05859
▁na	-8.05903
11	-8.05904
ry	-8.05908
▁trattamento	-8.0625
▁sicurezza	-8.06333
hotel	-8.06381
nza	-8.06925
▁ba	-8.07048
▁21	-8.07137
▁2.	-8.07227
25	-8.07424
15	-8.07492
è	-8.07511
lu	-8.0765
▁ricerca	-8.08022
▁design	-8.08477
an	-8.08624
▁materiale	-8.08879
ssi	-8.09192
▁po	-8.09287
▁so	-8.09476
%	-8.09785
▁cucina	-8.09851
ia	-8.10008
▁u	-8.10203
▁k	-8.10455
lla	-8.10605
@	-8.10979
▁carta	-8.11153
chi	-8.11427
tà	-8.11924
▁controllo	-8.11941
▁clienti	-8.12071
po	-8.12261
rsi	-8.12546
▁dove	-8.12673
▁1.	-8.12956
ato	-8.13018
14	-8.1327
▁led	-8.13395
▁acciaio	-8.13649
▁dello	-8.13801
llo	-8.13814
▁nuova	-8.13945
60	-8.14061
▁fare	-8.14393
ed	-8.14627
ssa	-8.14666
auto	-8.14703
▁produzione	-8.14732
▁telefono	-8.14801
ale	-8.14877
▁eventi	-8.15178
▁bar	-8.15949
con	-8.15983
▁bianco	-8.16481
▁data	-8.16588
▁23	-8.16673
▁2015	-8.16806
▁persone	-8.16823
▁#	-8.16885
▁sotto	-8.17154
▁settembre	-8.18136
17	-8.1821
▁quando	-8.18366
▁3.	-8.1842
ka	-8.18575
▁$	-8.18879
▁sua	-8.18941
▁gruppo	-8.18949
▁ar	-8.18983
sh	-8.19046
▁anno	-8.19443
aeroporto	-8.1952
+	-8.20112
90	-8.20223
▁car	-8.20296
24	-8.20439
▁possono	-8.2048
▁nell	-8.20893
ver	-8.21641
▁be	-8.21867
▁giochi	-8.22885
▁ne	-8.23005
▁serie	-8.233
▁linea	-8.23907
80	-8.23954
nta	-8.24126
▁mappa	-8.24215
▁prezzi	-8.24258
▁cookie	-8.24323
▁mesi	-8.24493
▁scopri	-8.24668
▁molto	-8.24719
▁primo	-8.24758
▁maggio	-8.25029
▁siamo	-8.25076
▁fabbrica	-8.25429
is	-8.2557
cca	-8.25861
bili	-8.25909
▁noi	-8.26107
16	-8.2649
▁ottobre	-8.2651
▁giugno	-8.2713
▁acqua	-8.27143
▁accessori	-8.27845
▁w	-8.27861
▁dimensioni	-8.27888
▁nei	-8.28038
menti	-8.28039
▁guida	-8.28104
13	-8.28179
▁ta	-8.28277
00	-8.28434
▁dimensione	-8.28678
▁app	-8.29152
▁forma	-8.29393
fe	-8.29564
▁richiesta	-8.29576
▁2020	-8.29593
▁diritti	-8.2975
▁descrizione	-8.29827
du	-8.30324
el	-8.30554
ru	-8.30844
▁40	-8.30882
▁nelle	-8.30925
▁for	-8.31083
▁contattaci	-8.311
▁go	-8.31201
▁euro	-8.31589
▁copyright	-8.31625
▁ufficiale	-8.31867
ke	-8.32273
70	-8.32386
▁pelle	-8.32496
▁film	-8.32585
▁aprile	-8.33214
▁28	-8.33217
000	-8.33231
▁circa	-8.33344
at	-8.33578
mail	-8.33809
▁sui	-8.34089
▁26	-8.34315
▁modo	-8.34367
▁vacanze	-8.34418
▁info	-8.34522
▁articoli	-8.34674
▁scarica	-8.347
▁ospiti	-8.34927
▁anti	-8.3513
▁produttore	-8.35148
▁case	-8.35234
io	-8.35464
▁60	-8.35474
▁cui	-8.35558
▁gennaio	-8.3635
▁fornitore	-8.36418
▁do	-8.3662
ere	-8.3675
lli	-8.36766
▁appartamento	-8.37024
▁produttori	-8.37277
27	-8.37344
35	-8.37345
▁luglio	-8.37454
▁progetto	-8.37583
▁27	-8.37674
are	-8.37773
01	-8.37963
▁supporto	-8.38089
ò	-8.38093
▁4.	-8.38313
▁creampie	-8.38549
ll	-8.38563
pro	-8.38579
▁tu	-8.38638
▁gestione	-8.38732
one	-8.38951
21	-8.39049
▁bagno	-8.39067
um	-8.39098
▁dicembre	-8.39322
ty	-8.39417
▁by	-8.39433
▁loro	-8.39601
▁hanno	-8.40185
ter	-8.40204
▁2014	-8.40373
q	-8.40519
ste	-8.40546
iva	-8.40769
45	-8.41038
fo	-8.41371
28	-8.41694
▁vista	-8.41798
▁febbraio	-8.41867
▁sta	-8.42191
▁dalle	-8.42678
26	-8.42724
un	-8.42767
03	-8.43
▁programma	-8.43167
▁(2	-8.43514
▁plastica	-8.43547
▁storia	-8.4358
▁misura	-8.43729
▁migliori	-8.43753
sco	-8.44218
▁gioco	-8.44244
era	-8.44351
▁blu	-8.44352
22	-8.44459
▁2013	-8.44699
▁legno	-8.45052
▁attività	-8.45118
▁sesso	-8.4513
▁visita	-8.45258
cu	-8.45327
▁versione	-8.45422
08	-8.45542
▁offerte	-8.45547
tico	-8.45584
▁consegna	-8.45597
▁condizioni	-8.46212
▁mio	-8.46428
▁stati	-8.46482
▁donna	-8.46519
▁val	-8.46705
▁italiano	-8.46771
33	-8.46809
glia	-8.46852
).	-8.47031
ali	-8.47032
▁tour	-8.47143
▁sulle	-8.47145
32	-8.47158
lle	-8.47228
55	-8.4741
ggio	-8.47517
75	-8.48168
34	-8.48516
▁va	-8.48687
▁cavo	-8.48905
zzi	-8.4907
▁luce	-8.49303
▁ve	-8.49695
▁on	-8.49848
▁ga	-8.49909
man	-8.49988
▁standard	-8.50548
38	-8.50607
▁29	-8.50787
▁of	-8.50791
▁internazionale	-8.50844
▁sempre	-8.50889
▁prova	-8.50909
▁parti	-8.50925
tu	-8.50978
▁piace	-8.51093
36	-8.51139
▁totale	-8.5118
▁alluminio	-8.51513
▁ka	-8.51882
▁ru	-8.51978
trice	-8.52445
or	-8.52516
▁possibile	-8.52713
▁disponibili	-8.52789
rie	-8.52817
▁novembre	-8.52827
▁marzo	-8.5297
uso	-8.52971
▁sei	-8.53256
▁srl	-8.53697
23	-8.53725
31	-8.53739
▁01	-8.5386
▁prenota	-8.54088
29	-8.5416
▁posizione	-8.54338
ie	-8.54348
▁ristorante	-8.54379
▁offre	-8.54418
▁sport	-8.54449
▁q	-8.54465
▁motore	-8.54497
▁studio	-8.54559
▁mu	-8.54577
▁mini	-8.54709
▁secondo	-8.54728
▁altre	-8.54783
37	-8.54785
cco	-8.54917
der	-8.55037
48	-8.5516
▁venezia	-8.55207
▁perché	-8.55488
65	-8.55529
▁cor	-8.55603
▁era	-8.55664
ko	-8.55746
▁tri	-8.55911
▁peso	-8.55931
acqua	-8.56044
cm	-8.56061
▁software	-8.56113
▁protezione	-8.56421
▁2012	-8.56469
▁bu	-8.5655
é	-8.56686
rà	-8.56726
▁durante	-8.56746
▁fe	-8.5677
▁cu	-8.57047
▁fra	-8.57053
cchi	-8.57199
▁piedi	-8.57439
▁porto	-8.58004
su	-8.58097
▁recensioni	-8.58098
▁31	-8.58155
49	-8.58205
▁vostro	-8.58226
ki	-8.58266
▁stile	-8.58325
99	-8.58376
ns	-8.58497
ly	-8.58615
oni	-8.58636
▁contatti	-8.58655
▁immagini	-8.58656
▁corso	-8.5868
▁velocità	-8.5901
▁personali	-8.59151
44	-8.59169
▁metri	-8.59425
▁piano	-8.59834
▁grazie	-8.59937
▁lu	-8.59984
ur	-8.6012
▁vetro	-8.60181
▁riservati	-8.60587
▁vicino	-8.60907
ggi	-8.60994
▁viene	-8.61007
▁accesso	-8.61284
▁super	-8.61321
▁www	-8.61536
▁contatto	-8.61566
ts	-8.61573
▁rosso	-8.61661
▁dai	-8.61688
▁gratis	-8.61719
▁doppia	-8.6178
tica	-8.61792
39	-8.61802
▁monte	-8.61841
gno	-8.61861
▁colori	-8.61879
▁(3	-8.61909
▁multi	-8.62217
▁mostra	-8.62319
46	-8.62357
▁tuoi	-8.62463
▁presso	-8.6262
:00	-8.62737
▁gangbang	-8.62737
▁uomo	-8.62779
▁hai	-8.63088
▁famiglia	-8.63292
▁cliente	-8.63324
▁terra	-8.63343
▁wi	-8.63518
stra	-8.6355
▁tessuto	-8.63582
▁+39	-8.63613
▁categoria	-8.63663
son	-8.63743
tro	-8.63838
anno	-8.64055
▁j	-8.64102
04	-8.64438
▁quali	-8.64534
07	-8.64572
▁giapponese	-8.64847
▁tue	-8.64871
▁dettagli	-8.64922
▁altro	-8.65207
▁mano	-8.65264
▁mai	-8.65279
▁fine	-8.65341
eri	-8.65399
▁noleggio	-8.65479
▁pagamento	-8.65668
▁pu	-8.65698
▁articolo	-8.65745
tion	-8.65918
▁verde	-8.66177
▁risultati	-8.66399
net	-8.66431
sto	-8.66547
▁carrello	-8.66786
▁news	-8.6679
ana	-8.67027
▁persona	-8.6726
mp	-8.6738
41	-8.67607
▁completa	-8.67861
line	-8.67878
zia	-8.67966
sca	-8.68017
▁media	-8.68201
47	-8.68278
▁seguenti	-8.68285
▁nostre	-8.68312
▁sia	-8.68322
gio	-8.68332
▁qualsiasi	-8.68427
za	-8.68572
▁capacità	-8.68732
▁05	-8.68741
▁temperatura	-8.69062
▁facile	-8.69089
nd	-8.69091
▁spedizione	-8.69126
zzo	-8.69197
ad	-8.69295
42	-8.69418
lia	-8.69447
aria	-8.69578
▁iva	-8.69724
▁firenze	-8.69763
95	-8.70158
85	-8.70284
▁volta	-8.70297
▁lunghezza	-8.70333
tivo	-8.70461
gra	-8.70499
56	-8.70561
▁200	-8.70597
▁tv	-8.70654
100	-8.70682
▁sistemi	-8.71129
43	-8.71212
que	-8.71309
05	-8.71439
▁set	-8.71511
09	-8.71529
02	-8.71544
▁area	-8.71666
▁mercato	-8.71692
▁uso	-8.71696
ster	-8.71771
▁oltre	-8.71949
▁pubblicato	-8.7197
▁ecc	-8.72006
glio	-8.72068
▁nuovi	-8.72288
▁new	-8.72339
nda	-8.72418
▁fornitori	-8.72702
ul	-8.72742
▁5.	-8.72801
▁02	-8.72895
▁gratuito	-8.72929
▁viaggio	-8.73091
gna	-8.73376
▁bra	-8.73649
▁principale	-8.73652
ya	-8.73718
▁olio	-8.73721
▁club	-8.73816
ero	-8.73856
nt	-8.74194
▁oggi	-8.74196
06	-8.74211
et	-8.74293
▁mia	-8.74304
▁resort	-8.74307
66	-8.74478
0,00	-8.74496
▁inter	-8.74565
▁termini	-8.74599
▁blowjob	-8.74617
▁tubo	-8.74707
ja	-8.74786
58	-8.74787
▁speciale	-8.74853
▁fo	-8.74916
▁or	-8.7522
▁04	-8.75276
ten	-8.75295
▁immagine	-8.75341
▁(4	-8.75457
▁riferimento	-8.75659
▁corpo	-8.75751
▁parco	-8.75782
▁leggi	-8.75783
bu	-8.75793
68	-8.75817
▁livello	-8.76018
▁sconto	-8.7611
▁top	-8.76127
ati	-8.76254
▁cura	-8.76458
▁campo	-8.76465
zio	-8.76478
57	-8.76555
▁art	-8.76857
▁crea	-8.76898
▁caratteristiche	-8.769
69	-8.76991
▁100%	-8.76998
▁palazzo	-8.77054
▁rete	-8.77078
▁bio	-8.77084
▁rosa	-8.77122
tt	-8.77166
▁abbiamo	-8.77199
▁sala	-8.77386
▁z	-8.77643
▁migliore	-8.77692
▁stazione	-8.77856
▁35	-8.7789
86	-8.77984
acciaio	-8.78199
▁500	-8.78259
ho	-8.7847
▁musica	-8.78541
▁aria	-8.78572
▁notte	-8.78678
52	-8.78935
▁ancora	-8.79024
▁inglese	-8.7919
▁alto	-8.79294
am	-8.79394
▁durata	-8.79598
▁polvere	-8.79661
▁sci	-8.79789
ha	-8.8016
ven	-8.80206
▁man	-8.80238
77	-8.8044
▁punti	-8.80454
▁società	-8.80612
▁gi	-8.80626
▁speciali	-8.80655
▁punto	-8.80668
▁spiaggia	-8.80769
▁partire	-8.80823
▁settimana	-8.80972
▁puoi	-8.81001
sce	-8.81032
51	-8.81111
▁soluzioni	-8.8114
▁modulo	-8.81297
▁06	-8.81417
67	-8.81444
54	-8.81536
nto	-8.81693
▁acquista	-8.81731
://	-8.81762
sso	-8.81787
sci	-8.81825
▁giardino	-8.81938
▁grandi	-8.81978
▁indirizzo	-8.81987
▁sole	-8.82242
▁scarpe	-8.82277
▁caso	-8.823
▁at	-8.82356
▁tag	-8.8243
▁ko	-8.8261
▁vostra	-8.82641
▁agosto	-8.8267
▁usa	-8.82739
▁pacchetto	-8.82905
azione	-8.82939
▁ge	-8.83363
tor	-8.83642
▁80	-8.83919
▁metallo	-8.84007
▁agli	-8.8411
ata	-8.84137
▁anal	-8.84302
▁jo	-8.84337
▁it	-8.84422
rti	-8.84578
▁soggiorno	-8.84644
▁basso	-8.84655
▁sco	-8.84779
64	-8.84861
zze	-8.84913
nia	-8.85086
via	-8.85131
ss	-8.85204
▁categorie	-8.85213
▁gran	-8.85226
53	-8.85248
▁azienda	-8.85265
▁prenotazione	-8.85596
ate	-8.85639
▁pc	-8.85772
▁batteria	-8.85839
▁capelli	-8.86085
▁gas	-8.86094
▁natura	-8.8616
▁email	-8.86169
▁marina	-8.86233
tri	-8.86335
76	-8.8641
▁ben	-8.86445
▁bella	-8.86454
ano	-8.86704
▁fatto	-8.86711
▁materiali	-8.86766
▁mese	-8.8691
▁fiori	-8.86966
▁sviluppo	-8.86971
72	-8.8706
land	-8.87069
71	-8.87098
▁stata	-8.87167
up	-8.87179
▁santa	-8.87347
▁hi	-8.87349
▁ac	-8.87455
▁posso	-8.87614
▁newsletter	-8.87959
83	-8.88332
▁03	-8.88523
▁oro	-8.88533
79	-8.8856
▁progettazione	-8.88801
gia	-8.8883
▁tecnologia	-8.8888
59	-8.88936
▁lingua	-8.89015
88	-8.89036
▁hd	-8.89372
▁aggiornamento	-8.89424
▁zona	-8.89439
▁macchine	-8.89489
ghe	-8.89493
▁download	-8.89621
▁ja	-8.8978
mar	-8.89919
ture	-8.90002
▁scatola	-8.90057
▁massimo	-8.90198
▁beach	-8.90248
qui	-8.90328
ccia	-8.90345
vol	-8.90409
▁clicca	-8.90436
nce	-8.90481
▁quanto	-8.90548
▁catalogo	-8.90597
▁ip	-8.90739
▁ultimo	-8.90781
▁cap	-8.90784
▁post	-8.90876
▁pan	-8.91068
fer	-8.91303
zi	-8.91341
▁notizie	-8.91526
▁informativa	-8.91553
96	-8.91615
ac	-8.91636
▁min	-8.9167
▁sarà	-8.91789
▁spazio	-8.91896
▁verona	-8.91954
▁2011	-8.92038
▁piscina	-8.92045
87	-8.92234
▁sca	-8.92272
61	-8.92379
:30	-8.92427
▁partner	-8.92446
min	-8.92568
▁cro	-8.92577
▁cam	-8.92614
ber	-8.92657
78	-8.92678
▁naturale	-8.92683
▁donne	-8.92762
▁ki	-8.92808
ina	-8.92896
ndi	-8.92913
▁vacanza	-8.92935
▁contro	-8.92941
▁assistenza	-8.93105
▁internet	-8.93365
ton	-8.93399
▁progetti	-8.93539
▁(5	-8.93546
▁45	-8.93622
▁ni	-8.93665
▁alcuni	-8.93711
▁pressione	-8.93801
▁proprietà	-8.94017
wa	-8.94139
▁sull	-8.94217
▁dolce	-8.94224
▁strumenti	-8.94241
▁giovani	-8.94388
▁rimini	-8.94405
ine	-8.94418
▁grado	-8.94443
pu	-8.94744
▁collezione	-8.94815
▁micro	-8.94994
▁trasporto	-8.95097
▁du	-8.95165
he	-8.95217
▁utenti	-8.9526
os	-8.95287
▁kit	-8.95323
63	-8.95359
▁scegli	-8.95361
▁invia	-8.95428
▁mobile	-8.95509
▁sal	-8.95596
ner	-8.95833
▁potenza	-8.95874
▁col	-8.9588
tici	-8.9588
▁piazza	-8.96057
▁residence	-8.96087
▁gu	-8.96108
▁gra	-8.96179
▁07	-8.96301
▁luogo	-8.96359
▁ex	-8.96392
▁parcheggio	-8.964
▁laser	-8.96467
zo	-8.96539
cc	-8.96543
▁moto	-8.96699
ggia	-8.96745
62	-8.96757
▁resistenza	-8.96781
▁taglio	-8.96878
▁così	-8.96879
ì	-8.96967
▁museo	-8.96998
▁eur	-8.9706
▁blog	-8.97077
▁6.	-8.97078
74	-8.97269
98	-8.97408
au	-8.97428
nu	-8.9755
▁elettrico	-8.97641
▁ottenere	-8.97729
cci	-8.97835
▁vendite	-8.98038
▁90	-8.98051
▁volte	-8.98055
▁semplice	-8.98089
▁francese	-8.98247
▁costruzione	-8.98283
▁link	-8.98306
bra	-8.98319
▁domenica	-8.98394
▁italiana	-8.98403
wi	-8.98435
id	-8.98697
▁za	-8.98936
ze	-8.98945
▁offerta	-8.99102
▁pezzi	-8.99115
▁profilo	-8.99156
▁sede	-8.99305
▁av	-8.99382
▁bene	-8.99421
▁nazionale	-8.99429
▁maria	-8.99478
▁aggiungi	-8.99478
▁team	-8.99492
▁test	-8.99525
▁momento	-8.99565
▁strada	-8.99601
▁nessun	-8.99721
▁guarda	-8.99727
▁ordine	-8.9978
▁sopra	-8.99842
▁vedere	-8.99876
▁formazione	-8.99915
▁altezza	-8.99979
▁voi	-9.00171
▁00	-9.00203
▁08	-9.00271
fu	-9.0054
▁stagione	-9.00551
▁sud	-9.00674
▁lega	-9.00689
▁testa	-9.00706
ora	-9.00725
-1	-9.00789
▁settore	-9.00837
▁ver	-9.00854
▁300	-9.00872
▁scuola	-9.00968
▁corsi	-9.00971
89	-9.01085
▁seleziona	-9.01138
as	-9.01155
▁32	-9.01231
▁commerciale	-9.01258
▁tor	-9.01429
▁siti	-9.01559
▁maggiori	-9.01654
▁giu	-9.01667
rono	-9.01756
▁ragazze	-9.01803
hi	-9.0202
▁principali	-9.02052
olo	-9.02053
italia	-9.02099
▁com	-9.02121
▁150	-9.02256
73	-9.02322
▁buona	-9.02351
▁bologna	-9.02534
81	-9.02543
▁diversi	-9.02697
▁gamma	-9.03057
▁vino	-9.03095
▁inossidabile	-9.03114
▁lungo	-9.03123
▁para	-9.0324
sia	-9.03272
▁piccolo	-9.03408
▁novità	-9.03553
ente	-9.03565
▁vol	-9.03566
▁costa	-9.03604
pre	-9.03619
-2	-9.0366
▁massima	-9.03674
▁funzione	-9.03713
ny	-9.03721
▁suoi	-9.03729
97	-9.03757
mb	-9.03798
▁kg	-9.03918
▁processo	-9.04051
▁policy	-9.0427
▁sabato	-9.04373
▁an	-9.04389
ccio	-9.0441
▁lago	-9.04436
car	-9.04558
▁(1)	-9.046
ct	-9.04649
▁automatico	-9.04916
enza	-9.05058
▁ufficio	-9.05111
▁borsa	-9.05173
▁soli	-9.05369
stica	-9.05446
tiva	-9.05475
ol	-9.05476
▁max	-9.05514
▁classico	-9.05538
cia	-9.05593
▁09	-9.05682
▁costo	-9.05714
▁manuale	-9.05854
▁colazione	-9.0593
▁tipi	-9.0593
▁250	-9.06008
▁applicazioni	-9.06059
dia	-9.06095
▁70	-9.06133
▁y	-9.06224
▁en	-9.06255
▁buon	-9.06294
▁diritto	-9.06304
▁nuove	-9.06312
▁visualizza	-9.06315
▁schermo	-9.0635
nde	-9.06351
▁festival	-9.06468
▁am	-9.06517
ut	-9.06587
▁vedi	-9.06751
▁diametro	-9.06797
▁tramite	-9.06854
▁utilizzare	-9.06858
▁questi	-9.06903
▁business	-9.06954
▁poi	-9.0696
84	-9.07004
▁industriale	-9.07069
▁cerca	-9.07191
):	-9.07306
▁windows	-9.0737
stro	-9.07439
▁quattro	-9.07509
▁superficie	-9.07548
▁sp	-9.07637
mu	-9.07683
▁taglia	-9.07735
kg	-9.07799
▁negozio	-9.07822
▁cal	-9.07926
▁scheda	-9.07967
▁arte	-9.07974
▁bisogno	-9.07987
▁valore	-9.08005
▁uniti	-9.08199
rd	-9.08215
▁semi	-9.08217
▁cuore	-9.08308
93	-9.0838
▁fuori	-9.08396
ola	-9.08443
▁avere	-9.08533
▁esperienza	-9.08578
▁garanzia	-9.08603
ica	-9.08642
▁2010	-9.08788
▁sha	-9.08902
gu	-9.08924
oro	-9.08986
▁modelli	-9.0903
▁scegliere	-9.0919
91	-9.09409
▁house	-9.09435
▁potere	-9.09455
▁'	-9.0949
▁registrazione	-9.09625
mina	-9.0967
▁pvc	-9.09836
gli	-9.09846
▁***	-9.09958
▁meno	-9.10096
▁tel	-9.10251
op	-9.10327
▁posto	-9.1047
ff	-9.10552
▁domande	-9.10609
200	-9.10632
tive	-9.10664
92	-9.10915
▁personale	-9.11005
ml	-9.11113
▁vuoi	-9.11598
▁regno	-9.11628
▁venerdì	-9.11658
▁us	-9.11763
poli	-9.11856
▁mamma	-9.119
82	-9.11905
nze	-9.1194
les	-9.12109
tel	-9.12298
▁soluzione	-9.1234
▁digitale	-9.12378
▁generale	-9.12386
▁spe	-9.12451
▁commenti	-9.12468
▁bambino	-9.12489
▁continua	-9.12554
-3	-9.12632
▁dispositivo	-9.12681
▁comp	-9.12738
▁periodo	-9.12812
▁bri	-9.12867
▁professionale	-9.12875
▁privato	-9.13088
▁seconda	-9.1309
▁pannello	-9.13115
500	-9.13208
for	-9.13237
▁attraverso	-9.1326
▁scelta	-9.13281
▁tecnica	-9.13348
▁sale	-9.1342
▁napoli	-9.13443
ngo	-9.13482
▁applicazione	-9.13582
▁uomini	-9.13669
94	-9.1375
▁centrale	-9.13765
ger	-9.13835
▁android	-9.14015
rlo	-9.14034
arte	-9.14054
▁comune	-9.14058
▁funziona	-9.14095
ft	-9.14202
▁carico	-9.14307
▁lusso	-9.14408
ps	-9.14458
▁completo	-9.14514
org	-9.14557
▁costi	-9.14572
▁castello	-9.14738
rs	-9.14841
▁formato	-9.1507
tivi	-9.15159
▁passo	-9.15187
ment	-9.15246
im	-9.15293
▁opera	-9.15388
▁chiave	-9.15472
gni	-9.15564
▁mac	-9.15619
▁36	-9.15736
▁larghezza	-9.15817
▁stesso	-9.15823
sione	-9.15827
tre	-9.15892
▁moda	-9.15935
mer	-9.16013
▁poli	-9.16053
▁superiore	-9.16222
rt	-9.16258
▁pdf	-9.16287
▁bianca	-9.16379
▁gomma	-9.16382
▁nord	-9.16383
▁note	-9.16457
zzazione	-9.16475
▁insieme	-9.1648
▁usb	-9.16643
▁lista	-9.16856
▁modalità	-9.16897
▁pubblico	-9.16936
▁torre	-9.16992
▁quello	-9.17111
▁pornstar	-9.17139
shi	-9.173
▁caffè	-9.17319
▁termine	-9.17341
▁miglior	-9.17379
ghi	-9.17385
lan	-9.17408
▁tutta	-9.17455
▁bus	-9.17552
ico	-9.17844
▁far	-9.17941
▁distanza	-9.17972
▁galleria	-9.17994
▁europa	-9.18012
▁gratuita	-9.18055
▁ragazza	-9.18062
▁aeroporto	-9.18078
▁park	-9.1813
▁tensione	-9.18245
▁iso	-9.1842
▁fibra	-9.18437
▁doppio	-9.18514
▁animali	-9.18541
▁elettrica	-9.18678
iamo	-9.19
▁isola	-9.19203
▁pulizia	-9.19258
anti	-9.1944
▁th	-9.19555
▁computer	-9.19666
▁unità	-9.19736
▁allo	-9.19759
▁marco	-9.19819
ita	-9.20064
▁raggiungere	-9.20071
▁paese	-9.20082
▁capo	-9.20184
▁studi	-9.20187
we	-9.2019
▁grand	-9.20205
▁account	-9.20207
▁quindi	-9.20231
▁pompa	-9.20289
▁free	-9.20327
ex	-9.2038
▁op	-9.20455
▁inizia	-9.20507
▁precedente	-9.20525
▁usare	-9.20544
▁cotone	-9.20561
▁nu	-9.20642
▁utilizzo	-9.20852
▁doccia	-9.2086
▁st	-9.20894
▁punta	-9.21063
▁posti	-9.21123
▁modifica	-9.2137
schi	-9.21377
▁parete	-9.2154
".	-9.21577
uti	-9.21622
▁7.	-9.21627
▁33	-9.21639
tiche	-9.21777
▁black	-9.21911
▁verso	-9.21915
▁unito	-9.2197
▁cos	-9.22104
▁comunicazione	-9.22171
ms	-9.22308
dio	-9.22366
▁gri	-9.2249
▁ama	-9.22499
den	-9.22503
▁florence	-9.22689
▁audio	-9.22709
▁albergo	-9.22747
▁chat	-9.2278
▁inoltre	-9.22787
▁ricevere	-9.22828
▁reale	-9.22846
menta	-9.2292
▁adulti	-9.23004
▁deposito	-9.23095
▁forte	-9.2312
▁ag	-9.23159
nica	-9.23257
▁2009	-9.23334
▁boutique	-9.2338
▁creare	-9.23385
▁seguito	-9.23408
▁ber	-9.23471
mbo	-9.2353
aperto	-9.23698
▁radio	-9.23756
▁impianti	-9.23809
est	-9.24042
▁presenta	-9.2413
▁veloce	-9.24169
oli	-9.24319
stre	-9.2451
▁libero	-9.24552
▁cer	-9.24633
nico	-9.24729
▁natale	-9.24747
▁analisi	-9.24893
▁breve	-9.24964
▁password	-9.25204
▁mani	-9.25215
▁possibilità	-9.25284
▁energia	-9.25478
▁componenti	-9.25494
▁ulteriori	-9.25567
ler	-9.25619
▁air	-9.25664
app	-9.25685
▁120	-9.25822
▁cha	-9.25979
▁trovare	-9.26012
the	-9.26028
ari	-9.2604
▁filo	-9.26071
▁1000	-9.26146
▁unico	-9.26252
▁mobili	-9.26342
▁spessore	-9.26482
▁forza	-9.26593
▁he	-9.26696
▁fer	-9.26763
▁visualizzazioni	-9.2681
cce	-9.26864
▁ste	-9.26939
▁accetta	-9.2696
stru	-9.26998
▁motori	-9.2702
▁cartone	-9.27034
▁valutazione	-9.27197
▁tro	-9.27208
▁hu	-9.27228
etto	-9.27234
▁successo	-9.2748
▁aperto	-9.27506
▁bru	-9.27617
▁deve	-9.2764
▁situato	-9.27679
▁lunedì	-9.2774
glie	-9.27797
bar	-9.27827
▁interno	-9.27874
▁bel	-9.28003
bilità	-9.28103
tter	-9.28172
▁iscriviti	-9.28226
▁filtro	-9.28226
ori	-9.28362
▁già	-9.28414
▁negli	-9.28464
▁paesi	-9.28478
$	-9.28589
▁strutture	-9.28626
▁tavolo	-9.28738
▁locale	-9.28788
▁scaricare	-9.28846
▁opzioni	-9.28941
▁lascia	-9.29089
▁chiesa	-9.29181
▁utilizza	-9.29395
▁disponibilità	-9.29445
▁google	-9.29493
rci	-9.29522
▁io	-9.29615
▁corrente	-9.29687
▁quale	-9.29807
▁direttamente	-9.29839
ers	-9.29868
art	-9.29897
▁48	-9.29964
▁imballaggio	-9.29987
▁http	-9.30154
▁visite	-9.30211
▁ke	-9.30256
▁fiera	-9.30327
ante	-9.30362
zzato	-9.30401
▁amici	-9.30494
▁giovanni	-9.30523
ttu	-9.30679
▁salute	-9.30715
▁quantità	-9.30789
▁regalo	-9.30882
▁sezione	-9.30884
▁pollici	-9.3091
chia	-9.3114
▁automatica	-9.31155
▁server	-9.31296
▁coppia	-9.31303
▁vantaggi	-9.31421
sp	-9.31446
▁ecco	-9.31448
▁giallo	-9.31545
-10	-9.31628
▁grigio	-9.31645
▁vengono	-9.31865
-20	-9.31939
▁piccola	-9.31941
▁classe	-9.31991
▁suite	-9.31994
ute	-9.32116
trici	-9.32121
▁2008	-9.32182
▁usd	-9.32195
▁ltd	-9.32269
ser	-9.32305
▁proprio	-9.32337
▁vostri	-9.32386
▁caldo	-9.32387
sk	-9.32391
▁ideale	-9.32448
▁wa	-9.32521
cio	-9.32554
▁im	-9.32572
▁lampada	-9.32796
▁vini	-9.32806
▁lavora	-9.32895
▁alimentazione	-9.32944
by	-9.3311
▁city	-9.33121
qua	-9.33146
▁piattaforma	-9.33215
▁diverse	-9.33227
▁spagna	-9.33288
▁aver	-9.33326
▁je	-9.3334
▁utente	-9.33352
pp	-9.33434
▁extra	-9.33458
▁torna	-9.3357
▁amatoriale	-9.33661
▁diventa	-9.33705
▁vivo	-9.33774
▁risposta	-9.34006
▁eco	-9.3407
▁finale	-9.34098
ling	-9.34128
▁34	-9.34224
▁can	-9.34225
▁precisione	-9.34322
can	-9.34343
▁carica	-9.34362
▁sex	-9.3443
▁logo	-9.34501
▁par	-9.34515
▁marketing	-9.34576
▁ml	-9.34622
gne	-9.34725
nato	-9.34859
▁stra	-9.34951
▁dispositivi	-9.34961
rina	-9.35
▁38	-9.35018
▁my	-9.35062
▁uscita	-9.3509
colo	-9.35119
▁cas	-9.35274
▁carte	-9.35291
▁pin	-9.35697
tina	-9.35728
▁negozi	-9.35795
▁mal	-9.35849
lin	-9.35857
▁politica	-9.35949
▁premi	-9.35965
▁queste	-9.35981
▁pubblica	-9.36103
▁(6	-9.36347
5,00	-9.36395
cal	-9.36396
ura	-9.36468
▁torino	-9.36655
▁subito	-9.36665
▁presente	-9.36734
interno	-9.36781
▁carlo	-9.36822
▁mon	-9.36938
▁sue	-9.37068
moni	-9.37093
mini	-9.37193
▁(18+)	-9.37283
▁messaggio	-9.37362
▁singolo	-9.37393
ron	-9.37562
▁necessario	-9.37586
spa	-9.3774
▁matura	-9.37802
▁esp	-9.37836
▁locali	-9.37874
▁400	-9.37878
▁minimo	-9.37919
▁bal	-9.37936
▁borse	-9.38083
▁hotels	-9.38158
▁svizzera	-9.38179
www	-9.38204
▁bordo	-9.3823
▁bassa	-9.38296
ello	-9.3832
▁argento	-9.38367
▁bellezza	-9.38573
▁rome	-9.38669
▁trasferimento	-9.38674
▁porte	-9.38974
▁elementi	-9.39064
▁fai	-9.39084
▁originale	-9.39107
▁selezione	-9.39133
▁qual	-9.3914
rvi	-9.3919
▁39	-9.39218
▁inclusa	-9.39269
▁flessibile	-9.39325
▁nota	-9.39327
▁calore	-9.39346
▁esterno	-9.39408
ula	-9.39426
▁cultura	-9.39592
▁aziende	-9.39604
▁molti	-9.3972
cor	-9.39741
▁bre	-9.39781
spe	-9.39808
▁lei	-9.39808
▁box	-9.39813
jo	-9.39822
▁mono	-9.39835
ls	-9.39909
▁ordina	-9.3991
mpi	-9.39998
▁>>	-9.40023
▁lesbica	-9.40047
-5	-9.40062
▁aggiornamenti	-9.40116
▁prenotazioni	-9.4013
ot	-9.40191
▁meglio	-9.40212
▁manutenzione	-9.40221
▁festa	-9.40243
▁benessere	-9.40252
mba	-9.40294
▁teen	-9.40299
▁contenuti	-9.40306
▁geo	-9.40417
▁75	-9.40431
▁vecchi	-9.40457
nge	-9.40464
▁bro	-9.40535
▁fre	-9.40592
▁campi	-9.40604
▁testo	-9.40744
▁metodo	-9.40771
▁group	-9.40875
osi	-9.40929
▁ju	-9.40957
▁effetti	-9.41015
▁visitatori	-9.41111
▁55	-9.41114
▁pen	-9.4114
▁venne	-9.41244
▁archivi	-9.4139
▁sicuro	-9.41411
▁tubi	-9.41468
▁iphone	-9.41471
▁sì	-9.41515
▁notti	-9.41639
▁apertura	-9.41694
▁esempio	-9.41713
▁disco	-9.4174
ini	-9.41816
ranno	-9.41902
sioni	-9.41972
▁venice	-9.42107
dy	-9.42209
▁lesbiche	-9.42226
▁we	-9.42311
▁eccellente	-9.42318
▁edizione	-9.42376
ley	-9.42386
▁sociale	-9.42464
▁website	-9.425
▁entro	-9.42502
▁marchio	-9.42564
cola	-9.42613
▁londra	-9.42614
▁el	-9.42667
▁8.	-9.42706
▁ris	-9.42759
▁massaggio	-9.4277
▁guerra	-9.42902
out	-9.42951
▁pietra	-9.43019
▁lunga	-9.4303
▁ii	-9.43088
pen	-9.43157
area	-9.43186
▁pisa	-9.43247
▁germania	-9.43315
▁passi	-9.43333
▁ferro	-9.43338
bri	-9.43339
▁ten	-9.43347
▁usato	-9.43387
-12	-9.43393
-4	-9.43417
▁cinese	-9.43606
/10	-9.43793
uto	-9.43793
▁pol	-9.43897
▁luci	-9.439
▁ingresso	-9.43964
▁pornhub	-9.43977
▁2000	-9.43995
lato	-9.44026
▁palermo	-9.44064
▁milan	-9.44183
▁menu	-9.44193
▁titolo	-9.44242
ris	-9.44258
▁tele	-9.44342
val	-9.44358
▁cavi	-9.44538
▁alcune	-9.44673
▁chiusura	-9.44721
▁gruppi	-9.44743
▁partenza	-9.44752
▁disposizione	-9.44803
uri	-9.44876
▁benvenuti	-9.45034
bb	-9.45082
▁vari	-9.45094
▁singola	-9.45125
▁smart	-9.45138
rm	-9.45145
▁::	-9.45149
▁(19	-9.45162
▁ciò	-9.45189
ani	-9.45222
▁commerciali	-9.45284
▁verifica	-9.4529
ller	-9.45302
▁pp	-9.45316
▁contenuto	-9.45329
▁posta	-9.45368
▁page	-9.45382
▁consigli	-9.45412
▁portatile	-9.4542
▁tecniche	-9.45478
▁(2)	-9.4548
▁installazione	-9.4555
▁domanda	-9.45628
▁vo	-9.45788
etta	-9.45853
▁****	-9.459
od	-9.45904
▁hot	-9.45925
▁settimane	-9.46072
▁gar	-9.46112
300	-9.46136
à	-9.46156
▁ultima	-9.46187
ppi	-9.46242
lio	-9.46264
▁estate	-9.46323
▁pagine	-9.46359
▁recensione	-9.46581
▁medio	-9.46611
▁strumento	-9.46611
ino	-9.46633
atore	-9.46736
isce	-9.46743
amento	-9.46748
ic	-9.46989
smo	-9.47055
ld	-9.47146
▁calcio	-9.47185
way	-9.47251
▁valvola	-9.47296
▁utili	-9.47308
▁@	-9.4738
▁fili	-9.47394
▁canale	-9.47405
stri	-9.47479
▁check	-9.4751
set	-9.47515
▁rivestimento	-9.47696
ppa	-9.47706
▁pri	-9.47774
▁età	-9.47841
▁legale	-9.4792
▁provincia	-9.47939
lie	-9.47957
ucci	-9.47968
ir	-9.48068
▁compila	-9.48279
▁attrezzature	-9.48335
▁42	-9.48357
▁calda	-9.48376
▁regione	-9.48392
▁37	-9.48559
▁latte	-9.4873
ion	-9.48911
▁cla	-9.48911
▁vecchio	-9.48916
▁scala	-9.4894
▁problemi	-9.48978
▁benvenuto	-9.49041
▁vai	-9.49056
▁elettronica	-9.4908
▁toscana	-9.49101
▁generali	-9.49146
totale	-9.49166
mon	-9.49278
▁piatto	-9.49315
ku	-9.49321
▁mag	-9.49333
▁possiamo	-9.49378
▁solare	-9.49481
▁specifiche	-9.49594
▁completamente	-9.49605
▁causa	-9.49609
▁premio	-9.49617
nk	-9.49635
pie	-9.49649
▁gioca	-9.49656
pcs	-9.49661
▁one	-9.49893
enti	-9.49986
tz	-9.50056
0.00	-9.50084
ario	-9.50185
mbi	-9.50198
▁ponte	-9.50199
▁terrazza	-9.50206
▁attiva	-9.50238
▁giro	-9.50283
▁gr	-9.5031
▁cambio	-9.50331
▁maggiore	-9.50333
▁acquistare	-9.50347
▁brand	-9.50352
▁moglie	-9.50451
uta	-9.50552
▁international	-9.50743
▁trans	-9.50761
▁matrimoniale	-9.50815
▁orologi	-9.5083
▁star	-9.50895
▁marca	-9.5092
ide	-9.50946
ction	-9.50957
▁cinema	-9.51018
▁cookies	-9.5105
▁alberghi	-9.51057
▁inox	-9.51135
▁parigi	-9.51187
ap	-9.51209
▁certificato	-9.51214
utente	-9.5139
▁800	-9.51591
▁fase	-9.51597
▁aggiornato	-9.51674
ffe	-9.51687
remo	-9.51723
gan	-9.51729
▁piatti	-9.51784
▁teatro	-9.51787
▁cri	-9.51824
▁orari	-9.51839
▁meteo	-9.51859
▁fri	-9.51934
▁mp	-9.51946
▁abbigliamento	-9.51996
▁gua	-9.52046
▁elettro	-9.5229
▁naturali	-9.52314
▁bottiglia	-9.52446
600	-9.5253
▁illuminazione	-9.52555
ure	-9.52686
tur	-9.52776
▁golf	-9.52782
▁commento	-9.52819
fica	-9.52879
▁escursioni	-9.52892
ppe	-9.52921
hz	-9.52949
▁letti	-9.52984
▁archivio	-9.53007
par	-9.53013
del	-9.53077
▁**	-9.53086
▁apri	-9.53168
mpa	-9.53191
gen	-9.53261
▁rispetto	-9.53278
▁pranzo	-9.53281
▁show	-9.53309
▁campione	-9.53401
▁storico	-9.53474
▁terme	-9.53481
rato	-9.53505
▁personalizzato	-9.53564
end	-9.53588
ds	-9.53683
▁stanza	-9.53764
▁pla	-9.53823
gg	-9.53825
bs	-9.53838
▁bianche	-9.53852
nzi	-9.53945
▁garda	-9.5408
je	-9.54089
▁carbonio	-9.54123
▁hardcore	-9.54158
▁600	-9.54205
ppo	-9.54361
cri	-9.5437
▁65	-9.54421
▁pesca	-9.54423
▁spi	-9.54488
▁francia	-9.54492
▁scritto	-9.54586
▁xhamster	-9.54826
▁passa	-9.54839
▁stu	-9.54946
▁cat	-9.55287
▁martedì	-9.55316
▁mer	-9.5533
fini	-9.55365
(1	-9.5543
▁conferma	-9.55484
▁ambiente	-9.55568
▁medico	-9.55584
▁arrivo	-9.55613
▁registrati	-9.55635
▁ch	-9.55655
▁giovane	-9.55677
▁affitto	-9.55704
▁shop	-9.55808
▁frutta	-9.55809
▁2007	-9.55931
▁9.	-9.56058
▁card	-9.56302
bus	-9.56315
▁gre	-9.56319
my	-9.56327
▁facebook	-9.56327
▁tecnico	-9.56335
▁clic	-9.56394
▁ku	-9.56495
italiano	-9.56593
▁aiuta	-9.56596
age	-9.56626
▁imp	-9.56646
▁piccoli	-9.56684
▁viaggi	-9.56746
▁percorso	-9.56775
azienda	-9.56806
letto	-9.56863
▁problema	-9.56866
sion	-9.56913
▁resistente	-9.56965
▁sposa	-9.56974
ker	-9.57037
vita	-9.57061
vano	-9.57112
▁rappresenta	-9.57112
eu	-9.57133
▁libro	-9.57138
uro	-9.57212
▁ultime	-9.57234
▁monta	-9.5729
▁cena	-9.57396
▁oggetti	-9.57399
▁crema	-9.5751
▁credito	-9.57594
▁comfort	-9.57606
pia	-9.57732
▁cinque	-9.57801
▁frequenza	-9.57868
lina	-9.57946
ble	-9.57964
-6	-9.5799
▁biglietti	-9.58103
nie	-9.58107
▁tempi	-9.58376
▁2006	-9.58378
▁maglia	-9.58426
coli	-9.58458
▁legge	-9.58497
▁risorse	-9.58507
ordine	-9.58618
▁agriturismo	-9.58623
▁primi	-9.58662
ingrosso	-9.58768
▁lingue	-9.5886
▁fla	-9.5896
▁book	-9.59016
rro	-9.59022
▁salva	-9.59079
ara	-9.59128
cam	-9.59146
▁regola	-9.59158
▁funzionamento	-9.59171
nne	-9.59178
▁tedesco	-9.59201
▁comuni	-9.59206
sha	-9.59274
▁permette	-9.59287
▁nera	-9.59308
▁ze	-9.59363
▁adatta	-9.59364
▁rico	-9.59418
▁riscaldamento	-9.59437
▁pochi	-9.59544
400	-9.59557
▁sexy	-9.59574
▁red	-9.59658
▁mercoledì	-9.59662
▁44	-9.59686
▁43	-9.59687
▁ville	-9.59744
kw	-9.59913
▁cibo	-9.59963
▁ven	-9.60003
ite	-9.60006
ue	-9.60066
men	-9.60074
▁stand	-9.601
ting	-9.60128
▁angolo	-9.6016
▁prime	-9.60194
ore	-9.60213
▁utilizzato	-9.60223
▁cuckold	-9.60245
5%	-9.60317
▁prestazioni	-9.60469
forma	-9.60471
▁ordini	-9.60531
▁giornata	-9.60589
rmi	-9.606
▁pra	-9.60673
▁orgasmo	-9.60693
▁futuro	-9.60693
▁gio	-9.60711
ak	-9.60716
▁linee	-9.60895
▁rose	-9.60904
▁tratta	-9.60911
isola	-9.60938
▁potete	-9.60975
▁rossa	-9.61037
▁capi	-9.61082
▁aggiunto	-9.61108
ire	-9.61143
nch	-9.61187
▁creazione	-9.61311
gono	-9.61338
▁valle	-9.61355
▁paolo	-9.61395
▁por	-9.6142
▁pal	-9.61421
▁francesco	-9.61463
van	-9.6149
▁interna	-9.61555
ran	-9.61654
▁istruzioni	-9.61664
▁occhi	-9.61723
▁luoghi	-9.61734
king	-9.61759
ye	-9.61848
▁relax	-9.61876
▁inc	-9.6189
▁corte	-9.619
▁uni	-9.61943
ant	-9.62006
▁%	-9.62008
▁)	-9.62028
▁mentre	-9.62172
sen	-9.62246
▁partita	-9.62308
▁parla	-9.6231
▁ristoranti	-9.62329
▁rea	-9.6237
▁tecnici	-9.62469
-8	-9.62509
▁evento	-9.62552
▁primavera	-9.6256
▁visitare	-9.62666
▁occhiali	-9.62667
▁assicura	-9.62698
col	-9.62705
▁consulenza	-9.62715
▁cnc	-9.62778
▁volume	-9.62888
▁lui	-9.63018
▁saranno	-9.6304
▁poliestere	-9.63104
▁(20	-9.63171
gre	-9.63178
▁bonus	-9.63209
▁raccolta	-9.6321
atura	-9.6325
▁social	-9.6334
▁bor	-9.6334
▁nastro	-9.63445
▁sti	-9.63468
▁prega	-9.63502
▁richiedi	-9.63564
▁lavorazione	-9.63598
▁presenti	-9.63644
rò	-9.63689
ab	-9.6377
▁gradi	-9.63784
▁mira	-9.63818
▁gusto	-9.6382
▁pasta	-9.63876
rica	-9.63943
▁miei	-9.63971
rone	-9.64032
▁orario	-9.64034
▁entra	-9.64094
▁esigenze	-9.6417
▁residenza	-9.6417
▁ultimi	-9.64206
let	-9.64212
▁adatto	-9.64503
▁magazzino	-9.64564
tribu	-9.6471
▁cd	-9.64711
▁specifica	-9.64722
▁au	-9.64729
metro	-9.6473
day	-9.64837
▁state	-9.64905
▁mod	-9.64944
ang	-9.64957
tech	-9.64969
▁tema	-9.65018
versa	-9.65043
nder	-9.6508
bre	-9.6515
cl	-9.6515
▁display	-9.65154
▁millimetri	-9.65182
otti	-9.65204
inter	-9.65225
▁uv	-9.65358
▁autobus	-9.65368
▁laboratorio	-9.65446
▁presentazione	-9.65477
-19	-9.65484
▁turismo	-9.65499
▁lava	-9.65516
▁navigazione	-9.65539
▁aree	-9.65562
retti	-9.65628
▁listino	-9.65652
ici	-9.65684
▁mg	-9.65751
▁mb	-9.65757
ud	-9.65777
nzia	-9.6587
▁panoramica	-9.65919
▁tasse	-9.66006
burg	-9.66009
▁trading	-9.66013
ther	-9.66014
zz	-9.66074
▁documenti	-9.6612
▁anna	-9.66143
▁blue	-9.66183
ao	-9.66188
▁copertura	-9.66192
▁madre	-9.66246
ssimo	-9.66259
▁informa	-9.6628
▁libera	-9.66298
▁giovedì	-9.66302
tec	-9.66384
rn	-9.6652
▁dominio	-9.66589
▁supporta	-9.66589
▁arriva	-9.6663
▁open	-9.66636
▁gia	-9.66708
rico	-9.6672
ace	-9.6675
rra	-9.66812
▁oppure	-9.66815
▁color	-9.66925
▁inserisci	-9.67063
▁consumo	-9.67073
cha	-9.67106
800	-9.67117
non	-9.67191
▁webcam	-9.67199
▁fin	-9.67237
▁album	-9.67273
▁orologio	-9.67281
nna	-9.67294
▁retro	-9.67356
uni	-9.67476
▁siena	-9.67589
▁movimento	-9.67625
nzo	-9.6765
▁richieste	-9.67662
▁certificazione	-9.67773
▁fondo	-9.67774
▁disegno	-9.67818
▁000	-9.67874
▁capitale	-9.67879
▁asse	-9.67928
star	-9.67992
▁light	-9.68044
▁mt	-9.68095
▁visto	-9.68178
▁raggiunto	-9.68182
mmer	-9.68205
▁avete	-9.68227
olio	-9.68339
▁inizio	-9.68344
rate	-9.68347
▁alloggi	-9.68374
▁industriali	-9.68604
▁poco	-9.68624
tc	-9.68683
▁best	-9.68684
▁stella	-9.68734
gr	-9.68758
▁cellulare	-9.68765
▁corsa	-9.68768
▁id	-9.68855
▁applica	-9.6891
▁sicilia	-9.68961
bor	-9.68968
▁legali	-9.68972
▁repubblica	-9.68985
▁leggere	-9.69024
lino	-9.69036
km	-9.69054
ncia	-9.69153
alta	-9.69217
▁contatta	-9.6925
▁up	-9.69257
▁(7	-9.69258
▁connessione	-9.69304
▁piu	-9.69372
▁montaggio	-9.69407
▁centrali	-9.69409
▁termo	-9.69502
tine	-9.69503
▁conto	-9.69513
▁mondiale	-9.6953
fra	-9.69597
);	-9.69599
▁browser	-9.69643
▁york	-9.69647
▁cala	-9.69689
▁registra	-9.69714
▁made	-9.69767
▁attrezzatura	-9.69806
nese	-9.69854
▁fax	-9.69892
ji	-9.69893
tch	-9.69917
▁europea	-9.69928
▁music	-9.69949
▁controlla	-9.69989
▁mq	-9.70097
ella	-9.701
/12	-9.70162
our	-9.70188
▁importante	-9.70228
cre	-9.70242
▁commercio	-9.70249
ssu	-9.70273
▁vero	-9.70283
▁impermeabile	-9.70288
▁devi	-9.7031
▁sub	-9.70377
▁pet	-9.70504
lini	-9.70536
▁borgo	-9.70551
▁64	-9.70574
▁interesse	-9.70577
▁cc	-9.70585
▁fuoco	-9.70633
▁riserva	-9.7072
low	-9.70733
zer	-9.70757
▁seguente	-9.7082
▁sor	-9.70908
▁fotografia	-9.70917
dra	-9.70987
▁effetto	-9.71025
▁accedi	-9.71062
rai	-9.71132
▁amore	-9.71163
▁gel	-9.71178
tv	-9.7118
▁tariffe	-9.71242
vin	-9.71303
▁vintage	-9.71319
▁alloggio	-9.71496
▁gal	-9.71556
ring	-9.7156
▁master	-9.71571
▁visualizzazione	-9.71595
▁rende	-9.71596
▁esterna	-9.7164
▁pieno	-9.71836
▁squadra	-9.71858
▁110	-9.72035
▁sensore	-9.72057
▁idee	-9.72165
▁funzioni	-9.72165
ambiente	-9.72213
▁sant	-9.72229
san	-9.72234
▁46	-9.72268
▁gen	-9.72295
nova	-9.72513
▁52	-9.72523
ito	-9.72615
bro	-9.72627
▁studenti	-9.72637
▁?	-9.72647
cer	-9.72674
▁big	-9.72704
▁gara	-9.72788
▁membri	-9.72876
and	-9.72903
▁centri	-9.72946
ità	-9.72977
▁contenitore	-9.73023
▁internazionali	-9.73027
▁università	-9.73027
▁requisiti	-9.7314
▁vostre	-9.73153
mia	-9.7317
▁loco	-9.73182
▁isole	-9.73265
▁selezionare	-9.7328
▁her	-9.73284
▁digital	-9.73302
vio	-9.7339
▁more	-9.73434
▁luna	-9.73553
▁messaggi	-9.73616
dor	-9.73728
▁parole	-9.73776
less	-9.73836
▁numeri	-9.73853
▁direzione	-9.7387
▁colla	-9.73901
yo	-9.74028
▁ph	-9.7404
▁360	-9.74202
▁ottimo	-9.74322
pri	-9.74344
▁nessuna	-9.74437
mor	-9.74442
▁gioielli	-9.74518
▁locanda	-9.7452
▁41	-9.74647
▁hosting	-9.74702
▁penetrazione	-9.74749
▁green	-9.74785
▁chiuso	-9.7479
▁shi	-9.74844
▁riso	-9.74882
ah	-9.74931
▁anello	-9.75039
▁valori	-9.75112
▁resi	-9.75124
▁maggior	-9.75146
▁condizionata	-9.75227
opera	-9.75259
▁saldatura	-9.75291
▁facilmente	-9.75354
▁world	-9.75379
▁rapporto	-9.75394
gge	-9.75501
▁ruote	-9.75516
▁realizzato	-9.75527
9,00	-9.75666
▁pulsante	-9.75674
▁distribuzione	-9.75722
▁bon	-9.75725
elle	-9.7576
utilizzo	-9.75804
dina	-9.75811
▁antica	-9.75913
nes	-9.75928
▁ciclo	-9.76028
lità	-9.76029
▁sch	-9.76136
▁responsabile	-9.76197
▁varie	-9.76214
▁gro	-9.76217
▁pubblicità	-9.76255
cle	-9.76286
▁ultra	-9.76317
gar	-9.76549
▁cose	-9.76599
▁prossimo	-9.76616
▁forno	-9.76618
ctor	-9.76721
▁perfetto	-9.76726
▁fornire	-9.76731
tazione	-9.76754
▁migliora	-9.76801
▁viale	-9.7685
▁spagnolo	-9.76885
om	-9.76905
▁replica	-9.76925
▁valuta	-9.76946
▁island	-9.77023
ju	-9.77026
bio	-9.77175
▁campagna	-9.77332
▁ceramica	-9.77342
-7	-9.7736
▁forni	-9.77362
▁belle	-9.77413
▁sar	-9.77418
▁vale	-9.77472
lly	-9.77474
▁territorio	-9.77493
▁tube	-9.77506
▁capri	-9.77535
▁risoluzione	-9.77536
▁villaggio	-9.77539
▁tipologia	-9.77598
▁ya	-9.77599
▁driver	-9.77659
sio	-9.77724
▁fumatori	-9.77782
/2018	-9.77833
xi	-9.77888
▁finestra	-9.7796
▁salone	-9.78004
▁lcd	-9.78058
▁cra	-9.78076
▁fiore	-9.781
▁include	-9.7811
▁store	-9.78218
▁bike	-9.78235
▁creato	-9.78236
▁fondazione	-9.78294
▁diretta	-9.783
▁mezzo	-9.78308
nga	-9.78356
2019	-9.78375
▁traduzione	-9.78481
▁!	-9.78482
lt	-9.78583
ance	-9.78584
▁catena	-9.78658
feri	-9.7866
▁collegamento	-9.78682
gri	-9.7869
dro	-9.78732
▁oggetto	-9.78746
▁imprese	-9.7881
▁calendario	-9.78843
▁demo	-9.78855
ista	-9.78888
▁barca	-9.78983
▁copia	-9.79002
▁opere	-9.79039
▁nello	-9.79102
▁(3)	-9.79108
▁220	-9.79135
▁desidera	-9.79144
▁importanti	-9.79226
▁vite	-9.79306
▁località	-9.79312
voli	-9.79319
gua	-9.7935
▁andrea	-9.79362
▁giappone	-9.79386
▁line	-9.79387
otto	-9.79396
▁formula	-9.79402
▁gay	-9.79472
vie	-9.79482
nelli	-9.79502
▁piani	-9.79535
alto	-9.7959
▁dettaglio	-9.79591
▁convertire	-9.79597
▁migliorare	-9.79599
▁etichetta	-9.79616
▁dr	-9.79646
nella	-9.79648
▁efficienza	-9.79681
ph	-9.79708
▁start	-9.79717
▁photo	-9.79772
▁har	-9.798
mmo	-9.79819
esperienza	-9.79856
▁recupero	-9.79893
▁scor	-9.79908
▁vin	-9.79937
rri	-9.79948
▁form	-9.79952
001	-9.79954
cente	-9.79988
▁buono	-9.80013
▁crescita	-9.80018
▁industria	-9.80029
▁180	-9.80045
immagine	-9.80074
▁traccia	-9.80187
▁sol	-9.8025
▁antico	-9.80259
▁ter	-9.80291
spi	-9.80298
▁men	-9.8032
mg	-9.80323
▁castel	-9.80374
rne	-9.80378
▁spo	-9.80427
gie	-9.80435
▁luca	-9.80582
▁power	-9.8061
pol	-9.80628
▁sc	-9.80647
bel	-9.80662
ffi	-9.8072
/2019	-9.80727
ham	-9.80756
▁dvd	-9.80787
▁voce	-9.80793
stico	-9.80874
anna	-9.80916
▁spesso	-9.80918
▁realizzazione	-9.80922
box	-9.80937
▁ago	-9.81023
▁rame	-9.81053
▁ritorno	-9.81071
▁monaco	-9.81112
sy	-9.81128
metri	-9.81147
▁pezzo	-9.81255
▁corre	-9.81261
▁stai	-9.81301
▁lavori	-9.81304
▁dec	-9.81317
▁2005	-9.8136
▁interni	-9.8147
odo	-9.81476
▁genera	-9.81476
▁tenuta	-9.81495
▁prendere	-9.81509
▁medica	-9.8151
▁clo	-9.81544
▁silicone	-9.81595
▁tru	-9.81774
▁perdita	-9.81834
▁servi	-9.81896
▁anima	-9.82001
▁street	-9.82016
info	-9.82105
▁ricambi	-9.82154
▁furono	-9.82164
▁pensa	-9.82231
▁significa	-9.82241
bbia	-9.8234
▁utilizzando	-9.82389
▁confezione	-9.82437
stin	-9.82438
▁organi	-9.82448
▁classifica	-9.82565
▁indica	-9.82619
▁restaurant	-9.82658
elli	-9.82688
▁47	-9.82709
zu	-9.82726
▁norma	-9.82787
▁programmi	-9.82802
▁esposizione	-9.82875
pc	-9.82948
▁canali	-9.82982
rc	-9.82988
industria	-9.83027
▁leggero	-9.83041
rini	-9.83061
▁scena	-9.83116
▁rapido	-9.83191
▁scoprire	-9.83199
side	-9.8328
▁funzionalità	-9.83315
media	-9.83372
aggio	-9.83531
▁pratica	-9.83537
▁unica	-9.8355
▁aziendale	-9.83588
▁bello	-9.83589
▁network	-9.83645
▁palace	-9.83672
▁spazi	-9.83681
▁bici	-9.83715
▁sara	-9.83719
mine	-9.83731
▁off	-9.83784
lon	-9.83795
▁vera	-9.83804
▁touch	-9.83818
▁misure	-9.83863
▁divertimento	-9.83881
visualizza	-9.83944
▁memoria	-9.83948
▁fan	-9.83956
▁machine	-9.83993
▁aggiungere	-9.83996
lica	-9.83996
▁sensi	-9.84025
▁matrimonio	-9.84028
pt	-9.84087
▁conta	-9.84103
/3	-9.84128
▁promozione	-9.84152
▁clip	-9.84198
▁3*,	-9.84252
lmente	-9.8441
▁padre	-9.84497
lico	-9.84559
▁contratto	-9.84606
▁pesce	-9.84699
▁cana	-9.84733
▁marino	-9.84743
shop	-9.84746
▁aumenta	-9.84749
▁pensione	-9.84749
▁normale	-9.84784
▁prote	-9.84792
▁cara	-9.84825
▁regolabile	-9.84867
▁abito	-9.84906
▁posteriore	-9.84955
▁incontra	-9.85001
▁pannelli	-9.85101
pan	-9.85136
port	-9.85143
▁rossi	-9.85202
▁fila	-9.85219
rla	-9.8522
osa	-9.85228
▁diretto	-9.85239
▁vento	-9.85246
▁49	-9.85247
gui	-9.8529
▁acquisto	-9.85311
pl	-9.85395
▁riva	-9.85494
ologia	-9.8552
vel	-9.85563
▁monitoraggio	-9.85578
esi	-9.85691
stici	-9.85699
▁pm	-9.85724
▁cod	-9.85728
▁treno	-9.8576
rgi	-9.85764
▁tavola	-9.85766
▁vivere	-9.85782
▁lido	-9.85809
▁tela	-9.85866
ice	-9.85896
fr	-9.85982
▁privata	-9.86017
▁testi	-9.86025
▁350	-9.86048
▁firma	-9.86071
rino	-9.86097
▁apartments	-9.86103
▁consiglio	-9.86136
▁contra	-9.86204
mica	-9.86313
▁kar	-9.86342
gy	-9.86369
▁54	-9.86381
more	-9.86431
berg	-9.86451
▁volo	-9.86457
▁staff	-9.86476
▁pietro	-9.8648
▁doc	-9.86547
▁out	-9.86556
bia	-9.86612
▁figlio	-9.86642
▁passione	-9.86693
▁livelli	-9.86723
▁001	-9.86731
▁wifi	-9.86763
▁attualmente	-9.86776
▁presto	-9.8678
▁ruota	-9.8678
▁mail	-9.8682
▁arti	-9.86823
▁decorazione	-9.86832
▁giocare	-9.86857
▁metro	-9.86861
▁(0)	-9.8693
cono	-9.86981
▁libri	-9.86988
▁titolare	-9.87001
▁sera	-9.87116
▁azione	-9.87214
nse	-9.87254
▁tradizione	-9.87271
▁erano	-9.87336
▁realtà	-9.87342
▁aveva	-9.87375
▁mura	-9.87463
▁trasmissione	-9.87495
▁sf	-9.87509
▁vene	-9.87626
▁bur	-9.87637
▁tasso	-9.87665
han	-9.87714
▁compa	-9.87772
▁tè	-9.87816
eria	-9.87821
rk	-9.87833
▁viso	-9.87872
ù	-9.87872
▁band	-9.87948
▁sw	-9.88027
▁guide	-9.88095
▁progetta	-9.88156
▁annunci	-9.88212
▁ur	-9.88217
▁os	-9.88231
una	-9.88243
▁sardegna	-9.88265
ok	-9.88278
▁fini	-9.88316
pm	-9.88337
▁pie	-9.88358
ub	-9.88391
▁incontri	-9.88403
▁mor	-9.88413
▁vuoto	-9.88493
nel	-9.88556
lice	-9.8857
▁secolo	-9.8861
▁direttore	-9.88643
etti	-9.88648
▁raffreddamento	-9.88697
▁lancia	-9.88716
▁ricarica	-9.88727
▁(10	-9.88744
▁trasparente	-9.88767
▁america	-9.88811
▁medicina	-9.88817
porn	-9.88838
altra	-9.88848
▁zi	-9.889
▁spin	-9.88938
▁musei	-9.88999
▁bagagli	-9.89006
uma	-9.89036
▁barcellona	-9.89087
lone	-9.89114
▁detto	-9.89236
▁mc	-9.89308
▁inn	-9.89351
▁marmo	-9.89387
▁mezza	-9.89447
gh	-9.89479
▁nylon	-9.89501
-15	-9.89502
pla	-9.89587
▁robot	-9.89652
▁famiglie	-9.89686
▁compilatie	-9.89687
em	-9.8972
-01	-9.89744
▁(8	-9.89744
▁tecnologie	-9.89747
cina	-9.89823
▁fronte	-9.89885
▁sapere	-9.89897
▁portata	-9.89943
▁day	-9.89988
lc	-9.90007
▁basato	-9.9002
▁dura	-9.90025
▁presidente	-9.90048
▁economico	-9.90055
▁royal	-9.90116
tten	-9.90142
▁saperne	-9.90148
cro	-9.90159
▁dc	-9.90179
▁terre	-9.90255
▁promozioni	-9.90283
dis	-9.90314
ning	-9.90317
sch	-9.90369
use	-9.90391
▁successivo	-9.90426
▁massa	-9.90441
▁aspetta	-9.90445
▁colle	-9.90453
ent	-9.90484
▁cad	-9.90502
▁bag	-9.90542
▁dona	-9.90545
▁autore	-9.90613
▁scar	-9.90623
ile	-9.9064
uk	-9.90654
▁bionda	-9.90697
▁faccia	-9.90758
tone	-9.90811
▁mercati	-9.90893
▁port	-9.90937
telli	-9.90944
▁secondi	-9.90973
▁xxx	-9.90998
ec	-9.91032
ai	-9.91036
miche	-9.91043
▁date	-9.91058
▁3*	-9.91064
▁gallery	-9.91079
▁veicolo	-9.91079
sor	-9.91085
▁globale	-9.91103
▁wh	-9.91141
▁10%	-9.91159
vis	-9.91178
▁contiene	-9.9122
tic	-9.91247
▁acce	-9.91249
gon	-9.91295
▁impostazioni	-9.91302
▁apartment	-9.9133
150	-9.91376
!!!	-9.91421
▁amatoriali	-9.91454
▁leader	-9.91509
▁particolare	-9.91559
▁quella	-9.91615
▁viola	-9.91616
▁pop	-9.9163
ski	-9.91678
▁desideri	-9.91687
▁ton	-9.91688
▁impianto	-9.91772
▁85	-9.91783
▁pavimento	-9.91784
▁ruolo	-9.91786
nio	-9.91825
-18	-9.91916
▁veicoli	-9.91925
▁est	-9.92074
▁registrato	-9.92108
▁collezioni	-9.92171
▁grecia	-9.92179
rale	-9.92187
▁connettore	-9.9221
-11	-9.92235
▁australia	-9.9233
▁pittura	-9.92399
▁cioccolato	-9.92493
▁antonio	-9.92521
▁blocco	-9.92541
▁invece	-9.92548
▁center	-9.92653
▁materia	-9.92654
ida	-9.92662
nc	-9.9271
gel	-9.92776
▁strato	-9.92847
iano	-9.92849
applicazione	-9.92861
▁elegante	-9.92922
▁58	-9.92948
▁banca	-9.92958
▁tar	-9.93022
▁morte	-9.93066
▁iscrizione	-9.93106
▁spese	-9.93111
▁fonte	-9.93145
▁play	-9.9315
▁amatrice	-9.93202
▁poker	-9.93249
▁prove	-9.93268
▁lavorare	-9.93276
▁parola	-9.9333
▁balcone	-9.93351
▁azioni	-9.93459
▁adesso	-9.93477
▁56	-9.93488
▁don	-9.93509
▁pala	-9.93525
▁rock	-9.93533
nello	-9.93546
▁membro	-9.93566
tex	-9.93575
▁almeno	-9.93604
▁pass	-9.93605
▁disabili	-9.93615
▁qualche	-9.93622
">	-9.93623
▁nave	-9.93683
▁chf	-9.93696
▁aiuto	-9.93699
▁cassa	-9.93747
▁paga	-9.9375
ffa	-9.93795
▁elettrici	-9.93801
die	-9.93818
▁benefici	-9.93904
sche	-9.93911
▁with	-9.93957
▁coppie	-9.93975
▁casino	-9.94037
tare	-9.94162
▁lin	-9.9423
▁pad	-9.94263
▁99	-9.94291
dici	-9.94336
▁ricambio	-9.94345
▁flusso	-9.94371
▁love	-9.9441
▁admin	-9.94458
▁contattarci	-9.94469
pin	-9.94491
▁prese	-9.94522
▁oem	-9.94565
▁licenza	-9.94603
▁dur	-9.94646
ete	-9.94684
▁mari	-9.94685
▁italian	-9.94702
oso	-9.94737
ise	-9.94812
[	-9.94899
250	-9.94931
▁modi	-9.9494
▁tessuti	-9.94942
▁chiudi	-9.94982
▁suites	-9.9502
▁comprende	-9.95041
gro	-9.9506
▁fissa	-9.95085
▁artisti	-9.95105
▁andare	-9.95151
cho	-9.95191
lm	-9.95196
▁86	-9.95197
ach	-9.95209
azioni	-9.95256
dd	-9.95271
▁prenotare	-9.95366
▁forum	-9.95397
mici	-9.95452
▁monitor	-9.95573
▁risultato	-9.95602
▁mosca	-9.95648
dono	-9.95731
▁professionali	-9.95798
▁ss	-9.95918
lare	-9.95938
▁marchi	-9.95957
/1	-9.95998
ep	-9.96045
▁dagli	-9.9607
▁idea	-9.96085
▁time	-9.96173
▁effettua	-9.96256
ossi	-9.96287
▁stanze	-9.96322
ona	-9.96397
▁estratto	-9.96401
▁asiatico	-9.96426
dri	-9.96497
▁stoccaggio	-9.9656
▁wo	-9.96624
ismo	-9.96658
▁collaborazione	-9.96749
max	-9.96834
▁genere	-9.96845
▁glo	-9.9686
ig	-9.96861
▁pat	-9.97019
▁casi	-9.9703
▁pacchetti	-9.97055
▁palla	-9.97077
onda	-9.97081
2018	-9.97093
imballaggio	-9.97133
▁stars	-9.97155
▁richiesto	-9.972
▁cambia	-9.97261
▁partecipa	-9.97285
▁sedia	-9.97299
spo	-9.97301
rdi	-9.97352
▁cancella	-9.97371
▁metodi	-9.97408
▁https	-9.97422
▁fotografica	-9.97423
▁plus	-9.97461
▁sun	-9.97505
bit	-9.97511
▁tabella	-9.97528
▁origine	-9.97555
▁favore	-9.97565
▁real	-9.97577
▁iniziale	-9.97589
▁molte	-9.9761
▁dintorni	-9.97653
▁popolare	-9.97653
commerce	-9.97704
giu	-9.97726
▁sto	-9.97828
▁cane	-9.97833
▁comunità	-9.97859
zie	-9.97861
▁scu	-9.97872
fil	-9.97915
▁scelte	-9.97954
▁russia	-9.97985
▁freddo	-9.98004
▁personalizzati	-9.9803
▁tale	-9.98068
ade	-9.98126
▁white	-9.98184
▁gira	-9.98196
▁africa	-9.98248
hotels	-9.98252
▁potrebbe	-9.98254
▁dolomiti	-9.98305
▁war	-9.98343
▁biglietto	-9.98355
▁shopping	-9.98463
▁pia	-9.98478
▁tom	-9.98482
▁pizza	-9.98487
mt	-9.98496
usa	-9.9852
▁bagni	-9.98545
/09	-9.98548
gb	-9.98563
roma	-9.98584
▁rapida	-9.98644
▁giuseppe	-9.98658
▁prende	-9.98677
▁system	-9.98691
▁italien	-9.98711
altro	-9.98832
▁compilation	-9.98841
▁processi	-9.98863
offerta	-9.98909
▁72	-9.98993
onia	-9.99135
▁gratuiti	-9.99163
▁milioni	-9.99164
▁scarico	-9.99186
▁rub	-9.99197
▁chiama	-9.99207
▁propria	-9.99282
ele	-9.99294
ys	-9.99312
▁maschera	-9.99317
▁piccole	-9.99319
▁ab	-9.9937
▁dispone	-9.99431
cra	-9.99433
▁metal	-9.99454
▁cammino	-9.99479
▁53	-9.99498
▁popolari	-9.99591
▁attenzione	-9.99602
iti	-9.9962
▁piega	-9.99658
▁installare	-9.99724
▁agenzia	-9.99797
rp	-9.9985
book	-9.99881
▁annulla	-9.99892
ama	-9.999
▁2004	-9.99946
▁view	-9.99947
ena	-9.99989
▁gps	-10
▁contattare	-10.0002
▁ottieni	-10.0003
▁voti	-10.0005
▁montagna	-10.0005
▁bassi	-10.0012
▁51	-10.0012
▁tan	-10.0016
▁(4)	-10.002
▁marche	-10.0022
▁intelligente	-10.0023
stiche	-10.0036
▁tur	-10.004
zzata	-10.0045
▁69	-10.0045
▁sap	-10.0047
▁(9	-10.0052
tella	-10.0055
▁guest	-10.0059
centi	-10.0059
▁versa	-10.0061
▁riduzione	-10.0067
▁road	-10.0068
▁segui	-10.0074
ultima	-10.0075
▁stessa	-10.0076
▁utensili	-10.0082
▁moderno	-10.009
▁bobina	-10.0092
▁john	-10.0095
all	-10.0101
idi	-10.0104
▁chiara	-10.0108
▁visione	-10.0111
▁combina	-10.0112
▁russo	-10.0112
▁sim	-10.0117
pdf	-10.0119
hu	-10.0119
▁baia	-10.0122
▁cottura	-10.0127
gger	-10.0128
nger	-10.013
accesso	-10.0131
peri	-10.0136
▁informazione	-10.0138
▁mediterraneo	-10.0147
▁affittacamere	-10.0147
gue	-10.015
▁rotolo	-10.0153
▁sostegno	-10.0153
▁concorso	-10.0158
posto	-10.0166
▁fornito	-10.0167
▁austria	-10.0171
ight	-10.0176
▁incluso	-10.0178
▁interracial	-10.0191
▁ji	-10.0193
▁attivo	-10.0204
america	-10.0206
▁premium	-10.0214
▁perfetta	-10.0216
▁camping	-10.0217
shirt	-10.0219
▁europeo	-10.022
▁diesel	-10.0222
▁vie	-10.0223
▁saint	-10.0227
▁140	-10.0229
▁now	-10.0235
▁59	-10.0237
ek	-10.024
des	-10.024
▁riparazione	-10.0241
▁determina	-10.0241
▁ostelli	-10.0242
▁cani	-10.0245
0%	-10.0245
off	-10.0245
▁gambe	-10.0246
▁sali	-10.0247
▁mille	-10.0247
▁telaio	-10.0249
▁minima	-10.025
▁ram	-10.0252
▁intera	-10.0253
nea	-10.0253
nm	-10.0255
eg	-10.0262
ee	-10.0265
▁inviare	-10.027
▁caccia	-10.0271
▁tariffa	-10.0273
dente	-10.0277
lite	-10.0278
▁giocattoli	-10.0278
▁ragazzi	-10.0278
mico	-10.0282
nl	-10.0287
▁batterie	-10.0287
▁manager	-10.0289
▁compra	-10.0292
▁digitali	-10.0296
▁classic	-10.0301
▁chiaro	-10.0306
▁cru	-10.0307
▁57	-10.0308
▁service	-10.031
▁bl	-10.0314
dal	-10.0322
▁hostel	-10.0323
▁liquido	-10.0325
▁singoli	-10.0325
▁inverno	-10.0326
▁cloud	-10.0335
▁alpi	-10.0336
▁consulta	-10.0336
▁bisex	-10.0345
▁senti	-10.0347
▁ferma	-10.0349
endo	-10.0354
air	-10.0358
▁63	-10.0361
▁soldi	-10.0365
/06	-10.0368
▁fatti	-10.0369
▁she	-10.0374
▁efficace	-10.0378
▁anali	-10.0378
zionale	-10.0393
120	-10.0394
▁configurazione	-10.0403
▁report	-10.0403
▁serve	-10.0404
▁tradizionale	-10.0405
▁giorgio	-10.0405
▁inferiore	-10.0416
▁pace	-10.042
▁fran	-10.0421
cchio	-10.0429
uli	-10.0432
▁from	-10.0433
▁carne	-10.0437
▁amico	-10.044
inizio	-10.0442
mber	-10.0445
▁cristallo	-10.0448
▁arrivare	-10.0449
ren	-10.046
nni	-10.0466
▁aperta	-10.0466
turi	-10.0468
▁india	-10.0468
▁governo	-10.048
▁registro	-10.048
guard	-10.0483
▁principe	-10.0488
ui	-10.0492
tr	-10.0494
ky	-10.0494
pr	-10.0494
retto	-10.0494
▁preventivo	-10.0496
▁acque	-10.0497
▁sorrento	-10.0501
▁van	-10.0502
▁alimentare	-10.0504
▁cr	-10.0523
▁verticale	-10.0528
rata	-10.0529
▁zone	-10.0531
▁quasi	-10.0533
▁caricamento	-10.0534
▁2.0	-10.0536
▁aprire	-10.0544
▁filtri	-10.0544
▁vapore	-10.0545
▁consente	-10.0547
▁polizia	-10.0549
▁fol	-10.0549
▁siete	-10.055
▁tetto	-10.0552
▁finitura	-10.0554
▁atti	-10.0555
▁sm	-10.0558
blo	-10.0568
▁ye	-10.0573
▁trasforma	-10.0577
▁2003	-10.0578
700	-10.058
▁holiday	-10.0582
▁mont	-10.0585
▁quest	-10.0586
cla	-10.0589
",	-10.0591
▁ospite	-10.0599
▁schi	-10.0603
▁riservata	-10.0604
▁associazione	-10.0606
▁66	-10.0608
ves	-10.061
▁mr	-10.0611
mc	-10.0611
mpo	-10.0616
sex	-10.0618
estate	-10.0618
▁vasca	-10.0618
▁cuscinetto	-10.062
ware	-10.0621
▁stabili	-10.0621
▁cur	-10.0622
▁soft	-10.0624
▁zo	-10.0628
▁inserire	-10.0631
razione	-10.0634
corre	-10.0637
hd	-10.0637
▁accu	-10.064
▁preparazione	-10.0645
ultimo	-10.0648
▁160	-10.0654
▁stefano	-10.0658
▁messa	-10.0667
▁appena	-10.0668
▁gonfiabile	-10.067
don	-10.0672
▁presa	-10.0672
▁segnale	-10.0674
▁idraulico	-10.0675
▁bit	-10.0682
▁barra	-10.0684
installazione	-10.0688
sal	-10.0693
epoca	-10.0696
▁professionisti	-10.0697
▁genova	-10.0699
asse	-10.0699
sivo	-10.07
▁ser	-10.0701
▁ischia	-10.0704
articolo	-10.0708
▁cari	-10.071
▁immobiliare	-10.0721
▁considera	-10.0722
▁community	-10.0724
▁vittoria	-10.0724
▁ciao	-10.073
▁wireless	-10.0735
rli	-10.0735
▁utilizzati	-10.0736
▁muschi	-10.0744
care	-10.075
form	-10.0759
her	-10.0761
light	-10.0764
lati	-10.0767
▁flash	-10.0767
video	-10.0768
eur	-10.077
▁studente	-10.0772
▁lettera	-10.0772
ef	-10.0773
▁casinò	-10.0774
rna	-10.0776
▁verrà	-10.0779
▁gratuitamente	-10.078
▁95	-10.078
▁abita	-10.0782
cus	-10.0786
zionali	-10.0787
-9	-10.0788
ska	-10.0789
▁affi	-10.0797
▁dedicato	-10.0797
▁collo	-10.0797
nata	-10.0799
uomo	-10.0805
▁11.	-10.0808
▁finalità	-10.0809
▁spiagge	-10.0818
letti	-10.082
▁santo	-10.0822
▁milfs	-10.0823
▁idro	-10.0824
▁esterni	-10.0831
▁gestire	-10.0834
▁sy	-10.0835
▁acido	-10.0837
este	-10.0837
▁king	-10.0838
appartamento	-10.0843
ardo	-10.0843
▁divano	-10.0857
▁reception	-10.0863
▁trovato	-10.0866
▁terreno	-10.0866
▁pul	-10.0867
dini	-10.087
▁dildo	-10.0873
▁backup	-10.0875
▁tuttavia	-10.0877
/8	-10.0886
▁compatibile	-10.0888
▁anteriore	-10.0891
▁accedere	-10.0896
▁nov	-10.0896
▁bari	-10.0901
▁abiti	-10.0906
▁tenda	-10.0911
▁metropolitana	-10.0911
▁audi	-10.0912
▁room	-10.0913
ese	-10.0916
▁(18	-10.0919
▁aziendali	-10.0922
▁fresco	-10.0929
▁vorrei	-10.093
▁aero	-10.0935
▁croce	-10.0935
▁ricette	-10.0935
/5	-10.0939
▁medici	-10.0941
▁sogno	-10.0949
▁risparmio	-10.0949
▁login	-10.0952
umi	-10.0955
▁apk	-10.0955
inc	-10.096
br	-10.0962
rum	-10.0962
ssima	-10.0967
▁pane	-10.0974
▁collabora	-10.0976
▁4*	-10.0979
▁gru	-10.0981
vento	-10.0984
▁canada	-10.0986
▁tech	-10.0988
illa	-10.099
tru	-10.0992
▁sconti	-10.0994
▁trattamenti	-10.0996
▁varia	-10.1007
▁ger	-10.1011
▁innovazione	-10.1012
erà	-10.1021
▁devono	-10.1023
▁fede	-10.1024
▁rota	-10.1026
▁ski	-10.103
▁giardini	-10.1037
lega	-10.1043
▁pronto	-10.1043
▁resta	-10.1046
▁berlino	-10.1047
▁quota	-10.1055
▁radi	-10.1057
▁125	-10.1059
/4	-10.1062
▁comando	-10.1073
▁devo	-10.1075
▁rimozione	-10.1077
scia	-10.1078
(2	-10.1082
▁ingredienti	-10.1082
▁trovate	-10.1084
stone	-10.1086
▁jun	-10.1088
▁interfaccia	-10.1093
▁biciclette	-10.1094
▁composizione	-10.1095
kin	-10.1097
▁dolci	-10.11
cy	-10.1103
▁regolamento	-10.1103
▁iii	-10.1105
▁griglia	-10.1105
▁feticismo	-10.1105
▁regole	-10.1106
opzione	-10.1111
▁integrato	-10.1116
tutti	-10.1116
▁stampante	-10.1119
udi	-10.1119
900	-10.112
▁uffici	-10.1121
asso	-10.1122
unità	-10.1127
▁sacchetto	-10.113
▁meta	-10.1131
▁food	-10.1132
▁back	-10.1134
▁avviso	-10.1137
▁abilità	-10.114
ou	-10.1143
▁giocatori	-10.1154
▁gold	-10.1161
/2	-10.1162
vr	-10.1163
-30	-10.1163
▁abba	-10.1166
ville	-10.1167
cent	-10.1173
▁piante	-10.1174
▁pianta	-10.1176
▁kw	-10.118
▁tennis	-10.1183
▁1)	-10.1187
▁sedu	-10.1189
top	-10.119
▁taxi	-10.119
anda	-10.1191
len	-10.1197
automobile	-10.1198
▁recenti	-10.12
▁cl	-10.1201
roni	-10.1206
▁porti	-10.1207
ffer	-10.1209
▁you	-10.1213
▁reali	-10.1218
▁elevato	-10.1219
-2019	-10.1224
▁menù	-10.1232
▁high	-10.1235
▁wal	-10.1239
▁alba	-10.1241
▁pl	-10.1245
▁comprare	-10.1245
monta	-10.1246
▁economici	-10.1249
▁albero	-10.1251
della	-10.1256
/19	-10.1257
▁neve	-10.1257
▁hp	-10.1257
ag	-10.126
▁generatore	-10.1266
▁moncler	-10.1267
▁responsabilità	-10.1268
▁aff	-10.1272
▁estensione	-10.1273
ov	-10.1279
nn	-10.1283
▁inclusi	-10.1283
1000	-10.1284
▁yoga	-10.1289
▁alessandro	-10.129
lf	-10.1296
▁rs	-10.1304
▁poter	-10.1306
cker	-10.1308
▁tutorial	-10.1313
▁durevole	-10.1325
▁youtube	-10.1338
▁iniziare	-10.1343
▁conoscere	-10.1347
▁meeting	-10.1348
▁50%	-10.135
▁caro	-10.135
▁tira	-10.1353
▁conoscenza	-10.1355
ux	-10.1359
▁nike	-10.136
▁oli	-10.1363
tan	-10.1366
▁jack	-10.1367
▁importa	-10.1368
▁modella	-10.137
▁ottica	-10.137
▁rischio	-10.1372
ung	-10.1379
ted	-10.138
▁codici	-10.1381
attività	-10.1384
▁papa	-10.1385
▁alte	-10.1385
bal	-10.1387
▁mus	-10.1389
▁xi	-10.139
▁68	-10.1391
▁bay	-10.1392
▁musicale	-10.1393
▁blocca	-10.1395
▁ispira	-10.1396
▁colo	-10.1397
▁ascensore	-10.1397
▁passaggio	-10.1401
▁ricevi	-10.1401
▁viva	-10.1406
/07	-10.1409
▁formati	-10.1415
▁controllare	-10.1417
▁reg	-10.1418
rosa	-10.1418
▁recente	-10.1419
▁pompe	-10.1422
▁serra	-10.1427
▁ombre	-10.1431
▁bracciale	-10.1432
/20	-10.1432
▁impa	-10.1433
▁elimina	-10.1434
show	-10.1434
▁ottimizza	-10.1446
av	-10.145
▁militare	-10.1454
▁baby	-10.1455
▁conservazione	-10.1462
italy	-10.1463
▁certificati	-10.1466
cchia	-10.1469
▁richiede	-10.1471
▁accompagna	-10.1472
▁moduli	-10.1473
nici	-10.1488
▁offriamo	-10.1491
▁piacere	-10.1492
▁integra	-10.1492
▁convertitore	-10.1495
▁ron	-10.1495
▁iniezione	-10.1503
▁mix	-10.1503
▁meccanica	-10.1505
▁etichette	-10.1508
età	-10.1508
work	-10.1514
▁paradiso	-10.1519
▁dor	-10.1523
▁giacca	-10.1524
▁ricorda	-10.1526
▁serbatoio	-10.1531
▁concerto	-10.1532
▁moderna	-10.1532
▁sabbia	-10.1533
▁2)	-10.1533
ug	-10.1534
▁rileva	-10.154
▁fiume	-10.1541
▁camion	-10.1541
▁campioni	-10.1541
▁domestici	-10.1555
▁navi	-10.1556
▁yu	-10.1557
ation	-10.1563
▁regina	-10.1564
▁indiano	-10.1569
▁colonna	-10.158
ole	-10.158
▁full	-10.158
▁installa	-10.1584
▁barche	-10.1585
▁pixel	-10.1585
9.00	-10.1587
▁vs	-10.1589
tò	-10.159
▁rim	-10.1593
▁marrone	-10.1596
/2017	-10.1604
▁lezioni	-10.1605
sport	-10.1609
▁garden	-10.1611
▁mas	-10.1611
dice	-10.1611
▁terzo	-10.1611
▁cho	-10.1613
▁ir	-10.1615
▁opportunità	-10.1623
▁configura	-10.1623
sol	-10.1624
▁sovra	-10.1626
▁plan	-10.1627
pha	-10.1628
▁motor	-10.163
▁male	-10.1632
▁collection	-10.1634
!!	-10.1639
▁cuoio	-10.1645
▁gene	-10.165
▁380	-10.1651
▁smartphone	-10.1658
ando	-10.1663
▁screen	-10.1668
▁femminile	-10.1669
▁life	-10.1673
▁kb	-10.168
▁grafica	-10.1688
▁ferroviaria	-10.1691
▁62	-10.1691
▁espresso	-10.1694
▁96	-10.1695
110	-10.1695
indirizzo	-10.1695
▁privati	-10.17
▁consiglia	-10.17
▁viti	-10.1714
tal	-10.1714
▁dog	-10.1716
▁forme	-10.1723
▁preferiti	-10.1724
▁barre	-10.173
▁700	-10.1732
▁ambientale	-10.1742
010	-10.1747
▁bianchi	-10.1754
▁dentro	-10.1755
ave	-10.1757
▁wine	-10.1759
▁relazione	-10.1761
▁accetto	-10.1766
▁caldi	-10.177
▁martin	-10.1772
sole	-10.1774
letta	-10.1778
▁consenso	-10.1779
▁fun	-10.1785
▁esplora	-10.1791
▁manda	-10.1791
visi	-10.1797
▁autori	-10.1798
▁slot	-10.18
cine	-10.1802
-03	-10.1805
▁porcellana	-10.1809
▁separa	-10.181
▁pack	-10.181
db	-10.1814
▁citta	-10.1814
▁vicinanze	-10.1816
▁ms	-10.1824
anni	-10.1829
▁qualcosa	-10.184
▁press	-10.1842
ule	-10.1845
▁abb	-10.1845
web	-10.185
▁win	-10.185
zion	-10.1851
▁taglie	-10.1852
▁davvero	-10.1852
ics	-10.1854
▁riceve	-10.1854
lk	-10.1854
▁converti	-10.1856
scu	-10.1858
▁documento	-10.1859
done	-10.1868
▁village	-10.1868
arco	-10.1871
▁manca	-10.1875
▁effettuare	-10.1876
pola	-10.1883
▁jesolo	-10.1884
▁consenti	-10.1885
▁promo	-10.1888
▁spedizioni	-10.1889
▁selva	-10.1889
pra	-10.1892
▁pagamenti	-10.1893
▁reti	-10.1896
▁(5)	-10.1902
▁sembra	-10.1902
▁eva	-10.1902
acquisto	-10.1903
▁destra	-10.1903
2017	-10.1903
▁porn	-10.1906
vent	-10.1913
▁luigi	-10.1913
link	-10.1914
▁verdi	-10.1915
▁organizza	-10.1917
zzare	-10.1919
ume	-10.1923
pot	-10.1925
ros	-10.1926
mare	-10.1933
▁scuole	-10.1933
▁cera	-10.194
▁bocca	-10.1945
▁rec	-10.1948
▁asiatica	-10.1957
cast	-10.1959
▁arabi	-10.1961
▁suggerimenti	-10.1964
▁veneto	-10.1964
▁obiettivi	-10.197
▁visualizzati	-10.198
▁des	-10.1982
▁pasqua	-10.1983
sten	-10.199
acce	-10.2001
▁umidità	-10.201
▁dra	-10.2012
cini	-10.2018
terna	-10.2018
▁bottiglie	-10.2026
%)	-10.2035
▁trovi	-10.2036
▁location	-10.2039
▁vela	-10.2043
▁profondità	-10.2051
▁visualizzare	-10.2053
▁illustra	-10.2058
nci	-10.206
▁ferrari	-10.206
▁riscalda	-10.2064
ione	-10.2067
▁parametri	-10.2069
▁varietà	-10.2069
▁ragazzo	-10.207
▁guanti	-10.2074
▁fitness	-10.2077
▁spedi	-10.2079
▁prof	-10.208
gato	-10.2086
▁allora	-10.2086
▁impe	-10.2089
▁130	-10.209
▁signore	-10.209
▁cata	-10.2093
▁esso	-10.2103
▁condividi	-10.2108
able	-10.2108
▁lettura	-10.2109
▁76	-10.2109
▁zu	-10.2109
fila	-10.211
▁bicicletta	-10.2114
▁bevande	-10.2114
▁ped	-10.2119
▁61	-10.2121
▁metalli	-10.2123
gata	-10.2124
▁esperti	-10.2127
fl	-10.2135
▁sfera	-10.2137
volo	-10.214
▁collega	-10.2142
▁archi	-10.2142
▁30%	-10.2148
▁terze	-10.2148
▁elettronico	-10.2154
tano	-10.2155
▁ul	-10.2156
▁mode	-10.2156
▁presenza	-10.216
▁rosse	-10.2162
well	-10.2162
▁ps	-10.2163
▁schede	-10.2172
▁flo	-10.2175
▁ob	-10.2177
▁storie	-10.2182
if	-10.2186
▁organizzazione	-10.219
terra	-10.219
▁stampato	-10.2194
▁mil	-10.2199
▁occupa	-10.2201
rello	-10.2209
amore	-10.2209
▁alfa	-10.2211
▁rica	-10.2211
spira	-10.2211
ping	-10.2216
▁sinistra	-10.2216
▁rom	-10.2216
▁gb	-10.2216
lab	-10.222
▁(12	-10.2221
▁dov	-10.2224
▁elevata	-10.2227
of	-10.2228
▁indipendente	-10.2232
▁sea	-10.2232
▁qualifica	-10.2234
▁1.5	-10.2236
▁nutri	-10.2239
▁croazia	-10.2241
▁differenza	-10.2248
▁personalizzata	-10.2248
▁risposte	-10.2248
▁ios	-10.2252
▁mette	-10.2257
cato	-10.2258
▁arco	-10.2261
lp	-10.2264
▁fru	-10.2265
▁portale	-10.2265
▁esegui	-10.2266
2015	-10.2272
▁ricevuto	-10.2273
▁qua	-10.2277
field	-10.2279
▁quel	-10.2281
▁batte	-10.2285
▁riviera	-10.2286
▁mature	-10.2288
▁$1	-10.2296
▁map	-10.2303
▁dovrebbe	-10.2308
▁3000	-10.2312
▁danni	-10.2312
lock	-10.2313
▁circuito	-10.2315
ficio	-10.2318
▁pari	-10.2318
▁prepara	-10.2322
▁naples	-10.2325
▁fornisce	-10.2334
porta	-10.2334
▁scatole	-10.2345
▁esperienze	-10.2351
▁spettacolo	-10.2357
▁valvole	-10.2357
▁frigo	-10.2358
nari	-10.2359
▁pista	-10.2359
esposizione	-10.2362
▁regolazione	-10.2364
▁maschio	-10.2371
▁masturba	-10.2379
▁ue	-10.238
/02	-10.2381
università	-10.2383
▁avanti	-10.2383
▁massaggi	-10.2387
solo	-10.2394
▁propri	-10.2395
▁clima	-10.2396
▁braccio	-10.2396
▁italiani	-10.2397
▁giapponesi	-10.24
▁automaticamente	-10.2401
▁asiaticas	-10.2405
▁cavalli	-10.2405
▁baci	-10.2407
▁schiuma	-10.241
pper	-10.2411
▁rip	-10.2411
uovo	-10.2416
ix	-10.2418
uc	-10.2418
fal	-10.2422
natura	-10.2423
▁figlia	-10.2426
▁quelle	-10.2427
▁may	-10.2428
▁pio	-10.2431
▁giulia	-10.2431
0000	-10.2431
▁gian	-10.2433
▁seta	-10.2438
▁sky	-10.244
xxx	-10.2443
▁utile	-10.2443
▁pcb	-10.2445
▁rendere	-10.2449
bella	-10.2466
cali	-10.2468
▁pov	-10.2469
▁transfer	-10.2471
live	-10.2474
▁4*,	-10.2477
▁é	-10.2478
-02	-10.2478
▁lettore	-10.248
europa	-10.2481
▁der	-10.2482
oem	-10.2484
mino	-10.2484
▁tante	-10.2486
▁incluse	-10.2488
▁osserva	-10.2488
▁lampade	-10.2488
▁gt	-10.2488
100%	-10.2488
assi	-10.2489
logi	-10.2497
▁bionde	-10.2499
▁assi	-10.2505
▁modifiche	-10.2508
▁tassa	-10.2511
gramma	-10.2511
▁leggera	-10.2514
cher	-10.2514
zzati	-10.2515
▁specchio	-10.2515
▁nasce	-10.2516
amp	-10.2519
▁trasporti	-10.2521
▁yacht	-10.2528
tus	-10.2533
▁performance	-10.254
ney	-10.2543
▁incontro	-10.2545
▁editor	-10.2545
sive	-10.2548
▁birra	-10.2557
▁apple	-10.2558
▁distributore	-10.2564
tevi	-10.2565
▁pubblicazione	-10.2565
parti	-10.2566
:01	-10.2566
▁padova	-10.2574
▁catania	-10.2575
unica	-10.2578
▁metà	-10.2582
▁67	-10.2583
relli	-10.2584
lis	-10.2586
▁url	-10.2588
abile	-10.259
▁figli	-10.2592
▁pubblici	-10.2594
▁intervista	-10.2595
▁immobili	-10.2597
▁arma	-10.2598
ball	-10.2603
▁motivi	-10.2606
vision	-10.2606
dom	-10.2611
▁conversione	-10.2612
gnano	-10.2612
▁conferenza	-10.2613
▁quadri	-10.2613
dimension	-10.2615
tions	-10.2617
▁gui	-10.2621
▁rifornimento	-10.2626
ira	-10.2632
ufficio	-10.2632
cula	-10.2632
▁identifica	-10.2636
▁emilia	-10.2643
ray	-10.2645
▁vive	-10.2647
evento	-10.2655
▁spina	-10.2658
▁evitare	-10.2661
sul	-10.2664
ua	-10.2665
▁10:00	-10.2671
▁tags	-10.2672
▁zero	-10.2674
▁felice	-10.2676
ttivi	-10.2679
▁ottima	-10.2683
▁intorno	-10.2687
▁cava	-10.269
▁br	-10.2693
▁polo	-10.2696
fort	-10.2697
5.00	-10.2698
▁sin	-10.2699
▁(15	-10.27
fino	-10.2708
house	-10.2712
▁fiat	-10.2713
▁pian	-10.2714
▁campeggio	-10.2716
▁ordinazione	-10.2718
▁bluetooth	-10.272
▁progettato	-10.2721
ult	-10.2726
▁seguire	-10.273
▁inviato	-10.273
▁david	-10.2732
▁indicazioni	-10.2735
bag	-10.2736
idea	-10.2737
▁sam	-10.2738
▁circo	-10.2742
batte	-10.2749
▁diventare	-10.2757
▁versioni	-10.2759
▁cielo	-10.2761
▁fiere	-10.2764
mano	-10.2765
▁risparmia	-10.2765
▁profumo	-10.2767
▁bergamo	-10.2768
esso	-10.2773
ist	-10.2774
▁ampio	-10.2776
▁private	-10.2781
▁dietro	-10.2782
▁indietro	-10.2787
▁rocco	-10.2788
▁lesbo	-10.2797
▁84	-10.28
▁fashion	-10.2801
▁manica	-10.2805
▁autunno	-10.2805
ges	-10.2807
▁carburante	-10.2808
▁terzi	-10.281
cap	-10.2815
▁richiedere	-10.2816
▁divenne	-10.282
▁expo	-10.2824
▁apr	-10.2824
fit	-10.2825
▁roberto	-10.2825
▁errore	-10.2827
▁energetico	-10.2828
▁densità	-10.2828
▁differenti	-10.2828
▁celebra	-10.2828
bet	-10.2831
▁semplici	-10.2832
bl	-10.2833
▁strapon	-10.2834
▁consultare	-10.2836
-05	-10.2839
▁nominale	-10.2845
met	-10.2854
▁vaticano	-10.2855
▁censura	-10.2855
▁mangiare	-10.2858
▁vede	-10.2863
argento	-10.2867
▁cambiare	-10.2868
▁strategia	-10.2869
▁agricola	-10.2869
anima	-10.288
quo	-10.2882
▁mantenere	-10.2882
sperma	-10.2889
mag	-10.2889
▁rif	-10.2894
121	-10.2895
▁pur	-10.2898
▁grasso	-10.2903
▁adattatore	-10.2904
▁termico	-10.2904
segui	-10.2905
lar	-10.2908
▁fetish	-10.291
fc	-10.291
▁partecipazione	-10.291
▁mario	-10.2914
▁long	-10.2916
back	-10.2916
▁battaglia	-10.2917
time	-10.2921
▁lhotel	-10.2922
▁caratteri	-10.2923
▁francesca	-10.2925
▁universale	-10.2926
▁fabbricazione	-10.2927
▁char	-10.2932
▁roll	-10.2933
▁zip	-10.2937
ature	-10.2937
▁pic	-10.2946
▁luxury	-10.2951
▁pantaloni	-10.2951
▁wellness	-10.2951
▁sostitu	-10.2953
▁900	-10.2954
▁west	-10.2955
cn	-10.2961
▁madrid	-10.2965
▁chimica	-10.2965
▁pallet	-10.2972
▁pagare	-10.2973
▁mostrando	-10.2977
▁sospensione	-10.2978
▁nazionali	-10.2982
▁450	-10.2982
▁compilazione	-10.2988
duca	-10.2989
pic	-10.2991
▁messico	-10.2999
gina	-10.2999
ago	-10.3
▁aroma	-10.3001
▁rivista	-10.3004
▁2002	-10.3005
▁usando	-10.3007
▁vuole	-10.3008
▁vip	-10.3008
tui	-10.3008
▁scia	-10.3009
ving	-10.301
▁samsung	-10.3013
▁record	-10.302
▁percorsi	-10.3021
▁sai	-10.3021
cata	-10.3022
▁angelo	-10.3024
▁secco	-10.3026
isti	-10.3027
▁steroidi	-10.3027
eva	-10.3029
▁architettura	-10.3031
▁rai	-10.3032
:15	-10.3035
test	-10.3035
▁troppo	-10.3036
▁office	-10.3038
ude	-10.3038
bbi	-10.3042
▁listato	-10.3046
lazione	-10.3048
▁olive	-10.3048
▁alimentari	-10.3049
▁sedie	-10.3049
▁materie	-10.3055
▁vecchia	-10.3056
▁biancheria	-10.3057
▁definizione	-10.3061
▁valida	-10.3065
genti	-10.307
rati	-10.3077
▁rinnova	-10.3087
ada	-10.3088
▁sola	-10.309
pass	-10.3093
▁tal	-10.3095
▁water	-10.3095
▁matt	-10.3096
ava	-10.3098
▁vinci	-10.3113
mont	-10.3119
▁affidabile	-10.3119
cole	-10.3119
lici	-10.312
▁modificare	-10.3123
vide	-10.3124
▁chip	-10.3124
▁caratteristica	-10.3125
enze	-10.3126
▁scopo	-10.3129
▁paris	-10.313
▁cilindro	-10.3131
▁denaro	-10.3132
▁composto	-10.3133
▁compi	-10.3138
▁stazioni	-10.3144
almente	-10.315
win	-10.3153
▁colpi	-10.3154
missione	-10.3158
▁custodia	-10.3159
/01/20	-10.3164
▁idraulica	-10.3166
▁camp	-10.317
▁240	-10.3171
▁giusto	-10.3173
▁condotto	-10.3174
▁rimuovere	-10.3179
▁perchè	-10.318
-2018	-10.3182
-04	-10.3183
-0	-10.3185
▁scrivi	-10.3187
▁xx	-10.3193
▁bol	-10.3195
▁(6)	-10.3197
▁ottone	-10.3197
oc	-10.3198
yer	-10.3204
▁freno	-10.3209
▁diamante	-10.321
▁generazione	-10.3212
▁fonda	-10.3215
▁rullo	-10.3219
▁sviluppa	-10.3221
▁destinazione	-10.3222
-16	-10.3223
bol	-10.3227
▁sig	-10.3231
▁crediti	-10.3233
▁fr	-10.3234
▁compagnia	-10.3237
▁part	-10.3237
▁sposta	-10.3242
stu	-10.3244
▁stock	-10.3252
▁carriera	-10.3252
▁0,00	-10.3256
▁taormina	-10.3258
▁partecipanti	-10.3259
▁americano	-10.3261
▁elaborazione	-10.3262
led	-10.3262
▁spazzola	-10.3265
pul	-10.3267
▁paul	-10.3267
▁beni	-10.3268
▁bronzo	-10.3274
▁20%	-10.3275
▁egli	-10.3275
ardi	-10.3276
▁ammessi	-10.328
▁attrazioni	-10.3283
data	-10.3284
-07	-10.3291
▁fornitura	-10.3292
ala	-10.3294
▁vienna	-10.3299
▁situata	-10.33
▁deriva	-10.3304
mann	-10.3306
nner	-10.3307
hp	-10.3308
▁(11	-10.3308
▁virtuale	-10.3312
tua	-10.3314
▁buffet	-10.3315
▁nascita	-10.3315
▁banda	-10.3318
nny	-10.3318
▁1,5	-10.3321
uscita	-10.3324
▁88	-10.3325
gp	-10.3327
▁classica	-10.3327
▁basa	-10.3328
▁98	-10.333
2016	-10.3331
▁annuale	-10.3331
▁belli	-10.3331
▁fur	-10.3333
▁merci	-10.3334
▁principi	-10.3335
▁laterale	-10.3337
▁aspetto	-10.3345
ip	-10.3345
ard	-10.3348
▁michele	-10.3354
tsu	-10.3354
▁latina	-10.3355
evo	-10.3356
▁asiatiche	-10.3358
▁comodo	-10.3359
▁girl	-10.3365
▁vestiti	-10.3365
▁termica	-10.3366
home	-10.3366
▁que	-10.337
ming	-10.3371
▁elemento	-10.3374
29)	-10.3375
▁aereo	-10.3389
▁trio	-10.3389
▁code	-10.339
▁puro	-10.3391
ché	-10.3391
▁sessione	-10.3394
▁foro	-10.3394
▁bottes	-10.3394
▁decor	-10.3395
▁servo	-10.3395
▁manuali	-10.3396
▁nizza	-10.3396
pal	-10.3397
dr	-10.3402
▁lavaggio	-10.3405
▁project	-10.3406
dan	-10.3407
▁mat	-10.3407
▁79	-10.3413
▁ridurre	-10.3415
123	-10.3415
▁->	-10.3418
▁dormire	-10.3422
▁travel	-10.3423
▁profili	-10.3423
rbi	-10.3425
▁personalizzate	-10.3426
▁zucchero	-10.3429
/05	-10.3432
▁quanti	-10.3434
▁domestico	-10.3436
▁aqua	-10.3439
▁finestre	-10.3444
▁express	-10.3445
nghi	-10.3449
▁originali	-10.3453
▁muro	-10.3457
▁tiro	-10.3458
chu	-10.3465
▁denti	-10.3465
▁temp	-10.3469
▁calze	-10.347
▁dollaro	-10.3473
▁feste	-10.3473
cr	-10.3473
ik	-10.3482
energia	-10.3485
▁cognome	-10.3487
▁angeli	-10.349
-13	-10.349
▁sugli	-10.349
▁italiane	-10.349
▁inserimento	-10.3491
▁operazioni	-10.3491
▁ghi	-10.3491
▁trovano	-10.3492
soft	-10.3492
linea	-10.3501
▁sette	-10.3502
▁ok	-10.3502
denti	-10.3503
▁adige	-10.3504
matic	-10.3516
▁introduzione	-10.3518
sano	-10.3523
caricato	-10.3526
▁step	-10.353
rice	-10.3534
▁figura	-10.3538
▁pornostar	-10.3539
▁flu	-10.3543
▁conveniente	-10.3545
▁mezzi	-10.3548
▁emergenza	-10.3549
▁chan	-10.3549
imp	-10.3554
ingresso	-10.3556
▁night	-10.3559
▁divertente	-10.356
pon	-10.356
▁neu	-10.3562
▁neo	-10.3564
▁pier	-10.3567
▁complessi	-10.3567
py	-10.3568
ral	-10.3569
▁vantaggio	-10.3571
▁strati	-10.3574
▁michael	-10.3574
▁ghiaccio	-10.3574
▁escort	-10.3575
▁tablet	-10.3577
dica	-10.3577
▁cantina	-10.3578
ntino	-10.3582
▁sostituzione	-10.36
▁scuro	-10.3606
▁nomi	-10.3607
▁cerchi	-10.3619
/04/20	-10.3619
▁regolare	-10.362
▁automobili	-10.363
▁western	-10.3633
▁workshop	-10.3634
▁key	-10.3634
▁riguarda	-10.3635
pho	-10.3639
▁sab	-10.3639
▁cancellazione	-10.3648
▁franco	-10.3656
▁cristian	-10.3656
▁leva	-10.3658
▁soci	-10.3659
▁rotondo	-10.3663
evole	-10.3663
▁ferrovia	-10.3663
▁statistiche	-10.3666
geni	-10.3668
▁97	-10.3668
▁totali	-10.3669
▁procedura	-10.367
▁miele	-10.3677
▁riporta	-10.368
-09	-10.3682
flu	-10.3685
▁wall	-10.3687
▁lavorativi	-10.3688
▁settori	-10.369
press	-10.3701
▁filmati	-10.3701
▁yo	-10.3716
▁forex	-10.3716
▁carro	-10.372
32)	-10.3722
▁stadio	-10.3722
zy	-10.3723
▁tende	-10.3724
▁sigilla	-10.3737
rich	-10.3739
▁ly	-10.3741
informativa	-10.3742
▁norme	-10.3743
▁bir	-10.3744
▁appuntamento	-10.3756
attrezzatura	-10.3757
uga	-10.3757
▁ros	-10.3764
▁perdere	-10.3766
▁includono	-10.3766
▁scr	-10.3767
come	-10.3767
▁hy	-10.3773
▁1/2	-10.3778
visa	-10.3785
▁traffico	-10.3789
▁resina	-10.379
tting	-10.3792
mari	-10.3793
▁1200	-10.3793
▁racconta	-10.3796
▁ascolta	-10.3796
▁neri	-10.3798
blu	-10.3804
31)	-10.3806
wn	-10.3811
▁quelli	-10.3811
bike	-10.3813
▁culturale	-10.3813
porto	-10.3817
▁paypal	-10.3819
▁rulli	-10.3827
▁cup	-10.3828
▁laminato	-10.3829
gine	-10.3831
▁buoni	-10.3841
▁interpreta	-10.3845
▁mega	-10.3849
▁ampia	-10.385
▁sapori	-10.385
▁attivi	-10.385
▁faq	-10.3853
▁patri	-10.3855
apri	-10.3855
▁ginecologo	-10.3856
ndere	-10.3857
▁ass	-10.3858
▁jan	-10.386
▁game	-10.3861
estero	-10.3861
▁(14	-10.3861
▁pare	-10.3863
play	-10.3864
▁party	-10.3866
▁pale	-10.3866
-17	-10.3867
▁fanno	-10.3868
fina	-10.387
▁fondi	-10.387
▁maniglia	-10.3878
▁pure	-10.3878
▁fiscale	-10.3879
▁parchi	-10.3879
▁vince	-10.3881
▁78	-10.3882
▁carbon	-10.3883
tube	-10.3884
▁veloci	-10.3884
▁abbina	-10.389
▁vestito	-10.389
▁costruire	-10.3896
tello	-10.3896
▁grafico	-10.3899
▁ken	-10.39
▁74	-10.3902
▁scrive	-10.3912
▁scrivere	-10.3913
▁imballa	-10.3913
▁imposta	-10.3914
▁insegnante	-10.3916
fici	-10.3918
▁sho	-10.3922
33)	-10.3927
▁turchia	-10.3933
▁mela	-10.3942
▁fisica	-10.3947
▁acqui	-10.3947
az	-10.3947
-06	-10.3951
nz	-10.3954
▁segnala	-10.3956
colore	-10.3959
▁eseguire	-10.3961
▁umani	-10.3966
▁previsioni	-10.397
▁affari	-10.3973
▁relais	-10.3977
34)	-10.3977
▁dom	-10.3978
▁getto	-10.398
serv	-10.3982
▁ricicla	-10.3983
▁silenzio	-10.3985
▁garantire	-10.3985
▁titanio	-10.3986
▁sauna	-10.3986
▁english	-10.3987
▁son	-10.399
poni	-10.3992
▁soffitto	-10.3993
▁aumentare	-10.3993
▁domina	-10.3993
ple	-10.3996
102	-10.3999
▁contenitori	-10.4
▁necessità	-10.4
▁prestigio	-10.4
▁deluxe	-10.4
sino	-10.4003
▁como	-10.4006
▁rin	-10.4007
▁73	-10.4008
kt	-10.4008
35)	-10.4011
amministra	-10.4015
▁lorenzo	-10.402
▁annuncia	-10.4022
▁telefoni	-10.4025
▁dipende	-10.4025
▁orto	-10.4026
▁bot	-10.403
▁valido	-10.4031
▁cè	-10.4032
▁guardare	-10.4037
▁amministrazione	-10.4039
rella	-10.4041
gente	-10.4042
▁aiutare	-10.4043
▁posa	-10.4044
▁passeggiata	-10.4046
mbro	-10.4047
logo	-10.4048
▁database	-10.4048
ban	-10.405
cd	-10.4052
▁costante	-10.4053
persona	-10.4056
▁difficile	-10.4061
▁tokyo	-10.4061
▁college	-10.4062
▁nato	-10.4067
▁dolore	-10.407
mate	-10.4072
netti	-10.4077
▁campionato	-10.4077
▁simili	-10.4085
design	-10.4086
▁rf	-10.4086
▁stabile	-10.4089
▁copri	-10.4089
▁nova	-10.4091
▁regali	-10.4096
ibi	-10.4105
fran	-10.4108
andro	-10.4113
▁2001	-10.4115
▁thai	-10.4122
▁succo	-10.4123
▁cf	-10.4124
▁mie	-10.4128
ibile	-10.4129
-14	-10.4141
▁milf	-10.4142
cella	-10.4143
▁concentra	-10.4145
autore	-10.4147
220	-10.4147
hr	-10.4149
room	-10.4149
▁dedicata	-10.4151
▁tazza	-10.4151
thi	-10.4152
▁london	-10.4156
▁asia	-10.4157
▁alcun	-10.4158
▁sangue	-10.4159
▁vivi	-10.4161
▁cappuccio	-10.4162
▁itinerari	-10.4163
hot	-10.4169
▁frutti	-10.417
pet	-10.4173
▁iv	-10.4174
▁coin	-10.4176
▁scoperta	-10.4177
rus	-10.4178
cello	-10.4181
101	-10.4182
cur	-10.4193
zzate	-10.4196
mper	-10.4197
uda	-10.4197
bil	-10.4202
▁designer	-10.4202
▁particolari	-10.4202
▁pr	-10.421
▁cavallo	-10.4212
▁coppa	-10.4219
▁valutazioni	-10.4219
▁garage	-10.4221
▁candida	-10.4223
▁mensile	-10.4224
logia	-10.4228
▁acquisti	-10.4229
▁unici	-10.4229
▁portare	-10.423
log	-10.423
▁brochure	-10.4232
▁entrambi	-10.4233
▁mostre	-10.4237
▁quar	-10.4238
ity	-10.4238
part	-10.4238
▁hall	-10.4239
gal	-10.4244
▁marine	-10.425
vendita	-10.425
rent	-10.4252
▁work	-10.4259
▁danza	-10.4259
▁condividere	-10.426
▁puglia	-10.4262
▁offrire	-10.4263
▁frequenti	-10.4269
tha	-10.4275
▁complesso	-10.4279
ctive	-10.428
▁89	-10.4285
▁corona	-10.4285
▁management	-10.4287
gas	-10.4287
▁hol	-10.4293
▁documentazione	-10.4295
▁rumore	-10.4298
▁piena	-10.4298
▁tratto	-10.4298
▁pasto	-10.4301
-25	-10.4301
▁imparare	-10.4302
▁opzione	-10.4308
▁desktop	-10.431
▁abilita	-10.4314
vità	-10.4316
emme	-10.4319
▁chiavi	-10.4319
▁divisione	-10.432
▁partite	-10.432
▁terza	-10.4322
▁otto	-10.4323
▁pietroburgo	-10.4326
▁acrilico	-10.4326
ston	-10.4332
unione	-10.4333
▁avanzata	-10.4342
rali	-10.4343
▁punteggio	-10.4345
▁riga	-10.4345
▁russa	-10.4346
▁salda	-10.4348
▁gp	-10.435
▁cuci	-10.4351
▁potente	-10.4351
▁senso	-10.4352
▁proposte	-10.4354
▁barba	-10.4355
▁pizzo	-10.4356
▁(7)	-10.4356
▁trattati	-10.4356
8,00	-10.4357
▁foglio	-10.4357
▁filippina	-10.4358
▁palma	-10.4365
▁capitolo	-10.4366
credit	-10.4369
gor	-10.4369
▁conserva	-10.437
125	-10.4373
1.00	-10.4373
▁riempi	-10.4376
/2016	-10.4379
▁ipad	-10.4382
▁soddisfare	-10.4382
▁vanta	-10.4383
▁vani	-10.4391
▁over	-10.4392
bur	-10.4394
▁ricetta	-10.4397
dol	-10.4404
▁prossima	-10.4404
fred	-10.4406
▁periodi	-10.4408
prese	-10.4413
grafia	-10.4421
▁sec	-10.4421
ence	-10.4421
ré	-10.4425
ificazione	-10.4429
▁scelto	-10.4429
▁3)	-10.443
mus	-10.4434
sie	-10.4435
-24	-10.444
▁attacco	-10.444
jpg	-10.4441
▁duca	-10.4445
▁tenere	-10.4447
▁ky	-10.4449
rano	-10.445
▁pasti	-10.445
▁turistica	-10.4457
▁chiamata	-10.4461
key	-10.4463
mone	-10.4463
▁lavatrice	-10.4466
▁sarebbe	-10.4466
lata	-10.4467
▁bull	-10.4471
▁batti	-10.4472
string	-10.4472
▁regolatore	-10.4474
nco	-10.4477
▁sur	-10.4478
life	-10.4481
sing	-10.4482
▁comincia	-10.4485
▁offerti	-10.4485
▁alimenti	-10.4487
▁foresta	-10.4494
erba	-10.4495
▁medi	-10.4496
▁mattina	-10.4496
▁ambienti	-10.4501
▁sviluppato	-10.4502
▁raggi	-10.4511
▁ponti	-10.4511
▁ocean	-10.4512
002	-10.4515
▁(16	-10.4517
▁company	-10.4519
240	-10.4521
▁1500	-10.4525
▁calcola	-10.4527
▁contact	-10.4528
▁pepe	-10.4528
160	-10.4533
▁disegni	-10.4534
▁beat	-10.4536
▁hel	-10.4537
iana	-10.4537
▁sensori	-10.4538
nero	-10.4538
36)	-10.4539
ier	-10.454
▁popolazione	-10.4549
▁microonde	-10.4549
▁collana	-10.455
ness	-10.4553
venti	-10.4553
▁mercedes	-10.4558
104	-10.4558
▁sacco	-10.4559
▁#1	-10.4565
▁pubblicitari	-10.4568
kk	-10.4575
▁isolamento	-10.4578
▁officina	-10.4579
▁hardware	-10.4585
▁poe	-10.4587
▁matteo	-10.4589
▁uk	-10.459
arma	-10.4594
dc	-10.46
niche	-10.4601
▁torri	-10.4603
▁duomo	-10.4608
ward	-10.461
▁penna	-10.4611
rin	-10.4615
▁0.0	-10.4617
▁tanto	-10.4622
▁750	-10.4626
▁turistico	-10.4634
▁passato	-10.4634
▁hard	-10.4637
▁esclusivo	-10.4638
ding	-10.4642
▁intro	-10.4648
▁cle	-10.465
▁basi	-10.4651
vet	-10.4651
▁special	-10.4651
▁norvegese	-10.4654
▁den	-10.4655
▁rfid	-10.4656
▁sd	-10.4658
▁cross	-10.4662
▁230	-10.4665
▁continuo	-10.4671
▁degustazione	-10.4671
▁pneumatici	-10.4671
▁casual	-10.4672
rebbe	-10.4672
view	-10.4674
▁chiamaci	-10.4685
:59	-10.4686
▁piastra	-10.469
▁danno	-10.4691
▁litio	-10.4694
▁congressi	-10.4695
▁soltanto	-10.4695
▁bitcoin	-10.4696
▁vesti	-10.4696
▁fel	-10.4697
ben	-10.4699
duttori	-10.4699
▁laurea	-10.4702
▁remo	-10.4703
▁81	-10.4704
▁corse	-10.4704
gola	-10.4707
▁morbido	-10.4712
▁med	-10.4714
▁attuale	-10.4717
meri	-10.4719
▁libertà	-10.472
graph	-10.4724
▁1.2	-10.4725
▁aumento	-10.4726
▁invita	-10.4729
▁microsoft	-10.473
pole	-10.4733
▁tool	-10.4735
▁corda	-10.4736
▁easy	-10.4736
▁dimora	-10.474
▁rassegna	-10.4745
▁(8)	-10.4746
▁//	-10.4749
:10	-10.4749
▁(13	-10.475
▁venti	-10.4754
poste	-10.4756
▁77	-10.4756
▁stima	-10.4757
▁xl	-10.4768
▁mountain	-10.4769
▁salsa	-10.477
▁panno	-10.4771
▁daniel	-10.4773
ugh	-10.4778
▁gesti	-10.4779
▁monti	-10.4782
villa	-10.4786
▁noto	-10.4787
▁stampaggio	-10.4787
urs	-10.4789
▁assicurazione	-10.479
▁partecipare	-10.4792
▁farmaci	-10.4795
▁difesa	-10.4796
iscono	-10.48
mhz	-10.4801
▁caffe	-10.4805
messi	-10.4808
▁pillole	-10.4811
▁raccomanda	-10.4815
chie	-10.4816
uf	-10.4816
▁junior	-10.4819
▁partito	-10.482
▁farmaco	-10.4821
▁limone	-10.4824
▁lenti	-10.4825
▁pieghevole	-10.4827
▁distretto	-10.4828
hen	-10.483
arrivo	-10.4832
/03/20	-10.4832
▁quad	-10.4835
▁gode	-10.4837
vino	-10.4842
▁lunghe	-10.4842
get	-10.4846
esercito	-10.4852
elenco	-10.4854
tario	-10.4855
38)	-10.4855
▁vpn	-10.4857
▁tipologie	-10.486
▁pulito	-10.4861
▁piemonte	-10.4861
▁elettronici	-10.4861
▁cicli	-10.4867
▁orienta	-10.4867
▁giocatore	-10.4868
▁malattie	-10.4869
▁ft	-10.4876
▁care	-10.4877
▁moderni	-10.4877
▁fasi	-10.4878
▁offrono	-10.4879
▁greco	-10.4881
medi	-10.4883
-08	-10.4885
▁disc	-10.4887
ense	-10.4888
▁alex	-10.4888
▁banco	-10.4893
▁cul	-10.4894
▁cilindri	-10.4894
▁nik	-10.4894
▁nr	-10.4898
▁cristalli	-10.4899
2000	-10.4901
leva	-10.4912
▁1.0	-10.4916
▁last	-10.4917
▁dimostra	-10.492
▁pioggia	-10.492
▁sla	-10.4924
mato	-10.4928
▁rive	-10.493
▁pz	-10.4932
▁profonda	-10.4936
▁tea	-10.4937
mati	-10.4938
▁resto	-10.4941
43)	-10.4944
▁fatta	-10.4945
▁(17	-10.4946
pack	-10.4947
▁anelli	-10.495
▁quadrato	-10.4953
scono	-10.4954
edizione	-10.496
▁lavanderia	-10.4961
▁los	-10.4965
▁specie	-10.497
▁raff	-10.4971
▁palestra	-10.4971
bru	-10.4971
tp	-10.4971
leggi	-10.4975
▁calcolato	-10.4976
▁pazienti	-10.4977
▁malattia	-10.4977
▁dubai	-10.4977
ssime	-10.4982
▁tai	-10.4982
▁hand	-10.4983
▁relative	-10.4986
▁piattaforme	-10.4986
lunga	-10.4987
▁diamanti	-10.4988
▁istruzione	-10.4988
▁canzone	-10.4995
▁rou	-10.4996
▁dipendenti	-10.5
cura	-10.5002
▁produttività	-10.5003
37)	-10.5005
▁71	-10.5008
logiche	-10.5009
kh	-10.501
▁sociali	-10.5012
▁strade	-10.5013
▁vendere	-10.5014
2,00	-10.5019
▁prestazione	-10.5019
▁arabo	-10.5019
▁miramare	-10.5021
▁pot	-10.5024
▁sb	-10.5025
▁silver	-10.5029
▁airport	-10.503
▁scene	-10.5032
:45	-10.5032
▁tocco	-10.5038
▁relazioni	-10.5045
▁deco	-10.5048
▁avuto	-10.5049
ncy	-10.505
▁facendo	-10.5051
▁piede	-10.5055
▁superiori	-10.5061
▁fratello	-10.5064
▁cv	-10.5065
▁cercando	-10.5067
▁orale	-10.5068
▁umano	-10.5075
▁jeans	-10.5077
▁camicia	-10.5079
▁site	-10.5084
2012	-10.5085
▁orecchini	-10.5087
▁lunghi	-10.509
▁superfici	-10.5092
tm	-10.5092
▁country	-10.5096
rda	-10.5098
▁obiettivo	-10.5101
▁individuale	-10.5103
▁orizzontale	-10.5104
▁leonardo	-10.5104
▁spirito	-10.5107
▁---	-10.5109
▁stre	-10.5109
lette	-10.5109
122	-10.511
▁cuffie	-10.5113
▁reso	-10.5113
▁compressione	-10.5114
angelo	-10.5118
▁missione	-10.5119
und	-10.5119
▁ticket	-10.5121
▁asso	-10.5123
inchiesta	-10.5125
▁realizza	-10.5126
▁statunitense	-10.513
▁82	-10.5137
▁fattoria	-10.5137
▁palo	-10.5138
▁91	-10.514
▁var	-10.514
presso	-10.5142
103	-10.5146
▁87	-10.5159
▁finali	-10.5159
▁bavaro	-10.5164
▁94	-10.5167
▁collegamenti	-10.5168
▁assegna	-10.5177
180	-10.5178
▁carattere	-10.5181
▁spiega	-10.5182
ulo	-10.5186
▁disegna	-10.5186
▁lux	-10.5187
/6	-10.5192
▁litri	-10.5198
▁cuscinetti	-10.5199
▁cent	-10.5203
cess	-10.5204
▁misurazione	-10.5204
lizza	-10.5205
phone	-10.5205
▁2.5	-10.5206
▁forti	-10.5207
trans	-10.5211
▁possibili	-10.5213
torio	-10.5215
▁brasile	-10.5216
▁proprie	-10.522
ford	-10.523
▁adolescente	-10.5231
▁intero	-10.5234
▁loc	-10.5236
▁zen	-10.5237
▁5*	-10.5238
▁lucida	-10.5239
0.0	-10.5239
▁praga	-10.5239
▁commissione	-10.5241
▁conformità	-10.5243
40)	-10.5243
▁torneo	-10.5252
▁propone	-10.5255
▁api	-10.5256
▁controlli	-10.5257
messa	-10.5259
▁efficiente	-10.5259
▁confronta	-10.5268
▁fonti	-10.5268
▁fl	-10.5269
▁merce	-10.527
▁integrazione	-10.5273
yl	-10.5281
▁millimetro	-10.5281
▁sicura	-10.5284
▁metallica	-10.5292
▁lt	-10.5292
vola	-10.5292
▁wordpress	-10.5294
▁cemento	-10.5294
▁170	-10.5295
41)	-10.5296
▁solido	-10.5299
▁manico	-10.5299
▁elettriche	-10.5302
▁raccolti	-10.5302
▁governa	-10.5311
▁trieste	-10.5314
▁edifici	-10.5316
▁ospita	-10.5322
stor	-10.5322
▁erbe	-10.5326
▁vergine	-10.533
▁proteggere	-10.5331
▁fascia	-10.5332
game	-10.5335
▁colli	-10.5337
▁distribu	-10.5337
▁connettori	-10.5337
▁comunicazioni	-10.5341
▁mission	-10.5344
▁logistica	-10.5346
▁south	-10.5347
▁allinterno	-10.535
▁cristo	-10.5359
▁interrazziale	-10.5363
mat	-10.5367
▁basta	-10.5368
▁tempio	-10.5371
▁lenght	-10.5372
▁cover	-10.5377
▁voglio	-10.5377
▁rod	-10.5379
▁tecno	-10.5382
▁economia	-10.5386
▁cagliari	-10.539
wood	-10.5395
▁genitori	-10.5395
▁face	-10.5395
▁cast	-10.5396
▁specialità	-10.5398
posti	-10.5399
▁surf	-10.54
▁terapia	-10.5402
▁pira	-10.5405
▁technology	-10.5407
▁civile	-10.5408
▁dmca	-10.5409
▁zan	-10.5409
▁fly	-10.5416
▁dipartimento	-10.5416
▁temi	-10.5423
▁compressore	-10.5425
▁school	-10.543
▁svolge	-10.5434
▁mark	-10.5434
▁quartiere	-10.5435
▁rocca	-10.5435
vac	-10.5438
▁sega	-10.5442
▁rapidamente	-10.5442
colare	-10.5443
▁stivali	-10.5443
▁luminosità	-10.5443
▁fusione	-10.5444
bc	-10.5446
sky	-10.5447
▁gla	-10.5447
▁budapest	-10.5451
▁viste	-10.5451
por	-10.5452
108	-10.5454
▁scadenza	-10.546
▁0,0	-10.546
▁93	-10.5461
▁scan	-10.5464
▁92	-10.5465
old	-10.5467
▁incorpora	-10.5469
▁coupon	-10.5469
news	-10.5471
▁postale	-10.5475
▁bosco	-10.5476
▁frigorifero	-10.5478
▁storici	-10.5482
▁trucco	-10.5482
▁esercizio	-10.5488
ii	-10.5489
▁allarme	-10.5491
▁week	-10.5496
ordina	-10.5502
▁robert	-10.5507
termi	-10.5508
45)	-10.551
▁click	-10.5513
▁suono	-10.5515
▁termina	-10.5519
3%	-10.5519
▁nicola	-10.5522
▁patrimonio	-10.5522
▁capsule	-10.5522
▁veri	-10.5522
atmosfera	-10.5531
▁candela	-10.5531
▁pon	-10.5535
▁esempi	-10.5538
chen	-10.5539
▁riguardo	-10.554
650	-10.554
dine	-10.5541
alle	-10.5546
▁vr	-10.5549
▁navetta	-10.5552
▁amsterdam	-10.5558
▁rimborso	-10.5558
▁supplementare	-10.5558
▁relativi	-10.5558
cino	-10.556
▁tocca	-10.5562
▁realizzare	-10.5565
▁costrui	-10.5565
▁istituto	-10.5567
ian	-10.5567
▁stro	-10.5568
▁spiaca	-10.5577
▁drive	-10.558
▁quadro	-10.5585
▁sfida	-10.5586
host	-10.5592
▁3.0	-10.5592
▁colpo	-10.5593
▁outlet	-10.5595
▁tavoli	-10.5601
▁coperta	-10.5603
▁body	-10.5604
020	-10.5605
▁voli	-10.5605
▁cy	-10.5606
tende	-10.5607
▁vernice	-10.5613
▁segue	-10.5613
pelle	-10.5613
-22	-10.5613
▁occasione	-10.5615
ship	-10.5616
▁vice	-10.5619
phi	-10.5619
▁guadagna	-10.562
▁dichiarazione	-10.562
pressione	-10.5621
▁nozze	-10.5624
▁videos	-10.5624
▁minuto	-10.5625
▁comunicati	-10.5626
▁atene	-10.5627
▁zinco	-10.563
▁tastiera	-10.5631
▁dimentica	-10.5635
senza	-10.5636
▁stili	-10.5641
vedi	-10.5642
count	-10.5643
ken	-10.5646
▁fisso	-10.5648
▁spray	-10.5649
nice	-10.565
▁esiste	-10.5651
▁danese	-10.5651
duttore	-10.5652
▁riduce	-10.5655
▁inserito	-10.5656
▁verdure	-10.5656
▁ibiza	-10.5656
▁basilica	-10.5657
▁sk	-10.5659
▁ospedale	-10.5662
▁chianti	-10.5666
▁esecuzione	-10.5669
▁seduzione	-10.5672
39)	-10.5673
fetti	-10.5681
▁watch	-10.5683
▁ricerche	-10.5683
▁brown	-10.5685
▁avventura	-10.5685
▁morì	-10.5686
▁ray	-10.5686
▁carbone	-10.5691
▁operazione	-10.5691
ties	-10.5697
alimentazione	-10.57
▁parma	-10.5701
▁quadrati	-10.5702
▁sonda	-10.5703
▁possa	-10.571
▁cuscino	-10.571
▁ebbe	-10.5712
▁segno	-10.5713
▁pelli	-10.5714
▁provare	-10.5719
▁museum	-10.5719
▁lasciare	-10.5722
▁nata	-10.5724
▁cocco	-10.5725
▁sl	-10.5726
▁biblioteca	-10.5728
▁maxi	-10.5729
▁guardia	-10.5731
ous	-10.5736
▁bb	-10.574
chio	-10.574
▁read	-10.5741
▁north	-10.5741
▁solari	-10.5747
▁miglia	-10.575
▁rio	-10.575
▁add	-10.5754
▁posizioni	-10.5756
▁fortuna	-10.5756
colari	-10.5757
▁fiorista	-10.5758
▁tasca	-10.5758
nette	-10.5759
-2017	-10.5759
▁sollevamento	-10.5759
▁0.5	-10.5761
▁custom	-10.5765
▁sottile	-10.5765
▁ingegneria	-10.5771
10)	-10.5774
▁get	-10.5774
vert	-10.5778
▁soggetti	-10.5783
▁tam	-10.5784
▁maniche	-10.5789
ografia	-10.5791
vesti	-10.5793
archi	-10.5798
▁impegno	-10.5801
▁permanente	-10.5801
304	-10.5803
▁turco	-10.5803
/11/20	-10.5808
board	-10.5815
▁*****	-10.5817
▁streaming	-10.582
▁ridotto	-10.582
colle	-10.5825
▁mettere	-10.583
▁nessuno	-10.583
prezzo	-10.5837
▁feb	-10.5838
▁animale	-10.5839
▁1999	-10.584
▁protetto	-10.584
▁wc	-10.5842
▁gelato	-10.5851
▁treni	-10.5852
▁guidelines	-10.5856
▁costruito	-10.5857
46)	-10.5859
ffo	-10.586
▁ty	-10.5861
▁sceglie	-10.5865
▁magazine	-10.5865
▁cucchiai	-10.5866
44)	-10.5866
din	-10.5867
camp	-10.5871
.....	-10.5873
mic	-10.5874
▁cattolica	-10.5875
più	-10.5878
iani	-10.5879
▁melo	-10.5884
▁dollari	-10.5884
nesi	-10.5887
▁calcolo	-10.5888
53)	-10.5889
▁protetti	-10.5889
▁errori	-10.5894
▁gravi	-10.5894
▁0.1	-10.5896
▁buone	-10.5896
▁dallo	-10.5899
asia	-10.5903
▁tutela	-10.5903
soli	-10.5905
▁corto	-10.5907
▁contemporanea	-10.5909
sone	-10.5911
▁malta	-10.5912
56)	-10.5915
▁vendi	-10.5917
▁bat	-10.5923
▁scale	-10.5927
▁formaggio	-10.593
▁beauty	-10.5931
▁..	-10.5931
▁sms	-10.5933
▁necessari	-10.5936
▁style	-10.594
album	-10.5941
▁combat	-10.5944
(3	-10.5944
mah	-10.5946
▁adesivo	-10.5948
▁ct	-10.595
▁farina	-10.5951
▁soste	-10.5956
udine	-10.5957
▁fiducia	-10.5958
▁sportivo	-10.5959
48)	-10.5961
▁esclusiva	-10.5963
▁host	-10.5967
▁combinazione	-10.5967
▁cercare	-10.5968
47)	-10.5972
▁tanti	-10.5973
▁fermata	-10.5975
▁concerti	-10.5977
inverno	-10.5979
ssimi	-10.5979
▁cartella	-10.5983
:16	-10.5984
▁rh	-10.5985
▁familiare	-10.5986
▁miscela	-10.5988
mani	-10.599
▁soddisfa	-10.5994
wel	-10.5994
▁rapporti	-10.5995
▁benzina	-10.5995
54)	-10.5996
▁cattura	-10.5996
:02	-10.5997
▁alberi	-10.5998
▁210	-10.6
bot	-10.6
fen	-10.6
▁realizzati	-10.6001
▁pesa	-10.6003
▁filtra	-10.6004
vero	-10.6007
▁cabina	-10.6009
▁nano	-10.6009
▁101	-10.6012
▁cannes	-10.6012
▁limite	-10.6012
▁grano	-10.6013
▁inaugura	-10.6014
▁oliva	-10.6015
▁orientale	-10.6016
▁operatori	-10.6021
4,00	-10.6022
▁accanto	-10.6023
▁paesaggio	-10.6026
▁accordo	-10.6026
sur	-10.6026
▁duro	-10.6027
▁vasta	-10.6027
▁coperchio	-10.6031
▁avvia	-10.6031
metti	-10.6032
tras	-10.6033
▁gatto	-10.6034
▁strategie	-10.6042
52)	-10.6043
mania	-10.6043
▁tab	-10.6044
associazione	-10.6044
neo	-10.6046
bbio	-10.6048
▁conosci	-10.6049
▁relativa	-10.6051
ille	-10.6052
▁svedese	-10.606
▁giornali	-10.6062
▁mala	-10.6065
▁190	-10.6067
▁operativo	-10.6068
▁investi	-10.6069
▁istanbul	-10.607
▁twitter	-10.607
▁tonnellate	-10.6079
▁family	-10.6079
▁instagram	-10.608
table	-10.6083
8.00	-10.6086
▁polacco	-10.6089
▁nulla	-10.6093
chetti	-10.6097
hl	-10.6099
▁abs	-10.6101
▁supplemento	-10.6107
▁gala	-10.6111
▁mel	-10.6116
▁dottore	-10.6117
▁barriere	-10.6117
▁lucca	-10.6119
▁bere	-10.612
▁stri	-10.6121
▁august	-10.6123
izzazione	-10.6124
▁fontana	-10.6127
▁fotografie	-10.6128
▁giù	-10.613
▁ball	-10.6135
▁corea	-10.6138
▁fissaggio	-10.6142
▁dà	-10.6142
▁1998	-10.6143
▁follower	-10.6145
▁pizzeria	-10.6145
color	-10.6145
gione	-10.6148
girl	-10.615
card	-10.615
molo	-10.6151
▁forniti	-10.6151
▁pietre	-10.6157
▁wood	-10.6163
▁certificazioni	-10.6164
▁rilascio	-10.6164
▁revisione	-10.6164
▁compreso	-10.6164
▁(10)	-10.6166
▁boot	-10.6167
▁eventuali	-10.6174
▁apre	-10.6174
▁agri	-10.6174
gres	-10.6179
77)	-10.6183
▁cambiamento	-10.6185
ologica	-10.6186
▁mappe	-10.6186
▁raggio	-10.6186
▁ostello	-10.6187
105	-10.6188
giorno	-10.6188
▁sorella	-10.6189
toria	-10.619
▁pianificazione	-10.6191
▁riccione	-10.6194
▁pericolo	-10.6194
lux	-10.6197
▁babe	-10.62
▁scienza	-10.62
zar	-10.6202
▁calo	-10.6206
▁tali	-10.6211
▁farm	-10.6211
▁illumina	-10.6211
▁rifiuti	-10.6212
▁vittorio	-10.6212
anello	-10.6213
▁netto	-10.6214
▁105	-10.6215
▁dominazione	-10.6215
▁double	-10.6221
▁linux	-10.6222
▁crede	-10.6223
▁panorama	-10.6231
▁adotta	-10.6234
▁chiang	-10.6234
▁83	-10.6235
yan	-10.6238
▁sintomi	-10.624
▁compleanno	-10.625
▁france	-10.6251
dino	-10.6252
▁ispezione	-10.6252
list	-10.6254
▁look	-10.6256
cità	-10.6257
▁sapore	-10.6261
▁salvare	-10.6265
▁fit	-10.6266
▁facili	-10.6269
▁economica	-10.6269
▁adesivi	-10.6269
62)	-10.6269
71)	-10.6274
▁rispondere	-10.6275
▁lotta	-10.6276
▁turbo	-10.6279
bello	-10.6283
60)	-10.6286
130	-10.6287
▁corrosione	-10.6288
▁impiega	-10.6288
▁cres	-10.6295
▁ceca	-10.6296
▁rischi	-10.6297
sina	-10.6298
▁ferra	-10.63
pur	-10.6305
▁list	-10.6306
▁segna	-10.6307
350	-10.6309
hai	-10.6312
49)	-10.6323
▁margherita	-10.6327
▁automatizza	-10.6327
▁scarpa	-10.6328
notte	-10.6328
65)	-10.633
ghetto	-10.6332
▁cosè	-10.634
00.000	-10.6343
▁danneggia	-10.6346
▁facciamo	-10.6349
▁5000	-10.6355
▁costruzioni	-10.6355
▁turistiche	-10.6358
▁messe	-10.6362
▁dj	-10.6363
▁vola	-10.6364
▁fotocamera	-10.6368
▁ban	-10.6371
bert	-10.6375
42)	-10.6379
sini	-10.638
▁supporti	-10.6381
ride	-10.6382
51)	-10.639
▁outdoor	-10.6394
▁proposito	-10.6394
té	-10.6395
12)	-10.6395
73)	-10.6399
18)	-10.6399
▁amazon	-10.6399
pad	-10.6403
angolo	-10.6403
▁confortevole	-10.6404
▁dotato	-10.6415
▁shanghai	-10.6423
▁memorizza	-10.6423
▁rotazione	-10.6431
▁shenzhen	-10.6433
▁gallerie	-10.6433
mella	-10.6437
140	-10.6442
▁chiamate	-10.6443
55)	-10.6443
▁target	-10.6444
▁2,5	-10.6448
▁posted	-10.6451
▁interessato	-10.6453
▁passaggi	-10.6459
▁programmazione	-10.6459
▁scooter	-10.6462
▁ts	-10.6463
▁spia	-10.6463
▁sogni	-10.6467
▁gare	-10.6473
/18	-10.6474
▁edizioni	-10.6476
▁hong	-10.6478
▁plastic	-10.6482
matica	-10.6482
▁quarzo	-10.6483
int	-10.6484
70)	-10.6486
master	-10.6488
curi	-10.6488
▁belgio	-10.6489
▁costume	-10.6492
▁biologico	-10.6494
▁304	-10.6494
bie	-10.6497
▁gatti	-10.6498
gate	-10.6498
gene	-10.6499
▁maglie	-10.6499
▁sfoglia	-10.6501
celli	-10.6504
carlo	-10.6508
prodotti	-10.6509
79)	-10.651
▁pavimenti	-10.6511
▁pilota	-10.6513
▁trovati	-10.6513
59)	-10.6517
▁cattedrale	-10.6521
▁però	-10.6521
▁fosse	-10.6523
vera	-10.6523
▁bul	-10.6525
57)	-10.6525
▁magneti	-10.6525
casa	-10.6525
▁individua	-10.6527
▁rimane	-10.6529
rle	-10.6529
store	-10.6535
▁reserved	-10.6536
▁powered	-10.6538
2%	-10.6538
occhio	-10.654
▁simile	-10.6543
▁550	-10.6546
▁lineare	-10.6547
▁usati	-10.6548
▁ballo	-10.6549
▁tipici	-10.6549
▁sportive	-10.6551
▁striscia	-10.6551
-21	-10.6554
▁brescia	-10.6562
▁europe	-10.6562
▁giovanissima	-10.6563
comp	-10.6563
▁sullo	-10.6579
▁impara	-10.658
▁troverete	-10.658
▁years	-10.658
search	-10.6582
limit	-10.6583
▁casting	-10.659
▁luminosa	-10.659
▁stabilità	-10.6595
▁musicali	-10.6595
1.5	-10.6595
scopi	-10.6596
▁serratura	-10.6596
▁minute	-10.6596
/11	-10.6598
▁pomodoro	-10.66
▁maestro	-10.66
▁madonna	-10.6606
▁indicato	-10.6607
tron	-10.6608
▁guarnizione	-10.661
▁rights	-10.661
58)	-10.6611
kov	-10.6612
▁edificio	-10.6618
▁corrisponde	-10.6627
▁net	-10.6628
▁messo	-10.6628
▁peter	-10.6633
▁romana	-10.6634
▁esporta	-10.6636
▁(9)	-10.6637
68)	-10.6645
▁cassetta	-10.6646
sili	-10.6646
▁rotonda	-10.665
▁bmw	-10.665
▁lancio	-10.6651
▁naviga	-10.6651
▁nove	-10.6659
▁portoghese	-10.6659
▁sacchetti	-10.6659
▁cinghia	-10.666
▁geni	-10.666
club	-10.6661
▁laura	-10.6661
▁zaino	-10.6664
▁fro	-10.6665
▁trasferi	-10.6665
▁motivo	-10.6668
▁parlare	-10.667
▁riflessi	-10.667
▁promozionale	-10.667
free	-10.6671
▁global	-10.6672
▁semplicemente	-10.6684
riche	-10.6686
2013	-10.6687
▁china	-10.6688
▁arche	-10.6693
▁ceco	-10.6694
2011	-10.6695
llino	-10.6697
▁competenze	-10.6699
▁verificare	-10.6702
▁agenti	-10.6705
lor	-10.6705
▁numerosi	-10.6708
76)	-10.6708
▁trekking	-10.6709
▁gmbh	-10.6709
▁immediatamente	-10.6712
▁monete	-10.6713
▁documenta	-10.6714
▁indice	-10.6715
17)	-10.6717
4.00	-10.6717
▁canta	-10.6718
2.1	-10.6719
▁gesù	-10.6719
▁sportivi	-10.672
▁vibra	-10.6721
▁passare	-10.6724
▁abbia	-10.6725
▁liquidi	-10.6731
▁booking	-10.6737
▁db	-10.6737
▁sperimenta	-10.6739
▁nor	-10.674
72)	-10.6743
ass	-10.6744
▁gabbia	-10.6744
▁miglioramento	-10.6747
6,00	-10.6749
▁ringrazia	-10.6749
▁gardena	-10.6752
▁masturbazione	-10.6755
▁matrimoni	-10.6756
▁professionista	-10.6759
▁core	-10.6763
control	-10.6769
▁amp	-10.6778
▁trasporta	-10.6785
2.5	-10.6785
▁tenta	-10.6788
▁voyeur	-10.679
▁insegna	-10.679
63)	-10.6791
ltd	-10.6792
▁aggiorna	-10.6793
▁attra	-10.6798
▁elabora	-10.68
▁cocktail	-10.68
▁conferenze	-10.68
kar	-10.68
▁model	-10.6801
64)	-10.6801
▁phone	-10.6802
uno	-10.6803
▁annu	-10.6804
▁here	-10.6817
▁architetto	-10.6819
▁fori	-10.682
3.00	-10.6821
you	-10.6823
▁nava	-10.6825
▁anton	-10.6829
▁positano	-10.683
▁marito	-10.683
▁temperature	-10.6831
▁torta	-10.6831
▁edition	-10.6835
▁patch	-10.6837
▁lake	-10.6838
▁natali	-10.6839
▁difficoltà	-10.684
▁urban	-10.6843
▁arena	-10.6844
▁modelle	-10.6846
▁scambia	-10.6847
▁risolvere	-10.6847
▁brunette	-10.6849
monte	-10.6851
▁socio	-10.6853
19)	-10.6855
▁1.6	-10.6857
13)	-10.6859
▁aggiunta	-10.6862
cht	-10.6862
grafiche	-10.6863
▁call	-10.6863
▁xp	-10.6867
park	-10.6877
messo	-10.6878
▁nudo	-10.6882
▁pubblicazioni	-10.6882
▁corn	-10.6883
organizzazione	-10.6884
▁scambio	-10.6884
▁vario	-10.6885
74)	-10.6887
▁saremo	-10.6888
scher	-10.6891
▁ottenuto	-10.6901
sale	-10.6901
▁respira	-10.6903
▁down	-10.6903
right	-10.6905
▁faccio	-10.6907
▁corretto	-10.6907
▁watt	-10.6908
▁anticipo	-10.6911
▁attuali	-10.6912
▁0,5	-10.6912
▁posizionato	-10.6912
▁lucia	-10.6912
-50	-10.6918
▁brucia	-10.6919
build	-10.6919
intera	-10.692
▁grassi	-10.692
7.00	-10.6921
▁rooms	-10.6923
▁limiti	-10.6923
▁arab	-10.6925
▁iniziato	-10.6926
▁390	-10.6927
2010	-10.6932
ova	-10.6933
tek	-10.6933
cell	-10.6935
▁ricamo	-10.6936
▁vieni	-10.6939
intero	-10.694
▁ricco	-10.6941
▁telecamera	-10.6943
▁lamiera	-10.6943
▁sce	-10.6945
▁lecce	-10.6947
▁ref	-10.6947
67)	-10.695
▁sostenibile	-10.6952
▁piacevole	-10.6952
▁rc	-10.6955
▁rivela	-10.6961
▁apparecchiature	-10.6963
ful	-10.6965
hy	-10.6968
▁fresca	-10.6969
▁situazione	-10.6973
▁stampi	-10.6976
▁ricca	-10.6976
▁siano	-10.6977
▁anime	-10.6981
66)	-10.6982
▁von	-10.6987
versi	-10.6989
apertura	-10.6992
90)	-10.6993
▁adolescenti	-10.6993
▁comunque	-10.6993
▁soprattutto	-10.6993
sar	-10.6994
xx	-10.6995
▁segretaria	-10.6995
▁gin	-10.7004
111	-10.7006
▁mescola	-10.7007
anche	-10.7009
▁generi	-10.701
▁diverso	-10.7011
▁cart	-10.7012
▁familiari	-10.7014
▁fibre	-10.7015
▁attacca	-10.7015
▁casale	-10.7016
▁studios	-10.7016
▁tripla	-10.7017
▁meccanico	-10.7024
▁tradizionali	-10.7024
▁costumi	-10.7025
▁5%	-10.7031
▁niente	-10.7033
nò	-10.7035
▁nere	-10.7036
▁coperto	-10.7036
nic	-10.7045
▁cosmetici	-10.7045
▁omega	-10.7046
▁produ	-10.7047
▁1.1	-10.7049
▁aperte	-10.7049
str	-10.7051
serie	-10.7052
▁erba	-10.7054
▁consuma	-10.7054
wolf	-10.7055
▁colorato	-10.7055
▁smd	-10.7055
▁ovunque	-10.7055
▁illimitato	-10.7055
num	-10.7056
iii	-10.7057
84)	-10.7061
▁american	-10.7061
▁à	-10.7065
▁recuperare	-10.7065
▁ciascun	-10.7068
ndosi	-10.707
▁gente	-10.7072
▁qualunque	-10.7076
▁trentino	-10.7081
▁ant	-10.7084
▁voto	-10.7085
▁filippiner	-10.7087
▁rolex	-10.7087
▁330	-10.7095
▁signora	-10.7097
▁fattura	-10.7098
20)	-10.7098
▁infine	-10.7101
▁finanziari	-10.7106
▁ricezione	-10.7108
▁certo	-10.7108
▁successivamente	-10.7111
duce	-10.7117
▁requisito	-10.7118
▁paziente	-10.7118
▁annuali	-10.712
▁hen	-10.712
▁dieci	-10.712
▁sedi	-10.7122
▁dora	-10.7125
▁barriera	-10.7128
▁clinica	-10.7129
▁motel	-10.7131
▁pratiche	-10.7131
evoluzione	-10.7139
▁agente	-10.7144
▁cause	-10.7148
▁petro	-10.715
▁valentino	-10.715
▁15%	-10.715
berry	-10.7156
▁installato	-10.7158
83)	-10.7158
030	-10.7162
▁casella	-10.7163
80)	-10.7165
▁javascript	-10.717
380	-10.7171
ish	-10.7174
▁prego	-10.7174
69)	-10.7174
▁lettere	-10.7175
▁tester	-10.7176
▁amateur	-10.7181
▁broker	-10.7183
▁soc	-10.7186
quest	-10.719
▁industrie	-10.7191
▁anteprima	-10.7191
▁ospitato	-10.7193
▁investimenti	-10.7194
stina	-10.7194
▁bimbo	-10.7195
▁impegna	-10.7199
▁confronto	-10.7202
:05	-10.7209
▁flex	-10.7211
▁accoglie	-10.7211
▁luminoso	-10.7212
attiva	-10.7214
▁segnali	-10.7221
▁destinazioni	-10.7222
▁trento	-10.7224
81)	-10.7224
enne	-10.7228
boli	-10.7229
▁limitata	-10.7231
▁comitato	-10.7233
▁succede	-10.7233
▁comoda	-10.7234
▁muffa	-10.7237
▁remoto	-10.7241
▁superior	-10.7247
▁vaso	-10.7248
▁godere	-10.7253
nb	-10.7255
▁queen	-10.7257
▁miss	-10.7257
11)	-10.7257
milano	-10.7257
▁(18)	-10.7258
grafica	-10.7259
▁azzurro	-10.7265
▁verranno	-10.7269
▁fle	-10.727
▁ring	-10.727
foni	-10.7273
▁wp	-10.7275
▁alghero	-10.7275
grafico	-10.7276
▁utilizzata	-10.7278
▁bang	-10.7278
▁vor	-10.7278
▁produce	-10.7283
▁automatici	-10.7286
tum	-10.7293
▁automazione	-10.7295
▁18:00	-10.7296
▁lun	-10.7298
bon	-10.7298
7%	-10.7298
75)	-10.7301
▁pelo	-10.7301
▁tasti	-10.7302
▁impatto	-10.7302
▁sesternica	-10.7307
▁spagnola	-10.7307
▁frontale	-10.731
▁deca	-10.7311
106	-10.7311
▁mediante	-10.7312
▁curva	-10.7315
▁series	-10.7317
▁energetica	-10.7318
▁offri	-10.7319
▁vision	-10.732
inglese	-10.7323
▁vota	-10.7323
world	-10.7325
▁point	-10.7326
▁femmina	-10.7328
▁ripeti	-10.7329
▁james	-10.733
▁integrata	-10.733
▁front	-10.7335
▁meri	-10.7337
▁(11)	-10.7339
▁filosofia	-10.7339
▁prevenzione	-10.7339
▁fabio	-10.7341
▁head	-10.7342
innovazione	-10.7342
pari	-10.7343
▁appare	-10.7343
▁cima	-10.7347
▁casse	-10.7349
▁stradale	-10.7353
▁stessi	-10.7354
24)	-10.7355
chetta	-10.7356
importo	-10.736
grandi	-10.7362
vini	-10.7363
▁lucido	-10.7364
glo	-10.7364
mbe	-10.7372
▁caricatore	-10.7374
▁jazz	-10.7375
109	-10.7378
▁consigliati	-10.7378
▁bank	-10.738
▁animazione	-10.7386
orologio	-10.7387
▁kn	-10.7387
craft	-10.7389
yu	-10.7394
▁finito	-10.7396
87)	-10.7398
▁passeggeri	-10.7403
▁spot	-10.7403
▁alberto	-10.7413
icona	-10.7415
▁sostenibilità	-10.7415
▁4+	-10.7422
▁320	-10.7423
▁organizzato	-10.7425
86)	-10.7426
occhiata	-10.7433
orario	-10.7438
▁proprietario	-10.7438
▁culturali	-10.744
qu	-10.7442
▁kr	-10.7448
▁apparecchi	-10.7448
▁mobilia	-10.7449
▁fratelli	-10.7451
▁molle	-10.7452
▁bancario	-10.7456
▁market	-10.7457
15)	-10.7457
▁ordinare	-10.746
sola	-10.7464
▁romano	-10.7464
▁aspetti	-10.7465
▁artificiale	-10.7468
▁dotata	-10.7469
▁cost	-10.7472
78)	-10.7474
▁variabile	-10.7475
grafo	-10.7476
rome	-10.7477
▁interamente	-10.7477
▁side	-10.7478
point	-10.7482
segue	-10.7483
▁entrare	-10.7484
▁classificati	-10.7487
ombra	-10.7489
▁limita	-10.7495
▁apart	-10.7496
▁wild	-10.7499
▁finlandese	-10.75
chat	-10.7501
▁liberi	-10.7501
▁lesbian	-10.7503
▁rigenera	-10.7507
▁12:00	-10.7507
rose	-10.7509
▁traduzioni	-10.7511
▁trapani	-10.7511
▁potrai	-10.7512
▁spring	-10.7515
▁personalizza	-10.752
▁pareti	-10.752
▁pronti	-10.7521
▁racing	-10.7522
aldo	-10.7527
▁kat	-10.7529
celle	-10.7531
gliano	-10.7532
8%	-10.7533
▁ungherese	-10.7533
▁sofia	-10.7533
▁kong	-10.7534
▁magic	-10.7535
▁html	-10.7536
▁(12)	-10.7536
▁residenziale	-10.7544
▁esperto	-10.7544
gus	-10.7545
▁giri	-10.7554
01)	-10.7556
▁united	-10.7557
rosso	-10.7557
▁banche	-10.7557
▁cartoni	-10.7558
terapia	-10.7561
▁cresce	-10.7567
▁dream	-10.7567
posizione	-10.7569
▁redazione	-10.7571
source	-10.758
▁single	-10.758
chino	-10.7581
▁10.00	-10.7581
▁rimanere	-10.7586
▁specifici	-10.7587
▁composito	-10.7588
▁promozionali	-10.7588
▁316	-10.7597
▁piastre	-10.7599
carica	-10.7599
vari	-10.7601
cò	-10.7602
2014	-10.7608
▁(20)	-10.7615
hol	-10.7619
▁astm	-10.7619
▁frequent	-10.7624
strada	-10.7626
▁next	-10.7627
▁jean	-10.7628
▁indossa	-10.7628
▁pay	-10.7633
▁usufruire	-10.7636
16)	-10.7638
▁cene	-10.764
▁presta	-10.764
▁poly	-10.764
▁0.00	-10.7641
1%	-10.7642
▁4.0	-10.7645
0,000	-10.7645
▁vetri	-10.7649
▁pena	-10.765
▁bud	-10.7651
▁(21	-10.7651
▁lugano	-10.7653
▁esclusivi	-10.7653
/7	-10.7654
▁mori	-10.7657
▁visit	-10.7657
▁class	-10.7663
▁university	-10.7664
▁regionale	-10.7665
bian	-10.7669
▁maison	-10.7669
▁bacca	-10.7672
▁rgb	-10.7672
▁txxx	-10.7673
▁entrata	-10.7674
▁fantasia	-10.7675
▁swiss	-10.7677
▁steel	-10.7677
145	-10.768
▁agricoltura	-10.768
▁esclusivamente	-10.768
▁usi	-10.7681
▁stan	-10.7681
-100	-10.7682
▁your	-10.7683
07)	-10.7683
+1	-10.7685
etichetta	-10.7689
▁pura	-10.7692
▁william	-10.7697
▁diploma	-10.7697
▁centre	-10.7698
bina	-10.77
wer	-10.7702
tutto	-10.7704
nghe	-10.7708
▁abbastanza	-10.7708
▁invernale	-10.7708
▁scultura	-10.7708
▁storica	-10.771
▁gancio	-10.7711
▁adrian	-10.7716
affi	-10.7716
-00	-10.7721
:04	-10.7723
▁tardi	-10.7724
ficato	-10.7727
▁precedenti	-10.773
▁jul	-10.7734
▁aparthotel	-10.7734
▁glass	-10.7737
foto	-10.774
gram	-10.7742
▁preso	-10.7742
61)	-10.7747
▁rispetta	-10.7748
82)	-10.7749
93)	-10.775
▁soggiorni	-10.7752
▁specifico	-10.7752
92)	-10.7756
▁bale	-10.7756
enna	-10.7758
14)	-10.7759
▁spezia	-10.7762
pone	-10.7763
▁follando	-10.7763
▁profondo	-10.7764
▁dotazioni	-10.7764
▁chic	-10.7767
▁mostrare	-10.7767
▁interruttore	-10.7772
analisi	-10.7773
ound	-10.7774
▁rilassa	-10.7774
uali	-10.7775
▁115	-10.7776
▁rendimento	-10.7779
goni	-10.778
▁vent	-10.7782
750	-10.7782
▁spoglia	-10.7784
simo	-10.7786
▁michel	-10.779
▁(22	-10.7791
▁caratterizza	-10.7795
para	-10.7796
▁calabria	-10.7797
▁asciugamani	-10.7797
▁ital	-10.7801
▁impostare	-10.7802
▁perforazione	-10.7804
uff	-10.7808
onale	-10.7809
▁criteri	-10.781
▁land	-10.781
mac	-10.7816
▁asciuga	-10.7819
▁usata	-10.7821
▁prendi	-10.7824
stein	-10.7826
▁goji	-10.7827
▁chiedi	-10.7828
▁kor	-10.7828
▁modena	-10.7831
▁arredamento	-10.7832
base	-10.7833
005	-10.7833
▁portafoglio	-10.7833
▁terminale	-10.7834
▁bruna	-10.7836
ossido	-10.7839
▁segni	-10.7841
▁chicago	-10.7842
▁faro	-10.7842
market	-10.7844
▁usate	-10.7845
▁str	-10.7845
▁effettuato	-10.7846
▁visual	-10.7849
altezza	-10.7852
▁pneumatico	-10.7853
85)	-10.7855
▁golden	-10.7855
2.00	-10.7855
▁chimico	-10.7862
▁sportiva	-10.7863
▁indiana	-10.7867
▁650	-10.7868
▁luc	-10.787
▁ciclismo	-10.7876
▁elenca	-10.7877
▁correttamente	-10.7878
▁arm	-10.7879
▁mah	-10.7883
126	-10.7884
scio	-10.7884
▁iscrizioni	-10.7887
ington	-10.7893
-40	-10.7893
strutt	-10.7894
albero	-10.7897
▁esterne	-10.7899
▁vicina	-10.79
▁né	-10.79
▁colonne	-10.7901
▁allogger	-10.7902
95)	-10.7902
▁bdsm	-10.7903
▁favori	-10.791
▁lumi	-10.7911
▁union	-10.7913
▁romeo	-10.7913
▁dieta	-10.7917
oncino	-10.7917
nzio	-10.7919
▁lavastoviglie	-10.792
▁zurigo	-10.792
▁produrre	-10.7921
▁enrico	-10.7925
▁purezza	-10.7926
-60	-10.7934
vello	-10.7936
▁leone	-10.794
▁track	-10.7942
▁cintura	-10.7943
▁nick	-10.7955
▁riusci	-10.7955
▁ovest	-10.7956
▁trazione	-10.7958
89)	-10.7959
▁propor	-10.796
▁altamente	-10.7961
▁portogallo	-10.7966
▁olandese	-10.7966
hua	-10.7971
▁stiamo	-10.7972
▁compresse	-10.7977
▁valentina	-10.7977
▁uniforme	-10.7978
modell	-10.7978
▁flessibilità	-10.798
▁fuck	-10.7981
▁vinto	-10.7981
llini	-10.7981
23)	-10.7984
▁venduto	-10.7988
▁interessa	-10.7992
112	-10.7993
▁momenti	-10.7993
▁vegan	-10.7994
▁carri	-10.7995
▁trend	-10.7997
▁italie	-10.7998
▁chimici	-10.7999
▁cerimonia	-10.8
▁siffredi	-10.8
▁garantito	-10.8
▁pollo	-10.8
▁pulire	-10.8002
9001	-10.8002
▁situati	-10.8004
▁invio	-10.8006
▁forse	-10.8018
zen	-10.8019
▁ricaricabile	-10.802
▁blonde	-10.802
▁place	-10.8021
▁virus	-10.8022
▁profitto	-10.8023
▁weekend	-10.8024
▁sicuri	-10.8025
003	-10.8027
benz	-10.8028
▁fort	-10.8033
▁libreria	-10.8034
▁ottiene	-10.8034
▁mosaico	-10.8034
▁esclusa	-10.8034
▁condivisione	-10.8035
wear	-10.8037
style	-10.8038
▁ambito	-10.8043
▁applicare	-10.8043
▁08:00	-10.8045
lgs	-10.8048
▁forze	-10.8051
▁vetrina	-10.8051
▁nomina	-10.8053
cavo	-10.8053
▁bambola	-10.8057
0.5	-10.8064
▁comunicato	-10.8064
128	-10.8064
▁bandiera	-10.807
▁davanti	-10.807
▁bruno	-10.8071
servizi	-10.8072
▁investimento	-10.8078
▁vincitore	-10.8078
▁artigianale	-10.808
▁splendida	-10.808
rici	-10.8081
230	-10.8088
▁dent	-10.809
▁vicini	-10.8092
▁creatività	-10.8093
▁chiede	-10.8093
26)	-10.8095
▁$2	-10.8095
tour	-10.8096
▁vende	-10.8096
▁miami	-10.8098
▁interne	-10.8101
▁funghi	-10.8102
▁protegge	-10.8103
▁autonoleggio	-10.8103
124	-10.8105
▁tr	-10.8107
ging	-10.8108
mara	-10.8108
gsm	-10.8109
▁coltiva	-10.8112
▁capodanno	-10.8114
▁fodera	-10.8115
▁atleti	-10.8116
▁chiamato	-10.8116
vy	-10.8117
88)	-10.8119
▁log	-10.8126
▁chitarra	-10.8126
fun	-10.8127
▁mur	-10.8127
▁domini	-10.813
▁cell	-10.8133
▁tasche	-10.8133
▁berlin	-10.8134
▁turin	-10.8134
▁santi	-10.8135
▁jordan	-10.8137
▁zh	-10.8138
▁calza	-10.8143
▁grotta	-10.8145
▁anticipa	-10.8149
▁conquista	-10.8149
mond	-10.8152
▁giusta	-10.8156
▁dublino	-10.816
▁fitte	-10.8165
94)	-10.8168
▁fc	-10.8173
▁erotico	-10.8174
▁135	-10.8177
elba	-10.8182
▁eliminare	-10.8184
vali	-10.8186
▁giornaliero	-10.8186
▁ufficiali	-10.8188
▁gioia	-10.8191
▁flessibili	-10.8192
llina	-10.8195
▁obbligatori	-10.8199
135	-10.8203
▁ple	-10.8204
▁review	-10.8206
▁spettacoli	-10.8207
http	-10.8209
▁bollitore	-10.821
98)	-10.8213
▁fia	-10.8214
▁torcia	-10.8214
▁affitti	-10.8217
▁bai	-10.8217
▁estremamente	-10.8218
▁bulgaro	-10.8218
▁gallo	-10.8219
iscrizione	-10.822
interessato	-10.822
▁under	-10.8222
▁associati	-10.8222
▁plaza	-10.8225
96)	-10.8228
▁town	-10.8229
▁nichel	-10.8229
▁pellicola	-10.8232
▁serata	-10.8234
▁pesante	-10.8241
▁piste	-10.8242
27)	-10.8244
▁national	-10.8245
91)	-10.8246
install	-10.8247
▁sorgente	-10.8249
▁sound	-10.8249
hof	-10.8249
▁formaggi	-10.8251
▁principio	-10.8253
▁cellule	-10.8254
▁dilettante	-10.8254
▁bilancia	-10.8255
▁stampo	-10.8258
▁svezia	-10.8265
▁sistemazione	-10.8266
▁fonde	-10.8267
▁sep	-10.8271
porre	-10.8274
▁progressi	-10.8277
▁trasferimenti	-10.828
▁fondata	-10.8281
▁selezionato	-10.8281
▁laboratori	-10.8283
21)	-10.8283
▁moneta	-10.8285
▁corti	-10.8285
▁maturo	-10.829
▁cesare	-10.8291
usura	-10.8291
▁realizzata	-10.8296
▁macina	-10.8297
▁avanzato	-10.83
▁foglie	-10.8302
▁alimentatore	-10.8303
mark	-10.8304
prima	-10.8308
22)	-10.8311
▁rivenditori	-10.8312
scrive	-10.8313
0.1	-10.8313
interfaccia	-10.8314
▁angel	-10.8316
1,00	-10.8317
▁europei	-10.8319
08)	-10.8323
▁canzoni	-10.8324
▁risparmi	-10.8327
print	-10.8327
▁miner	-10.8333
▁ucraina	-10.8334
97)	-10.8335
▁scoprite	-10.8335
▁shampoo	-10.8335
/16	-10.8336
▁necessaria	-10.8337
▁nazioni	-10.8339
▁viaggiatori	-10.834
stampa	-10.834
3,00	-10.834
▁raggiunge	-10.8341
▁hub	-10.8342
cera	-10.8345
▁crem	-10.8345
▁packaging	-10.8347
▁procedure	-10.8347
▁archives	-10.8348
03)	-10.8353
▁secchi	-10.8358
▁arrivi	-10.836
▁tracce	-10.8364
▁grammi	-10.837
igno	-10.837
fondi	-10.8371
▁restitui	-10.8371
▁punte	-10.8371
▁casco	-10.8373
▁testosterone	-10.8373
verse	-10.838
▁plugin	-10.8381
09)	-10.8381
▁tappa	-10.8383
▁paper	-10.8383
▁plasma	-10.8383
impianto	-10.8386
▁canton	-10.8393
plast	-10.8393
▁cataloghi	-10.8395
▁diffusione	-10.8395
xia	-10.8397
▁rifugio	-10.8397
28)	-10.8398
astronomic	-10.8402
▁tedesca	-10.8406
▁rettifica	-10.8407
▁gh	-10.8408
clo	-10.8409
▁(19)	-10.8413
solu	-10.8415
▁rivestito	-10.8418
▁lady	-10.8419
tempo	-10.8419
▁accade	-10.8419
▁disattiva	-10.842
▁pensi	-10.8422
▁classi	-10.8427
fond	-10.843
▁fm	-10.8432
▁macchinari	-10.8432
▁condizione	-10.8433
▁volete	-10.8434
ggiato	-10.8438
uv	-10.8441
▁raccordi	-10.8442
▁telecomando	-10.8442
▁pianoforte	-10.8442
▁potrebbero	-10.8442
▁aggiuntivi	-10.8448
▁allenamento	-10.8448
orso	-10.8452
▁lontano	-10.8454
▁minori	-10.8455
▁proteine	-10.8458
▁1997	-10.8459
▁stick	-10.846
▁armi	-10.846
▁award	-10.8462
▁1996	-10.8463
▁affidabilità	-10.8463
▁sfondo	-10.8466
▁composta	-10.8467
▁magia	-10.8471
▁ottimale	-10.8473
▁products	-10.8477
posta	-10.8478
▁itunes	-10.8478
▁coltello	-10.848
▁tatuaggio	-10.8481
mbu	-10.8482
▁umbria	-10.8482
▁cammina	-10.8486
▁rivenditore	-10.849
▁homepage	-10.849
▁ligure	-10.849
▁sweet	-10.849
▁sviluppare	-10.849
▁commutatore	-10.8494
macchina	-10.8494
▁raffredda	-10.8496
▁alcol	-10.8497
▁seguici	-10.8498
▁stretto	-10.85
▁switch	-10.8502
▁magnetico	-10.8502
▁muscolo	-10.8506
▁dedica	-10.8509
▁congresso	-10.8511
mobili	-10.8513
▁rigido	-10.8514
▁concetto	-10.8515
▁posizionamento	-10.8518
ttini	-10.8518
▁nazione	-10.852
▁self	-10.8523
▁rigo	-10.8526
▁chiese	-10.8526
▁metallico	-10.8534
▁escursione	-10.854
▁cliccare	-10.8542
▁qualita	-10.8543
▁camper	-10.8548
▁davide	-10.8548
▁nascosta	-10.855
▁impresa	-10.855
scritto	-10.8551
▁polonia	-10.8554
▁esibi	-10.8555
love	-10.8558
▁beta	-10.8561
▁stagioni	-10.8562
▁coda	-10.8562
▁stereo	-10.8563
7,00	-10.8563
▁attesa	-10.8564
▁match	-10.8567
cida	-10.8568
▁marmi	-10.8572
04)	-10.8572
▁trasformazione	-10.8572
▁poltrona	-10.8574
▁ritorna	-10.8574
▁stimola	-10.8574
▁onorario	-10.8576
▁risparmiare	-10.8578
▁70%	-10.8579
▁salotto	-10.8581
▁cau	-10.8582
▁riempimento	-10.8582
▁marrakesh	-10.8586
05)	-10.8586
ntini	-10.8589
▁select	-10.8595
maggio	-10.8595
kit	-10.8598
▁cappello	-10.8598
▁bellissima	-10.8598
▁aspettiamo	-10.8602
▁lotto	-10.8603
▁viaggiare	-10.8617
▁kra	-10.8619
▁gamba	-10.8619
▁aperti	-10.8619
▁qualcuno	-10.8622
▁lunedi	-10.8622
▁movie	-10.8625
▁uova	-10.8626
▁adulto	-10.8631
▁organizzare	-10.8633
▁preferito	-10.8634
▁duo	-10.8636
▁golfo	-10.8639
▁cambi	-10.864
▁client	-10.8644
▁central	-10.8645
▁polveri	-10.8646
▁opaco	-10.8647
▁vicenza	-10.8651
har	-10.8651
▁altra	-10.8653
▁pacco	-10.8653
▁vennero	-10.8655
▁antenna	-10.8655
▁rilascia	-10.8656
▁occidentale	-10.8661
▁grill	-10.8662
7,5	-10.8663
▁1995	-10.8665
▁americana	-10.8665
▁assist	-10.8669
▁corri	-10.8669
▁thomas	-10.8671
▁gets	-10.8671
▁jet	-10.8672
▁summer	-10.8672
▁tendenze	-10.8672
▁canna	-10.8673
▁canon	-10.8673
(4	-10.8674
▁riferi	-10.868
▁satellitare	-10.8683
▁appassiona	-10.8683
▁bottone	-10.8684
▁elena	-10.8686
▁impre	-10.8689
-23	-10.869
▁unita	-10.8691
anale	-10.8696
▁ottimizzazione	-10.8701
7.5	-10.8704
▁accelera	-10.8708
▁cappelli	-10.8708
▁fece	-10.8709
▁stanno	-10.871
▁voci	-10.8712
▁vat	-10.8716
usd	-10.8719
▁volontari	-10.872
▁frame	-10.8722
▁filato	-10.8725
▁mora	-10.8731
▁lingerie	-10.8732
▁intenso	-10.8732
-2020	-10.8736
sana	-10.8737
▁federazione	-10.8738
cetti	-10.874
china	-10.874
6.00	-10.8741
▁paio	-10.8741
▁coreano	-10.8743
▁garantisce	-10.8744
▁riunioni	-10.8744
fest	-10.8744
004	-10.8745
▁schiena	-10.8746
▁games	-10.8752
▁collant	-10.8756
▁preghiamo	-10.8756
ossigeno	-10.8756
fp	-10.8758
▁credits	-10.8759
cert	-10.8764
cloud	-10.8764
▁moli	-10.8768
▁venduti	-10.8768
▁giacomo	-10.8769
▁recupera	-10.8769
▁successi	-10.877
▁marcia	-10.8771
▁salta	-10.8772
▁brillante	-10.8781
▁brunetta	-10.8781
▁circolare	-10.8782
▁influenza	-10.8784
esecuzione	-10.8788
▁sé	-10.8792
▁proviene	-10.8793
▁tappeti	-10.8793
▁tappeto	-10.8793
▁inchiostro	-10.8796
new	-10.8799
5.000	-10.8801
▁honda	-10.8802
pping	-10.8803
/100	-10.8803
oggetto	-10.8805
▁padiglione	-10.8805
guer	-10.8805
▁controller	-10.8806
▁diverti	-10.8809
▁1994	-10.8811
▁patate	-10.8812
rren	-10.8813
170	-10.8814
▁scrivici	-10.882
▁aggiunge	-10.8821
02)	-10.8824
▁bell	-10.8827
▁cum	-10.8828
▁280	-10.8829
▁pernottamento	-10.883
▁inglesi	-10.883
▁correlati	-10.8831
cento	-10.8833
▁0.2	-10.8839
▁0,1	-10.884
▁antichi	-10.8842
▁romantica	-10.8843
gini	-10.8848
▁assembl	-10.885
▁comunica	-10.8851
▁potenzia	-10.8851
▁contanti	-10.8852
studio	-10.8852
▁raso	-10.8852
▁transvestiti	-10.8855
▁chirurgia	-10.8855
▁brut	-10.8856
▁analizza	-10.8858
▁limited	-10.8859
99)	-10.8861
▁condensa	-10.8862
▁riconoscimento	-10.8867
▁biscotti	-10.8867
▁orgia	-10.8867
▁rack	-10.8869
▁differenzia	-10.8869
mette	-10.8869
▁about	-10.887
mettere	-10.8872
▁latino	-10.8874
▁hill	-10.8884
▁sma	-10.8886
▁operativa	-10.8886
dura	-10.8888
▁quarto	-10.8889
rium	-10.889
dutti	-10.8892
▁personaggi	-10.8893
plus	-10.8896
glione	-10.8897
▁arredo	-10.8898
▁potrete	-10.8905
4%	-10.8906
▁riproduzione	-10.8908
▁colline	-10.891
▁3.5	-10.891
▁somma	-10.8917
▁infermiera	-10.8917
▁incinta	-10.8918
▁bilancio	-10.8919
▁fish	-10.8919
▁make	-10.8923
▁1.8	-10.8925
bbe	-10.8925
▁certificata	-10.8929
▁apparte	-10.893
▁cabine	-10.8932
▁1.3	-10.8932
116	-10.8935
▁viaggia	-10.8935
▁mona	-10.8938
▁vogliono	-10.8941
▁sottostante	-10.8942
▁consigliato	-10.8942
▁mensili	-10.8943
▁128	-10.8944
camere	-10.8948
▁tazze	-10.8951
▁gola	-10.8953
▁rapi	-10.8953
▁puzzle	-10.8955
▁spalla	-10.8956
alba	-10.8958
▁fast	-10.896
▁politiche	-10.896
▁contest	-10.8961
crea	-10.8964
6%	-10.8967
▁california	-10.8967
4,5	-10.8968
invecchiamento	-10.8968
▁calzature	-10.8969
terni	-10.8973
▁simone	-10.8974
▁approva	-10.8975
107	-10.8975
cken	-10.8976
ampie	-10.8977
▁invernali	-10.898
▁scrittura	-10.898
▁stone	-10.898
effetto	-10.898
▁lavorato	-10.8983
▁tara	-10.8985
▁(21)	-10.8989
▁comporta	-10.8989
▁ott	-10.8991
▁stretta	-10.8991
▁fumo	-10.8991
▁metti	-10.8994
5.0	-10.8995
▁successiva	-10.8996
▁proposta	-10.8998
bianco	-10.8999
oxy	-10.8999
▁suona	-10.8999
450	-10.9
▁omaggio	-10.9005
▁rinforza	-10.9005
▁immobile	-10.9005
/08/20	-10.9006
▁penetra	-10.9007
▁guidata	-10.9008
▁comments	-10.901
/2015	-10.9017
▁4000	-10.9018
phe	-10.9025
210	-10.9025
▁universal	-10.9027
albergo	-10.9028
▁vassoio	-10.9028
▁directory	-10.903
▁idromassaggio	-10.903
▁componente	-10.903
▁esercita	-10.903
▁candele	-10.903
▁stop	-10.9033
1.1	-10.9036
▁verità	-10.9038
▁pt	-10.9039
impresa	-10.9041
▁indirizzi	-10.9043
▁thailandia	-10.9043
▁offerto	-10.9043
▁emozioni	-10.9046
▁370	-10.9048
▁abbonamento	-10.9052
▁amichevole	-10.9055
▁estensioni	-10.9055
▁dosaggio	-10.9055
006	-10.9056
mble	-10.9058
▁parcheggi	-10.9065
▁tipica	-10.9065
▁rilasciato	-10.9068
▁cristina	-10.907
▁esser	-10.9071
▁cornice	-10.9071
▁310	-10.9072
▁bug	-10.9073
aiuto	-10.9075
▁romania	-10.9076
▁prato	-10.9078
▁old	-10.908
piano	-10.9081
▁tp	-10.9082
▁nominato	-10.9085
▁distributori	-10.9088
▁manu	-10.9088
▁minore	-10.9093
▁square	-10.9094
▁antiche	-10.9099
▁ritiro	-10.9107
▁conosce	-10.9107
wall	-10.911
bz	-10.9112
365	-10.9114
▁mobilità	-10.9117
town	-10.9118
▁laminazione	-10.9119
▁restauro	-10.912
▁chiedere	-10.912
fone	-10.9121
▁alcuna	-10.9131
▁tramonto	-10.9132
▁zoo	-10.9132
▁kha	-10.9132
▁spesa	-10.9135
▁mouse	-10.9139
▁vincitori	-10.914
▁3,5	-10.9142
▁solito	-10.9143
scritti	-10.9143
▁glu	-10.9148
06)	-10.9151
▁2.4	-10.9155
▁castelli	-10.9155
isse	-10.917
▁celebrità	-10.9172
tuber	-10.9178
▁pomeriggio	-10.9182
▁stress	-10.9184
▁iscritti	-10.9184
vista	-10.9186
▁sponsor	-10.9196
360	-10.92
▁fogli	-10.9201
1.2	-10.9202
▁cartuccia	-10.9208
▁notturna	-10.9208
▁oasi	-10.9209
▁aug	-10.9211
▁dress	-10.9213
▁fair	-10.9214
▁martino	-10.9215
▁mulino	-10.9215
▁hack	-10.9216
camera	-10.9218
tional	-10.9221
▁official	-10.9221
▁recinzione	-10.9221
▁prossimi	-10.9225
original	-10.9229
operazione	-10.9234
▁boy	-10.9235
▁legna	-10.9238
▁misto	-10.9246
▁comunicare	-10.9248
▁felici	-10.9249
▁approvato	-10.9249
040	-10.9249
▁bau	-10.925
▁strisce	-10.925
▁tasto	-10.9253
▁esami	-10.9254
ugu	-10.9257
▁penne	-10.9259
▁gratuite	-10.926
▁enorme	-10.926
▁lubrifica	-10.9262
▁colonia	-10.9269
uccio	-10.927
▁lino	-10.9272
▁preferenze	-10.9273
▁ripristina	-10.9273
▁svizzero	-10.9273
▁giacche	-10.9274
▁selezionati	-10.9274
▁ieri	-10.9275
▁analytics	-10.9286
▁essenziale	-10.9286
▁galvanizzato	-10.9286
▁lavorazioni	-10.9287
320	-10.9288
▁saldi	-10.9288
▁normali	-10.9288
▁proprietari	-10.9297
online	-10.9298
▁particolarmente	-10.9298
▁ottico	-10.9301
▁coloro	-10.9302
▁cool	-10.9302
▁anne	-10.9303
▁pupa	-10.9306
▁scienze	-10.9314
▁main	-10.9317
▁pausa	-10.9323
▁pubbliche	-10.9324
▁universitari	-10.9325
▁dotate	-10.9326
▁ripar	-10.9328
▁armato	-10.9329
▁ripara	-10.9333
▁decorazioni	-10.9338
▁colata	-10.9339
▁scansione	-10.9339
▁doppie	-10.934
▁dose	-10.9345
struttura	-10.935
▁competitivo	-10.935
▁threesome	-10.935
▁settimanale	-10.9352
▁angeles	-10.9355
ison	-10.9355
▁romagna	-10.9356
129	-10.9357
▁chiamare	-10.9358
sign	-10.9363
▁3/4	-10.9373
▁forniamo	-10.9374
▁cerniera	-10.9377
▁zelanda	-10.9377
▁aranci	-10.9377
▁christian	-10.9379
▁equilibrio	-10.938
▁unitario	-10.9382
▁salvatore	-10.9386
▁brevi	-10.9388
▁barbecue	-10.939
▁brutto	-10.9394
flex	-10.9394
▁medie	-10.9396
▁odm	-10.9397
▁speed	-10.9398
▁facilita	-10.94
▁domus	-10.9401
▁meccaniche	-10.9403
▁mediterranea	-10.9403
▁militari	-10.9403
▁durezza	-10.9403
▁titoli	-10.9404
▁caduta	-10.9405
▁slim	-10.9412
liquid	-10.9416
alluminio	-10.9416
▁utilizzate	-10.9418
▁ricordi	-10.9418
▁tacchi	-10.9419
▁morta	-10.9423
affari	-10.9425
▁giocattolo	-10.9429
▁segreto	-10.9429
▁louis	-10.9432
▁esame	-10.9432
960	-10.9435
▁cuba	-10.9435
▁badia	-10.9436
▁individuali	-10.9437
metria	-10.9438
▁applicabile	-10.9441
▁posizionata	-10.9441
▁meccanici	-10.9442
▁training	-10.9442
▁compatto	-10.9442
▁piombo	-10.9444
▁ghisa	-10.9446
▁fotografico	-10.9447
▁intensi	-10.9449
▁foglia	-10.9449
▁registrare	-10.945
email	-10.9451
▁solutions	-10.9456
▁fascino	-10.9456
▁normativa	-10.9459
▁9:00	-10.9459
spetta	-10.9459
▁tc	-10.946
▁css	-10.9461
▁francesi	-10.9462
▁cervo	-10.9466
▁capaci	-10.9468
▁rivestimenti	-10.9468
▁whatsapp	-10.9468
▁compressa	-10.9469
▁famoso	-10.9469
verde	-10.9471
▁soggetto	-10.9472
film	-10.9474
▁accettare	-10.9475
▁notizia	-10.9482
▁regala	-10.9485
elettro	-10.9485
accordo	-10.9491
haus	-10.9491
▁calde	-10.9492
▁canto	-10.9492
▁wedding	-10.9495
▁simbolo	-10.9498
▁19:00	-10.9502
▁raccogli	-10.9503
▁sedile	-10.9505
▁cappella	-10.9508
▁george	-10.9508
▁silvia	-10.9508
▁lounge	-10.9509
▁dott	-10.951
load	-10.9512
5.5	-10.9515
than	-10.952
▁semplifica	-10.9521
▁ministero	-10.9521
▁feedback	-10.9522
▁(15)	-10.9526
▁bomba	-10.9528
485	-10.9528
▁pianifica	-10.9528
▁cromo	-10.953
▁size	-10.9531
▁spruzzo	-10.9535
pillola	-10.9538
▁vegetale	-10.9543
▁scorrevole	-10.9548
▁feticcio	-10.9548
▁previsto	-10.9548
2.2	-10.955
▁9001	-10.9557
petto	-10.9558
▁gourmet	-10.9561
▁galaxy	-10.9561
▁pani	-10.9561
▁chiari	-10.9563
▁guidate	-10.9569
▁experience	-10.9574
zzu	-10.9576
▁ptfe	-10.9577
▁solarium	-10.9578
▁classici	-10.9579
280	-10.9584
▁paesaggi	-10.9584
▁creta	-10.9585
▁copertina	-10.9586
▁gor	-10.9587
▁competenza	-10.9588
▁neoprene	-10.9588
▁rohs	-10.9589
▁pali	-10.9589
turismo	-10.9591
▁support	-10.9596
▁poche	-10.9597
▁piscine	-10.9601
▁laterali	-10.9602
masturba	-10.9602
▁decide	-10.9604
▁german	-10.9609
▁morto	-10.9612
unico	-10.9613
▁trip	-10.9615
▁crociera	-10.9615
▁[...]	-10.9615
▁ut	-10.9619
▁1990	-10.9619
paga	-10.9623
▁mk	-10.9627
▁egitto	-10.9629
▁ioni	-10.9629
▁shu	-10.9632
▁pechino	-10.9632
▁basata	-10.9633
▁bosch	-10.9636
131	-10.9637
▁ventilatore	-10.9641
▁segreti	-10.9641
▁concord	-10.9642
▁toni	-10.9642
▁annuncio	-10.9642
sonalizzazione	-10.9648
▁stagno	-10.9652
▁batteri	-10.9656
▁oriente	-10.9656
(5	-10.9665
cool	-10.9665
▁irlanda	-10.9667
▁espositori	-10.9668
▁evidenza	-10.9668
▁sanitari	-10.9668
coin	-10.9672
▁schema	-10.9675
▁stage	-10.9679
ngue	-10.9682
▁anniversario	-10.9682
▁arancione	-10.9684
▁finiture	-10.9686
▁scaffale	-10.9695
▁beige	-10.9695
232	-10.9696
▁petrolio	-10.9696
▁bill	-10.9697
abba	-10.97
▁finanzia	-10.9702
▁visualizzando	-10.9703
▁consiste	-10.9707
▁yamaha	-10.9709
▁sguardo	-10.9709
artista	-10.9713
▁kan	-10.9715
regola	-10.9716
group	-10.9716
fiche	-10.9718
▁burro	-10.972
▁estivo	-10.9721
▁reddito	-10.9722
▁complete	-10.9722
▁elastico	-10.9723
2009	-10.9725
▁informatica	-10.9729
▁cerchio	-10.973
▁chiusa	-10.9735
▁aggiornata	-10.9736
▁corallo	-10.9736
▁chrome	-10.9737
▁stare	-10.9738
▁stampe	-10.9742
▁acidi	-10.9745
▁hentai	-10.9749
▁claudio	-10.975
▁escluse	-10.975
▁gentile	-10.975
0.000,00	-10.975
alimento	-10.9753
▁costruita	-10.9755
▁leggenda	-10.9757
▁nice	-10.9761
▁gravidanza	-10.9763
050	-10.9763
▁bellissimo	-10.9764
head	-10.9768
tratta	-10.9769
lyn	-10.9772
▁promuovere	-10.9773
▁reggio	-10.9776
▁ebano	-10.9776
▁roblox	-10.9776
▁victoria	-10.9776
▁profumi	-10.9777
▁montagne	-10.978
2008	-10.9781
zone	-10.9781
▁rodi	-10.9784
2.0	-10.9784
▁fiamma	-10.9792
▁sodio	-10.9795
gent	-10.9797
tty	-10.9799
▁sella	-10.98
▁essenziali	-10.9804
▁principalmente	-10.9804
▁dragon	-10.9818
▁armadio	-10.9818
235	-10.9825
watch	-10.9828
▁franchi	-10.9828
▁bungalow	-10.9831
▁quadrante	-10.9831
▁cappotto	-10.9831
▁caterina	-10.9831
▁glutine	-10.9832
▁estrazione	-10.9835
▁spara	-10.9838
▁lampo	-10.9842
esterno	-10.9843
lizzazione	-10.9844
▁cotto	-10.9844
▁contattateci	-10.9845
▁catalano	-10.9845
▁radiatore	-10.9846
▁lesbi	-10.9849
▁purifica	-10.9849
▁capire	-10.985
▁solleva	-10.9854
zh	-10.9855
▁seat	-10.9855
▁pressa	-10.9858
▁siviglia	-10.9858
▁cartier	-10.9863
▁turistici	-10.9864
▁cambiamenti	-10.9865
▁sincronizza	-10.9869
▁responsabili	-10.9869
▁halloween	-10.9872
▁approccio	-10.9872
▁compresa	-10.9872
▁budget	-10.9872
▁perugia	-10.9873
▁laguna	-10.9873
▁iscritto	-10.9877
▁magi	-10.9882
▁notifica	-10.9886
▁rovere	-10.9887
corso	-10.9888
▁filippo	-10.9889
▁aerei	-10.9889
▁fall	-10.9892
▁cucine	-10.9892
▁babes	-10.9892
▁daniele	-10.9893
▁tavolino	-10.9898
▁rendi	-10.9899
▁esistono	-10.9899
▁taiwan	-10.99
▁vietnamita	-10.9901
▁eccellenza	-10.9902
▁hr	-10.9904
landes	-10.9907
▁diffusore	-10.991
▁squadre	-10.9913
▁molecolare	-10.9913
▁chilometri	-10.9913
▁tavole	-10.9916
aggiornamento	-10.9918
▁itali	-10.992
▁blanc	-10.992
▁type	-10.9923
▁angola	-10.9923
999	-10.9924
▁farlo	-10.9924
zzante	-10.9924
▁agenzie	-10.9927
▁factory	-10.9927
▁analog	-10.9928
▁dubbi	-10.9929
▁elastici	-10.9931
estrusione	-10.9932
sistema	-10.9935
9]	-10.9938
▁tappo	-10.9939
205	-10.9941
▁aeroporti	-10.9941
▁infatti	-10.9942
▁chris	-10.9942
▁poggio	-10.995
▁fattori	-10.9951
▁residenziali	-10.9955
05.20	-10.9955
▁funzionale	-10.9956
▁ferri	-10.9957
▁(13)	-10.9958
graf	-10.9958
▁darte	-10.9962
▁pod	-10.9962
▁corta	-10.9964
india	-10.9966
▁automobile	-10.9967
▁regia	-10.9969
▁fredda	-10.9969
▁moro	-10.9971
nomina	-10.9971
204	-10.9973
ndola	-10.9974
▁avvi	-10.9975
▁permesso	-10.9977
▁felpa	-10.9977
origine	-10.9978
▁partnership	-10.9984
▁(14)	-10.9987
▁seduta	-10.9987
zero	-10.9988
▁arancio	-10.9992
▁facciale	-10.9993
▁canne	-10.9994
▁playlist	-10.9997
▁tipico	-10.9998
▁east	-10.9998
▁ducati	-10.9999
▁lombardia	-10.9999
▁sentiero	-11.0001
▁noce	-11.0002
▁contea	-11.0002
▁pv	-11.0003
▁turche	-11.0005
parte	-11.0009
▁strap	-11.0013
▁biologica	-11.0015
▁domani	-11.0016
▁principessa	-11.0018
▁numerose	-11.0018
▁ritira	-11.002
▁bikini	-11.0024
▁comandi	-11.0024
▁valencia	-11.0026
▁christ	-11.0028
▁chalet	-11.0029
▁modulare	-11.0037
▁widget	-11.0038
▁blocchi	-11.0038
esimo	-11.0038
▁orchestra	-11.0038
▁motocicli	-11.0039
▁federico	-11.004
▁accademia	-11.0041
▁1.4	-11.005
▁morbida	-11.0052
escavatore	-11.0052
▁pacific	-11.0054
▁mens	-11.0058
▁ragione	-11.0059
premi	-11.0059
▁carino	-11.0066
▁resistenti	-11.0066
▁ripristino	-11.0066
▁grey	-11.0072
▁vitamina	-11.0074
▁cosmo	-11.0076
▁480	-11.0077
▁awards	-11.0079
▁campagne	-11.008
▁solida	-11.0082
▁short	-11.0083
▁risponde	-11.0087
▁russe	-11.009
▁specificazione	-11.0093
▁garantita	-11.0094
3.2	-11.0097
▁sonno	-11.0106
▁dark	-11.0107
char	-11.0109
▁flat	-11.011
▁price	-11.0111
ologici	-11.0112
▁bou	-11.0115
▁mangia	-11.012
sorveglianza	-11.0122
▁opinioni	-11.0122
▁magnetica	-11.0124
storia	-11.0127
▁trovarci	-11.0127
jan	-11.0127
▁adam	-11.0127
1.0	-11.0132
156	-11.0132
▁bbw	-11.0134
▁vernici	-11.0135
▁aggiuntivo	-11.014
▁trasferire	-11.0142
▁spy	-11.0146
bell	-11.015
ammi	-11.015
▁treviso	-11.015
▁good	-11.0151
▁identificazione	-11.0153
uz	-11.0154
015	-11.016
▁violin	-11.0161
▁bolzano	-11.0164
▁baviera	-11.0165
▁(23)	-11.0165
▁stufa	-11.0166
▁compatta	-11.0171
▁frank	-11.0172
khz	-11.0173
super	-11.0176
115	-11.0179
▁league	-11.0179
kan	-11.0182
▁print	-11.0188
massa	-11.0188
▁aggiornare	-11.0189
▁chu	-11.019
▁professional	-11.019
▁consultato	-11.0191
zona	-11.0204
▁generato	-11.0206
▁alternativa	-11.0207
estremità	-11.0207
ugello	-11.0209
▁moq	-11.0209
▁compatibilità	-11.0209
▁caricare	-11.0211
▁fluo	-11.0214
▁righe	-11.0217
119	-11.0218
stitut	-11.0219
▁stabilimento	-11.0222
lumi	-11.0226
154	-11.0227
▁comme	-11.0228
▁sosta	-11.0229
▁ambientali	-11.0235
▁inghilterra	-11.0236
265	-11.0237
▁1992	-11.0237
▁regioni	-11.0238
▁sneakers	-11.0239
▁manifestazione	-11.0239
▁compilare	-11.0249
▁discussione	-11.025
!-[	-11.025
▁antonella	-11.0251
▁twin	-11.0254
▁facilità	-11.0254
▁crescere	-11.0256
importanza	-11.0259
▁uccelli	-11.0264
▁pharma	-11.0265
▁lieti	-11.0268
▁carni	-11.027
▁0,2	-11.0271
▁onda	-11.0271
ritz	-11.0272
ground	-11.0273
olfo	-11.0273
▁festeggia	-11.0273
▁pelosa	-11.0276
▁bruxelles	-11.0278
▁papà	-11.0278
▁bevanda	-11.0278
▁interior	-11.0283
heim	-11.0284
▁address	-11.0286
▁stampanti	-11.0286
190	-11.0287
▁fabbricante	-11.0287
▁bolla	-11.0291
▁toyota	-11.0293
▁cipro	-11.0296
▁sensibilità	-11.0298
▁(24)	-11.0298
▁prolunga	-11.0301
assistenza	-11.0301
enziale	-11.0301
178	-11.0305
▁majestic	-11.0307
▁avanzate	-11.0307
▁telecamere	-11.0308
▁accessibile	-11.031
▁energi	-11.0311
▁eleganza	-11.0318
▁vietnam	-11.032
edificio	-11.0321
▁drink	-11.0322
forni	-11.0324
▁catalog	-11.0325
▁assemblaggio	-11.0328
▁trasportatore	-11.0329
▁lettini	-11.0332
▁probabilmente	-11.0336
▁sessuale	-11.0336
▁scommesse	-11.0336
▁rapidi	-11.0336
▁aspirazione	-11.0336
▁pozzo	-11.0338
▁vinile	-11.0338
▁molla	-11.0339
▁classificazione	-11.0342
illuminazione	-11.0345
▁maniera	-11.035
▁bicchiere	-11.035
▁portatili	-11.0351
2020	-11.0352
phy	-11.0353
▁cliccando	-11.0355
▁fox	-11.0362
▁sistemazioni	-11.0364
▁quotidiana	-11.0364
▁electric	-11.0364
▁wind	-11.0366
▁pineta	-11.0366
ndolo	-11.0368
▁specchi	-11.0371
▁insegnanti	-11.0372
motion	-11.0373
wan	-11.0374
▁bagna	-11.0375
-2016	-11.0376
genera	-11.0378
▁comprendono	-11.0379
▁livigno	-11.0379
▁cantiere	-11.0379
▁pwb	-11.0379
▁flotta	-11.038
▁piastrelle	-11.0381
113	-11.0386
▁apprezza	-11.0387
▁bordi	-11.0388
▁(22)	-11.0388
▁cento	-11.0389
agenzia	-11.0391
▁sfrutta	-11.0393
▁pomodori	-11.0393
▁ristorazione	-11.0393
▁pandora	-11.0395
▁diamond	-11.0396
▁prevede	-11.0397
luce	-11.0399
▁ricon	-11.0402
▁vincere	-11.0404
▁risulta	-11.0404
▁ker	-11.0404
lecken	-11.0405
▁quotidiano	-11.0408
▁pesci	-11.041
▁circonda	-11.0411
▁17:00	-11.0412
▁matita	-11.0416
▁excel	-11.0419
▁planet	-11.0419
▁valute	-11.042
▁boscolo	-11.0421
▁cinturino	-11.0422
▁soccorso	-11.0422
▁estetica	-11.0423
▁mattino	-11.0425
▁attivazione	-11.0427
▁elettricità	-11.0429
jet	-11.0431
▁impermeabili	-11.0432
▁sostanze	-11.0438
▁bona	-11.0439
gara	-11.0439
▁galli	-11.0444
▁seminario	-11.0448
▁braccialetto	-11.0448
▁perfettamente	-11.045
versione	-11.045
▁bibione	-11.0451
▁attacchi	-11.0452
▁marcatura	-11.0453
tipo	-11.0457
▁ups	-11.0457
▁gil	-11.046
try	-11.0463
▁corriere	-11.0466
dotti	-11.0467
▁kin	-11.0468
(6	-11.0474
▁month	-11.0475
▁pru	-11.0479
00,00	-11.0479
▁diagnosi	-11.048
264	-11.0482
▁ciliegi	-11.0482
▁4.5	-11.0486
▁specialisti	-11.0487
ridge	-11.0489
oncini	-11.0495
▁fantastico	-11.0495
316	-11.0496
▁concept	-11.0497
borsa	-11.0503
▁limitato	-11.0506
▁assemblea	-11.0506
html	-11.0506
▁1080	-11.0506
▁bolle	-11.0507
▁gdpr	-11.051
▁completi	-11.051
▁affida	-11.0513
▁14:00	-11.0519
▁confeziona	-11.0519
▁espansione	-11.0521
▁academy	-11.0524
▁contributo	-11.0528
▁nubile	-11.0532
▁continuare	-11.0534
▁(16)	-11.0535
index	-11.054
▁mtb	-11.0541
▁culla	-11.0543
essere	-11.0545
▁artistico	-11.0546
▁1993	-11.0552
▁bangkok	-11.0554
▁membrana	-11.0554
▁contratti	-11.0554
▁immersione	-11.0555
▁visibilità	-11.0555
▁comodità	-11.0556
▁interessati	-11.0557
▁space	-11.0559
▁11:00	-11.056
▁iniziative	-11.0561
550	-11.0562
istruzione	-11.0565
ivo	-11.0566
▁sblocca	-11.0568
▁divertenti	-11.0568
▁caldaia	-11.0569
account	-11.0575
▁interessanti	-11.0575
▁snc	-11.0576
▁forgia	-11.058
▁umidi	-11.0581
▁skin	-11.0592
▁0.3	-11.0593
▁sviluppatore	-11.0595
▁records	-11.0598
▁paola	-11.0598
vecchio	-11.0602
▁colloca	-11.0603
▁ride	-11.0605
▁mary	-11.0607
134	-11.0612
▁argomenti	-11.0613
▁ecologico	-11.0614
▁secca	-11.0615
▁coltelli	-11.0617
fabbrica	-11.0625
parejas	-11.0627
▁liguria	-11.0627
▁filter	-11.0628
▁tradizioni	-11.0628
▁kids	-11.0629
▁lazienda	-11.0632
▁organizzazioni	-11.0641
▁zincato	-11.0642
▁pipe	-11.0643
▁accoppia	-11.0644
▁pila	-11.0645
▁dipinto	-11.0646
0.2	-11.0648
▁obbligatorio	-11.0649
▁copie	-11.065
▁sezioni	-11.0651
messe	-11.0653
venta	-11.0654
punta	-11.0655
▁unisciti	-11.0657
139	-11.0658
▁raggiungerci	-11.0658
▁salento	-11.0667
▁greca	-11.0668
▁opzionale	-11.0669
▁calciatore	-11.0672
orient	-11.0673
▁maschile	-11.0674
▁maschere	-11.0687
▁youporn	-11.0688
lé	-11.0688
▁vanno	-11.069
▁(25)	-11.0693
metal	-11.0702
▁dimenticato	-11.0703
▁women	-11.0704
▁25%	-11.0707
▁spec	-11.071
▁20:00	-11.0711
▁bridge	-11.0712
▁collegato	-11.0714
138	-11.0716
▁acconsento	-11.0717
▁steroide	-11.0717
▁artista	-11.072
▁grafici	-11.0722
▁popolo	-11.0724
▁board	-11.0725
cchetto	-11.0725
▁attrezzi	-11.0731
▁safari	-11.0732
▁moderne	-11.0733
.06.20	-11.0739
▁operatore	-11.0741
▁tempest	-11.0744
▁joy	-11.0744
▁rafforza	-11.0746
▁premere	-11.0748
▁europee	-11.0749
▁servita	-11.0751
▁amplia	-11.0751
imposta	-11.0755
city	-11.0755
▁francisco	-11.0761
▁esportazione	-11.0762
▁roccia	-11.0764
▁intervento	-11.0766
▁cantine	-11.0766
▁visualizzato	-11.0768
▁presentato	-11.0769
▁106	-11.0769
▁largo	-11.0769
▁drop	-11.0774
▁slide	-11.0775
▁pasticceria	-11.0776
▁vincenzo	-11.0778
▁dinamica	-11.0778
pubblica	-11.0782
fiore	-11.0785
▁destro	-11.0786
▁accende	-11.0787
roll	-11.079
▁maschi	-11.0791
▁campanile	-11.0791
▁norvegia	-11.0791
▁domenico	-11.0792
▁thu	-11.0792
▁vibrazione	-11.0792
▁bimbi	-11.0792
▁fuso	-11.0801
▁take	-11.0802
direct	-11.0802
▁barbara	-11.0805
▁coperture	-11.0807
▁termale	-11.0807
▁grave	-11.0808
▁sintesi	-11.0808
▁riceverai	-11.0808
▁grappa	-11.0813
▁amanti	-11.0814
▁barbie	-11.0814
▁integrale	-11.082
▁marrakech	-11.0822
▁recensisci	-11.0822
▁shuttle	-11.0822
▁utilizziamo	-11.0822
▁washington	-11.0822
▁just	-11.0822
888	-11.0823
▁potranno	-11.0823
▁tenuto	-11.0826
▁cellulari	-11.0829
lingua	-11.083
universo	-11.083
▁personalizzare	-11.0831
▁cancellare	-11.0833
117	-11.0835
▁jersey	-11.0837
▁consorzio	-11.0837
▁serbatoi	-11.0838
6.5	-11.0838
▁charme	-11.0839
▁immobiliari	-11.0839
▁pronta	-11.0842
▁aiutarti	-11.0844
▁sgs	-11.0846
▁operativi	-11.0847
▁oct	-11.0848
▁station	-11.0849
▁associa	-11.085
▁(+39)	-11.0852
invio	-11.0852
belli	-11.0853
▁finalmente	-11.0857
▁saldo	-11.0857
▁accessibili	-11.0859
▁partecipato	-11.0859
▁sku	-11.086
▁abitanti	-11.0867
altoparlante	-11.0867
▁bonifico	-11.0867
▁singapore	-11.0867
▁eccezionale	-11.0867
▁caorle	-11.0867
▁ritrova	-11.0867
▁circolazione	-11.0868
▁aerea	-11.0876
▁sterili	-11.0877
gallery	-11.0881
▁ferrara	-11.0883
▁clean	-11.0886
▁neuro	-11.0894
dell	-11.0894
▁wave	-11.0895
▁uniche	-11.0896
but	-11.0897
▁confezioni	-11.0898
▁unghie	-11.0898
▁volumi	-11.0902
▁stradali	-11.0904
▁argentina	-11.0906
▁volt	-11.0909
3.5	-11.0911
▁danimarca	-11.0913
▁coffee	-11.0913
▁singole	-11.0913
service	-11.0914
thy	-11.0916
acido	-11.0917
▁buy	-11.0918
forme	-11.0922
▁minor	-11.093
▁script	-11.0934
▁sorge	-11.0938
▁legato	-11.0941
▁vasi	-11.0942
▁eleganti	-11.0943
▁matera	-11.0947
▁giudizi	-11.0957
▁pick	-11.0957
▁garibaldi	-11.0958
▁incredibile	-11.0958
▁tartufo	-11.0958
▁portachiavi	-11.0958
▁precisa	-11.0959
long	-11.0959
▁wei	-11.096
▁sfondi	-11.0964
▁statua	-11.0964
▁console	-11.0965
▁nuovamente	-11.0971
▁velocemente	-11.0973
▁insetti	-11.0973
▁appuntamenti	-11.0974
▁uscite	-11.0974
fusione	-11.0982
▁pink	-11.0983
▁services	-11.0985
▁basket	-11.0989
italian	-11.0989
▁cuciture	-11.0992
▁lungomare	-11.0993
hong	-11.0995
▁tessile	-11.1005
039	-11.1005
▁indicatore	-11.1007
▁simboli	-11.1007
▁integrati	-11.1016
▁suolo	-11.1018
▁stabilizza	-11.1019
▁sapone	-11.102
▁tunnel	-11.102
▁naturalmente	-11.1025
▁sony	-11.1026
▁preoccupa	-11.1028
condi	-11.103
▁lignano	-11.103
▁combustibile	-11.1035
▁venedig	-11.1035
▁figure	-11.1035
landia	-11.1038
▁interventi	-11.1041
stream	-11.1041
▁adatti	-11.1041
▁sensibili	-11.1042
▁larga	-11.1043
▁sasso	-11.105
▁supportati	-11.105
▁cassaforte	-11.1051
▁lampadina	-11.1051
▁ethernet	-11.1051
efficienza	-11.1052
8.5	-11.1052
▁collina	-11.1054
ttica	-11.1055
▁significato	-11.1059
▁riad	-11.1063
▁itinerario	-11.1063
▁marittima	-11.1066
antica	-11.1067
▁conservare	-11.1068
▁plug	-11.107
▁lettino	-11.1072
lamp	-11.108
▁giornate	-11.1082
▁medaglia	-11.1082
▁consolida	-11.1082
▁bottoni	-11.1082
▁umana	-11.1083
▁afferma	-11.1083
▁sfide	-11.1085
▁lievi	-11.1087
▁gite	-11.1091
ggy	-11.1092
bilmente	-11.1092
▁future	-11.1096
▁perfora	-11.1096
▁ginevra	-11.1097
▁romantico	-11.1097
▁convegno	-11.1098
▁hdmi	-11.1098
▁verniciatura	-11.1098
▁psico	-11.1098
▁soddisfazione	-11.1099
▁1,2	-11.1103
▁territori	-11.1103
▁basic	-11.1106
▁trattoria	-11.1106
▁tamburo	-11.1113
▁rilievo	-11.1113
▁acustico	-11.1113
▁(17)	-11.1113
▁belvedere	-11.1113
▁otel	-11.1115
▁crisi	-11.1121
▁rilevamento	-11.1127
▁amalfi	-11.1128
▁masseria	-11.1128
▁ambra	-11.1129
integrazione	-11.113
▁auguri	-11.1131
▁sento	-11.1131
▁visti	-11.1137
▁banner	-11.1137
▁pesanti	-11.1138
▁riccardo	-11.1144
▁nonché	-11.115
▁feed	-11.115
▁(*)	-11.1151
▁tassi	-11.1152
▁ampiamente	-11.1153
▁armadi	-11.1155
▁indicati	-11.1157
/2020	-11.1158
▁esplorare	-11.1158
▁rivoluzione	-11.1159
▁differente	-11.1159
▁aurora	-11.116
▁kraft	-11.1161
▁assolutamente	-11.1162
▁avrebbe	-11.1162
▁barcelona	-11.1166
zan	-11.1169
▁aggiunti	-11.1171
▁flori	-11.1174
avanguardia	-11.1175
▁terrazzo	-11.118
▁telefon	-11.1183
▁1/4	-11.1185
▁identità	-11.1187
▁player	-11.119
▁18.00	-11.119
▁connect	-11.1196
blog	-11.1202
▁quinte	-11.1204
▁guy	-11.1204
▁cesenatico	-11.1206
▁azzurra	-11.1206
▁comunale	-11.1206
▁sacra	-11.1208
▁creatura	-11.121
▁nudisti	-11.1211
▁graffi	-11.1213
▁cella	-11.1213
▁accoglienza	-11.1214
▁marie	-11.1217
▁farmacia	-11.122
▁+33	-11.1221
▁multifunzionale	-11.1222
▁schermi	-11.1222
appartamenti	-11.1225
▁dellutente	-11.1228
food	-11.1231
▁quinta	-11.1231
uzzi	-11.1237
▁scritta	-11.1238
africa	-11.1239
▁maestri	-11.1239
archivio	-11.1242
▁1991	-11.1242
▁router	-11.1242
▁shell	-11.1252
▁vigneti	-11.1254
▁bottega	-11.1254
▁dialogo	-11.1256
▁range	-11.126
▁educazione	-11.1261
▁urbano	-11.1262
▁850	-11.1262
.09.20	-11.1262
▁candi	-11.1262
▁escl	-11.1265
▁approfitta	-11.1269
▁percentuale	-11.1269
▁consulente	-11.1269
▁pussy	-11.1269
▁anziani	-11.127
▁armonia	-11.127
▁conosciuto	-11.1271
▁cree	-11.1272
▁finanziaria	-11.1272
▁gotico	-11.1274
▁raccordo	-11.1274
▁massimi	-11.1275
▁ospitare	-11.1278
coltura	-11.1279
cultura	-11.1281
▁compro	-11.1281
▁pantalone	-11.1285
▁capital	-11.1288
▁story	-11.1297
incontro	-11.1297
▁grazia	-11.1301
▁bisessuale	-11.1301
▁ritardo	-11.1301
▁nastri	-11.1303
▁vedo	-11.1305
lick	-11.1305
▁05:00	-11.1306
▁contrasto	-11.1308
3.0	-11.1315
▁tuscany	-11.1317
▁alessia	-11.1317
verso	-11.132
horn	-11.132
5,5	-11.1321
▁6000	-11.1322
▁straordinari	-11.1326
▁1.7	-11.1328
alza	-11.1329
▁cambiato	-11.133
1200	-11.1331
▁pistola	-11.1333
oliva	-11.1335
clip	-11.1337
▁fuga	-11.1337
▁ford	-11.1346
punti	-11.1347
▁chilogrammi	-11.1348
▁piuttosto	-11.1348
▁ultrasuoni	-11.1348
esclusi	-11.1349
conosci	-11.1354
▁fotografo	-11.1354
▁matrice	-11.1356
▁venire	-11.1358
▁moon	-11.1362
▁tracolla	-11.1365
▁goditi	-11.1365
▁voglia	-11.1366
▁assume	-11.1367
assemblea	-11.1368
zhou	-11.1373
▁river	-11.1375
annu	-11.1376
▁martini	-11.138
▁girevole	-11.138
▁muta	-11.1383
▁dop	-11.1385
▁control	-11.1387
mount	-11.1387
▁seminari	-11.1387
▁paint	-11.1389
best	-11.1389
▁tagliatrice	-11.1396
▁asciutto	-11.1396
▁jizzbunker	-11.1396
▁protocollo	-11.1396
▁uniformi	-11.1396
▁romantici	-11.1397
road	-11.1398
▁colombo	-11.1399
black	-11.1401
▁fix	-11.1407
▁interessante	-11.1408
▁giocato	-11.1411
▁emanuele	-11.1412
▁floreale	-11.1412
▁lodge	-11.1413
▁storiche	-11.1413
▁zoom	-11.1416
▁15:00	-11.1416
▁fior	-11.1422
▁posiziona	-11.1424
▁dolo	-11.1427
▁young	-11.1428
▁maurizio	-11.1428
▁microfono	-11.1428
▁[]	-11.1429
/2014	-11.1429
▁rimase	-11.1429
▁mou	-11.1432
▁925	-11.1432
▁inserti	-11.1436
▁cali	-11.1436
word	-11.1436
▁ospitalità	-11.1439
▁pressi	-11.144
attivo	-11.1442
▁gialla	-11.1442
▁piana	-11.1443
▁equitazione	-11.1444
▁adidas	-11.1445
▁cooperazione	-11.1454
▁font	-11.1457
▁busty	-11.1461
▁neon	-11.1463
▁terminali	-11.1463
dildo	-11.1468
donna	-11.147
analizzatore	-11.1471
▁accogliente	-11.1474
▁autorità	-11.1474
▁commenta	-11.148
029	-11.148
▁monica	-11.1481
▁90%	-11.1482
▁estiva	-11.1483
night	-11.1484
▁aziona	-11.1485
▁placcato	-11.1491
ampia	-11.1491
▁affrontare	-11.1492
▁mykonos	-11.1493
▁scopi	-11.1494
▁avvio	-11.1498
▁discover	-11.15
▁impiego	-11.1501
▁digita	-11.1502
▁paste	-11.1503
0.9	-11.1503
▁1970	-11.1504
▁morti	-11.1508
▁alimentato	-11.1509
utilizza	-11.1512
pelli	-11.1514
impero	-11.1514
.02.20	-11.1518
▁collegare	-11.1519
maker	-11.1523
▁fondato	-11.1524
▁split	-11.1525
▁wan	-11.1525
▁redtube	-11.1527
▁sentire	-11.1528
privacy	-11.1531
▁saldato	-11.1532
▁common	-11.1534
▁chiude	-11.1534
▁facoltativo	-11.1535
polo	-11.1537
▁input	-11.1539
▁bellaria	-11.154
▁nonostante	-11.1541
▁polipropilene	-11.1541
▁richiesti	-11.1541
▁iniziò	-11.1543
locali	-11.1544
insegna	-11.1548
▁cave	-11.155
job	-11.1554
▁artigianato	-11.1555
ssaggio	-11.1557
▁veramente	-11.1559
(7	-11.1559
▁spirale	-11.1561
approvazione	-11.1561
▁forniture	-11.1563
▁bacche	-11.1564
▁noci	-11.1564
incisione	-11.1565
▁bicchieri	-11.1574
▁recinto	-11.1574
▁1989	-11.1574
▁terreni	-11.1576
▁gianni	-11.1577
007	-11.1578
▁temperato	-11.1579
obiettivo	-11.158
▁preparare	-11.1581
▁cade	-11.1584
titola	-11.1584
▁gsm	-11.1585
economia	-11.1588
▁ucraino	-11.159
▁disabilitati	-11.159
▁vasche	-11.1591
▁implementa	-11.1591
▁dottor	-11.1592
▁mantova	-11.1592
▁pensiero	-11.1592
▁comanda	-11.1595
▁credi	-11.1597
tologia	-11.1601
▁2500	-11.1602
4.2	-11.1602
▁palme	-11.1604
▁collaterali	-11.1606
▁charles	-11.161
▁coast	-11.1617
▁incasso	-11.1626
▁poster	-11.1627
sterne	-11.1628
oceano	-11.1629
1,5	-11.1631
quali	-11.1637
▁andata	-11.1637
▁ceramiche	-11.1641
▁liscia	-11.1642
▁affitta	-11.1643
▁strip	-11.1646
ospedale	-11.1646
grande	-11.1647
content	-11.1647
vpn	-11.1648
▁40%	-11.1649
▁(27)	-11.1654
▁televisione	-11.1655
▁innovative	-11.1656
▁savoia	-11.1656
▁esercizi	-11.1659
▁offrendo	-11.166
millimetro	-11.1662
▁inviate	-11.1663
▁armani	-11.1669
legge	-11.1671
micro	-11.1674
▁fresche	-11.1675
/2013	-11.1679
architettura	-11.1679
▁telefonica	-11.168
▁dual	-11.1681
▁grani	-11.1685
▁energy	-11.1688
▁user	-11.1693
apparecchiatura	-11.1694
▁brava	-11.1703
▁sorprende	-11.1705
▁ciondolo	-11.1705
▁tesoro	-11.1705
xtreme	-11.1709
fatto	-11.1709
▁minerali	-11.1709
hub	-11.1715
power	-11.1716
accessori	-11.1717
aaa	-11.172
▁britannico	-11.1721
▁raccolto	-11.1721
▁richard	-11.1721
▁pianeta	-11.1722
▁costiera	-11.1722
dora	-11.1723
▁assiste	-11.1724
▁esteri	-11.1727
▁droga	-11.1727
riduzione	-11.1729
▁macchinario	-11.1731
▁meccanismo	-11.1738
▁microfibra	-11.1738
▁potrà	-11.1742
4.1	-11.1743
▁corretta	-11.1743
▁ricci	-11.1749
assia	-11.1751
▁building	-11.1754
abitudine	-11.1755
▁regista	-11.1755
atlan	-11.1768
0.3	-11.1769
▁battuto	-11.1771
▁visibile	-11.1771
▁muscoli	-11.1773
▁utc	-11.1774
▁living	-11.1784
ddy	-11.1785
▁autentica	-11.1786
▁alassio	-11.1788
▁mauro	-11.1788
▁playa	-11.1793
▁doro	-11.1795
▁nudi	-11.1798
▁rilevazione	-11.18
ciclo	-11.18
▁minh	-11.18
▁notifiche	-11.1804
place	-11.1805
▁gonfiabili	-11.1805
▁giulio	-11.1811
▁carrelli	-11.1812
▁gale	-11.1817
▁lisbona	-11.1818
mbri	-11.182
▁multifunzione	-11.1821
▁protagonista	-11.1821
▁ravenna	-11.1821
▁lavoratori	-11.1821
▁piece	-11.1821
▁basse	-11.1821
▁entrambe	-11.1822
▁raccogliere	-11.1824
▁avviare	-11.1827
▁aggiornati	-11.1829
▁nude	-11.1831
▁intima	-11.1835
▁cafe	-11.1837
▁veli	-11.1839
▁floren	-11.184
▁condiziona	-11.1846
▁archiviazione	-11.1847
▁salvataggio	-11.1854
016	-11.1854
▁insalata	-11.1855
▁lordo	-11.1856
contatti	-11.1864
▁ospedali	-11.1871
▁riservatezza	-11.1871
▁esitate	-11.1871
▁sanremo	-11.1873
▁pelliccia	-11.1874
music	-11.1876
▁balla	-11.1879
google	-11.188
▁quick	-11.1884
▁biondo	-11.1886
▁depilazione	-11.1888
▁calzini	-11.1888
▁positivo	-11.1888
▁prosecco	-11.1888
france	-11.1888
▁showroom	-11.1889
▁creativo	-11.1889
▁calibra	-11.189
▁tang	-11.1894
▁syn	-11.1898
▁cantante	-11.1903
▁cavalieri	-11.1905
▁fianco	-11.1905
▁applicato	-11.1906
▁product	-11.191
meter	-11.1912
chirurg	-11.1914
▁frutto	-11.1917
▁banchi	-11.192
infezione	-11.1921
▁indimenticabile	-11.1921
▁latitudine	-11.1921
▁marocco	-11.1922
▁controllata	-11.1923
▁espressi	-11.1929
occasione	-11.1929
▁venditore	-11.1932
▁articola	-11.1934
▁macro	-11.1936
▁esclusive	-11.1938
▁notevole	-11.1938
▁sostenere	-11.1938
▁cairo	-11.194
▁normalmente	-11.1941
▁token	-11.1946
▁macchia	-11.1949
class	-11.1949
▁wu	-11.1953
▁collegati	-11.1955
▁trasparenza	-11.1955
▁word	-11.1955
coppia	-11.1958
▁prevenire	-11.1959
▁mill	-11.196
▁specializzata	-11.196
▁flora	-11.1961
▁cassetti	-11.1963
▁butt	-11.1965
scatola	-11.1968
▁ammortizza	-11.1972
▁lombard	-11.1973
▁dirige	-11.198
script	-11.198
▁refer	-11.1982
▁conforme	-11.1983
▁assicurati	-11.1983
aosta	-11.1987
▁carnevale	-11.1989
▁equipaggi	-11.1989
▁drtuber	-11.199
▁12.00	-11.1993
▁palle	-11.1993
▁minerale	-11.1993
▁organico	-11.1995
▁eroi	-11.2001
▁muscolose	-11.2003
▁(26)	-11.2006
▁domestica	-11.2006
▁toilette	-11.2006
▁template	-11.2006
▁smalto	-11.2008
ormone	-11.2008
▁nautica	-11.2009
▁gear	-11.2012
▁sergio	-11.2013
entrata	-11.2013
▁targa	-11.2014
hardcore	-11.2016
zip	-11.2018
space	-11.202
▁manzo	-11.2021
▁claudia	-11.2023
▁francoforte	-11.2023
▁sunporno	-11.2023
▁preciso	-11.2024
▁teresa	-11.2025
▁comportamento	-11.2031
▁cris	-11.2039
post	-11.2039
▁sorpresa	-11.204
▁bobine	-11.204
down	-11.2042
▁capsula	-11.2043
▁montato	-11.2043
▁solar	-11.205
▁pratico	-11.2051
clinic	-11.2052
▁serena	-11.2053
▁collaboratori	-11.2056
▁alternative	-11.2057
▁gigante	-11.2057
▁continui	-11.2057
bach	-11.2058
▁ssl	-11.2058
▁drago	-11.2058
▁motiva	-11.2059
▁adult	-11.2062
▁migliaia	-11.2063
▁globali	-11.2063
circa	-11.2071
▁credo	-11.2071
▁allactionhost	-11.2074
▁rettangolare	-11.2074
▁destinatari	-11.2074
▁principianti	-11.2077
2.3	-11.2078
▁cancro	-11.2078
occupazione	-11.2087
alda	-11.209
▁caricabatterie	-11.2091
▁silicio	-11.2092
title	-11.2096
▁freschi	-11.2097
▁commuta	-11.2103
▁vediamo	-11.2103
▁quarti	-11.2106
▁turno	-11.2108
▁bambù	-11.2109
▁calcestruzzo	-11.2109
▁longitudine	-11.2109
▁santuario	-11.2109
▁skype	-11.211
giochi	-11.211
porti	-11.2113
0.7	-11.2113
▁compatibili	-11.2115
▁associazioni	-11.2115
3.1	-11.2115
017	-11.2118
▁mesh	-11.2119
polvere	-11.212
yard	-11.2121
ign	-11.2122
▁personaggio	-11.2122
lotto	-11.2126
▁first	-11.2127
cover	-11.2127
▁logica	-11.2129
▁linguaggio	-11.2129
▁giornaliera	-11.213
▁(28)	-11.214
fisting	-11.2143
▁security	-11.2143
▁deciso	-11.2143
▁4.5+	-11.2146
vegetarian	-11.2154
▁toy	-11.2158
▁varsavia	-11.216
▁preghiera	-11.216
▁valutato	-11.2165
▁inclina	-11.2166
▁barber	-11.2167
▁sfere	-11.2172
▁rimorchio	-11.2174
▁scalda	-11.2177
▁monumenti	-11.2177
▁riunione	-11.2178
▁inclusive	-11.218
▁manga	-11.2181
cciolo	-11.2182
▁venite	-11.2182
▁debito	-11.2182
6,5	-11.2186
▁organizzati	-11.2188
▁professionalità	-11.2189
▁ciascuno	-11.219
vdc	-11.2191
▁vigna	-11.2192
▁diego	-11.2192
▁esattamente	-11.2195
▁farfalla	-11.2195
▁spaghetti	-11.2195
▁leggermente	-11.2195
▁apprendimento	-11.2195
▁tornei	-11.2195
support	-11.2195
▁guesthouse	-11.2196
▁riposo	-11.2196
▁pensieri	-11.2197
▁kris	-11.2199
009	-11.22
▁fontane	-11.22
▁semplicità	-11.2202
andra	-11.2204
sheet	-11.2207
amplificatore	-11.2207
▁divani	-11.2208
▁fidanzata	-11.2209
▁contrassegna	-11.2212
▁alexander	-11.2212
▁pavimentazione	-11.2217
▁arezzo	-11.2219
▁collocato	-11.2221
▁specializzato	-11.2222
▁imperiale	-11.2224
velli	-11.2226
▁crystal	-11.2229
▁indonesiano	-11.223
▁diffuso	-11.2234
▁1800	-11.2234
▁focus	-11.2235
▁creative	-11.2243
▁magico	-11.2244
▁0.01	-11.2244
▁pagato	-11.2245
▁1980	-11.2247
▁competizione	-11.2247
▁abbandona	-11.2247
▁monolocale	-11.2247
▁inverter	-11.2247
▁duplex	-11.2248
▁tolleranza	-11.2248
▁cablaggio	-11.2248
▁materasso	-11.2249
▁cbd	-11.225
▁squi	-11.2251
▁grassa	-11.2255
▁paura	-11.2258
▁veste	-11.2258
▁affascina	-11.2264
▁monastero	-11.2264
▁riconosce	-11.2264
▁societari	-11.2265
▁desiderio	-11.2265
▁impression	-11.2272
▁pool	-11.2273
▁imperial	-11.2275
▁israele	-11.2281
▁champagne	-11.2282
▁sandali	-11.2283
▁cancello	-11.2284
▁3.5+	-11.2286
▁telefonico	-11.2289
classic	-11.2293
▁indicatori	-11.2297
▁block	-11.2299
friendly	-11.2299
▁jin	-11.2299
▁gomito	-11.23
▁soffia	-11.23
▁conteggio	-11.2301
elemento	-11.2301
50.000	-11.2302
▁dettagliate	-11.2303
▁tower	-11.2306
▁acquisizione	-11.2308
▁immediata	-11.2312
▁dedicati	-11.2314
▁ragioni	-11.2317
▁trattato	-11.232
abruzzo	-11.232
▁image	-11.2327
grado	-11.2332
▁canadese	-11.2334
▁reparto	-11.2334
▁relè	-11.2335
▁nuoto	-11.2335
▁prigione	-11.2336
▁noleggiare	-11.2338
▁genoa	-11.2353
▁applicata	-11.2353
▁japan	-11.2358
audio	-11.2363
scrivi	-11.2369
▁fumare	-11.2369
▁interessi	-11.237
▁attraversa	-11.2371
060	-11.2376
▁berg	-11.2378
4.5	-11.238
▁0,3	-11.2382
▁gloria	-11.2386
▁sporco	-11.2387
▁tocchi	-11.2388
▁perdite	-11.2392
▁dipinti	-11.2394
▁maniglie	-11.2394
▁shin	-11.2396
▁dorato	-11.2399
▁fondatore	-11.2402
▁celebri	-11.2402
carton	-11.2402
▁intimo	-11.2403
▁tranquilla	-11.2405
▁maiorca	-11.2405
▁amministratore	-11.2405
ristrutturazione	-11.2406
▁bernard	-11.2406
yama	-11.2412
▁round	-11.2422
▁corporation	-11.2422
▁riprese	-11.2423
▁unisex	-11.2425
▁pub	-11.2426
2,5	-11.2431
▁vincent	-11.2433
▁critica	-11.2434
▁element	-11.2435
eccellenza	-11.2437
umidità	-11.2437
grafici	-11.2438
▁velluto	-11.244
▁fisico	-11.2441
▁preserva	-11.2441
jiang	-11.2444
▁engine	-11.2444
▁vicinanza	-11.2445
▁fortezza	-11.2451
▁schermata	-11.2452
▁azionamento	-11.2454
▁splendido	-11.2458
▁olbia	-11.2458
▁mdf	-11.246
interpret	-11.2462
▁regolabili	-11.2462
aspetto	-11.2464
▁cyber	-11.2468
libri	-11.2469
▁proiezione	-11.2476
▁spruzza	-11.2476
▁spiace	-11.2476
▁rotante	-11.2486
▁philip	-11.249
▁asciugacapelli	-11.2494
▁poliuretano	-11.2494
▁teenager	-11.2494
▁compresi	-11.2494
▁separatore	-11.2497
▁biografia	-11.2503
▁idraulici	-11.2511
▁provenienti	-11.2511
▁decorativo	-11.2511
islam	-11.2514
▁generalmente	-11.2514
▁profuma	-11.2514
▁manifestazioni	-11.2514
▁efficaci	-11.2514
▁soggiorna	-11.2517
▁indossare	-11.2519
▁1988	-11.2521
accademia	-11.2527
▁great	-11.2528
▁prosciutto	-11.2529
▁cashmere	-11.2529
▁filtrazione	-11.2531
tecnica	-11.2533
▁trader	-11.2533
culo	-11.2533
▁race	-11.2534
▁09:00	-11.2546
▁esigenza	-11.2547
▁esposizioni	-11.2547
▁obblighi	-11.2547
▁scrivania	-11.2547
▁innovativo	-11.2547
▁layout	-11.2548
▁dinamico	-11.2549
▁swing	-11.255
▁fascio	-11.255
▁giornaliere	-11.2552
▁generico	-11.2553
▁winter	-11.2555
▁giusti	-11.2559
▁titan	-11.2559
▁navigare	-11.2563
▁gabbana	-11.2565
▁nacque	-11.2565
essenza	-11.2566
▁giudizio	-11.2567
▁scott	-11.2567
▁pulita	-11.257
▁scanner	-11.2572
▁eccellenti	-11.2583
▁like	-11.2583
chiaro	-11.2586
▁ideali	-11.2586
▁sesto	-11.2593
▁cortile	-11.2596
▁attrezzata	-11.2601
▁ventilazione	-11.2602
▁sveglia	-11.2608
▁autostrada	-11.2609
plex	-11.2609
▁slip	-11.2611
▁gonna	-11.2615
▁ritratto	-11.2619
▁agency	-11.2619
▁taggati	-11.2619
▁teoria	-11.262
▁palazzi	-11.2627
ovest	-11.2629
istituto	-11.2637
▁ungheria	-11.2638
▁container	-11.2638
▁manuel	-11.2639
▁certi	-11.2648
▁raggiungi	-11.2654
▁accetti	-11.2654
▁posse	-11.2655
▁edimburgo	-11.2655
▁padrona	-11.2656
▁famosi	-11.2656
▁regis	-11.2657
custodi	-11.2661
▁sedili	-11.2663
flower	-11.2667
meet	-11.2669
indagine	-11.267
nding	-11.2672
▁angela	-11.2675
▁origini	-11.2676
▁delicato	-11.2676
▁1.9	-11.2677
▁goccia	-11.2682
***	-11.2691
▁movimenti	-11.2692
▁desidero	-11.2692
▁amatore	-11.2694
▁chiudere	-11.2695
▁vegas	-11.2697
isolamento	-11.2704
▁occasioni	-11.271
▁ricoperto	-11.271
▁20.00	-11.271
▁conduttore	-11.2711
▁funzionali	-11.2712
▁falso	-11.2713
intensità	-11.2713
▁lipo	-11.2715
▁nuda	-11.272
▁considerato	-11.2721
▁localizzazione	-11.2726
▁polari	-11.2727
▁storage	-11.2728
▁little	-11.2728
▁episodio	-11.2732
▁contesto	-11.2736
▁commissioni	-11.2744
chang	-11.2744
registra	-11.2745
disciplina	-11.2747
▁aperitivo	-11.2747
▁verticali	-11.2747
▁tettona	-11.2747
▁scherma	-11.2755
▁arianna	-11.2756
▁vibratore	-11.2757
9,99	-11.2763
▁albert	-11.2763
9,90	-11.2764
▁know	-11.2766
chan	-11.2768
3.3	-11.277
▁protettivo	-11.2774
▁miscelatore	-11.2776
alloggio	-11.2781
temporaneamente	-11.2783
▁rottura	-11.2783
esportazione	-11.2784
▁update	-11.2784
▁arredi	-11.2784
▁dramma	-11.2784
▁pittore	-11.2784
zionato	-11.2786
▁poiché	-11.2786
venuto	-11.2795
esistenza	-11.2796
▁bagnato	-11.2797
▁charm	-11.2801
▁contemporaneo	-11.2802
apos	-11.2803
pixel	-11.2803
▁guido	-11.2808
▁allegro	-11.2811
admin	-11.2812
spera	-11.2812
▁soggiornare	-11.2815
▁avviene	-11.282
▁indoor	-11.2822
▁tropical	-11.2824
▁atlantico	-11.2825
▁rj	-11.2825
flor	-11.2828
▁vitello	-11.2832
hosting	-11.2833
hard	-11.2834
▁boss	-11.2834
▁intrattenimento	-11.2838
▁intervallo	-11.2838
▁riviste	-11.2839
▁cinesi	-11.2839
▁giustizia	-11.284
▁parametro	-11.2845
▁potenziale	-11.2846
▁tendenza	-11.2846
▁produzioni	-11.2849
ologico	-11.285
▁engineering	-11.2857
▁gioielleria	-11.2857
▁indipendenti	-11.2857
▁portfolio	-11.2857
▁bretagna	-11.2857
▁santorini	-11.2859
▁compara	-11.2861
▁merito	-11.2873
▁nascosto	-11.2875
▁amburgo	-11.2875
▁stranieri	-11.2875
▁julia	-11.2876
▁cittadini	-11.2877
idra	-11.2881
▁vogliamo	-11.2885
▁pullman	-11.2894
▁ragusa	-11.2894
▁smith	-11.2895
▁15.00	-11.2898
▁leggeri	-11.2899
▁sogna	-11.2907
▁siracusa	-11.2913
▁biennale	-11.2913
▁guadagno	-11.2913
▁emoziona	-11.2914
▁codifica	-11.2918
▁nicole	-11.2919
▁heat	-11.2921
▁carichi	-11.2925
▁industrial	-11.293
▁intreccia	-11.2931
▁mosche	-11.2937
▁edilizia	-11.2939
▁psicologi	-11.294
▁ministro	-11.2949
▁coordinamento	-11.295
▁medievale	-11.295
▁pulsanti	-11.295
appoggio	-11.2951
osità	-11.2956
eventi	-11.2961
▁99%	-11.2964
▁romanzo	-11.2967
manual	-11.2968
▁ambasciatori	-11.2969
▁snack	-11.2969
▁cassetto	-11.2978
1.6	-11.2982
▁professore	-11.2984
▁trasformatore	-11.2989
adesivo	-11.2992
▁atomi	-11.2996
▁pension	-11.3003
9.5	-11.3004
▁conservato	-11.3005
▁enterprise	-11.3006
▁rubinetto	-11.3006
▁assorbimento	-11.301
▁public	-11.3015
▁fresa	-11.3015
▁correzione	-11.3016
▁mutandine	-11.3025
▁fp	-11.3025
▁signori	-11.3026
▁who	-11.3026
▁rude	-11.3028
logico	-11.3031
▁magica	-11.3032
trazione	-11.3038
▁solidi	-11.3043
▁vendemmia	-11.3044
▁tecnologico	-11.3044
▁santiago	-11.3044
▁immersioni	-11.3045
▁coperti	-11.3051
▁950	-11.3056
▁sufficiente	-11.3063
▁curiosità	-11.3063
▁16:00	-11.3063
▁necessarie	-11.3065
▁dovuto	-11.3065
▁beau	-11.3066
▁liquida	-11.3069
▁pompei	-11.3071
grammi	-11.3071
drive	-11.3077
▁valley	-11.3081
▁fatturazione	-11.3081
band	-11.3084
▁avrà	-11.3084
▁ovale	-11.3086
▁21:00	-11.3091
▁immagina	-11.3094
▁antincendio	-11.3101
▁cialis	-11.3102
2.7	-11.3102
6.0	-11.3102
abbigliamento	-11.3103
agosto	-11.3108
▁nordic	-11.3113
▁ingegneri	-11.3118
▁gmt	-11.3124
▁virtual	-11.3126
▁simula	-11.3127
▁0.8	-11.313
▁esistenti	-11.3131
▁catene	-11.3134
▁campionati	-11.3138
▁1987	-11.3141
▁taglierina	-11.3141
▁cifre	-11.3142
▁final	-11.3144
▁straordinaria	-11.3146
▁aggiuntive	-11.3146
▁0.4	-11.3153
▁sydney	-11.3157
▁vetroresina	-11.3157
▁avvisi	-11.3158
▁retail	-11.3158
▁liberamente	-11.3162
▁hei	-11.3166
europe	-11.3169
▁accor	-11.317
▁juan	-11.3171
front	-11.3171
▁sunny	-11.3176
▁guarnizioni	-11.3176
▁oxford	-11.3177
▁infiniti	-11.3178
▁escluso	-11.3179
▁circuiti	-11.3184
▁associato	-11.3184
mura	-11.3191
metrico	-11.3192
▁skipass	-11.3197
▁tentacoli	-11.3197
▁chiusi	-11.3197
▁castiglion	-11.3197
▁attivita	-11.3201
▁ingranaggi	-11.3202
▁1985	-11.3208
▁19.00	-11.3214
▁pattaya	-11.3215
▁magnete	-11.3215
▁canapa	-11.3218
▁villaggi	-11.3227
▁trasmettitore	-11.3234
▁emissioni	-11.3234
▁opinione	-11.3234
▁spugna	-11.3234
▁deutsch	-11.3234
carico	-11.3235
▁sanitario	-11.3236
identità	-11.3237
▁specialista	-11.3243
▁artistica	-11.3244
▁svilupp	-11.3246
▁bravotube	-11.3253
addestramento	-11.3253
▁laptop	-11.3254
▁agricole	-11.3254
▁salerno	-11.3254
▁discesa	-11.3256
▁1986	-11.326
▁alimenta	-11.3263
▁gestito	-11.3263
▁toner	-11.3271
▁parziale	-11.3272
▁scientifico	-11.3273
▁health	-11.3273
▁emirati	-11.3273
▁meditazione	-11.3274
▁calci	-11.3291
▁outlook	-11.3292
▁preferite	-11.3292
avana	-11.3293
▁sostituire	-11.3294
▁turisti	-11.3298
▁colorata	-11.3302
▁gift	-11.3308
▁marini	-11.3311
▁vocale	-11.3311
▁prossimità	-11.3316
▁events	-11.3316
hara	-11.3317
▁0.6	-11.3317
▁freni	-11.3318
309	-11.3318
▁ricevitore	-11.333
▁pneumatica	-11.333
▁ubriaco	-11.333
▁differenze	-11.333
▁emma	-11.3331
▁orlando	-11.3331
▁radice	-11.3331
▁rendono	-11.3332
▁possesso	-11.3332
▁luciano	-11.3333
▁dhl	-11.3338
▁heart	-11.3341
▁giuliano	-11.3343
1500	-11.3343
▁giunto	-11.3345
▁religione	-11.335
▁sorriso	-11.3351
▁equivale	-11.3355
▁steve	-11.3356
estratto	-11.3361
▁predefinito	-11.3369
▁segreteria	-11.3369
▁svolta	-11.337
▁turn	-11.3377
impatto	-11.3377
▁nail	-11.3387
▁ulteriore	-11.3389
▁orgoglio	-11.3389
▁coordinate	-11.3389
▁automatiche	-11.3389
▁archeologico	-11.3389
▁finanza	-11.3389
▁uccide	-11.339
▁asian	-11.3395
▁multipla	-11.3397
▁kon	-11.3398
8,5	-11.3399
▁ferie	-11.3399
▁sott	-11.3401
▁comodi	-11.3407
▁mattonelle	-11.3408
uffici	-11.341
▁colombia	-11.3428
▁texas	-11.3428
▁fisse	-11.343
▁questione	-11.3433
▁frizione	-11.3434
autunno	-11.3434
▁leviga	-11.3438
▁studentessa	-11.3438
▁cortina	-11.3451
▁disney	-11.3453
▁obbligatoria	-11.3454
tubo	-11.3456
tenuta	-11.3458
▁woman	-11.346
efficacia	-11.3464
infanzia	-11.3467
▁rifiuta	-11.3467
▁mondiali	-11.3467
▁calibro	-11.3468
▁estesa	-11.347
▁spirit	-11.3471
▁nido	-11.3479
petti	-11.348
▁gbp	-11.3484
▁colorati	-11.3485
▁supermercato	-11.3487
▁gadget	-11.3487
▁challenge	-11.3487
▁conformi	-11.3488
▁palmanova	-11.3488
impronta	-11.3491
▁gradua	-11.3493
▁lauren	-11.3497
ambito	-11.3497
▁donazione	-11.3498
▁foot	-11.35
▁accessi	-11.3501
▁metalliche	-11.3501
smart	-11.3502
▁ricrea	-11.3503
▁residenze	-11.3507
▁quote	-11.3507
▁fermo	-11.3514
▁gilet	-11.3515
▁contatore	-11.3522
▁strass	-11.3525
▁collaudo	-11.3526
▁bracciali	-11.3526
foglio	-11.3526
▁preparato	-11.3527
▁customer	-11.3528
▁contabilità	-11.3532
▁raccomandato	-11.3534
▁corporate	-11.3535
▁+86	-11.3539
▁castle	-11.354
dress	-11.354
▁compilazioni	-11.3543
▁riduttore	-11.3544
scopio	-11.3545
▁britannica	-11.3546
▁lampadine	-11.3546
▁referenze	-11.3547
▁detector	-11.3547
▁elisa	-11.3547
▁verdura	-11.3548
unesco	-11.355
▁accordi	-11.3553
▁superficiale	-11.3553
▁cash	-11.3554
▁rimani	-11.3558
▁alien	-11.3558
▁assisi	-11.3561
▁soia	-11.3561
▁svuota	-11.3566
▁gioiello	-11.3566
▁assorbe	-11.3566
▁licenze	-11.3566
▁deep	-11.3571
▁dettagliata	-11.3571
▁opel	-11.3572
▁cortesia	-11.3573
▁simulazione	-11.3577
▁letteratura	-11.3578
hour	-11.3579
attrice	-11.3584
▁ovvero	-11.3586
▁rispettiv	-11.3587
▁ottime	-11.3587
▁alpina	-11.3589
▁gestisci	-11.359
▁picture	-11.359
▁confezionamento	-11.3594
elaborazione	-11.3594
▁zucca	-11.3594
8.1	-11.3595
attenzione	-11.3595
▁elezioni	-11.3599
▁solamente	-11.36
▁successivi	-11.36
interesse	-11.36
▁vitamine	-11.3602
▁affiliazione	-11.3606
▁diagnostica	-11.3607
▁definire	-11.3607
▁ammira	-11.3607
▁elettroniche	-11.3608
▁premier	-11.3615
▁snap	-11.3616
▁bbc	-11.3618
▁assistente	-11.3618
▁sanitaria	-11.3624
▁mediterranee	-11.3626
▁giornale	-11.3626
▁bucarest	-11.3626
▁hilton	-11.3626
▁divisori	-11.3627
▁cpu	-11.3628
▁umane	-11.3629
▁integratori	-11.3632
▁boat	-11.3644
bianca	-11.3645
&#39;	-11.3646
▁fondamentale	-11.3646
▁istantanea	-11.3646
▁disturbi	-11.3646
▁racconti	-11.3646
▁conducente	-11.3646
▁professione	-11.3646
▁merano	-11.3647
squirt	-11.3647
▁invito	-11.365
▁granito	-11.3661
▁festivi	-11.3663
070	-11.3664
intelligenza	-11.3666
▁corfù	-11.3666
▁rispondi	-11.3666
▁speranza	-11.3666
▁cottage	-11.3666
▁verniciato	-11.3672
▁limitazione	-11.3685
▁testimonianze	-11.3686
▁adventure	-11.3686
▁bondage	-11.3686
▁phil	-11.3686
▁omni	-11.369
▁sostanza	-11.369
▁radici	-11.3694
4.8	-11.3699
▁lituano	-11.3706
▁anonimo	-11.3706
▁acetato	-11.3706
▁refrigerato	-11.3707
▁friuli	-11.3709
milf	-11.3709
publi	-11.371
▁complica	-11.3712
▁fuji	-11.3715
▁separazione	-11.3719
▁carmen	-11.3721
▁brevetto	-11.3725
▁giuridica	-11.3726
▁bambina	-11.3726
▁senior	-11.3727
▁bulgaria	-11.3729
▁rubino	-11.373
worth	-11.3731
▁carina	-11.3739
▁shr	-11.3744
▁jacuzzi	-11.3746
▁mancanza	-11.3756
scape	-11.3756
▁icone	-11.3761
▁spostamento	-11.3763
▁import	-11.3763
▁compensato	-11.3767
▁nettuno	-11.3767
▁muscolare	-11.3768
▁podere	-11.3772
valvola	-11.3778
▁recita	-11.3783
▁arrampicata	-11.3787
▁bordeaux	-11.3787
▁meraviglioso	-11.3787
▁cicciolina	-11.3787
▁rivolge	-11.3787
▁uscire	-11.3788
▁famosa	-11.3788
▁attraente	-11.3789
yang	-11.3793
▁poteva	-11.3793
config	-11.3796
giovanissime	-11.3797
▁nicol	-11.3802
prime	-11.3806
▁category	-11.3807
▁facoltà	-11.3807
▁nucleo	-11.3807
▁avenue	-11.3807
▁smalti	-11.3807
▁barocco	-11.3807
▁pressofusione	-11.381
▁nau	-11.3812
▁specializzati	-11.3812
▁metallici	-11.3813
▁ridur	-11.3815
▁boston	-11.3817
▁investitori	-11.3818
▁aceto	-11.3818
▁cronologia	-11.3828
inquinamento	-11.3828
▁tessera	-11.3828
▁avrai	-11.3835
▁1984	-11.3836
▁cavour	-11.3839
▁rappresentante	-11.3839
▁industry	-11.3848
▁solitamente	-11.3848
▁fiscali	-11.3849
▁large	-11.3851
cross	-11.3852
▁vaniglia	-11.3854
▁estende	-11.3859
perdita	-11.386
▁nutrizione	-11.3861
▁arricch	-11.3861
▁placca	-11.3864
▁reazione	-11.3867
▁finanziario	-11.3868
2.8	-11.3868
▁fondamentali	-11.3868
▁sicily	-11.3869
infrastruttura	-11.3869
▁bilocale	-11.3871
▁biologici	-11.3873
▁appartement	-11.3873
▁ipod	-11.3874
▁panoramico	-11.3878
▁13:00	-11.388
▁iscr	-11.3885
▁brasiliano	-11.3889
▁firmware	-11.3889
▁sinistro	-11.3889
▁rental	-11.3891
▁riferimenti	-11.3893
▁simona	-11.3896
▁johnson	-11.3896
▁lattice	-11.3897
▁small	-11.39
attuale	-11.39
▁acquario	-11.3907
▁ondulato	-11.3909
▁xiaomi	-11.3909
▁spandex	-11.391
▁vicine	-11.3913
▁cromato	-11.3914
▁polso	-11.3928
office	-11.3929
▁welcome	-11.393
▁trifase	-11.393
▁adorabile	-11.393
▁giovedi	-11.3932
▁segnalazione	-11.3938
▁denim	-11.3939
agricoltura	-11.3942
tronic	-11.3947
implementazione	-11.3949
feld	-11.395
▁infrarossi	-11.3951
▁suggerimento	-11.3951
▁dizionario	-11.3951
▁affidabili	-11.3951
▁+41	-11.3952
▁1,0	-11.3958
▁impostazione	-11.3958
▁monitorare	-11.3961
insegnamento	-11.3964
▁terri	-11.3967
▁ricordo	-11.3971
▁shoes	-11.3982
▁bandi	-11.3984
aprile	-11.399
▁veniva	-11.3991
▁virtuali	-11.3992
▁snow	-11.3994
▁totalmente	-11.3996
▁allindirizzo	-11.4003
▁ibis	-11.4007
3.6	-11.4007
____	-11.4013
▁labbra	-11.4015
▁inizi	-11.4027
▁1982	-11.4028
▁ognuno	-11.4034
▁casalinghe	-11.4034
▁schemi	-11.4035
iniziativa	-11.4036
0.8	-11.4037
▁bolli	-11.4039
▁will	-11.4042
0,5	-11.4043
▁saloni	-11.4044
▁rimedi	-11.4051
▁centimetri	-11.4054
▁splendide	-11.4055
▁cosmetico	-11.4055
▁stretch	-11.4056
▁segretario	-11.4057
▁culture	-11.4058
▁pinze	-11.406
venuta	-11.4064
▁contributi	-11.4065
▁hyper	-11.4067
▁monouso	-11.407
▁alessandra	-11.4075
▁relativo	-11.4075
▁football	-11.4076
▁07:00	-11.4076
▁messina	-11.4076
▁terminal	-11.4081
▁classiche	-11.4089
▁rientra	-11.4091
pieces	-11.4095
sseldorf	-11.4096
▁profilazione	-11.4096
▁naxos	-11.4096
▁conferimento	-11.4096
▁georgia	-11.4096
▁comment	-11.41
importazione	-11.4102
▁push	-11.4102
▁presentazioni	-11.4104
▁consumatori	-11.4106
▁decade	-11.4108
+39	-11.4117
▁imprenditori	-11.4117
▁yobt	-11.4117
▁avvicina	-11.4118
▁panorami	-11.4118
▁nautico	-11.412
▁camino	-11.4123
▁plc	-11.4129
▁rilassante	-11.4133
bank	-11.4137
▁ciotola	-11.4138
▁80%	-11.4145
▁oleo	-11.4145
▁paglia	-11.4148
parallel	-11.4155
▁sessuali	-11.4159
invia	-11.4161
learning	-11.4165
▁banana	-11.4165
▁narra	-11.4166
▁pennello	-11.4168
cycle	-11.4169
▁reimposta	-11.417
esercizio	-11.4173
informazione	-11.4173
▁extravergine	-11.418
▁ausiliari	-11.418
▁mandrino	-11.418
▁scientifica	-11.418
▁godetevi	-11.4181
▁origin	-11.4194
▁campeggi	-11.4195
ppy	-11.4198
▁validità	-11.4201
▁prodotta	-11.4202
▁variazioni	-11.4204
▁localizza	-11.4205
▁venise	-11.4205
▁spezie	-11.4206
1.8	-11.4208
▁charter	-11.4209
▁maglietta	-11.4216
autorità	-11.4216
fuck	-11.4218
esame	-11.4218
▁personalità	-11.4219
▁balance	-11.4227
▁gusti	-11.4229
▁ticino	-11.4241
▁sardinia	-11.4244
▁amalfitana	-11.4244
▁ingressi	-11.4244
▁protezioni	-11.425
▁mamme	-11.4263
▁rinforzo	-11.4265
▁bisogna	-11.4265
▁carburo	-11.4265
▁risolto	-11.4266
▁trapano	-11.4266
▁consumi	-11.4268
▁definiti	-11.4268
▁florenz	-11.4272
centro	-11.4272
▁tacco	-11.4274
▁dovrebbero	-11.4278
yuan	-11.4278
▁parlamento	-11.4278
▁refrigerazione	-11.4286
▁attorno	-11.4287
▁sposò	-11.4287
▁gocce	-11.4287
▁ceramico	-11.4288
▁cfd	-11.4289
▁crudo	-11.4293
▁quartet	-11.4294
▁sentieri	-11.4294
▁gabriele	-11.4294
equilibrio	-11.4302
▁proiettore	-11.4308
▁cavalca	-11.4309
▁sudafrica	-11.431
5.1	-11.4313
▁cardio	-11.4314
venire	-11.4327
ottobre	-11.4328
▁tiffany	-11.4329
▁intelligenti	-11.4329
▁pakistan	-11.4329
▁antipasti	-11.4329
▁ruba	-11.433
▁roulette	-11.433
▁accurata	-11.4331
▁cascina	-11.4334
▁adattatori	-11.4339
▁aires	-11.4342
▁modulari	-11.4342
ragazza	-11.4345
▁scatta	-11.4345
▁seguendo	-11.4347
▁meridionale	-11.4351
▁accumula	-11.4351
▁transazioni	-11.4354
▁prevista	-11.4359
▁creativa	-11.4368
▁cartelle	-11.4369
▁francobolli	-11.4372
▁priorità	-11.4372
▁sensazione	-11.4372
▁rigida	-11.4373
12345	-11.4373
▁pendente	-11.4376
▁normative	-11.4378
▁urbani	-11.4383
▁castella	-11.4388
▁confortevoli	-11.4394
▁sitemap	-11.4394
▁robusto	-11.4394
▁connessioni	-11.4395
▁rotoli	-11.4396
▁ottimi	-11.4408
avventura	-11.4414
▁satellite	-11.4415
▁panerai	-11.4418
▁piloti	-11.4418
ambient	-11.4419
▁estremo	-11.4421
pool	-11.4421
▁quante	-11.4423
▁coppe	-11.4425
cookie	-11.4432
tessuto	-11.4433
▁fusibile	-11.4437
▁cornici	-11.4446
▁break	-11.445
▁cubi	-11.4454
▁coltivazione	-11.4457
▁troverai	-11.4459
▁fantastica	-11.4459
▁benedetto	-11.4459
▁migrazione	-11.4459
▁ottiche	-11.446
▁recesso	-11.446
▁poesia	-11.4462
9.99	-11.4465
invest	-11.4469
▁triple	-11.447
▁happy	-11.447
▁patio	-11.4474
▁sopravvive	-11.448
▁redditi	-11.4481
▁ridotta	-11.4481
▁sbaglia	-11.4481
▁generatori	-11.4484
▁fresatura	-11.4484
▁pertanto	-11.4486
▁autorizzo	-11.4487
▁walter	-11.449
▁petit	-11.4491
▁clear	-11.4494
english	-11.4498
▁lubrificazione	-11.4498
0.4	-11.45
▁pump	-11.4502
▁possiede	-11.4502
▁richiedono	-11.4502
▁compagnie	-11.4502
▁camicie	-11.4502
▁cuscini	-11.4502
ingegnere	-11.4502
corsica	-11.4504
▁terrazze	-11.4504
▁truffa	-11.4505
▁delicata	-11.4505
▁article	-11.4506
▁scambisti	-11.4506
▁finanziamento	-11.4511
▁tatuaggi	-11.4518
▁sandwich	-11.4524
▁tungsteno	-11.4524
▁cameriera	-11.4524
▁innovativi	-11.4524
▁sintetico	-11.4524
.000.000	-11.4525
▁regionali	-11.4526
▁coordinato	-11.4526
▁tiene	-11.4528
▁matrimoniali	-11.4529
▁filippine	-11.4545
▁istituzioni	-11.4546
▁insiemi	-11.4546
▁ningbo	-11.4546
▁gastronomia	-11.4547
▁tieni	-11.455
round	-11.4562
▁muore	-11.4562
▁potenziali	-11.4566
▁avvocati	-11.4568
3.9	-11.4569
▁franca	-11.4569
▁induzione	-11.457
▁pistone	-11.4583
patia	-11.4587
▁infrastrutture	-11.459
▁consapevole	-11.459
▁officine	-11.459
▁sculture	-11.459
▁tabacco	-11.459
▁allevamento	-11.459
▁consegne	-11.459
▁autorizzato	-11.4593
▁pollice	-11.4594
▁trasmette	-11.4602
▁radica	-11.4607
▁competitivi	-11.4612
▁mozzarella	-11.4612
▁umberto	-11.4612
▁procedi	-11.4612
▁converter	-11.4612
▁dritto	-11.4614
▁maiale	-11.4618
▁tnt	-11.4621
▁court	-11.4622
iniezione	-11.4622
▁lavoriamo	-11.4629
▁risponderemo	-11.4632
▁farmaceutico	-11.4634
▁preziosi	-11.4634
▁dovrei	-11.4634
▁cereali	-11.4634
▁riflettente	-11.4641
▁olivi	-11.4642
▁proteggi	-11.4652
▁altoparlanti	-11.4656
asciugamano	-11.4656
▁michelangelo	-11.4657
aquila	-11.4661
armatura	-11.4662
2.6	-11.4665
▁filtrante	-11.4677
▁altitudine	-11.4678
▁suzuki	-11.4678
▁monofase	-11.4678
▁miliardi	-11.4678
▁province	-11.4678
cumshot	-11.4679
789	-11.4679
▁lifestyle	-11.4679
▁deposita	-11.4681
▁riciclaggio	-11.4684
▁mediche	-11.4692
▁magazzini	-11.47
▁bardolino	-11.47
▁tenerife	-11.47
▁bancomat	-11.4701
3,5	-11.4709
▁avendo	-11.4715
▁grosso	-11.4721
▁costituzione	-11.4723
▁traghetti	-11.4723
next	-11.4727
scrizio	-11.4731
jack	-11.474
▁federale	-11.4742
▁rinfresca	-11.4745
▁assieme	-11.4745
▁rally	-11.4747
▁teatri	-11.475
▁stringa	-11.4751
▁difetto	-11.4751
▁descrive	-11.4761
▁installazioni	-11.4766
doppia	-11.4766
▁atlantic	-11.4767
▁sacro	-11.4771
▁raggiungibile	-11.4772
▁florida	-11.4779
scritte	-11.4779
▁sicuramente	-11.4779
▁grotte	-11.4779
▁twink	-11.4783
▁malaga	-11.4784
▁noleggia	-11.4785
▁minibar	-11.4786
gestione	-11.4788
▁politico	-11.4789
▁rumeno	-11.479
▁provoca	-11.4791
▁civili	-11.4793
▁information	-11.4798
▁salumi	-11.4804
▁recentemente	-11.4808
▁curriculum	-11.4812
▁foundation	-11.4812
▁privilegi	-11.4812
▁magnesio	-11.4812
▁allestero	-11.4819
▁simulatore	-11.4819
▁piatta	-11.482
indicazione	-11.4823
▁usiamo	-11.4831
▁equilibra	-11.4835
▁gerusalemme	-11.4835
▁zuccheri	-11.4835
▁agrigento	-11.4835
▁silicon	-11.484
▁87.90(	-11.4857
▁tecnologica	-11.4857
▁decorativa	-11.4857
fiamma	-11.486
▁misteri	-11.4861
▁trucchi	-11.4867
▁continentale	-11.4875
materiale	-11.4879
▁passeggiate	-11.488
▁riconoscimenti	-11.488
chilowatt	-11.488
▁baglioni	-11.488
1.3	-11.4884
▁riparazioni	-11.4891
▁immobilier	-11.49
▁196/2003	-11.4903
▁vesuvio	-11.4903
▁rigidi	-11.4903
▁cacao	-11.4904
▁kart	-11.4912
▁vegetali	-11.4925
▁gabinetto	-11.4925
▁campania	-11.4926
▁distingue	-11.4926
orchestra	-11.4927
▁miscelazione	-11.4928
▁estratti	-11.4928
bury	-11.4929
▁muove	-11.4931
▁spider	-11.494
▁episodi	-11.4943
elettrodomestici	-11.4948
▁centrifuga	-11.4948
▁impossibile	-11.4948
▁municipal	-11.4948
▁total	-11.4948
▁depositi	-11.4949
▁bormio	-11.4949
▁quadrata	-11.495
▁granada	-11.4954
▁rating	-11.4956
▁informativo	-11.4959
▁realizzazioni	-11.4963
expo	-11.4967
▁artigianali	-11.4968
▁ricevimento	-11.497
▁superare	-11.4971
▁production	-11.4974
▁capitano	-11.4974
▁twist	-11.4974
▁ganci	-11.4975
▁item	-11.4975
▁patrizia	-11.4976
▁volante	-11.498
imerovigli	-11.4994
▁mitsubishi	-11.4994
▁fabrizio	-11.4994
▁avvolge	-11.4994
▁girasole	-11.4996
▁liscio	-11.5004
sincro	-11.5009
cardi	-11.501
▁rifugi	-11.5012
▁brindisi	-11.5017
▁permettono	-11.5017
▁morsetto	-11.5017
▁botanico	-11.5017
▁innamora	-11.5017
▁libere	-11.5018
▁automobilistico	-11.5019
cappucci	-11.5019
▁angoli	-11.5019
▁stesse	-11.5025
5.6	-11.5035
indipendenza	-11.504
▁farmaceutica	-11.504
▁detergente	-11.504
▁economiche	-11.504
▁falesia	-11.504
▁toronto	-11.504
▁varese	-11.5042
▁asiatici	-11.5044
▁rurale	-11.5051
▁riguardanti	-11.5057
▁avvocato	-11.5063
▁pallacanestro	-11.5063
▁decorativi	-11.5063
▁copy	-11.5063
▁sessioni	-11.5064
▁federa	-11.5065
▁accettiamo	-11.5067
▁concentrazione	-11.5071
vecchia	-11.5073
borg	-11.5077
▁deserto	-11.5079
▁separato	-11.508
▁giulietta	-11.5086
▁gotporn	-11.5086
▁previsti	-11.5086
breakfast	-11.5087
equipaggiamento	-11.5088
▁potenti	-11.5089
▁bancari	-11.5095
▁lavorative	-11.5096
▁10.000	-11.5099
▁questioni	-11.5109
▁hospital	-11.5109
▁trasferisci	-11.5113
▁videocamera	-11.512
▁registrazioni	-11.512
▁canarie	-11.512
▁rustico	-11.5121
▁stivale	-11.5129
▁auricolari	-11.5132
▁fantasy	-11.5132
▁restaura	-11.5132
▁bookingsuite	-11.5133
▁osaka	-11.5133
ized	-11.5133
▁help	-11.5136
▁scambi	-11.5137
▁panama	-11.5141
▁corredo	-11.5151
▁talk	-11.5152
eliminazione	-11.5153
▁elisabetta	-11.5156
▁lussemburgo	-11.5156
▁colosseo	-11.5156
▁matematica	-11.5156
▁spazzole	-11.5156
▁schiavo	-11.5156
▁multipli	-11.5156
▁trailer	-11.5156
▁revoca	-11.5157
▁festività	-11.5159
▁minimizza	-11.516
▁pluri	-11.516
▁istria	-11.5167
▁multiple	-11.5171
▁equipment	-11.5179
▁cavaliere	-11.5179
▁affaccia	-11.5179
▁tabelle	-11.5181
gruppo	-11.5181
▁pulizie	-11.5202
▁automotive	-11.5202
▁decisione	-11.5202
wick	-11.5206
▁terrà	-11.5213
▁ortisei	-11.5226
▁tranquillità	-11.5226
autobus	-11.5228
▁galvani	-11.5229
2.4	-11.5236
9.0	-11.5236
suite	-11.5239
tourism	-11.524
▁access	-11.524
▁istantaneo	-11.5249
▁slovenia	-11.5249
▁sublimazione	-11.5249
▁regolarmente	-11.5249
▁didattica	-11.525
▁ecologica	-11.525
richiesto	-11.5252
giappone	-11.5252
▁kiev	-11.5254
▁felicità	-11.5255
plastica	-11.526
3.8	-11.5265
▁curve	-11.5267
▁cardinal	-11.5268
green	-11.5272
▁stoccolma	-11.5273
▁conseguenza	-11.5273
▁architetti	-11.5273
▁spettro	-11.5273
▁explorer	-11.5273
▁nissan	-11.5273
▁snowboard	-11.5273
▁conoscenze	-11.5275
2.9	-11.5275
▁divertimenti	-11.5278
▁webmaster	-11.5284
▁degustazioni	-11.5296
▁rivoluziona	-11.5296
▁conseguenze	-11.5296
▁sebastian	-11.5296
▁assoluto	-11.5296
▁pipì	-11.5296
▁cannabis	-11.5297
▁attive	-11.5303
▁prendiamo	-11.5303
grass	-11.5306
1/2	-11.5308
▁eliminabile	-11.531
▁monster	-11.5312
▁meravigliosa	-11.532
▁vulcano	-11.532
▁joseph	-11.532
▁dovresti	-11.532
▁cinghie	-11.532
farm	-11.5321
imperatore	-11.5323
▁plastiche	-11.5326
pigment	-11.5328
▁punteggi	-11.5332
▁dotazione	-11.5334
▁saluti	-11.5334
.01.2	-11.5341
7.0	-11.5341
▁dubrovnik	-11.5344
▁scorrimento	-11.5344
▁dunque	-11.5344
▁imballaggi	-11.5344
▁volanti	-11.5353
▁aeree	-11.5354
▁24/7	-11.536
1.4	-11.5367
▁commestibile	-11.5367
▁vescovo	-11.5367
▁conference	-11.5367
▁gemelli	-11.5367
▁fiorentino	-11.5369
▁mostri	-11.5379
▁colorate	-11.538
▁sharm	-11.5381
▁creativi	-11.5382
▁strategica	-11.5391
▁polacca	-11.5392
▁satinato	-11.5392
▁sintetica	-11.5392
▁succhiare	-11.5392
▁conclusione	-11.5393
amicizia	-11.5396
document	-11.5398
▁varianti	-11.5399
▁onore	-11.5399
▁lucidatura	-11.5401
▁gabriella	-11.5402
▁0,8	-11.5408
▁villasimius	-11.5415
▁sindrome	-11.5415
▁trofeo	-11.5415
▁spread	-11.5415
▁esprime	-11.5417
0.6	-11.5422
▁pulci	-11.5422
multi	-11.5425
▁esistente	-11.5438
▁antiscivolo	-11.5439
4.0	-11.5447
▁estivi	-11.5456
▁disposizioni	-11.5463
▁procedere	-11.5463
▁televisiva	-11.5463
▁situazioni	-11.5463
▁versatile	-11.5463
▁elevate	-11.5464
screen	-11.5468
▁variabili	-11.5478
▁previous	-11.5487
▁running	-11.5487
▁evidenzia	-11.5487
▁dessert	-11.5487
▁cosmetica	-11.5487
▁onlus	-11.5488
▁artist	-11.5492
urban	-11.5494
▁candy	-11.5495
▁massage	-11.5497
▁aromi	-11.5502
scopri	-11.5508
▁bisogni	-11.5511
▁fluido	-11.5511
▁catering	-11.5511
▁osteria	-11.5512
▁chiodo	-11.5514
▁avvolgi	-11.5516
download	-11.5516
▁metropolitan	-11.552
4.7	-11.5525
▁avviamento	-11.5527
▁adriatico	-11.5535
▁scontato	-11.5535
▁falcon	-11.554
▁dyna	-11.5541
▁sql	-11.5554
▁limousine	-11.5559
▁avanzati	-11.5559
▁supplementari	-11.5559
▁jessica	-11.556
▁rinnovo	-11.556
▁nuvid	-11.556
▁church	-11.556
▁inizialmente	-11.5566
essicca	-11.5574
▁orientamento	-11.5576
▁granny	-11.5582
▁ginnastica	-11.5584
▁cuffia	-11.5584
▁autonomia	-11.5584
▁status	-11.5593
▁offline	-11.5594
▁torsione	-11.5597
lavora	-11.5598
personalizzabile	-11.5606
▁coinvolge	-11.5608
▁continue	-11.5608
▁sloveno	-11.5608
▁morgan	-11.5622
▁ridotti	-11.5623
▁lenzuola	-11.5632
▁tnaflix	-11.5632
▁morbide	-11.5633
pompino	-11.5634
▁hydro	-11.5635
▁alexis	-11.5641
allarme	-11.5643
▁transazione	-11.5645
▁movimentazione	-11.5657
▁nasconde	-11.5657
▁johann	-11.5658
▁giglio	-11.5664
▁medium	-11.5664
▁definitiva	-11.5667
▁martello	-11.5668
▁soddisfatti	-11.5669
▁doppi	-11.5671
stadt	-11.5675
▁prince	-11.5679
elecomunicazioni	-11.5681
▁exhibition	-11.5681
▁yogurt	-11.5681
▁ormai	-11.5682
▁essiccato	-11.5692
▁kiss	-11.5697
▁tailandese	-11.5706
▁sabbiadoro	-11.5706
▁selezioni	-11.5707
▁futuri	-11.5708
▁triangolo	-11.5711
▁dovrà	-11.5713
▁tappi	-11.5716
▁cupola	-11.5717
▁pratici	-11.5722
arrow	-11.573
▁imbarcazioni	-11.5731
▁language	-11.5731
▁aspirapolvere	-11.5731
▁invitiamo	-11.5731
▁frantoio	-11.5731
▁ufficialmente	-11.5732
▁motociclo	-11.5733
▁navy	-11.5738
desk	-11.574
2007	-11.5743
water	-11.5749
▁melbourne	-11.5755
▁interviste	-11.5755
▁contenere	-11.5756
▁convegni	-11.5756
▁riesce	-11.5756
▁affronta	-11.5756
▁gau	-11.5762
affare	-11.5765
▁apostoli	-11.5766
▁scende	-11.5766
▁export	-11.5769
▁colorare	-11.5773
orgasm	-11.5774
funziona	-11.5775
▁necessita	-11.578
▁reputazione	-11.578
▁atelier	-11.578
▁leather	-11.5781
▁vigili	-11.5787
▁campus	-11.5793
▁stefania	-11.5805
▁editoriale	-11.5805
▁2,0	-11.5806
▁tossico	-11.5807
▁liceo	-11.5808
antenna	-11.581
sincronizzazione	-11.5811
▁comprensione	-11.583
▁molteplici	-11.583
▁paradise	-11.583
▁autista	-11.5831
▁fagioli	-11.5831
▁numera	-11.5834
▁maremma	-11.5835
▁limitazioni	-11.5843
▁campana	-11.5847
hunt	-11.5848
▁cannon	-11.5854
▁livorno	-11.5855
▁tostapane	-11.5855
▁prototipo	-11.5855
▁reclamo	-11.5855
▁sottili	-11.5855
▁blond	-11.586
▁albania	-11.5862
▁condizionatore	-11.5863
▁mantiene	-11.588
▁immediato	-11.588
▁iscriversi	-11.588
▁volontà	-11.588
▁bahia	-11.588
▁federica	-11.5883
▁stagionale	-11.5905
▁sequenza	-11.5905
▁scoperto	-11.5905
▁cervello	-11.5907
▁residenti	-11.5907
venezia	-11.5914
▁cooper	-11.5918
▁rivelatore	-11.5919
▁nemici	-11.5919
▁costantemente	-11.592
▁modula	-11.5924
▁mantenimento	-11.593
▁consentono	-11.593
▁divulga	-11.593
▁renault	-11.593
▁conversazione	-11.593
mouth	-11.5933
▁interattiva	-11.5934
▁science	-11.5935
▁locazione	-11.5936
▁essendo	-11.5937
5.2	-11.5937
▁corrispondenza	-11.5938
▁chair	-11.5943
quadro	-11.5948
città	-11.5955
▁ultrasonico	-11.5955
▁combattimento	-11.5955
▁fedeltà	-11.5955
▁author	-11.5955
▁napoletan	-11.5955
▁provider	-11.5955
▁definito	-11.5956
▁bcaa	-11.5959
assicurazione	-11.5964
▁legend	-11.5965
▁tenore	-11.5968
▁esportatore	-11.597
opzionale	-11.597
▁assorbi	-11.5977
▁indonesia	-11.598
▁idratante	-11.598
▁invisibile	-11.598
▁november	-11.5981
▁trascorrere	-11.5982
▁autonoma	-11.5982
▁passaporto	-11.5983
▁talento	-11.5988
▁fegato	-11.5988
8.0	-11.5995
▁subacquea	-11.6006
▁vaginale	-11.6006
▁produttiva	-11.6006
▁zombie	-11.6006
▁complementi	-11.6006
▁isabella	-11.6006
▁confronti	-11.6007
▁venerdi	-11.6008
▁polimeri	-11.6011
▁veronica	-11.6013
profession	-11.6026
▁houston	-11.6031
▁solenoide	-11.6031
▁adriatica	-11.6031
▁collettore	-11.6031
▁lavabile	-11.6031
errore	-11.6033
▁cruise	-11.6037
system	-11.6044
proof	-11.6044
▁dobbiamo	-11.6056
▁potassio	-11.6056
▁sensuale	-11.6057
fosfato	-11.6057
▁occorre	-11.6057
▁carrara	-11.6057
▁caraibi	-11.6058
▁alexandr	-11.6059
▁interattivo	-11.6059
▁buongiorno	-11.606
▁badge	-11.6062
▁commedia	-11.6066
▁finisce	-11.6071
continente	-11.6072
2,50	-11.6072
▁scaffali	-11.6082
▁fumetto	-11.6082
▁98%	-11.6083
▁milione	-11.6084
▁dotati	-11.6084
▁cuneo	-11.6088
modul	-11.6088
▁major	-11.6089
▁jacket	-11.609
▁truck	-11.6103
▁sadomaso	-11.6108
▁syracuse	-11.6108
▁monumento	-11.6108
▁prigioni	-11.6108
▁riposa	-11.6111
valenti	-11.6117
australia	-11.6118
▁folli	-11.612
▁colorazione	-11.612
▁money	-11.6125
▁fertilizzante	-11.6133
▁chiunque	-11.6133
▁garanzie	-11.6133
eventuale	-11.6133
▁olimpia	-11.6133
▁mandorle	-11.6133
▁innovativa	-11.6133
▁potresti	-11.6133
▁canyon	-11.6133
▁ulivi	-11.6134
▁arresta	-11.6135
▁cancelli	-11.6136
sonic	-11.6138
▁offset	-11.6138
inventario	-11.6142
▁flussi	-11.6144
▁zippo	-11.615
9,5	-11.6155
▁blockchain	-11.6159
▁september	-11.6159
▁gianluca	-11.6159
▁gimignano	-11.6159
▁buenos	-11.6159
▁balsamo	-11.6159
▁casalinga	-11.6159
▁ucciso	-11.6159
ascolto	-11.6163
▁orgy	-11.6169
slav	-11.6171
▁tweet	-11.6185
▁consulenti	-11.6185
▁produttivo	-11.6185
▁contengono	-11.6185
▁british	-11.6185
▁gallipoli	-11.6187
andrea	-11.6194
▁prospettiva	-11.6211
▁preventivi	-11.6211
erhof	-11.6212
▁agricolo	-11.6213
▁carolina	-11.6214
▁particelle	-11.6215
russia	-11.6216
▁firefox	-11.6236
▁intellettuale	-11.6236
▁disturbo	-11.6236
▁alternativo	-11.6236
▁dominioname	-11.6237
▁soldati	-11.6237
▁convenzione	-11.6237
▁diminui	-11.6238
▁virginia	-11.6241
▁gabriel	-11.6242
▁fotografici	-11.6242
▁salmone	-11.6243
product	-11.626
▁silva	-11.6261
▁antivirus	-11.6262
▁sirmione	-11.6262
▁additivi	-11.6263
▁forbici	-11.6263
▁iceporn	-11.6263
▁adatte	-11.627
▁centinaia	-11.6288
▁viareggio	-11.6289
bourg	-11.6293
▁accendi	-11.6297
▁condensatore	-11.6301
▁fabric	-11.6307
▁riflette	-11.6307
1.7	-11.6308
▁tripadvisor	-11.6315
obbligo	-11.6315
▁zuppa	-11.6318
umanità	-11.6339
▁balsamico	-11.6341
▁tribunale	-11.6341
ambasciata	-11.6341
▁incrementa	-11.6341
▁immerso	-11.6341
▁ancor	-11.6346
pilot	-11.635
▁collegio	-11.635
▁popolarità	-11.6356
value	-11.6362
spiele	-11.6365
▁immagazzin	-11.6366
▁condiviso	-11.6367
▁polietilene	-11.6367
▁frattempo	-11.6367
▁napoleon	-11.6368
▁fluidi	-11.6368
▁statue	-11.6368
▁cabla	-11.6371
▁direzionale	-11.6373
insieme	-11.6381
▁portafogli	-11.6391
▁posteriori	-11.6393
▁versilia	-11.6393
▁concorsi	-11.6396
▁mentale	-11.6396
▁neonati	-11.6396
▁erotica	-11.6397
▁composti	-11.6398
▁feltro	-11.6399
▁sponsorizza	-11.64
argilla	-11.6411
▁hollywood	-11.642
▁tedeschi	-11.642
▁correlate	-11.642
▁lotteria	-11.642
▁maratona	-11.642
▁arbitra	-11.642
grafie	-11.642
cosmetic	-11.6421
alloggiamento	-11.6433
▁0,6	-11.6442
▁version	-11.6443
▁approfondimenti	-11.6446
▁reggiseno	-11.6446
▁slovacco	-11.6446
▁montalcino	-11.6446
▁october	-11.6446
▁inferiori	-11.6446
▁rimuove	-11.6449
cicli	-11.6449
▁muoversi	-11.645
▁porsche	-11.645
▁forcella	-11.6455
▁margine	-11.6458
▁pedale	-11.6459
▁bastone	-11.646
lavoro	-11.6465
arredo	-11.6472
▁riassunto	-11.6473
▁sostiene	-11.6473
▁technologies	-11.6473
▁fermentazione	-11.6473
▁vettura	-11.6473
▁perfeziona	-11.6474
▁passion	-11.6478
9.1	-11.6479
▁intermedia	-11.6483
▁riesco	-11.649
▁lampeggia	-11.6499
▁valigia	-11.6499
▁binarie	-11.65
emittente	-11.65
▁ginocchio	-11.65
educazione	-11.65
▁pearl	-11.6503
▁penisola	-11.6506
▁floor	-11.6515
▁flip	-11.6523
▁maddalena	-11.6526
▁addebita	-11.6526
▁settentrionale	-11.6526
▁zirconi	-11.6526
▁inseriti	-11.6526
▁prestito	-11.6527
▁milanese	-11.6531
▁query	-11.6538
white	-11.6542
▁segreta	-11.6545
rush	-11.6546
▁persistente	-11.6553
▁heavy	-11.6553
▁toscano	-11.6553
▁autorizzati	-11.6554
▁after	-11.6557
▁oscar	-11.6565
agriturismo	-11.6569
▁poltrone	-11.658
▁stiratura	-11.658
▁ripresa	-11.658
▁savona	-11.658
▁sandalo	-11.658
▁chiesto	-11.6581
▁adesione	-11.6581
▁slitta	-11.6581
▁giornalieri	-11.6585
▁dentale	-11.6587
/08/2018	-11.6588
adattatore	-11.6595
▁montepulciano	-11.6606
▁sottotitoli	-11.6606
▁decisioni	-11.6606
▁finlandia	-11.6608
▁philippe	-11.6614
▁program	-11.6623
prenota	-11.663
▁magnifico	-11.6633
▁risorsa	-11.6634
▁sagoma	-11.6636
▁anziano	-11.6636
▁condotta	-11.6637
▁cctv	-11.6638
▁rilassarsi	-11.6641
▁lavagna	-11.6646
▁ariel	-11.6651
creampie	-11.6652
▁malcesine	-11.666
▁nuvola	-11.6664
punto	-11.6665
▁borghi	-11.6671
▁marcello	-11.6672
▁tener	-11.6675
numero	-11.6683
▁babysitter	-11.6687
▁lucentezza	-11.6688
▁solvente	-11.6688
▁vietato	-11.6688
▁holding	-11.6689
▁ancona	-11.6689
▁think	-11.6689
▁visiva	-11.669
▁culinari	-11.6691
▁scanala	-11.6691
acquirente	-11.6692
▁miniatura	-11.6703
ascensore	-11.6704
hardware	-11.6705
▁mozzafiato	-11.6715
▁voucher	-11.6715
▁history	-11.6715
▁yanmar	-11.6715
▁aggrega	-11.6715
▁affiliati	-11.6715
▁texture	-11.6715
▁locande	-11.6715
▁schiavi	-11.6715
jpeg	-11.6722
▁rinnovabili	-11.6727
editor	-11.6728
settimana	-11.6732
▁capoluogo	-11.6742
▁vergini	-11.6745
idrogeno	-11.6747
▁french	-11.6755
5.8	-11.6756
▁autentico	-11.6769
▁costruttore	-11.6769
▁spettacolare	-11.6769
▁diabete	-11.6769
▁cestino	-11.677
▁inondazione	-11.677
▁poesie	-11.6771
▁conosciuta	-11.6771
▁materassi	-11.6775
****	-11.678
▁fotografiche	-11.678
oasi	-11.6792
▁bulgari	-11.6792
▁antalya	-11.6797
▁raccolte	-11.6797
▁sforzo	-11.6797
▁acrilica	-11.6797
assunzione	-11.6797
duplica	-11.68
▁wrap	-11.6803
▁climb	-11.6804
nuova	-11.6819
▁agriturismi	-11.6824
▁sopporta	-11.6824
▁tornitura	-11.6824
splendid	-11.6824
▁dilettanti	-11.6825
▁hunter	-11.6825
▁crypto	-11.6835
nessun	-11.6838
▁campane	-11.685
▁preferisci	-11.6852
▁spumante	-11.6852
▁cambogia	-11.6852
▁manchester	-11.6852
▁piccante	-11.6852
erogazione	-11.6853
▁expert	-11.6854
▁raccogliamo	-11.6859
attacco	-11.6865
▁association	-11.6866
refriger	-11.6879
▁femminili	-11.6879
▁cracovia	-11.6879
▁garantiti	-11.6879
▁cipolla	-11.6879
▁celeste	-11.688
▁odessa	-11.688
▁viptube	-11.6881
antonio	-11.6882
▁secret	-11.6903
▁avventure	-11.6907
▁nuota	-11.691
▁electro	-11.6926
▁obbliga	-11.6929
▁argenti	-11.6931
▁tempera	-11.6932
▁timberland	-11.6935
▁excelsior	-11.6935
▁multilingue	-11.6935
▁intermedio	-11.6935
▁termostato	-11.6935
▁agevola	-11.6935
▁pistole	-11.6936
▁ottenne	-11.6936
▁contorno	-11.6938
▁etnico	-11.6938
▁startup	-11.6945
avvolgimento	-11.6948
▁princess	-11.695
▁empflix	-11.6963
:+86-	-11.6963
▁rivestita	-11.6963
▁galvanizzata	-11.6963
▁debole	-11.6963
▁florencia	-11.6965
▁espande	-11.6968
▁dmx	-11.6969
▁coraggio	-11.6975
indumento	-11.6983
ancora	-11.6989
▁categorizzato	-11.699
▁contribuire	-11.6991
▁placcatura	-11.6995
seleziona	-11.7013
▁esaurito	-11.7018
▁trenbolone	-11.7018
▁conclude	-11.7019
▁introdotto	-11.7019
sheikh	-11.7019
▁organo	-11.7019
▁season	-11.702
▁violet	-11.7021
▁wonder	-11.7022
▁attesta	-11.7025
▁compact	-11.703
introduzione	-11.7039
disponibile	-11.7039
opportunità	-11.7041
▁0,4	-11.7044
▁conclusi	-11.7045
vedere	-11.7046
▁fotovoltaico	-11.7047
▁ricevuta	-11.7047
▁tranquillo	-11.7047
▁denominazione	-11.7047
▁crociere	-11.7047
▁ragionevole	-11.7047
▁luminose	-11.7047
▁indagini	-11.7047
▁electronics	-11.7047
▁uscito	-11.7047
▁pigmento	-11.7048
idratazione	-11.705
▁apollo	-11.705
▁inserto	-11.7051
▁sorelle	-11.7052
▁difende	-11.7052
▁saldatrice	-11.7054
▁mattoni	-11.7056
ostello	-11.7073
▁recovery	-11.7075
▁costituito	-11.7075
▁nascosti	-11.7075
▁[1]	-11.7075
▁xvideos	-11.7075
▁theatre	-11.7075
▁andrew	-11.7077
▁potuto	-11.7078
inchiostro	-11.7096
pvc	-11.7098
▁parrocchia	-11.7103
▁purtroppo	-11.7103
▁trasparenti	-11.7103
▁umiliazione	-11.7103
▁debutto	-11.7103
▁trascina	-11.7104
▁drill	-11.7105
▁racconto	-11.7105
▁serrature	-11.711
▁antivari	-11.711
▁estive	-11.7122
▁kitchen	-11.713
▁arredamenti	-11.7131
▁televisore	-11.7131
▁scolastico	-11.7131
▁entrò	-11.7132
▁famose	-11.7133
▁vegeta	-11.7133
▁distribuito	-11.7134
▁hanoi	-11.714
apparecchio	-11.714
▁condivide	-11.7143
▁restituzione	-11.716
▁proponiamo	-11.716
▁sospeso	-11.716
▁retrò	-11.716
▁destinati	-11.7167
orecchio	-11.7177
emozione	-11.7179
investimento	-11.7182
▁cortometraggi	-11.7188
▁nascoste	-11.7188
▁hobby	-11.7188
▁marsiglia	-11.7188
▁sleep	-11.7189
solution	-11.719
▁trilocale	-11.719
9.9	-11.7192
▁notebook	-11.7194
▁ergo	-11.7194
produzione	-11.7203
5.4	-11.7211
▁esemplari	-11.7217
▁consulting	-11.7217
▁medaglie	-11.7217
▁schiaccia	-11.7217
▁telefonami	-11.7217
esplosione	-11.7217
upgrade	-11.7218
▁adobe	-11.7221
▁colleghi	-11.7223
▁oscilla	-11.7231
▁visibili	-11.7243
▁guglielmo	-11.7245
▁meraviglie	-11.7245
▁memorie	-11.7246
cycling	-11.7246
▁svolto	-11.7246
▁autonomo	-11.7247
▁convention	-11.7247
▁mastercard	-11.7247
▁webinar	-11.725
▁discorso	-11.725
▁saluta	-11.7261
123456	-11.7261
▁corridoio	-11.7274
▁ricostruzione	-11.7274
▁destino	-11.7276
▁scanalatura	-11.7278
▁boldenone	-11.7303
▁espositore	-11.7303
▁tunisia	-11.7303
▁attenua	-11.7303
▁macchie	-11.7309
▁gestore	-11.7309
martin	-11.7313
lunghezza	-11.7327
millimetri	-11.7327
1.9	-11.733
▁diamant	-11.733
▁anteriori	-11.7332
▁taylor	-11.7332
▁fiocco	-11.7332
▁mozart	-11.7332
▁beccati	-11.7332
▁direttiva	-11.7334
▁seriale	-11.7334
▁impila	-11.7338
precedente	-11.7356
▁executive	-11.7361
▁liverpool	-11.7361
▁manubrio	-11.7361
▁sigaretta	-11.7361
▁positiva	-11.7361
▁concorrenza	-11.7361
▁solubile	-11.7361
▁inserita	-11.7361
▁grafite	-11.7361
▁guscio	-11.7364
▁domain	-11.7366
elettrico	-11.7386
universit	-11.7387
intervista	-11.7387
display	-11.7388
▁spirituale	-11.739
▁ubriache	-11.739
▁economy	-11.739
▁reclami	-11.739
▁preferita	-11.739
▁contenente	-11.739
▁championship	-11.739
▁platino	-11.7391
aggiunta	-11.7395
▁activ	-11.7398
tress	-11.7418
▁interruttori	-11.7419
▁veterinari	-11.7419
▁scelga	-11.7419
▁incrocia	-11.7419
▁nbsp	-11.7419
▁binario	-11.742
illion	-11.7444
▁ballerina	-11.7448
▁prodotte	-11.7449
infinito	-11.7449
▁antenne	-11.745
▁potabile	-11.745
▁thermo	-11.7451
personalizzabili	-11.7457
informazioni	-11.7474
▁lussuoso	-11.7478
▁wikipedia	-11.7478
▁tonalità	-11.7478
▁israel	-11.7478
▁minaccia	-11.7478
▁chiosco	-11.7478
▁scrisse	-11.7479
▁basilico	-11.748
▁ritmo	-11.748
▁geografica	-11.748
▁gomme	-11.7482
▁julie	-11.7482
ingranaggio	-11.7497
brasil	-11.7505
lovense	-11.7506
................	-11.7507
▁difficili	-11.7507
▁scorrevoli	-11.7507
▁matrigna	-11.7507
▁affinamento	-11.7507
▁cantieri	-11.7507
special	-11.7512
▁promuove	-11.7514
▁bilanci	-11.7528
▁compressori	-11.7537
▁glamour	-11.7537
▁uguale	-11.7537
aeronautica	-11.7537
▁istituti	-11.7537
▁delegato	-11.7538
▁sostituito	-11.754
▁truppe	-11.7542
carbon	-11.7553
▁artigiani	-11.7566
fabbriche	-11.7566
▁infezioni	-11.7568
▁selvaggia	-11.7572
▁appositamente	-11.7596
▁incoraggia	-11.7596
▁abbonati	-11.7596
▁amministrativa	-11.7596
▁calimera	-11.7596
▁prezioso	-11.7596
▁pentola	-11.7596
▁opaca	-11.7598
▁nellambito	-11.76
▁cascata	-11.7601
▁number	-11.7602
ificata	-11.7612
▁vatican	-11.762
notizie	-11.7624
estensione	-11.7624
0,0	-11.7625
▁lamborghini	-11.7626
▁conflitto	-11.7626
▁olanda	-11.7629
▁ceramic	-11.7636
▁rachel	-11.7644
▁cellula	-11.7655
▁rinuncia	-11.7655
▁previsione	-11.7656
▁giganti	-11.7656
▁agenda	-11.7658
▁analogico	-11.7658
▁bussola	-11.7659
▁leopard	-11.7661
indipendente	-11.767
▁enanthate	-11.7685
▁madagascar	-11.7685
▁smeralda	-11.7685
▁prelievo	-11.7685
▁residui	-11.7685
brand	-11.7703
▁notturno	-11.7715
▁protagonisti	-11.7715
▁refrigerante	-11.7715
▁quercia	-11.7715
▁girocollo	-11.7715
▁supervisione	-11.7715
▁manicure	-11.7716
▁convalida	-11.7716
▁acustica	-11.7716
norma	-11.7717
▁elevati	-11.772
tropic	-11.7722
▁bisessuali	-11.7746
▁eleonora	-11.7746
▁release	-11.7746
▁hydra	-11.7749
locale	-11.7775
inghilterra	-11.7775
▁biglietteria	-11.7776
▁pantaloncini	-11.7776
▁sovraccarico	-11.7776
▁vuota	-11.7776
▁panasonic	-11.7776
▁cummins	-11.7776
▁sciarpa	-11.7776
▁acustici	-11.7776
▁esitare	-11.7777
▁forniscono	-11.7778
▁-10%	-11.7778
▁agricoli	-11.7778
dinamica	-11.7779
▁ebrei	-11.7779
webcam	-11.7782
electronic	-11.7785
▁anodizzato	-11.7806
▁salisburgo	-11.7806
▁tessitura	-11.7806
▁prestige	-11.7806
▁50/60	-11.7806
▁tornò	-11.781
▁temporanea	-11.7814
▁0,75	-11.7823
oltremare	-11.7833
apprendimento	-11.7836
▁passeggero	-11.7836
▁society	-11.7837
▁amministrativo	-11.7837
▁residuo	-11.7837
▁cliniche	-11.7837
▁erotici	-11.7839
▁proteina	-11.7847
▁distrutti	-11.7858
▁region	-11.7865
▁guangzhou	-11.7867
▁shopify	-11.7867
▁cartucce	-11.7867
▁dislivello	-11.7867
▁chirurgico	-11.7867
▁giovanna	-11.7867
▁parquet	-11.7867
▁rifiuto	-11.7867
▁espressa	-11.7867
▁diagnostico	-11.7867
▁cinture	-11.7867
▁akvis	-11.7868
▁creola	-11.7868
▁fatture	-11.7868
▁registri	-11.7879
glass	-11.7886
valuta	-11.7889
▁assoluta	-11.7893
▁bolognese	-11.7898
▁riepilogo	-11.7898
▁default	-11.7898
▁negativo	-11.7898
▁locarno	-11.7898
▁puerto	-11.7898
▁civico	-11.7899
▁mistero	-11.7899
intervento	-11.7901
▁adeguamento	-11.7928
▁domicilio	-11.7928
▁sofà	-11.7928
▁tommaso	-11.7928
▁altissima	-11.7929
▁powerpoint	-11.793
osservatorio	-11.7931
▁prague	-11.7932
[...]
